#version: 0.2
à ¦
à §
Ġ à¦
à¦ ¾
à§ ĩ
à¦ °
à§ į
à¦ ¿
à¦ ¨
à¦ ķ
à¦ ¤
à¦ ²
à¦ ¬
à§ Ł
à¦ ®
à§ ģ
Ġà¦ ķ
à¦ ¸
Ġà¦ ¬
Ġà¦ ¸
à¦ ¯
à¦ ¦
à ¥
à¥ ¤
Ġà¦ ª
à¦ Ł
à§ ĭ
à¦ ª
à§ Ģ
Ġà¦ Ĩ
Ġà¦ ®
à¦ ľ
à¦ ¶
Ġà¦ ¹
Ġà¦ ı
à¦ Ľ
Ġà¦ ¨
à¦ Ĺ
à¦ ĩ
Ġà¦ ¦
à¦ ·
Ġà¦ķ à¦°
à¦ ¹
Ġà¦ ¤
à¦ §
Ġà¦ ľ
à¦ ļ
Ġà¦ ħ
à¦ Ĥ
à¦ ¥
à¦ ĵ
Ġà¦ °
Ġà¦ ¶
à¦ Ń
à¦ £
Ġ à§
Ġà¦ Ĺ
à§ĩ à¥¤
à¦ ĸ
Ġà¦ ĵ
Ġà¦ ļ
à¦ ¡
Ġà¦ ¯
à¦ ¼
à§ ľ
Ġà¦ ī
â Ģ
Ġà¦ª à¦°
Ġà¦¹ à§Ł
Ġà¦ Ń
Ġà¦ ¥
Ġà¦¬ à¦²
à¦ ģ
Ġà¦ı à¦ķ
à¦ «
Ġà¦¸ à¦®
Ġà¦ ²
Ġà¦ Ľ
à¦ ł
à¦ Ļ
à¦° à¦¤
à¦ ı
à§ ¦
à¦ ī
à§ĩ à¦¾
Ġà¦ ĩ
Ġà¦ ĸ
Ġà¦ «
à¦ĵ à§Ł
à¦¾ à¦ģ
à§ ĥ
Ġà¦ Ł
à¦° à¦ķ
à§ Ĥ
Ġà¦ħ à¦¨
à¦¾ à¦Ĥ
§ à§
Ġà¦ľ à¦¨
à¦° à¦£
à¦¾ à¥¤
à¦ľ à¦¨
Ġà¦ ĺ
Ġà¦Ĩ à¦®
à¦¿ à¥¤
à¦® à¦¨
Ġ âĢ
à¦ ŀ
Ġ (
à¦¬ à¦°
Ġà¦Ĩ à¦°
Ġà¦ ¡
à¦ª à¦°
âĢ Ļ
Ġà¦ §
Ġà§ ¨
à¦¼ à§ĩ
Ġà¦ı à¦ĩ
à¦ Ĩ
ĠâĢ ĺ
Â ł
Ġà¦ī à¦ª
Ġà§ §à§
à¦¤ à¦°
Ġà¦Ĩ à¦²
à¦ķ à¦°
à§ĩ ,
à¦¬ à¦¸
Ġà¦¹ à¦¬
à¦ª à¦¤
Ġà¦ıà¦ķ à¦Ł
Ġà¦ı à¦¬
à¦¶ à¦¨
à¦° à¦®
à§ Ī
à¦¼ à¦¾
à¦¬ à¦¨
Ġà¦Ĩ à¦¸
à§Ł à¦¨
Ġà¦Ĩ à¦Ĺ
à§ Į
Ġà¦Ĩ à¦¬
Ġà¦ħ à¦Ń
Ġà¦® à¦¨
Ġà¦¸ à¦Ļ
Ġà¦ķ à¦®
à¦ĸ à¦¨
à¦° à¦¸
à¦ļ à¦¨
Ġà¦Ĺ à¦¤
à¦ĩ à¦¨
à§ İ
à¦Ł à¦¨
Ġà¦® à¦§
à¦¿ à¦Ĥ
Ġà¦ķà¦° à¦¤
à¦² à¦¨
à§ ¨
à¦¾ ,
à¦ ĺ
Ġà¦ī à¦¦
à¦° à¦¬
à¦® à¦²
Ġà¦¹ à¦²
à¦¹ à¦®
à¦ª à¦¨
à¦² à¦ķ
Ġà¦¸ à¦¬
Ġà¦¸à¦® à§Ł
à¦¦ à¦¨
Ġà¦¦ à¦²
à¦Ľ à¦°
Ġà¦ı à¦°
Ġà¦§ à¦°
à¦¥ à¦®
à¦² à¦¤
à¦² à§Ł
Ġà¦¸ à¦°à¦ķ
Ġà¦Ĩ à¦¨
à§ §à§
à¦¦ à¦°
à¦¸ à¦¬
Ġà¦ķ à¦¥
à¦· à¦£
Ġà¦¬ à¦Ľà¦°
à§ «
à¦Ł à¦ķ
Ġà¦ı à¦²
à¦ī à¦¨
Ġà¦¹ à¦¤
à¦¸ à¦²
à¦¦ à¦ķ
à¦° à¦§
à¦ª à¦ķ
Ġà¦ ¢
Ġà§ §
à¦° à¦¥à¦®
à¦· à§Ł
Ġà§¨ à§¦
Ġà§ ©
Ġà¦ļ à¦²
à¦° à¦¶
à¦¯ à¦ķ
Ġà¦ĺ à¦Łà¦¨
à¦¤ à¦¬
Ġà¦ĵ à¦ĩ
à¦¹ à¦¤
Ġà¦īà¦ª à¦ľ
à¦¿ ,
Ġà¦¹ à¦ļ
à¦¯ à¦¬à¦¸
à§ ©
Ġà¦¸ à¦¹
Ġà¦ħ à¦¬
à¦ı à¦¨
Ġà¦¸ à¦Ń
Ġà¦¬ à¦°
Ġà¦Ĩ à¦Ľ
à¦¤ à¦¨
Ġà¦¬ à¦¨
à¦¸ à¦¹
Ġà¦ı à¦ĸà¦¨
à¦¬ à¦¬
à¦Ĺ à¦°
Ġà¦Ĩ à¦¦
Ġà¦ħ à¦°
à§ §
à§ ª
Ġà¦® à¦¹
Ġà¦ª à§ľ
Ġà¦ķà¦° à¦Ľ
à¦Ĺ à¦¤
à¦° à¦¹
à¦¨ à¦¤
Ġà¦ħ à¦§
Ġà¦¹ à¦¯
à¦¯ à¦®
à¦° à¦¦
Ġà¦ĩ à¦¸à¦²
à¦ĩ à¦ķ
Ġà¦¤ à¦¬
à¦¯ à¦¨
à¦® à¦¤
à¦¬ à¦²
à¦® à¦ķà¦°
à¦ķ à¦²
à¦ĩ à¦²
Ġà¦Ĩ à¦ľ
à¦¾ -
Ġà¦ı à¦¸
à¦ķ à¦Ł
Ġà§ «
à¦· à¦ķ
à¦¯ à¦¬
à¦ ħ
à¦¦ à¦¸
à¦° à¦ª
Ġà¦® à¦¤
Ġà¦¸ à¦°
Ġà¦ħ à¦¸
Ġà¦° à¦¹à¦®
Ġà§ ª
Ġà¦¸ à¦¨
Ġà¦° à§Ł
à¦® à¦°
Ċ Ċ
à¦¸ à¦ª
à§ Ń
à¦¸ à¦¨
Ġà¦Ĺà¦¤ à¦ķ
à§ ®
à§ ¬
Ġà¦Ĩ à¦ĩà¦¨
Ġà¦ħ à¦¬à¦¸
Ġà¦¸ à¦¦à¦¸
Ġà¦Ĩà¦® à¦°
à¦² à¦¬
à¦¤ à¦®
Ġà¦ĩ à¦¨
Ġà§§ à§¦
Ġà¦¹ à¦ĵà§Ł
à§ ¯
Ġà¦ķ à¦²
à¦ıà¦¨ à¦ª
à¦ı à¦¸
Ġà¦Ĩ à¦¶
à¦ Ŀ
Ġà¦ĵ à§Ł
Ġà¦Ĩà¦° à¦ĵ
Ġà¦ı à¦Ł
à¦¸ à¦ķ
à¦® à¦ķ
à¦® à¦¸
à¦¨ à¦Ł
Ġà¦ĩ à¦īà¦¨
Ġà¦¸ à¦ķ
Âł Âł
à¦¶ à¦ķ
Ġà¦ı à¦¤
à¦¸ à¦®
à¦ĵ à¦¯
Ġà¦¨ à§Ł
à¦ī à¦ľ
à¦Ĺ à¦ŀ
à¦° à¦ĵ
Ġà¦¨ à¦¤
à¦¨ à¦¬
à¦ķ à¦¤
à¦¨ à¦¨
à¦¹ à¦°
Ġà¦ķà¦° à¦¬
à¦ķ à¦¦
Ġà§ ¬
à§ĭ .
à¦ļ à¦²
Ġà¦¶ à¦¤
à¦® à¦¬
Ġà¦Ĩ à¦ķ
Ġà¦Ĩ à§Ł
Ġà¦ı à¦®à¦¨
Ġà¦ķ à§Ł
Ġà¦ħ à¦¤
à¦ĩ à¦Ł
à¦® à¦¦
Ġà¦ĵ à¦ªà¦°
à¦¨ à¦ķ
à¦¨ à¦®à¦¨
Ġà¦ī à¦¤
Ġà¦Ĩ à¦ĵà§Ł
à¦¬ à¦ķ
à¦Ł à¦Ĺ
à§Ģ à¥¤
à¦° à§Ł
Ñ Ģ
ÑĢ Ð
à¦ł à¦¨
Ġà¦ī à¦¨
Ġà¦ª à¦¦
à§Ģ ,
à¦¸ à¦¦
à¦° à¦ļ
Ġà¦¤ à¦¥
à¦Ĩ à¦ĩ
Ġà§ Ń
à¦° à¦²
à¦ķ à¦¬
Ġà¦¬ à¦ķ
à¦§ à¦¨
à¦¹ à¦¸
Ġà¦Ĺ à¦£
à¦° à¦¨
Ġà¦° à¦ķ
Ġà¦ª à¦ķ
Ġà¦¬ à§ľ
à¦¿ )
Ġà§ ®
Ġà¦ĺ à¦Ł
Ġà¦ ł
âĢ Ŀ
Ġà¦Ľ à¦¬
Ġà¦ı à¦¸à¦¬
Ġà§¨à§¦ à§§à§
à¦¼ à¦¿
Ġà¦Ĩ à¦¹à¦®
à¦ĩ à§Ł
à§ģ à¦ģ
Ġà¦ı à¦®
à§İ à¦¸
à¦ı à¦°
Ġà¦ħ à¦ª
Ġà¦Ĩà¦¬ à¦¦
à§¦ à§¦
à§ľ à¦ķ
Ġà¦ Ŀ
Ġà¦¬ à¦¸
Ġà¦ıà¦ķ à¦ľà¦¨
Ġà¦īà¦ª à¦¸
à¦¯à¦¬ à¦¹
Ġà¦ī à¦ļ
Ġà§ ¯
Ġà¦« à¦²
à¦¼ à¥¤
à¦ĸ à¦¤
Ġà¦¡ à¦Łà¦ķ
à¦¨ à§Łà¦¨
Ġà¦ķà¦° à¦²
à¦ĩ à¦°
à¦¤ à¦ķ
Ġà¦ī à¦ł
Ġà¦ľ à¦®
à¦ı à¦®
à¦ķ à¦ľà¦¨
Ġà§§à§ ¯
à¥¤ âĢĻ
à¦§ à¦¬
à§Ł à¦ķ
ÑĢÐ ¶
à¦· à¦¦
à¦¸ à¦°
Ġà¦¹ à¦ķ
à¦° à¦Ł
à¦° à¦Ń
à¦°à¦¹ à¦£
à¦¦ à¦²
Ġà¦ī à¦²
à¦¿ -
Ġà¦ĩ à¦¤
Ġà¦Ĩà¦² à¦®
Ġà¦Ĩ à¦¤
Ġà¦ļ à¦Ł
à§Ł à¦°
Ġà¦§à¦° à¦¨
à¦ĩ à¦¸
à¦¹ à¦¨
Ġà§§à§ ¨
Ġà¦ĩ à¦ī
à§ĭ à¥¤
ĠâĢ ľ
âĢ Ķ
à¦ĸ à¦²
Ġà¦ĸ à¦¬à¦°
à¦¬ à¦ª
Ġà¦Ĩ à¦ªà¦¨
Ġà¦Ĩ à¦Łà¦ķ
Ġà¦¶ à¦°
à¦¨ à¦¸
Ġà¦¤ à¦ĸà¦¨
Ġà¦ıà¦ķ à¦ĩ
Ġ t
Ġà¦ħ à¦ªà¦°
à§Ł à¦¸
Ġà¦¹ à¦¨
à¦¥ à¦¨
à§Ł à¦¤
Ġà¦² à¦ķ
à¦Ĺ à¦łà¦¨
à¦Ł à¦°
à¦Ĺ à¦²à¦¬
Ġà¦¸ à¦¦à¦°
à¦· à¦¤
Ġà¦¯ à¦¦
Ġà¦¤ à¦¦à¦¨
Ġà¦¶ à¦¹à¦°
Ġà¦¹à§Ł à¦¨
Ġà§§à§ §
Ġà¦¨ à¦®
à¦·à§Ł à¦Ł
Ġà¦Ń à¦°
à§ Ĺ
Ġà¦¶ à¦¨
Ġà¦ª à¦¥
à§ĩ à§Ĺ
à¦ł à¦ķ
à¦ª à¦¦
h e
Ġà¦ı à¦¨
à¦° à¦«
à¦° à¦¯
Ġà¦ı à¦Ĺ
à¦· à¦®à¦¤
Ġà¦¦ à¦ķ
Ġà§§à§ «
à¦Ĩ à¦®
à¦¹ à¦²
Ġà¦¸ à§ľà¦ķ
à¦ı à¦ĩ
Ġà¦ī à§İ
à§Ł à¦¦
Ġà¦ıà¦° à¦ªà¦°
à¦° à¦ĩ
à¦ī à¦¦
à¦ī à¦²
Ġà¦¡à¦Łà¦ķ à¦®
à¦¸ à¦Ń
) à¥¤
Ġà¦Ĩ à¦¹
Ġà¦® à¦Ļ
Ġà¦Ĩ à¦¹à¦¤
à§ĩà¥¤ âĢĻ
à¦« à¦°
à¦ī à¦Ł
à¦¯ à¦¦
à¦¯ à¦°
Ġà¦¸ à¦ļ
à¦¯ à¦¤
à¦°à¦ķ à¦²
Ġà¦¦ à¦°
à¦ľ à¦§
à¦Ń à¦¬
Ġà¦ľ à§Ł
Ġà¦ķ à¦¬
Ġà¦¸à¦® à¦¸
à¦« à¦²
Ġà¦ļà¦² à¦Ľ
à¦ķ à¦Ń
à¦Ĺ à¦£
à¦® à§Ł
Ġà¦ī à¦ĩà¦ķ
Ġà¦ľ à¦°
Ġà¦ľ à¦¬
à¦Ĺ à¦®
à¦ļ à¦Ł
à§¨ à§¦
à¦Ľ à¦¨
à¦Ĩ à¦°
à¦¥ à¦²
à¦¨ à¦¦
âĢ Į
Ġ i
à¦¦ à¦ª
Ġà¦¨ à¦¦
à¦ľ à¦°
Ġ a
à¦¤ à¦¤
Ġà§¨à§¦ à§¦
à¦ľà¦¨ à¦ķ
à¦ĺ à¦°
à¦¹ à¦¬
Ġà¦Ĩà¦¸ à¦¨
à¦¨ à¦°
Ġà¦¬à¦² à¦Ľ
Ġà¦Ĺ à§ľ
à¦ ¢
Ġà¦Ĩ à¦ĩ
Ġà¦ı à¦ĸ
Ī à¦¦
à§ĩ à¦ģ
) ,
à¦¨ à¦Ĺà¦°
Ġà¦ĺ à¦°
ÂłÂł ÂłÂł
Ġà¦¸ à¦¤
à§Ł à¦®
Ġà¦¬ à¦¹
Ġà¦Ń à¦¬à¦¨
Ġà§© à§¦
Ġà¦Ľ à§Ł
à¦° à¦Ĺ
Ġà¦ħ à¦«
à¦ĩ à¦¬
à¦¨ à¦®
Ġà¦ħà¦¬ à¦¶
à¦² à¦®
à¦ķ à¦¨
Ġà¦¸à¦® à¦°
à¦° à¦ªà¦¤
à¦² à¦¸
à¦ľ à¦®
Ġà¦¸à¦¬ à¦ļ
à¦ķ à¦ķ
ÑĢÐ¶ Ð
à¦¶ à¦®
à§Ł à¦Ĺ
Ġà¦ħ à¦ķ
à¦¤ à¦²
Ġà¦¬ à§Łà¦¸
Ġà¦¨ à¦Ĺà¦°
Ġà¦¶ à¦¹
à¦ĺ à¦Łà¦¨
à¦ ĥ
Ġà¦« à¦°
Ġà¦¸à¦¹ à¦¯
à¦¸ à¦ļ
à¦¶ à¦Ł
à¦¬ à¦¶
à¦ļ à¦ķ
à¦² à¦¯
à¦¶ à¦²
Ġà¦ħ à¦Ĺ
à¦Ĺ à¦²
Ġà§§à§ ª
Ġà¦Ĩ à¦«
Ġà¦Ĩ à¦Ł
Ġà¦ĵ à¦ł
à¦ķ à¦¶
à¦ķ à¦¸
Ġà§¨ à§«
à¦ı à¦«
à¦¸ à¦°à¦ķ
à§İ à¦ķ
Ġà¦Ĺ à¦²
Ġà¦® à¦°
Ġà¦ Ĳ
Ġà¦ª à¦¡
à¦ħ à¦¨
Ġà¦¸ à¦ª
à¦« à¦¤
Ġà¦¬ à¦Ļ
Ġà¦¯ à¦ĸà¦¨
Ġà¦ĺ à¦£
Ġà¦¤ à¦°
Ġà¦¸à¦¹ à¦ķ
Ġà¦ľ à§ľ
à¦ī à¦°
à¦¬ à¦¦
Ġà§§à§ ©
à¦° à¦ĸ
à¦ľ à§Ł
Ġà¦¬à¦² à¦²
Ġà¦Ĩà¦¸ à¦Ľ
à¦ĩ à¦®
Ġ Ġ
Ġà§§à§ ¬
à§ĩ ?
à¦ļ à§Ł
Ġà§§à§ ®
à¦ľ à¦²
à¦Ĺ à¦¬à¦¨
Ġà¦¬à¦² à¦¤
à¦¯ à¦¸
à¦° à¦Ľ
à¦ª à¦Ł
Ġà¦Ĺ à¦¬
Ġà¦ª à¦²
à¦ķ à¦®
Ġà¦Ĺ à¦łà¦¨
à¦¾ âĢĻ
à§ĭ à¦ģ
Ġà¦¸à¦® à¦¯
à§İ à¦¸à¦ķ
Ġà¦Ĩ à¦ª
Ġà¦¦ à¦¶à¦®
à¦¶ à¦Ĺ
Ġà¦® à¦ľ
à¦¤ à¦Ł
Ġà¦ķ à¦ķ
à¦ı à¦²
à¦ı à¦ķ
Ġà¦ĩ à§Ł
âĢ ľ
Ġà¦¶ à¦ķ
Ġà¦ľ à¦Ļ
à¦ľ à¦¶
Ġà¦ķ à¦ĸà¦¨
à¦¬ à¦¤
Ġà¦Ĩà¦ĩà¦¨ à¦ľ
Ġt he
à¦¥ à¦¬
Ġà¦ı à¦ª
Ġà¦ Īà¦¦
à¦ĩ à¦ī
à§§à§ ¯
Ġà¦ª à¦£
à¦ĩ à¦ľ
à¦² à¦Ł
à¦Ł à¦¬à¦²
e r
à¦¿ âĢĻ
. .
Ġà¦ľà¦¨ à¦Ĺà¦£
à¦° à¦°
à¦® à¦ļ
à¦² à¦ª
Ġà§« à§¦
âĢĮ à§į
Ġà¦ĵ à¦¸
Ġà¦ļ à¦°
à¦® à¦ª
Ġà¦¨ à¦¬
Ġà¦Ĺ à¦°
à¦ĩ à¦«
à¦² à¦Ĺ
Ġà¦ı à¦¦
Ġà¦ª à¦¤
à¦¨ à¦ľ
à¦® à¦§
à§ĭ ,
Ġà¦¨ à¦Ń
Ġà§¨ à§ª
à¥¤ âĢĿ
Ġà¦ħ à¦²
âĢ ĺ
Ġà¦ª à¦¶
Ġà¦° à¦¬
Ġà¦ķ à¦ł
Ġà§§à§ Ń
à¦¨ à¦Ĺ
à¦° à¦ľ
à¦¥ à¦ķ
à¦ª à¦£
à¦ľ à¦¸
à§© à§¦
Ġà¦¡ à¦²
âĢ ĵ
à¦ĩ à¦¡
à§Į à¦ģ
à¦¯ à¦ĩ
Ġà¦® à¦ŀ
à¦°à¦® à¦£
Ġà¦ĵ à¦Ń
à§§ à§¦
Ġà¦ķà¦° à¦ª
à¦¿à¥¤ âĢĻ
r e
ĊĊ ĊĊ
à¦¬ à¦¹à¦¨
à§ĩ -
à¦·à§Ł à¦ķ
à¦¨ à§Ł
Ġà¦°à¦ķ à¦®
à¦§ à¦¤
Ġ s
Ġà¦Ń à§Ł
Ġà¦ ĭ
à¦² à¦¦
Ġà¦ª à§Ł
Ġà¦ħ à¦ŀ
à¦¼ ,
Ġà¦ļ à¦²à¦¤
i n
à§ĩà¥¤ âĢĿ
à¦Ĺ à¦¨
Ġ w
Ġ :
Ġà¦® à¦¸
o n
à¦ĵ à¦²
Ġà¦īà¦ª à¦²à¦ķ
à¦ª à¦¥
à¦Ĩ à¦ľ
Ġà¦¨ à¦ľà¦°
Ġà¦¯ à¦¥
à¦· à¦¯
Ġà¦Ĩà¦Ĺ à¦¸
à¦¯ à§Ł
à¦¯ à¦ķà¦°
à¦¤ à¦¦
à¦¼ à§ĭ
Ġà§¨ à§¨
Ġà¦īà§İ à¦ª
) -
à¦¬ à¦¹
ĊĊ Ċ
à¦°à¦¸ à¦Ļ
à¦· à¦®
Ġà¦īà§İ à¦¸à¦¬
à¦Ń à¦°
à¦ĵ à¦¸
Ġà¦ª à¦¦à¦ķ
Ġà¦ĭ à¦£
à¦ŀ à¦ª
à§ģ ,
âĢĻ à¥¤
à¦° à¦ľà¦¨
à¦ĵ à¦¤
à¦¨ à¦¬à¦¨
Ġ "
à¦¾à¥¤ âĢĻ
Ġà¦ķ à¦¨
Ġà¦ľà¦¨ à¦ª
Ġà¦Ĩ à¦§
Ġà¦¡à¦Łà¦ķ à¦®à¦ķ
à¦Ĺà¦¤ à¦ķ
à¦ª à¦¸
Ġà§ª à§¦
à¦° à¦ªà¦°
Ġà¦¸ à¦«à¦°
à¦ľ à¦ķ
à¦ı à¦¦
Ġà¦Ĩà¦¸ à¦²
à¦¿ /
à¦ª à¦²
Ġà¦¦ à¦ĸà¦²
à¦° à¦¦à¦°
Ġà¦¦ à¦«
Ġà¦ĩ à¦¸
à¦£ à¦¤
à¦ĩ à¦¤
Ġà¦¬ à¦¦à¦²
Ġà¦Ľ à§ľ
Ġà¦¬ à¦¡
Ġà¦ļà¦² à¦ļ
Ġà¦ļ à¦¤
à¦°à¦¸ à¦¨
à¦¦ à¦£
à¦¸ à¦Ł
à¦¤ à¦°à¦£
Ġà¦ĩà¦ī à¦°
Ġà¦ĩ à¦²
à¦Ł à¦¸
Ġà§¨ à§§
e s
à¦¨ à¦¡
à¦¸ à¦¤
à¦¯ à¦ª
Ġà§¨ à§©
à¦°à¦¸ à¦Ń
à¦ľ à¦¤
à¦ī à¦ķ
à¦¶ à¦°
Ġ o
a n
à¦² à¦°
a t
Ġà¦Ĩà¦¸ à¦¤
à¦« à¦Ł
à¦ľ à¦¬
à¦Ĩ à¦®à¦°
Ġà¦¸à¦® à¦¨
e n
à§Ģ -
à¦ĸ à¦°
à¦® à¦Ĺ
Ġà¦Ĳ à¦ķ
Ġà§¨ à§¬
Ġà¦ı à¦Ń
à¦¾ .
Ġà§¨ à§Ń
à¦¬ à¦ĩ
à¦¦ à¦¶
Ġ c
Ġà¦ħ à¦Ļ
Ġà§¨ à§®
Ġà¦Ĩà¦¹à¦® à¦¦
Ġà¦¹à§Ł à¦¤
Ġ Âł
Ġà¦² à§ľ
à¦¨ à¦ĵ
à¦¦ à¦®
à§Ł à¦£
Ġà¦ķ à¦¤
Ġ f
Ġà¦¸à¦¹ à¦ľ
Ġà¦ĸ à¦°à¦ļ
· Ð
ÑĢÐ ·Ð
Ġà¦® à¦¡
à¦Ł à¦®
à¦¯ à¦¤à¦®
à¦ľ à¦ª
Ġà¦¦ à¦°à¦ķ
Ġà¦ľà¦¨ à¦ķ
à¦¤ à¦Ń
à§ģ à¥¤
Ġà¦Ĩà¦¸ à¦¬
Ġà¦ĩ à¦°
Ġà¦ľ à¦²
à¦Ł à¦²
Ġà¦¤ à¦²
Ġà¦ļ à¦¨
Ġà¦Ĩà¦¨ à¦¨
à¦¡ à¦¨
Ġà¦Ĺà¦£ à¦®
à¦¯ à¦¥
à¦ķ à¦°à¦£
à¦ıà¦¸ à¦¸
Ġà¦¬ à¦ĩ
à¦² à¦Ń
à§§à§ «
Ġà¦ı à¦¶
à§ĩ âĢĻ
à¦ĵ à¦¨
Ġà¦ªà¦° à¦¬à¦°
Ġà§ ¦
à¦¹ à¦ľ
à¦ī à¦¡
à¦¼ à§Ģ
Ġà¦¦à¦² à¦Ł
à¦¸ à§ľà¦ķ
Ġà¦ĵ à¦¬
Ġà¦ ·
Ġ b
Ġà¦īà¦ª à¦¦
Ċ Âł
Ġà¦Ń à¦¬
Ġà¦ĩà¦¨ à¦¸
â ķ
o u
à¦ĩ à¦¦
à§ľ à¦¤
Ġà¦ªà¦° à¦°
à¦¨ à¦ĩ
à¦² à¦¶
à¦² à¦Ľ
à¦ī à¦¤
à¦ľ à¦Ł
Ġà¦° à¦¶
à¦ıà¦ĩ à¦ļ
à¦Ĺ à¦¬
Ġà¦Ĩ à¦ļ
à¦° à¦®à¦¨
Ġà¦Ĩà¦° à¦¬
à¦¨ à¦¹
à§ ·
Ġà¦ħ à¦ľ
Ġà¦¶ à¦«
o r
à¦ĸ à¦Ľ
à¦ĩ à¦Ń
Ġà¦ļ à¦ķ
Ġà¦ĩ à¦®
Ġà¦¯ à¦¤
à¦¤ à¦¦à¦¨
à¦ļ à¦°
à¦¶ à¦¬
à¦£ à¦¬
à¦¡ à¦²
à¦¥ à¦ļ
Ġà¦Ĩà¦¶ à¦Ļ
Ġà¦ħ à¦¬à¦°
à¦°à¦¸ à¦¹
Ġà¦¤ à¦¤
Ġà¦®à¦¸ à¦ľ
Ġà§¨ à§¯
Ġà¦ı à¦ľ
à§« à§¦
à¦¨ à¦Ń
à¦ª à§ľ
Ġà¦Ĩ à¦ĺ
Ġà¦¶ à¦¬
à¦Ł à¦¸à¦®
Ġà¦¨ à¦¨
à§§à§ ¨
à¦¾ )
à¦² à¦Ļ
à¦¬ à¦ľà¦¨
à¦ī à¦ª
Ġà¦Ĩà¦® à¦¦
à¦Ĩ à¦Ĺ
Ġà¦Ĩ à¦ĵà¦¤
Ġà¦ħ à¦Ł
Ġà¦¸à¦° à¦¬à¦°
à¦§ à¦°
à¦¹ à¦ķ
à¦Ł à¦°à¦¸
Ġà¦ĵ à¦¯
à¦¨ à¦ľà¦¨
Ġ -
à¦Ĺ à¦ķ
Ġà¦ª à¦ŀ
Ġ p
à§§à§ ®
à¦¯ à¦®à¦¨
Ġà¦¹ à¦ĵà¦¯
Ġ m
à¦ĺ à¦¦
à¦¹ à¦°à¦£
Ġà¦ħ à¦¥à¦ļ
à¦ĵ à¦°
Ġà¦° à¦«
à§¨ à§¨
à¦ŀ à¦¤
Ġà¦¸ à¦¡
Ġà¦Ĺ à¦Ń
à¦¬ à§Ł
à¦® à¦¹
Ġà¦ı à¦Ľ
e d
o m
Ġà¦¸ à¦ŀ
Ġà¦¸ à¦ł
à¦Ł à¦ª
Ġà¦° à¦¯
à¦ķ à¦Ľ
i t
à¦· à¦°
ĠĠ ĠĠ
à¦Ł à¦¤
Ġà§§à§¦ à§¦
Ġà§§à§¯ à§¯
à¦ĩ à¦ª
Ġ h
à¦ĸ à¦¬
Ġ '
Ġà¦¨ à¦¯
Ġà¦¸ à¦¤à¦°
Ġà¦ªà¦° à¦ĵ
à¦· à¦ľ
Ġà¦¹ à¦¸
Ġà¦ķà¦® à¦ª
à§Łà¦£ à¦Ĺà¦ŀ
Ġà¦¬ à¦Ĺ
à¦Ĩ à¦¨
à¦¬ à¦§
Ġà¦ĸ à¦¨
à¦¤ à¦«
in g
Ġà¦° à¦ª
à¦Ĺ à¦¦
Ġà¦® à§Ł
à¦®à¦¨ à¦¸
à¦ļ à¦¬
à§ģ à¦ĥ
à¦¬ à¦¤à¦¨
à¦¨à¦¬ à¦¬à¦¨
à¦¶ à¦¤
Ġà¦ĩà¦ī à¦ª
à¦® à¦ľ
Ġà¦ī à§İà¦¸
a r
à¦² à¦²
à¦ī à¦¸
Ġà¦ĩ à¦ŀ
à¦¥ à¦Ĺ
Ġa n
Ġà§¬ à§¦
Ġà¦¯ à¦¨
à§¨ à§«
à¦¡ à¦¬
à¦¸ à¦Ļ
à§ģ -
Ġà¦ī à¦ªà¦°
Ġà¦ľà¦¨ à¦¸
Ġà¦Ĺà¦£ à¦¤à¦¨
Ġà¦Ĩ à§ľ
à§§à§ §
à§§à§ ¬
Ġà¦ĩ à¦ļ
Ġt o
Ġà¦ª à¦Ľà¦¨
Ġà¦ıà¦®à¦¨ à¦ķ
à§§à§ ª
Ġà¦ħà¦¨ à¦²
Ġà¦Ĩ à¦¯
à¦ı à¦¬
à¦ļ à¦®
Ġà¦Ĩà¦¶ à¦°
Ġà¦ıà¦ĩ à¦ļ
Ġà¦ĵ à¦°
ÂłÂłÂłÂł ÂłÂłÂłÂł
à¦ĺ à¦¨
Ġi n
à¦ıà¦¸ à¦Ĩà¦ĩ
à¦¨ à¦¸à¦¹
Ġà¦¦ à¦®à¦¨
à§ĩà¦¾ à¦ģ
à¦ĵ à¦ĩ
i i
Ġà¦ī à§ľ
à¦·à¦ķ à¦¦
Ġà§© à§§
Ġà¦ķ à¦·
à¦Ĩ à¦²
Ġà¦ĵ à¦°à¦«
Ġà¦¦ à¦ª
Ġ d
Ġà¦ĺ à¦¨
a l
Ġo f
Ġà¦Ĩà¦Ł à¦Ł
Ġà¦ħ à¦®
Ġà¦§ à¦¨
à§§à§ Ń
Ġà¦ķ à¦¯
à¦Ĺ à§ľ
Ġà¦¹ à¦ł
à¦§ à¦ķ
à¦ħ à¦Ń
à¦¨ à¦ª
Ġà¦ĵ à¦·
à§ĩà¦¾ .
Ġ ÑĢÐ¶Ð
Ġà¦ĩ à¦ķà¦¬
Ġà§© à§«
Ġà¦Ĩà¦ļ à¦°à¦£
à¦¥à¦¬ à¦Ľà¦°
à¦° à¦Ĺà¦¤
a s
Ġà¦« à¦ĸà¦°
Ġà¦Ĩà¦²à¦® à¦Ĺ
à§¨ à§§
à¦¾ :
Ġà§¨à§¦à§§à§ ª
Ġà¦ıà¦ķ à¦®
à¦Ĺ à¦ľ
Ġà¦īà¦ª à¦ªà¦°
Ġà¦Ĩà¦® à¦²
à§© à§«
à¦ Ī
à§§à§ ©
à¦¨ à¦¯
Ġà¦Ĩ à¦ĩà¦¸
Ġà¦Ĩà¦ľ à¦ķ
Ġà¦Ĩà¦¨ à¦¤
à¦ķ à¦Ĺ
i s
à¦Ł à¦Ł
à¦Ń à§Ł
à¦¡ à¦¸
Ġà§§à§¯ à§Ń
à¦ Īà¦¦
Ġà¦¦ à¦²à¦ķ
à¦ķ à¦¶à¦¨
à¦ı à¦Ł
Ġà¦ķ à¦²à¦ķ
Ġà¦ļà¦² à¦¬
à¦° à¦Ĺà¦ŀ
à¦® à¦Ļ
à¦² à¦ľ
Ġà¦īà¦ª à¦ķ
Ġà¦ıà¦ķ à¦¦
.. .
Ġà¦¸ à¦ķà¦²
Ġà¦¬ à¦¸à¦¬
Ġà¦Ĳ à¦¤
à¦¥ à¦¤
à¦¯à¦¬ à¦§
Ġà§¨à§¦à§§à§ «
à§ª à§¦
à¦® à¦¶
à¦¥ à¦®à¦¨
à¦¸à¦® à§Ł
à§ĩ !
Ġà¦¹ à¦°à¦¤
Ġà¦« à¦ľà¦²
Ġà¦Ĩà¦¶ à¦ª
à¦°à¦§ à¦°
Ġà¦¹ à¦ľ
l e
à¦² à¦«
Ġà¦¸ à¦«à¦²
à¦ķ à¦ļ
Ġà¦ıà¦ķ à¦¬
à¦Ŀ à¦¤
à¦ĸ à¦ķ
à¦® à¦°à¦£
Ġà¦ĩ à¦®à¦°
à¦¨ à¦ļ
Ġà¦Ĩà¦ĩà¦¨ à¦¶
à¦ĩ à¦Ľ
Ġà¦ıà¦® à¦ª
à¦Ĺ à¦ªà¦¤
Ġà¦ªà§ľ à¦¤
à¦ª à¦·
Ġà¦ħ à¦¥à¦¬
Ġà¦¨ à¦°
Ġà¦Ľà§Ł à¦Ł
à¦¥ à¦°
Ġà¦ı à¦«
Ġà¦® à§Łà¦¨
à¦ıà¦¨ à¦ĵ
à¦Ł à¦«
à§ĩ âĢĶ
à¦¾ ?
à§Ł à¦¤à¦¨
à§¨ à§¦à§¦
Ġà¦° à¦¸
à¦¤ à¦ª
Ġà¦¸à¦¹ à¦¸à¦Ń
à¦¦ à¦¦
Ġà§Ń à§¦
Ġà¦¦ à¦¶à¦ķ
Ġà¦ķ à¦¨à¦¸
Ġà¦ĵ à¦ª
à§¨ à§©
Ġà¦ıà¦° à¦¶
à¦Ł à¦¬
à¦¶ à¦«
Ġà¦ Ĭ
à¦¹ à¦«
Ġà¦® à¦£
à¦ħ à¦°
à¦¬ à¦Ľà¦°
Ġà§¨à§¦à§§à§ ©
Ġà¦¯ à¦¶
à§ª à§«
Ġà¦¬à¦² à¦¬
à§ľ à¦Ľ
Ġà¦° à¦¹
à¦ī à¦¬
Ġà§® à§¦
Ġà¦ī à¦ľ
Ġà¦Ĩ à¦ķà¦°
Ġà¦ıà¦° à¦ĩ
Ġà¦ķ à¦£
Ġà§¨à§¦à§§à§ ¬
Ġà¦¨ à¦·
i on
à¦Ĺ à¦Ĺ
Ġà¦ļ à¦°à¦®
Ġà¦ı à¦¡
Ġà¦¸à¦¬ à¦ķ
Ġà¦ıà¦ķ à¦¸à¦Ļ
ĠâĢ Ķ
Ġà¦Ł à¦¨
Ġà¦° à¦Ļ
Ġà¦Ĩ à¦ĵà¦¯
Ġà§© à§¨
à¦¨à¦ľ à¦Ł
à¦ı à¦¸à¦¬
à¦Ĩ à¦ª
Ġà¦Ĩ à¦ŀ
à¦Ń à¦ķ
à¥¤ âĢľ
Ġà¦¸ à¦«
Ġà¦ľ à¦Ł
Ġà¦ĩ à¦¸à¦°
à¦¨ à¦²
Ġà¦ªà¦° à¦ªà¦°
âĢ į
à¦Ļ à¦ļ
à¦Ĩ à¦¬
Ġà¦Ĺ à¦ł
Ġà¦Ĭ à¦°
â ĸ
Ġà¦ıà¦ķ à¦ªà¦°
Ġà¦ħà¦ª à¦¹à¦°à¦£
à¦°à¦¦ à¦²
à¦ķ à¦ª
âķ Ľ
Ġà¦Ĩà¦« à¦Ĺ
- -
Ġà¦ľ à¦¹
Ġà¦Ĩ à¦īà¦Ł
à¦ı à¦ķà¦Ł
Ġ n
Ġan d
à¦Ĺ à¦ł
Ġà¦ī à¦Ńà§Ł
Ġà§ª à§«
à¦īà¦ª à¦ľ
à¦ı à¦®à¦¨
à¦· à¦¦à¦°
à§ģ âĢĻ
Ġà¦² à¦¨
à¦¸ à¦¸
à¦¡ à¦ķ
Ġ T
âĢĻ -
à§ĭ -
à§ĩà¥¤ "
âĢį à§į
à¦¬ à¦ľ
Ġà§« à§¦à§¦
Ġà¦Ĩ à¦¹à¦¸
Ġ l
à¦® à¦ĺ
à¦® à¦£
Ġà¦ªà¦¦ à¦¤
Ġà¦ĩ à¦Ł
à¦ľ à¦Ĺ
Ġà¦ķ à¦¤à¦Ł
à§ĩà¦¾ à¥¤
Ġà¦¨à§Ł à¦Ł
Ġà¦ħ à¦¶
à¦² à¦ĵà§Ł
Ġà¦ı à§Ł
Ġà¦īà¦ł à¦¤
Ġà¦ħà¦¬ à¦¦
i l
à¦Ĩ à¦¦
Ġà¦ľ à¦ľ
âĢĻ ,
à¦ª à¦®
à¦£ à¦®
Ġà¦Ĺ à¦¡
à¦¡ à¦Ń
à¦¬ à¦Ł
à¦°à¦¥à¦® à¦¬
Ġà¦¨ à¦ľ
à§İ à¦ª
Ġà¦¹ à¦°
à¦ı à¦¸à¦ª
Ġà§© à§¬
Ġà¦ĩ à¦¬
Ġà¦®à§Ł à¦®à¦¨à¦¸
à§¨ à§ª
à¦ħ à¦§
à¦¬ à¦£
Ġà¦ªà¦° à¦ĩ
à¦¿ ?
à¦ĸ à¦ª
à§į âĢĮ
Ġà¦Ĩà¦¬ à¦¹
Ġà§¯ à§¦
Ġà¦Ĩ à¦ĸ
Ġà¦ıà¦¸ à¦Ĩà¦ĩ
Ġà¦Ĺ à¦°à¦®
à¦ª à¦ļ
à¦ļ à¦¤
Ġà¦ıà¦ĸà¦¨ à¦ĵ
Ġà¦ªà§ľ à¦²
à¦¨à§Łà¦¨ à¦ªà¦¤
Ġà¦Ĩà¦® à¦¨
à¦¬ à¦°à¦£
à§Ł à¦¬
Ġà¦Ĩ à¦¦à¦°
Ġà§¨à§¦à§§à§ ¨
Ġ g
à§ĩà§Ĺ à¦ģ
Ġi s
Ġà¦Ĩà¦¤ à¦Ļ
à¦Ĺ à¦Ľ
Ġà¦¬ à§Ł
Ġà¦ª à¦Ł
Ġà§© à§©
à¦° à¦°à¦«
à¦¬ à¦Ĺà¦ŀ
Ġà¦ĩ à¦ľ
Ġà¦ĩ à¦«à¦¤
à¦¾ !
Ġà¦¬ à¦ľ
à¦ĩ à¦¯
i c
à¦® à¦Ł
Ġà¦ı à¦ıà¦«
à¦° à¦ªà¦ķ
Ġà¦Ĩà¦¸ à¦°
à¦¯ à¦ĵ
à¦¸ à¦®à¦°
Ġà¦¦à¦² à¦Ĺ
à¦¿à¥¤ âĢĿ
à¦« à¦¨
à¦ľ à¦Ĺà¦ŀ
Ġ à¥¤
Ġà¦®à¦¹ à¦²
à¦° à¦¬à¦°
à¦ļ à¦ľà¦¨
en t
à¦¬ à¦¦à¦²
Ġà¦Ĺà¦£ à¦¤
à¦£ à¦ķ
Ġà¦² à¦Ļ
à¥¤ "
Ġà¦ıà¦ķ à¦ķ
Ġà¦ıà¦ķ à¦°
Ġà¦ħà¦¬ à¦ķ
i v
Ġà§§à§¯ à§®
Ġà§§à§ §à§
à¦¬ à¦®
à¦ı à¦Ľ
Ġà¦ªà§ľ à¦Ľ
à§ľ à¦¬
Ġà¦Ĺ à¦¨
à¦¬ à¦Ĺ
à¦¿ à¦ĥ
Ġà¦ĵ à¦¸à¦®
à¦¤ à¦ľ
Ġà¦® à¦¶
à¦® à§ľ
à§¨ à§®
Ġà§© à§Ń
Ġà§© à§ª
à¦¶ à¦ª
à¦ĩ à¦Ĺ
Ġà¦īà¦ª à¦¹
Ġà¦® à¦®à¦¤
Ġà¦¦à¦° à¦ľ
à¦§ à¦Ń
à¦® à¦Ĺà¦ŀ
à¦ı à¦¤
Ġà§¨à§¦à§§à§ §
à¦ıà¦° à¦ªà¦°
Ġà¦ļà¦² à¦®
Ġà¦Ĩ à¦¡
Ġà¦¶ à¦°à¦£
à¦ľ à¦Ń
Ġà§ª à§®
Ġà§© à§®
à¦¾à¥¤ âĢĿ
à¦¿ .
Ġà¦« à¦°à¦®
Ġà¦ı à§ľ
o t
Ġà§¨à§¦à§§à§ Ń
Ġà¦¸à¦® à¦Ŀ
Ġà¦ħà¦¬ à¦¹
Ġà¦§ à¦°à¦¤
à¦Ĩ à¦ĩà¦¨
âĸ ĳ
Ġà¦ªà¦° à¦¦
à¦¶ à¦¸
Ġà¦¦ à¦®
Ġà¦ķ à¦¬à¦°
à¦Ĩ à¦ĵà§Ł
Ġà¦ķ à¦ª
à¦ĸ à¦¬à¦°
Ġà¦« à¦¸à¦²
à§İà¦ª à¦°à¦¤
Ġà¦ĵ à¦ľà¦¨
à§Ģ ?
Ġ I
ÑĢÐ·Ð Ĺ
Ġà¦ªà§ľ à¦¬
Ġà§© à§¦à§¦
à¦¦ à§Ł
à¦® à¦°à¦¤
à¦® à¦¹à¦¤
Ġà¦Ń à¦ķ
à¦¨ à¦¶
Ġà§¨à§¦ à§§à§¦
Ġà¦ĩà¦ī à¦¸
à¦ħ à¦¸
Ġà¦¹à§Ł à¦°
à¦¼ à§ĩà¥¤
Ġà¦ľ à¦¡
Ġà¦ľà¦¨ à¦¤
à¦Ĩ à¦ªà¦¨
Ġà¦ Ī
à¦¯ à¦Ł
Ġà¦ķà¦® à¦²
à¦ī à¦®
à¦¥ à¦ķà¦¦
à¦ı à¦ĸà¦¨
Ġà¦Ŀ à§ľ
Ġà¦¦ à¦£
Ġà¦Ĩ à¦Ļ
Ġà¦¨ à¦ķà¦¶
Ġà¦ĩ à¦Ń
à¦Ł à¦¦
à¦Ľ à§ľ
à§ĩ )
à¦Ĩ à¦¸
Ġà¦² à¦ŀ
à¦®à¦¬ à¦Ļ
Ġà¦® à¦¤à¦¬
à¦¿ à¦ģ
à§Ĥ à¦ģ
à¦ĵ à¦¦
Ġà¦² à¦¤
à¦¾ âĢĶ
Ġ S
Ġà¦ķ à¦Ł
à¦¶ à¦ĩ
Ġà¦¸à¦¨ à¦¦
Ġà¦¤ à¦¹à¦¬
à¦¸à¦² à¦®
à¦« à¦¸
à¦¸ à¦¡
à¦ıà¦® à¦ª
à§ľ à¦¯à¦¨
Ġà¦ĵ à¦¦
Ġà¦¶ à¦Ł
Ġà¦ıà¦ıà¦« à¦ª
Ġà¦¸ à¦¦
à¦ī à¦ĩà§Ł
à§Ł à¦Ń
à¦° à¦¡
à¦¦à¦° à¦¬à¦¨
Ġà¦¶ à¦Ļ
Ġà¦īà¦ª à¦¯
o o
a d
à¦¿) à¥¤
à¦¦ à¦¬
à¦īà¦ĩà§Ł à¦°
e t
à¦²à¦¨ à¦ķ
à¦Ĩà¦ĩ à¦¡
o w
à¦¿ :
à¦ª à¦¶
à¦® à¦£à¦¬
à¦¸ à¦«
à¦°à¦ķ à¦®
à¦ī à§Ł
à¦Ĺ à¦Ł
à§Ģ âĢĻ
Ġà¦¤ à§İà¦ªà¦°à¦¤
Ġà¦Ĩà¦ĩ à¦ıà¦¸
à¦ıà¦¨ à¦ľ
à¦² à¦¸à¦¹
à¦£ à¦¨
Ġà§ª à§¨
Ġà¦Ľ à¦¯
ï ģ
Ġà¦® à§İà¦¸
Ġ A
à¦ķ à¦ĩ
Ġà¦· à§ľà¦¯à¦¨
à¦°à¦« à¦°à¦®
à¦¡ à¦®
Ġà¦§ à¦¸
à¦¤ à¦ĩ
à§Ł à¦ĩ
Ġà¦¸à¦¬ à¦ľ
Ġà¦¦ à¦¶
Ġà¦Ľ à¦ķ
Ġà¦ľ à¦¯
Ġà§© à§¯
Ġà¦ıà¦®à¦¨ à¦Ł
ĠT he
à¦¸ à¦°à¦£
à¦¨à¦¬ à¦¤
à¦°à¦£ à¦¤
Ġà§« à§«
Ġà¦ľ à¦¸
à¦¤ à¦¶
Ġà¦ķà¦® à¦ªà¦ķ
Ġi i
Ġà¦ĵ à¦®à¦°
Ġt h
à¦Ĩà¦ĩ à¦¸
Ġà¦īà¦ł à¦²
Ġà§¨à§¦à§¦ à§¯
Âł ĊĊĊĊ
Ġà¦ľ à§Łà¦¨
à§ Ŀ
à§ĩ ;
à¦® à¦¯
Ġà¦¸à¦® à¦¬
à¦°à¦ķ à¦°
à¦ħ à¦¬
Ġà¦¬à¦¸ à¦¤
à¦ĩà¦¨ à¦¬
à¦Ļ à¦¨
à¦Ĩ à¦°à¦¸
Ġà§¨à§¦à§¦ à§®
Ġà¦īà¦ª à¦¨
à§© à§¨
à¦² à¦ĵ
Ġà§¨à§¦à§§à§ ®
ĠĠĠĠ ĠĠĠĠ
Ġà¦ªà¦°à¦ªà¦° à¦ĩ
à¦¤à¦¨ à¦¤
Ġà¦° à¦®à¦ľ
à¦ıà¦¸ à¦ĩ
à¦ĩà¦ī à¦ıà¦¨à¦ĵ
Ġà¦² à¦¬à¦£
Ġà§Ń à§«
à¦ķ à¦¯
Ġ e
Ġà¦¨ à¦ĵ
à¦¶à¦ķ à¦¤
Ġà¦Ĩ à¦ªà¦¤
à¦ıà¦® à¦ĩ
à¦¬ à¦ļ
Ġà¦¤ à§İà¦ķ
à§¨ à§¬
Ġà¦ıà¦ķ à¦¦à¦²
à¦Ĺ à¦¸
Ġà¦ħà¦ª à¦¸
Ġà¦ħ à¦¦
à¦Ł à¦ĵà§Ł
à¦° à¦¬à¦¨
à¦ľ à¦¦
à¦ī à¦ļ
à§ľ à¦¨
à¦¹ à§Ł
à¦£ à¦¦
à¦ĩà¦ī à¦ª
Ġà¦ħà¦¸ à¦®
à¦ķ à§Ł
Ġà¦¶ à¦ªà¦¥
Ġ he
a c
Ġà¦® à¦°à¦¦
Ġà¦ħ à¦¸à¦¹
Ġà¦¸ à¦ľ
à¦¬ à¦Ļ
à¦® à¦Ľ
à¦² à¦®à¦¨
Ġà¦¨ à¦¥
à¦ĩ à¦®à¦¸
Ġà¦Ĩ à¦ĸà¦¤
à¦° à¦ĵà§Ł
à¦¯ à¦¶
à§¬ à§¦
à¦£ à¦«
Ġà§ª à§ª
à¦ķà¦ľà¦¨ à¦ķ
Ġà¦ħà¦¬à¦¸ à¦°
Ġà§ª à§©
à¦² à¦Ĺà¦ŀ
à§Ł à¦ĵ
a y
à¦¼à¦¾ ,
à¦¯ à¦Ĺ
Ġà¦ª à¦¬
à¦°à¦ªà¦° à¦ĵ
Ġà¦Ĺ à¦Ńà¦°
à¦¨ à¦ľà¦¨à¦ķ
Ġà¦Ĩà¦¨ à¦¸
Ġà¦¬ à¦Ł
u s
Ġà§ª à§Ń
Ġà¦ıà¦ķ à¦¸à¦®à§Ł
Ġà¦ĸ à¦¤
Ġà¦Ĩà¦ĩ à¦ª
à¦®à¦ĺ à¦Ł
à¦ļà¦¨ à¦ķ
a m
Ġà¦² à¦®
à¦¼ à§ģ
à¦Ĩ à¦°à¦ĵ
à§« à§«
à¦ī à¦ĩ
à§ĩà¥¤ âĢľ
à¦°à¦¹à¦£ à¦¯
à¦² à¦ĺ
à¦¯ à¦Łà¦¨
Ġà§ª à§¯
à¦ªà¦ķ à¦²
à¦Ń à¦¬à¦¨
Ġà¦¬à¦° à¦ĸ
e l
ÑĢÐ·Ð Ŀ
Ġi ii
à§¨ à§Ń
Ġà¦® à¦²
à¦Ĺà¦ł à¦¨à¦Ł
à¦Ĺ à¦ª
à¦¯ à¦°à¦¤
Ġà§« à§Ń
Ġà¦¬ à¦¯
à¦¹à¦¬ à¦§
à¦Ĺ à¦ĩ
Ġà§¬ à§«
à§ĩà¦¾ ,
à¦ī à¦¶à¦¨
Ġà¦ĩ à¦ķ
u t
à¦¦ à¦Ĺ
Ġà§ª à§¬
Ġà¦°à§Ł à¦Ł
Ġà¦ĩ à¦Ļ
Ġ H
à¦¯ à¦Ń
à¦¿ !
Ġà¦¸à¦®à§Ł à¦ĩ
à§ľ à¦¦
Ġà¦« à¦ķ
e c
à¦¶ à¦ĵ
à¦°à¦ļ à¦°
Ġà¦¬ à¦ĩà§Ł
à¦¾ âĢĵ
à¦ĵ à¦Ń
Ġà¦¦ à¦¤
à¦Ĩ à¦īà¦Ł
Ġà¦ī à¦ĩà¦²
Âł ĊĊĊ
à¦² à¦ĸ
Ġà¦Ĩà¦ķ à¦¬à¦°
à¦® à¦ĵ
à¦¬ à¦Ń
à¦°à¦£ à§Łà¦¨
à¦¯ à§İ
à¦² à¦ĩ
à§ĭ :
Ġà¦ħà¦¨ à¦¨
u r
i m
Ġ W
Ġà¦¬ à¦¦à¦°
Ġà¦ħ à¦¬à¦¨
à¦Ľ à¦¬
à¦Ī à¦¨
à¦ıà¦¸ à¦ıà¦«
à¦¯ à¦ľ
à¦¥ à¦Ń
Ġ y
Ġà§« à§ª
à¦Ńà¦¬ à¦¤
Ġà¦¦à¦° à¦ªà¦¤
Ġà¦ī à¦°
Ġà¦¤à¦ĸà¦¨ à¦ĩ
Ġà¦ªà¦° à¦®
i d
Ġà§ª à§§
à¦ĸ à¦¯
Ġ re
Ġà¦¬ à¦¦
ĠÂł ĠÂł
Ġà¦ıà¦¸ à¦®à§Ł
à¦£ à¦Ń
à¦ķ à§ľ
Ġà¦ļ à§ľ
Ġà¦īà¦ł à¦Ľ
ÂłÂł Âł
â Ķ
à¦¸ à¦ĵ
Ġà¦° à¦¨
à¦Ĩ à¦°à¦Ł
à¦¦à¦¨ à¦ķ
à¦ĩà¦ķ à¦®
Ġà¦« à¦Łà¦ķ
Ġà¦ħ à¦·
à¦¶à¦ķ à¦¦
à¦ĩ à¦¶
à¦¤ à¦ľà¦¨
Ġà¦¸ à¦ĩ
à§ĩ /
i r
à¦Ĺà¦ľ à¦ªà¦¤
Ġà¦Ĩà¦ľ à¦®
Ġà¦¨ à¦Ĺà¦¦
à¦² à¦ļ
à¦¨ à¦Ľ
à¦¿à¦Ĥ ,
à¦ħ à¦ª
Ġ B
âĶ Ĳ
à¦Ĺ à¦ĵ
à¦¶à¦¨ à¦ķ
Ġà¦ķà¦² à¦®
à¦¦ à¦Ł
à¦ĩà¦¦ à¦¹
Ġà¦ıà¦ķà¦ľà¦¨ à¦ķ
à¦¬ à§ľ
Ġà¦¬ à¦¹à¦¨
à¦¯ à¦Łà¦ķ
à¦¯à¦¬ à¦¦
à¦¸ à§ľ
à¦ª à¦¡
Ġà§« à§¬
Ġà¦· à¦·
o l
Ġà¦° à¦ĵà¦¨
à¦¹ à¦Ń
Ġà§ª à§¦à§¦
Ġà¦¶à¦¤ à¦ķ
Ġà§¬ à§ª
à¦¡ à¦Ł
à¦¬ à¦Ľ
à¦¨ à¦¶à¦¨
à¦°à¦¨ à¦Ĺà¦°
à§ľ à¦²
à¦² à¦°à¦ķ
Ġà¦ĩà¦ī à¦ıà¦¨à¦ĵ
à¦ľ à¦īà¦¦
? âĢĻ
Ġà¦¬ à¦ŀ
à¦ļ à¦¯
à¦· à¦¸
Ġà¦¸ à¦°à¦¦
Ġà¦¸ à¦«à¦Ł
Ġà¦ĸ à¦²
a k
Ġà¦° à¦¹à¦¸
Ġà¦ľ à¦²à¦¬
v er
Ġà¦¤ à¦«à¦¸
à¦ľà¦¨ à¦¶
à¦Ī à¦®
Ġà¦ľà¦¨ à¦Ĺ
à¦¨ à¦ªà¦¤
à¦¯ à¦«
à¦· à¦ķà¦°
à¦°à¦¬ à¦£à¦¤
à¦² à¦¹
à¦Ł à¦Ľ
à¦ª à¦Ĺ
à¦² à¦¥
à¦¾ ;
à¦°à§Ł à¦Ł
Ġà¦īà¦ª à¦Ń
c om
à¦ıà¦ķ à¦ĩ
Ġà¦¸ à¦¶à¦¸
à¦¤ à¦°à¦ķ
u l
à¦ĩà¦¨ à¦¸
Ġà¦ıà¦¸ à¦ıà¦¸à¦¸
Ġà§« à§¨
ïģ ¬
à¦°à¦ļ à¦£
Ġà¦ı à¦ľà¦¨
à¦¦ à¦ªà¦¤
à¦ľà¦¨ à¦ĩ
Ġà¦ī à¦ĩ
à¦¨à¦¤ à¦®
Ġà¦Ĺà¦£ à¦¸
Ġà¦ªà¦° à¦¶
Ġà¦Ń à¦Ļ
Ġà§« à§®
à¦°à¦¬ à¦²
Ġà¦®à¦¨ à¦¸
Ġà¦ıà¦ĸà¦¨ à¦ĩ
Ġà¦ĩ à¦¸à¦®
es t
Ġà¦¶ à¦ĵ
à¦¤ à¦Ĺ
č č
à¦¦ à¦«
Ġà¦ļ à¦®à¦ķ
à¦¶ à§Ł
Ġà¦Ľ à¦¡
Ġà¦ľà¦¨ à¦¸à¦Ń
Ġà¦« à¦Ł
Ġà¦ĺà¦Ł à¦Ľ
r o
à¦° à¦¥
à¦¬ à¦¯
Ġà¦¨à¦¬ à¦®
Ġà¦®à¦¨ à¦ľ
Ġà¦ª à§Łà¦¸
à¦Ĺ à¦¡
à¦¤à¦¬ à¦¤
Ġà§¨à§¦à§¦ à§Ń
à¦ħ à¦¬à¦¶
à§Łà¦¨ à¦¸
Ġà¦¹ à¦¨à¦¨
Ġà¦Ĺà¦£ à¦ª
à¦ĩ à¦ĵà§Ł
Ġà¦Ī à¦¶
à¦·à§Ł à¦Ĺ
à§© à§®
à¦¬ à§Łà¦ķ
à¦¦ à¦¤
Ġà¦ıà¦¤ à¦Ł
à¦ļ à§Łà¦¤
w w
à¦¿à¦Ĥ à¥¤
Ġà¦ħà¦¬à¦¨ à¦¤
à¦¹à¦¤ à¦¦
Ġà¦Ł à¦®
à¦¸à¦Ń à¦¬à¦¨
Ġà¦Ĩà¦ĩà¦¨ à¦Ĺà¦¤
à¦¡ à¦«
à¦ķ à¦¥
Ġà¦¶à¦ĵ à¦ķà¦¤
Ġà¦Ĩà¦ĩ à¦¡
Ġà¦ª à¦¨
Ġà¦® à¦¦
Ġà§¨à§¦à§§à§ ¯
à¦¡ à¦ª
Ġà¦¨ à§ľ
à¦® à¦®
Ġà¦¯ à¦¤à¦Ł
Ġà¦īà¦ł à¦¬
Ġà¦ķ à§ľ
à¦ķ à¦¸à¦¹
Ġy ou
à¦¡ à¦°
Ġà§§à§« à§¦
à¦® à¦ŀ
à§Ł à¦²
he r
Ġà¦ķ à¦ķà¦Ł
Ġà¦¤ à¦¦
à¦ħ à¦¤
à¦®à¦¦ à¦ª
à¦¶ à¦ĸ
à¦ľ à¦¯
à¦Ŀ à§ľ
Ġà¦« à¦¤
à¦ı à¦®à¦¬
Ġà¦¨à¦ľ à¦°à¦¦
Ġà¦ļ à¦®
à¦® à¦¸à¦¹
à¦Ĩà¦ĩ à¦ª
à¦ķ à¦ľ
à§ĩ .
à¦ľ à¦Ľ
à¦ĸ à¦®
à¦Ĩà¦ĩ à¦ľ
Ġà¦² à¦ľ
à¦¦ à¦īà¦²
Ġà¦« à¦°à¦¹
à¦ķ à¦Ĩà¦ª
s t
Ġà¦ľà¦¨à¦Ĺà¦£ à¦ķ
Ġà¦¨ à¦Ĺ
u n
Ġf or
à¦· à¦Ń
à¦¶ à¦¦
Ġ M
ÑĢÐ·ÐĿ ÑĢÐ¶Ð
Ġà¦ĸ à¦¨à¦¨
à¦Łà¦ķ à¦Ł
Ġà§« à§¯
Ġà¦Ľà§Ł à¦ľà¦¨
Ġà§Ń à§¨
Ġà¦Ń à¦Ł
ĊÂł ĊÂł
Ġà¦ī à¦ĩà¦¨
Ġà¦« à§Ł
Ġà¦Ĩ à¦¬à¦°
Ġà§« à§©
Ġà§« à§§
Ġà¦ī à¦¡
. )
Ġs t
l y
à¦¹ à¦ķà¦°
à¦ļà§Ł à¦ªà¦¤
à¦ĩ à¦ļ
Ġà§§à§¯ à§¬
Ġà¦Ĩ à¦«à¦°
à¦¦à¦¨ à¦Ł
à¦° à¦Ĩà¦¨
à¦ļ à¦²à¦¤
Ġà¦Ĺà¦£ à¦¹à¦¤
Ġà¦Ĺ à¦ľ
Ġà§¬ à§Ń
Ġà¦ķà¦° à¦£
à¦¬ à¦¬à¦°
à¦¬à¦¸ à¦®
à¦ķ à¦Ĺà¦ŀ
à¦Ĩà¦ĩ à§Ł
Ġà¦° à¦ļà¦¨
à¦ī à¦¥
à¦¬ à¦¦à¦¨
Ġà¦¨ à¦°à¦¸
à¦¦à¦« à¦¤à¦°
à¦¸ à¦¦à¦°
Ġà¦ħà¦¬ à¦²à¦®
à¦¤à¦ķ à¦°à¦£
à¦ĩ à¦¹
Ġà¦ķà§Ł à¦²
à¦¸à¦¹ à¦ķ
à§Ł à¦¹
Ġà¦ķà¦¨ à¦«
Ġà¦¸à¦®à§Ł à¦Ł
Ġà¦¯ à¦®
à¥¤ âĢĺ
Ġà¦Ĩà¦ľ à¦¹
at ion
Ġà¦Ł à¦Ļ
à¦ī à§ľ
à§ĭ âĢĻ
Ġà¦ķ à¦¨à¦Ł
à¦£ à¦ª
à¦¸ à¦Ĺ
à¦®à¦¸ à¦®à¦°
à¦ıà¦® à¦Ĩà¦ĩ
à¦¦ à¦°à¦¬
à¦ħ à¦ªà¦°
Ġà¦ıà¦ķ à¦¥
à¦¨ à¦¸à¦®
à§Ģ )
à¦ķ à¦ĵ
Ġà¦Ŀ à¦°
Ġa re
Ġà¦ĺà¦Ł à¦²
à¦ĵ à¦¬
Ġ C
Ġà¦ħ à¦ļ
à§¨ à§¯
à¦·à¦ķ à¦ķ
à¦¬à¦ľà¦¨ à¦¦
à¦°à¦¹à¦£ à¦ķ
Ġà§¯ à§¯
Ġà¦ĸ à¦¸à§ľ
Ġà§¬ à§®
Ġà§¬ à§¬
à§§à§¯ à§¯
Âł Ċ
à¦· à¦ª
à¦ļà§Ł à¦ĩ
Ġà¦ªà¦¥ à¦ļ
à¦°à¦¸ à¦°
à¦ª à¦¬
à¦· à¦Ł
à¦¤ à¦¸
à¦Ľ à¦¤
à¦Ĩà¦ĩ à¦¬
g e
Ġà¦Ĺ à¦®
à¦Ĩ à¦¶
âĢ ĭ
Ġà¦ħ à¦¯
à¦ĩà¦² à¦Ł
Ġ on
v e
à¦¬ à¦ªà¦¨
à¦¯ à¦¯
Ġà¦®à§Ł à¦²
à¦¬ à¦²à¦¤
Ġà§® à§«
à¦¬à¦ķ à¦ķ
t er
Ġà¦Ĩ à¦ĩà§Ł
Ġb e
Ġà§¨à§« à§¦
Ġà§¨à§¦à§¦ à§¬
Ġà¦Ńà¦¬à¦¨ à¦Ł
Ġà¦ĵ à¦ķ
Ġà¦īà¦¦ à¦¯
à¦« à¦ķ
à¦§ à¦°à¦¨
à¦° à¦ļà¦²
Ġà¦ħà¦² à¦°
Ġw as
Ġà¦® à¦Īà¦¨
Ġà¦¸à¦® à¦¤
à¦°à¦¤ à¦²
à¦§ à¦ķà¦¤
ÑĢÐ¶Ð ¸
Ġà¦ľ à¦ĸà¦®
à¦ıà¦¨ à¦¸
à¦¤ à¦¥
à¦¬à¦¨ à¦¯
Ġà¦¸ à§ľ
à¦ŀ à¦°
à¦ıà¦¸ à¦ĩà¦¤
à¦ıà¦® à¦ıà¦¸
it h
Ġà§Ń à§§
Ġà§§à§¯à§Ń à§§
à¦Ł à¦ĵ
à¦¬ à¦ĵ
à¦ķ à¦¸à¦Ń
Ġà¦¨à¦ĵ à¦Ĺ
à¦Ĺà¦¤ à¦Ń
Ġà¦ķ à¦¦
Ġà¦° à¦ĵ
à¦ķ à¦®à¦¤
n s
à¦¿ âĢĶ
Ġà¦Ł à¦¹à¦²
l d
Ġ 1
Ġà§Ń à§®
à¦Ń à¦¨
Ġà¦¸à¦° à¦ŀ
Ġà¦ħ à¦¡
Ġà¦¶ à¦¯
Ġà¦¸à¦¹ à¦ķà¦°
à¦¸à¦¨ à¦ķ
à¦ĩà¦Ł à¦¸
Ġà¦ħà¦¬ à¦®
Ġà¦ķà¦® à¦¬
Ġà¦ķ à¦ļ
à§¦ à§«
Ġà§Ń à§Ń
à¦° à¦ľà¦¨à¦ķ
Ġà¦® à§Łà¦¦
o p
Ġà¦¸à¦«à¦Ł à¦ĵà§Ł
à§İ à¦ªà¦°
à¦ı à¦®à¦¸
à¦¯à¦® à¦¤
Ġà§¬ à§©
ÂłÂłÂłÂłÂłÂłÂłÂł ÂłÂłÂłÂłÂłÂłÂłÂł
Ġà¦ıà¦ķà¦ĩ à¦Ń
w er
à¦¹ à¦ķà¦¦
Ġà¦¬à¦° à¦Ĺ
Ġà§¬ à§¦à§¦
à¦¼ à¦¾à¥¤
Ġà¦ķ à¦«
à¦¤ à¦ĵ
à¦²à¦ª à¦®
à¦ļ à§ľ
à¦¾âĢĻ à¥¤
à¦ľ à¦ĵ
Ġà¦Ĩ à¦ķà¦¤
Ġà¦®à¦¹ à¦¸
à¦¬ à¦ķà¦¦
à¦¬à¦° à¦¦
à¦ª à¦ª
Ġà§¬ à§¯
Ġà¦ķà¦¬à¦° à¦¸
Ġà¦īà¦ª à¦ķà¦®
à¦¸ à¦«à¦Ł
à¦°à¦¹ à¦°
Ġà¦ĩ à¦¯
à¦¾ )à¥¤
i g
Ġà¦² à¦°
à¦ĩ à¦¸à¦¬
Ġà¦ī à¦Ĺ
Ġà¦¸à¦¬ à¦ĩ
à¦ĺ à¦Ł
à¦²à¦ķ à¦ķ
Ġà¦ĩà¦¨ à¦ķ
à¦Ł à¦Ń
à§ª à§¨
Ġà¦īà¦ª à¦ķà¦°à¦£
à§ĩ :
à¦Ĩ à¦ķ
à§ª à§®
à¦¶ à¦ľ
Ġà¦°à¦¹à¦® à¦¤
à¦ĩ à¦īà¦°
Ġà¦¸ à¦²
à¦ıà¦¸ à¦ıà¦®
à¦ļ à¦¶
à¦Ĩ à¦¤
Ġà§¯ à§«
Ġà¦ī à¦ķ
Ġà¦Ĩà¦ĩ à¦«
Ġà§¬ à§¨
à¦ľ à¦īà¦ķ
à¦ĩ à¦īà¦¨
Ġà§Ń à§©
à¦ĩ à¦¸à¦²
Ġà¦ĵ à¦²
a b
Ġà¦¬ à¦£
à¦ıà¦¸ à¦ľ
à¦ª à¦¯
Ġf r
à§§à§¯ à§Ń
Ġà¦ª à¦¤à¦¨
Ġà§¨à§¦à§¦ à§§
à¦®à¦¤ à¦²
à¦¶ à¦¸à¦¹
à¦Ĩ à§Ł
Ġà¦¤ à¦¨
Ġà¦® à¦¯
à¦¶ à¦¹à¦°
à§İà¦¸à¦ķ à¦¦
Ġà¦Ĩà¦ľ à¦ĵ
Ġà¦ĩà¦ī à¦Ł
Ġà¦¶à¦¤ à¦Ń
Ġà¦¨ à¦ĵà§Ł
Ġà¦ıà¦ķ à¦¤
Ġà¦ĺà¦Ł à¦¤
Ġà¦ĩ à¦¦
à¦¾à¦ģ ,
Ġ Ċ
Ġ P
à¦ı à¦¡
Ġà¦Ĩà¦² à¦¤
Ġà¦ıà¦¨ à¦¡
Ġà¦® à¦«
iv e
à¦¥ à¦ª
à¦¦à¦ķ à¦¦
à¦®à§Ł à¦®à¦¨à¦¸
Ġà¦ªà¦¦ à¦ª
à¦Ĺ à¦°à¦£
à¦Ĩà¦ĩ à¦¡à¦¬
à¦ı à¦ķà¦ľà¦¨
Ġà§Ń à§¬
Ġw ith
Ġà¦ķ à¦¬à¦²
à¦¬ à¦°à¦¤
à§ª à§Ń
Ġà¦¬ à¦ĩà¦Ł
Ġà¦² à¦¡
Ġà¦¸à§ľ à¦ķà¦Ł
à¦Ľ à¦²
à¦°à¦ķ à¦¦
à¦¬à¦² à¦®
Ġà§§à§¯ à§«
Ġà¦¸à¦®à§Ł à¦¸
à¦Ĺà¦łà¦¨ à¦Ĺ
à¦ķà¦¸ à¦ĩ
à¦²à¦¤ à¦²
à§ĭ à¦ĥ
Ġà¦ħà¦ª à¦¬
Ġà¦ıà¦« à¦¬
Ġ =
Ġà¦¹à¦ľ à¦°à¦¤
à¦² à¦¡
Ġ ÑĢÐ¶
Ġà¦® à¦ĩà¦¨
à§© à§©
Ġà¦¨ à¦ķ
Ġà¦® à¦ĵà¦¦
à¦® à¦¡
Ġà¦Ĩ à¦Ń
à§ģ '
à¦Ń à¦Ļ
à¦Ł à¦ĸ
Ġà¦ıà¦¨ à¦ľ
à¦¾. )
à¦ı à¦ª
à¦°à¦® à¦§
Ġà¦ħà¦ª à¦®
Ġà¦Ĩà¦Ł à¦ľà¦¨
c h
à¦° à¦ŀ
Ġà¦ªà¦° à¦¸
à¦ª à¦ľ
Ġà¦¶ à¦ª
à¦²à¦ķ à¦¦
à¦²à¦ª à¦¥
Ġà§¬ à§§
Ġw or
Ġà¦¬ à¦¶
Ġà§® à§Ń
Ġà¦ıà¦ķ à¦®à¦¤
à¦¤ à¦ļ
à¦ķ à¦«
Ġà¦ħ à¦¹
a p
Ġà§§à§¨ à§¦
Ġà¦¸à¦« à¦²à¦¤
à¦Ł à¦¹
i f
Ġi t
. (
Ġà§® à§¦à§¦
Ġà§® à§®
à¦ľ à¦¹
ĠâĢ Ļ
c t
à¦¤ à¦Ľ
Ġà¦° à¦¤à¦¨
à¦ł à¦¤
à¦°à¦£ à¦ķ
Ġà§Ń à§ª
Ġà¦« à§Łà¦¸
q u
à¦¯ à¦¸à¦ļ
Ġà¦ľ à¦Ĺà¦¤
Ġà§¨à§¦à§¦ à§«
à¦§ à¦®
Ġà¦Ń à¦°à¦¸
à§© à§¬
Ġà¦ıà¦ĩà¦ļ à¦ıà¦¸à¦¸
il l
Ġà¦° à¦®à¦¨
Ġà§® à§¬
Ġà§Ń à§¯
à¦ħ à¦ķ
à¦ıà¦® à¦¡
Ġà¦¦ à¦Ĺ
à§ĩ à¦Ĥ
Ġà¦Ĩà¦¹ à¦¬
Ġà¦ī à¦®
Ġà¦īà¦ª à¦®à¦¹
à¦¶ à¦¹
Ġà¦ĩà¦ī à¦ķ
à¦· à¦ĩ
Ġà¦°à¦ĵ à¦¶à¦¨
à¦°à¦¤ à¦ķ
Ġà¦Ń à¦¯
à¦ĩ à¦ĵ
Ġà¦ĺ à¦°à¦¬
à§¦à§¦ à§¦
à¦Ĩ à¦¹à¦¤
Ġà¦¨ à¦ĩ
à¦Ĩ à¦°à¦¬
Ġà¦ĩà¦¨ à¦«
à§ľ à¦Ł
s e
à¦¿ '
Ġà¦Ĺà¦¤ à¦¬
à¦ł à¦¦
Ġà§¯ à§¬
Ġà§¨à§¦à§¦ à§ª
à§© à§ª
à§© à§Ń
à¦Ł à¦¸à¦¹
Ġà¦¬ à¦ĩà¦®
! âĢĻ
à§Ł à¦ª
à¦ıà¦¸ à¦¡
à¦ł à¦ª
c e
à¦·à¦ķ à¦¤
Ġà¦Ľ à¦¤
à¦Ł à¦«à¦°
à¦ļ à¦¸
Ġà¦ı à¦¨à¦¬
à¦ĵ à¦®
à¦ıà¦® à¦ıà¦ĩà¦ļ
Ġà¦Ĩà¦« à¦¸
à¦ªà¦° à¦¬à¦°
Ġà¦ħ à¦ļà¦²
Ġà¦° à¦®
à¦Ĺ à¦«
Ġà¦Ľ à¦¨
à¦¿à¥¤ "
à¦ļ à¦Ĺà§ľ
à¦ıà¦¨ à¦ı
à§ĭ ?
Ġà¦¸à¦¬ à¦Ĺ
à¦ĺ à¦®
Ġà¦° à¦ŀ
Ġà¦¢ à¦²
Ġà¦¨ à¦ķà¦²
à¦£ à¦¹
à§İ à¦¸à¦¬
à¦ªà¦Ł à¦ª
à§© à§§
Ġà¦Ł à¦¸
à¦¿) ,
A ns
Ġà¦ķà¦® à¦¤
Ġà¦ĩà¦Ł à¦Ń
Ġà¦Ĩà¦¹à¦¤ à¦¦
Ġà§® à§ª
à¦¦ à¦¸à¦¹
Ġà¦ıà¦ķ à¦¦à¦®
ĠH e
à¦¯à¦® à¦ķ
à§Ģ :
à¦¸ à¦ĵà§Ł
Ġà¦ļà¦® à§İà¦ķ
Ġà¦¨ à¦¬à¦¨
Ġà¦ħà¦¬à¦¸ à¦°à¦ª
Ġà¦ľà§Ł à¦ª
à¦¯ à¦ļ
à¦° à¦ĺ
a il
ĊÂł Ċ
Ġà¦¨à¦¬ à¦ľ
à§¨à§¦ à§§à§«
à§¨à§¦ à§§à§ª
Ġà¦ĩ à¦¶à¦¤
Ġ r
à§Łà¦¤ à¦ª
à¦ľ à¦ªà¦¥
à¦¦ à¦ĵ
Ġà¦ĵ à¦®
Ġà¦Ĩà¦ĩà¦¨ à¦®à¦¨
à¦ĵ à¦ķ
Ġa l
h t
à¦¯ à¦¸à¦¹
à¦§ à¦¶à¦¤
ou n
Ġà¦ıà¦®à¦¨ à¦ĩ
à¦ı à¦ľ
à¦ ĭ
Ġà¦ĵ à¦ĸ
à¦Ŀ à¦ĸ
à¦§ à¦¸
à¦ľ à¦Ļ
à¦° Ã
à¦® à¦īà¦¦
Ġà§¯ à§Ń
Ġà¦® à¦®
an g
à¦ĵ à¦ª
Ġà§® à§¯
à¦ª à¦Ĺà¦ŀ
âķ ķ
à¦ķ à¦¡
à¦ı à¦ĸ
Ġà¦ª à¦¯
Ġà¦Ĩà¦ļà¦°à¦£ à¦¬
à¦¯ à¦ľà¦¨
à¦ıà¦®à¦ĩ à¦ı
Ġh is
Ġà¦ĩ à¦ľà¦¤
Ġà§Ń à§¦à§¦
à¦° à¦īà¦¦
Ġà¦ĩà¦ī à¦ıà¦¸
à¦°à¦£ à¦¬
ii i
à¦ĸ à¦£
Ġà¦¬ à¦¸à¦¨
Ġ k
Ġà¦ľ à¦Ĺà¦¨
Ġà¦ħà¦¸ à¦¨
à¦ĩà¦¸ à¦Ļ
à§Łà¦¦ à¦ª
Ġà§¯ à§®
Ġà¦ĩà¦ī à¦ıà¦¨
Ġà¦Ĩà¦® à¦ľ
er s
à§Ł à¦Ł
Ġà¦ı à¦®à¦¬
Ġà¦¤ à¦®
Ġà¦ĸ à¦¸à¦°
à¦°Ã ¦
Ġà¦Ĺà¦£ à¦¶
Ġà¦ª à¦Ļ
Ġà¦¹ à¦ĩ
Ġ v
à¦ħ à¦¬à¦°
à¦ī à¦«
à§ĭ à¦Ĥ
Ġà¦Ĩ à¦ĩà¦Ł
Ġà¦ĵ à¦Ł
à¦ĵ à¦Ł
d s
à¦ļ à¦¤à¦²
Ġà¦Ĩà§Ł à¦ķà¦°
Ġà¦ľà¦¨ à¦¬à¦²
à§¨à§¦ à§§à§¬
à¦Ĩà¦ĩ à¦ıà¦¸
à¦Ĩ à¦Łà¦ķ
Ġa s
Ġà¦ĩ à§Łà¦°
à¦¹ à¦¤à¦°
à¦¾à¥¤ "
Ġà¦° à¦£à¦¬
Ġà¦ıà¦°à¦ªà¦° à¦ĩ
à¦¸ à¦¯
à¦¶ à¦¯
à¦Ń à¦¸
Ġà¦¨ à§Łà¦¨
à¦Ĩ à¦«
-- --
Ġà¦Ĺà¦£ à¦Ńà¦¬à¦¨
à¦° à¦²à¦¬
à¦ĩ à¦ľà¦¨
à¦²à§Ł à¦Ĺ
Ġà¦¦à¦« à¦¤à¦°
Ġà¦ī à¦¸à¦ķ
à¦¶à¦¨ à¦¸
à¦Ĩ à¦¬à¦¦
à¦¸ à¦¸à¦¹
Ġc om
Ġà¦Ĩà¦ķ à¦¸
Ġ F
Ġà¦ķ à¦¸
à¦²à¦ķ à¦Ń
ĠĠĠĠĠĠĠĠ ĠĠĠĠĠĠĠĠ
Ġà¦¸à¦¹ à¦ª
Ġ N
à¦ľ à¦ķà¦°
Ġà¦ıà¦ķ à¦§à¦°à¦¨
à¦« à¦²à¦ķ
Â ¤
Ġà§® à§¨
Ġ R
à¦²à§Ł à¦Ł
u m
Ġà¦ĩ à¦ĩà¦ī
Ġà¦Ĩà¦« à¦ľ
à¦¿ ;
Ġà¦¸à¦¹ à¦¸
à¦Ł à¦®à¦¸
Ġà¦ıà¦°à¦ªà¦° à¦ĵ
Ġn ot
a in
à¦ļ à¦Ĺ
à¦· à¦Ĺ
à¦¹ à§İ
Ġà¦ Ķ
Ġà¦ĸ à¦£
à¦Ł à¦ĩ
à¦® à¦ªà¦°
à¦¦ à¦¹
à¦¿âĢĻ à¥¤
à¦ļ à¦°à¦£
à§Ń à§¦
Ġà¦¦à¦² à¦ĩ
à¦° à¦Ļ
Ġà¦Ĩà¦ĩà¦¨ à¦Ł
Ġà¦® à¦¸à¦²
à¦ĸ à¦ľà¦¨à¦ķ
Ġth at
à¦Ł à¦ľ
Ġd o
Ġà¦ª à¦ľ
Ġà¦¬à¦Ľà¦° à¦ĩ
à§¬ à§«
âĢ ļ
à¦² à¦§à¦¨
ÑĢÐ¶Ð ¥
Ġà¦ķà¦ĸà¦¨ à¦ĵ
à¦ĵ à§ľ
à¦¨ à¦«
Ġà¦° à¦¡
à¦¦ à¦Ĺà¦ŀ
Ġà¦ĩà¦¨ à¦ľ
à§§à§ §à§
Ġà¦¸ à¦¬à¦¸
à¦¬ à¦¤à¦²
à§¨à§¦ à§§à§©
Ġà¦ıà¦® à¦¡
Ġà¦¸ à¦ĸ
à¦ļ à¦ª
t h
Ġà¦§à¦° à¦²
à¦¡ à¦Ĺ
Ġà§® à§§
à§İà¦¸ à¦ķà¦°
Ġà¦¹ à¦Ł
Ġà§¨à§¦à§¦ à§©
à¦Ń à¦°à¦¶
Ġà§¨à§¦ à§¦à§¦
Ġà¦¨à¦Ĺ à¦°à¦¬
à¦¬à¦° à¦ĩ
à¦ļ à¦ľà¦¨à¦ķ
à¦® à¦Ń
à¦°à¦¬ à¦¤
Ġs h
Ġà¦ħà¦² à¦Ĩà¦īà¦Ł
à¦ıà¦® à¦ı
es s
Ġà¦Ĩ à¦īà§Ł
à¦²à§Ł à¦ķ
à¦¤ à¦¬à¦°
Ġà¦° à¦īà¦«
Ġà§® à§©
à¦°à§Ł à¦ķ
a ve
à¦¼ -
à§ª à§§
Ġà¦īà§İ à¦ķ
à¦ĵ à¦ľ
à¦¹ à¦īà¦¦
Ġà¦ĩ à¦®à¦¨
Ġà§§à§¯à§¯ à§¬
Ġà§¨à§¦ à§¨à§¦
à¦¨à§Ł à¦¶
Ġà¦ļà¦² à¦²
Ġà¦° à¦«à¦¤
à¦¿à¥¤ âĢľ
Ġ D
à§ĩ âĢĻà¥¤
Ġà¦¹à¦¯ à¦°à¦¤
à¦ķ à¦ł
à¦® à¦ĩ
à¦· à¦¬
Ġà¦Ĩà¦ĩ à¦ľ
à¦¾ ),
Ġà¦Ĺà¦£ à¦¨
Ġà¦ĩà¦¨ à¦ļ
Ġà¦¬ à¦ĸ
Ġà¦¸ à§İ
à¦Ĩà¦ľ à¦ķ
Ġà¦ıà¦² à¦ľ
à¦® à¦ªà¦¨
Ġà¦ĩ à¦ª
Ġà¦¹à¦ľ à¦¯
Ġà¦ī à¦ĩà¦®
Ġà¦Ń à¦¦
Ġa t
as s
Ġà¦ıà¦ķ à¦¨
Ġà¦®à¦¹ à§ľ
Ġà¦ĸ à¦°
Ġà¦ķà¦¨ à¦Ń
Ġà¦§ à¦°à¦£
à¦¨ à¦ĸ
à¦ıà¦¸ à¦ĩà¦°
Ġà¦¸ à¦¸
Ġà¦¸à¦¬à¦¸ à¦®à§Ł
à¦ķ à¦¬à¦²
Ġà¦¸ à¦ļà¦²
à¦Ľ à¦ª
Ans wer
Ġà¦ħà¦¨ à¦¶à¦¨
à¦°à¦¶ à¦¸
Ġà§¯ à§¨
à¦ĩ à¦ªà¦°
à§§à§¯ à§®
t r
oo d
à¦¥à¦² à¦¬à¦¨
à¦Ľ à¦Ĺ
Ġà¦¡ à¦ķ
à¦ĭ à¦£
à¦¯ à¦¹
Ġà¦² à¦¸
âĸ ĵ
à¦²à¦¤ à¦¦
Ġà¦Ł à¦ķ
Ġà¦Ĩà¦Ĺ à¦®à¦¨
Ġà¦Īà¦¦ à¦Ĺ
à¦¥ à¦¦
Ġ E
Ġà¦¦ à¦°à¦¬
à¦²à¦¤ à¦ª
à¦¬ à¦ŀ
à¦ľ à¦ĵà§Ł
Ġà¦Ĩà¦ķ à¦¨
Ġà¦® à¦ķ
à§İ à¦«à¦°
à¦¤ à¦¤à¦®
ver y
Ġà¦¤ à¦°à¦«
à¦ Ĳ
à¦°à¦¸ à¦¬
Ġm e
à§ĭ à¥¤âĢĻ
à¦¾âĢĻ ,
Ġà¦ī à¦ĸ
u d
à§ľ à¦ªà¦¤
à¦Ĺ à¦łà¦ķ
Ġà¦¸à¦¬ à¦¶
Ġà¦ĺà¦Ł à¦¬
à¦ı à¦¶
Ġà¦ħ à¦®à¦°
Ġà¦ļ à¦ķà¦°
Ġà¦ĵ à¦¨
ÑĢÐ¶Ð ´
Ġà¦¸à¦« à¦°à¦ķ
à¦² à¦Łà¦¨
à¦¬à¦¸ à¦Ł
à¦¸ à¦ĩ
Ġà¦Ĺà§ľ à¦¤
à¦Ĩ à¦Ł
à¦ª à¦ŀ
à¦Ĺ à¦Ļ
à§ĩ? âĢĻ
Ġà¦Ĩà¦° à¦®
à¦Ĩ à¦°à¦ª
ĠW h
à¦ª à¦ĵ
âĢ ¢
à¥¤ *
à¦ľ à¦ĸà¦¬à¦°
Ġà¦īà¦ªà¦¸ à¦°
Ġà¦ĩà¦¨ à¦Ń
à¦¿à¦Ĥ -
Ġà§¨à§¦à§¦ à§¨
Ġà¦Ĺà¦£ à¦ľ
Ġà¦ıà¦¸ à¦ıà¦®
Ġà¦ıà¦ķ à¦¯
Ġà¦¯à¦¤ à¦ĩ
Ġà¦ľà¦¨ à¦¨
Ġà¦¬ à¦ļ
Ġ +
Ġà¦¬ à¦ķà¦°
Ġà¦ª à¦ª
Ġw e
Ġà¦ĩà¦¨ à¦¡
à§© à§¯
à¦ŀ à¦¦
Ġfr om
a ge
à¦ķ à¦·
b d
Ġ qu
Ġà¦Ĩà¦° à¦ľ
Ġà¦¤ à§İà¦ªà¦°
Ġà§¯ à§§
Ġà¦Ĺ à¦Ļ
à¦¤à¦° à¦ª
à§Łà¦¨ à¦¶
Ġà¦ĸà¦¬à¦° à¦Ł
à¦ıà¦¨ à¦¬
Ġà¦Ĳ à¦¶
Ġw h
à¦ı à¦Ĩà¦°
Ġà¦Ł à¦ª
Ġà¦¬à¦² à¦Ł
à¦ªà¦£ à¦¨
à¦¨ à¦°à¦¤
Ġ 2
Ġà¦Ĩà¦² à¦®à¦ķ
or t
Ġà¦īà¦ª à¦²à¦¬
à¦ıà¦¸ à¦Ł
à¦¤ à¦ĸà¦¨
ak e
Ġà¦Ĺà¦£ à¦ªà¦°
à¦¾à¥¤ âĢľ
à¦Ĺ à¦¸à¦¹
Ġà¦« à¦²à¦¨
à¦ħ à¦«
à§ĩà¥¤ âĢĺ
Ġà¦¬à¦¹ à¦¨à¦ķ
Ġà¦ħà¦¬ à¦¤à¦°à¦£
à¦¥ à¦¸
à¦« à¦²à¦¨
à¦®à¦¨ à¦Ł
à¦· à¦¨
à§¨à§¦ à§§à§¨
à¦Ĺ à¦®à¦¨
à¦¥ à¦ķà¦°
Ġà¦ī à¦·
ou ld
o re
à¦Ľ à§Ł
à§ª à§¬
Ġà¦® à¦°à¦¹
Ġà¦Ĩà¦¨ à¦¬
Ġà¦¨à¦¬ à¦¬à¦°
Ġ us
Ġà¦ķ à¦Ļ
à¦· à¦ĵ
ar t
an t
Ġà¦²à¦ķ à¦¡
Ġà¦ı à¦®à¦¦
à¦°à¦¬ à¦£
à¦ł à¦¬
Ġà¦ļ à¦ķà¦¬
à¦ķà¦² à¦®
Ġà¦Ŀ à¦Ĺà§ľ
à¦ļ à¦²à¦ķ
Ġà¦ıà¦¸ à¦ª
à¦ľ à¦ķà¦²
Ġà§¯ à§©
à¦¬à¦¸ à¦¹
à§« à§¨
à¦ĩ à¦ĵà¦Ń
Ġà¦¬ à¦°à¦£
i es
Ġà¦ı à¦ıà¦¸à¦Ĩà¦ĩ
à¦ļ à¦¦
Ġà¦ķ à¦®à¦¨
Ġà¦ĩ à¦®à¦¤
à¦¬ à¦¡
Ġà¦¦à¦ĸà¦² à¦¦
à¦ıà¦¨ à¦¡
Ġà¦¬ à¦ľà¦²
Ġà¦Ĩà¦² à¦¬
Ġà§¯ à§ª
Ġà¦¡ à¦¬
Ġà¦¶à¦¤ à¦ķà¦°
à¦¬ à¦°à¦ķ
à¦¡ à¦ĵ
à¦° à¦ªà¦¨
Ġn e
Ġà¦¸ à¦īà¦¦
à¦¯ à¦ľà¦¨à¦ķ
à§¦ à§¯
Ġà¦ľà¦¨ à¦ªà¦¥
Ġà¦ķà¦® à¦Ľ
Ġà¦¨à§Ł à¦ľà¦¨
Ġà¦Ĺà¦£ à¦«
à¦ķ à¦¸à¦¨
m ail
à¦ıà¦¨ à¦ıà¦¸
à¦Ł à¦ļ
à¦£ à¦Ĺà¦ŀ
Ġà¦īà¦ª à¦¬
à§İ à¦«
à¦²à¦¤ à¦ķ
Ġà¦¤ à¦²à¦¬
à§ģ à¦Ĥ
à¦ĩà¦¨ à¦ķ
Ġ ,
Ġà¦Ĩà¦ĩ à¦Ń
Ġà¦¹à¦ķ à¦ķ
à¦Ľ à¦¡
ÑĢÐ·ÐĹ ÑĢÐ¶
à¦¨ à¦Łà¦¨
ĠI t
Ġ #
à¦ħ à¦¬à¦¸
Ġà¦Ĩà¦² à¦¹
.. ..
à¦ľ à¦ĩ
oo k
Ġà¦¬ à¦¬
à¦® à¦ĸ
čč čč
Ġà¦ħà¦ª à¦ª
Ġà¦īà¦ª à¦¸à¦¹à¦ķ
à¦° à¦¦à¦ķ
est ion
à¦ģ à¦¾
à¦°à¦¸ à¦®
à¦Ĺ à¦®à¦ķ
à¦ıà¦® à¦ĩà¦ī
Ġà¦¹à¦² à¦«à¦¨
à¦ĵ à¦Ĺ
à¦§ à¦Ł
Ġt e
Ġà¦¸à¦® à¦®
à¦¹ à¦ª
Ġà¦ĩ à¦¬à¦¨
à¦Ń à¦²
o s
Ġ le
Ġà¦ľà¦¨ à¦®à¦¤
Âł ĠÂł
Ġà¦ħà¦ª à¦¹
à§ª à§¯
à¦¨ à¦¸à¦¨
à¦ķ à¦¤à¦°
à¦®à¦¨ à¦Ĺà¦°
à§ĩ ...
à¦¸ à¦¦à¦¸
à¦¶ à¦Ń
Ġà¦¤ à¦¤à¦ķ
Ġà¦¸à¦®à§Ł à¦ķ
à¦¸ à¦ªà¦¤
à¦ıà¦¸ à¦ķ
à§¨à§¦ à§§à§§
ou t
à¦ıà¦®à¦ĩ à¦ıà¦°
à¦Ĩ à¦²à¦®
Ġà¦ķà¦° à¦¦
à¦ı à¦Ĺ
Ġà¦¦ à¦¸
om e
Ġà¦° à¦¦
à¦Ĩ à¦ĩà¦Ł
à¦¦à¦° à¦Ĺà¦ŀ
à¦¬à¦¨ à¦ķ
à¦¬à¦ľà¦¨ à¦°
à¦ıà¦¨ à¦ıà¦¨
à¦¸ à¦īà¦¦
âĢĻ âĢĶ
Ġà¦¬ à¦¸à¦²
à¦° à¦°à¦®
à¦¨à¦¸ à¦Ń
à¦ľ à¦¸à¦¹
à¦¤à¦° à¦«
Ġà¦ĵ à¦¹
Ġà¦ī à¦¬
ou r
à¦ı à¦Ń
Ġà¦ħà¦ªà¦¹à¦°à¦£ à¦ķ
à¦ª à§Ł
Ġà¦° à¦ĩà¦²
à§¨à§¦ à§§à§Ń
à§ª à§ª
à¦¤ à¦Ĺà¦¤
Ġb y
Ġà¦¸à¦®à§Ł à¦®à¦¤
Ġà¦ı à¦°à¦ķà¦®
à¦¯ à¦ªà¦¦
ï Ĥ
Ġà¦° à¦£
Ġà¦ľà¦¨ à¦¸à¦¨
Ġc an
, âĢľ
à¦²à¦¨ à¦°à¦¤
à¦ĩ à¦īà¦ľ
à§¦ à§Ń
Ġm an
à¦ıà¦¸ à¦®à§Ł
¼ ÑĢÐ¶
à§ľ à¦¶
Ġà¦Ĺà¦łà¦¨ à¦¤à¦¨
Ġà¦ĩ à¦¶
Ġà¦ī à¦Ń
à¦°à¦¸ à¦ļ
Ġà¦ªà¦° à¦¨
Ġà¦ļ à¦²à¦¨
Ġà¦¡ à¦¨
ÑĢÐ¶Ð ¾
Ġà§¨à§¦ à§¨à§§
à¦¤à¦° à¦Ł
à§ª à§©
à¦¦à¦ķ à¦ķ
Ġà¦® à¦ķà¦¬
à¦Ĥ -
à¦¿ âĢĵ
à¦ī à¦¦à¦ķ
à§ģ )
à¦ħ à¦Ĺ
à¦ıà¦® à¦ıà¦¸à¦¬
Âł Ġ
Ġs u
Ġ O
Ġo ur
Ġà¦ĭ à¦¤
Ġà¦° à¦¤
à¦ªà¦ķ à¦Ń
à¦ıà¦¸ à¦ıà¦¸
Ġà¦« à¦¨
Ġà¦Ĩà¦¸ à¦®
à¦ıà¦¸ à¦ĩà¦¸
Ġà¦ıà¦° à¦¦
à¦® à¦¸à¦¨
à¦¯à¦® à¦Ĺ
Ġh ave
at e
à¦ī à¦ªà¦ķ
Ġà¦¤ à¦ªà¦¨
à§¨à§¦ à§§à§¦
à¦īà¦ľ à¦Ł
* ,
à¦£ à¦¸
Ġà¦ıà¦ķ à¦¶
à¦Ĩ à¦¸à¦²
Ġà¦¬à¦° à¦«
Ġà¦ľ à¦Ĺ
à¦¨à¦® à¦ľ
à¦Łà¦® à¦¹à¦²
à¦¯à¦ķ à¦²
an d
à¦ī à¦ĩà¦ķ
à¦ĩà¦Ł à¦Ł
à¦·à¦£ à¦ķ
Ġà§¯ à§¦à§¦
Ã ĳ
à¦¾ '
à¦ķ à¦¹
r it
à¦® à¦«
à¦¼ à§Ģ,
à¦ķ à¦§
à¦¤ à¦ķà¦°
à§® à§¦
à¦¨ à¦Ńà¦°
Ġà¦¸ à¦¤à¦¤
à¦¦à¦¨ à¦¶
à¦¯à¦Łà¦ķ à¦¦
à¦ĩà¦¨ à¦«
à¦ĩà¦² à¦«à¦²à¦ķ
à¦ĸ à¦¸
à¦ı à¦²à¦ķ
à§ĭ âĢĶ
à¦£ à¦Ĺà¦¤
ec t
à¦¦à¦¨ à¦ªà¦¤
à§Łà¦ķ à¦°à¦£
à¦Ĩà¦° à¦ı
Ġà¦¶ à¦ļ
à¦ĺ à¦£
à§¨à§¦à§¦ à§¯
ÂłÂłÂłÂł ÂłÂłÂł
à¦ıà¦ĩà¦ļ à¦ı
Ġn o
Å ĵ
à¦ª à¦²à¦¸
à¦¯à¦¥ à¦Ń
e op
Ġà¦² à¦Ń
l ow
Ġà¦ĩ à¦¹
Ġà¦Ń à¦²
Ġà¦ªà¦° à¦¤
à¦£ à§Ł
Ġà¦ħà¦ªà¦° à¦¦
Ċ Ġ
it y
à¦ľ à§ľ
Ġà§§à§¯à§¯ à§§
à¦Ĩà¦« à¦Ĺ
à¦ĸ à¦Ń
Ġà§§à§§ à§¦
is h
eop le
Ġà¦ıà¦®à¦¨ à¦Ń
Ġà¦ľà¦¨ à¦¶à¦ķ
à§¯ à§¦
à¦¹ à¦°à¦¤
Ġà¦ª à¦ļ
à¥¤âĢĿ âĢľ
¿ ÑĢÐ¶
Ġà¦Ĩà¦¨ à¦Ľ
Ġà§§à§¬ à§ª
à¦¼à¦¾ -
Ġà¦ıà¦ĸà¦¨ à¦ķ
à¦ī à¦Łà¦°
Ġe x
Ġà§§à§© à§¦
ĊĊ ÂłĊ
à§Ń à§«
à¦Ľ à¦Ł
à¦¥à¦° à¦ĺ
ÑĢÐ·Ð ĳ
à¦ªà¦¨ à¦Ĺà¦°
Ġà¦ĩ à¦¡
Ġà¦ħ à§Ł
) :
re s
à¦· à¦Ļ
à¦¥ à¦ªà¦¤
à§Į -
à§Ł à¦¦à¦°
à¦¬à¦° à¦Ĺ
ĠÑĢÐ¶Ð ¥
Ġà¦¸à¦® à¦Ĺ
Ġà¦¦ à§Ł
Ġà§§à§® à§¦
à¦¸à¦ķ à¦·
Ġà¦¸à¦¦à¦° à¦ĺ
Ġà§§à§ª à§ª
Ġà¦Ĩà¦¨ à¦²
Ġà¦¤ à¦¤à¦Ł
à¦Łà¦¨ à¦®
à¦ł à¦¶
Ġà¦¤ à¦°à¦²
à¦¶ à¦ªà¦¥
âĢ ¡
Ġà¦¨ à¦²à¦ķ
ÂłÂłÂłÂł Âł
à¦¨ à¦ĵà§Ł
Ġà¦¹ à¦ľà¦®
Ġà§§à§¯à§¯ à§¯
a g
à¦° à¦·
à§ľ à¦®
Ġa b
à¦¹ à¦¯
à§¨à§¦ à§§à§®
Ġà¦¸à¦®à§Ł à¦ĵ
Ġà¦¡ à¦Ł
Ġà¦ķ à¦Ń
à¦¹ à¦¦
à¦ķà¦Ł à¦²
à§ĭ )
à¦¸ à¦°à¦¤
Ġqu estion
Ġà¦¨ à¦°à¦®
ĠI n
à¦¡ à¦¶
Ġà§§à§¯à§¯ à§¦
Ġs p
ĠâĢ į
Ġc h
à¦ĸ à¦Ł
à¦¤ à¦£
ĠÂłĠÂł ĠÂłĠÂł
à¦§ à¦¦
à¦®à¦ķ à¦°à¦£
Ġà¦ī à¦¸
Ġp ro
el l
à§« à§®
à¦¸à¦® à¦¯
à§Ł à¦®à¦¨
à¦ľà¦¨ à¦¦
Ġà¦ľ à§Łà¦¦
ou s
à¦¬à¦¨ à¦®
Ġà¦¬ à¦ī
à¦¶à¦² à¦Ĺà¦¤
à¦ı à¦ıà¦«
Ġà§§à§¯à§¯ à§®
Ġà¦ľà¦¨ à¦¸à¦®
Ġà¦Ĩà¦« à¦¤
Ġà¦ıà¦ķ à¦ª
Ġà¦Ĺà¦£ à¦Ń
Ġà¦Ĩà¦® à¦¤à¦²
à§¦ à§®
à¦¯ à¦¬à¦°
Ġà¦ĵà¦ªà¦° à¦ĩ
Ġà¦ı à¦¹à¦¸
à¦¸ à¦ľ
à¦¼ à§į
à§« à§Ń
a h
Ġà¦ıà¦ķ à¦¤à¦°à¦«
Ġà¦¸à¦® à¦ķ
a re
à¦ļ à¦ķà¦°
Ġà¦ķ à¦¨à¦ľ
Ġà¦Ĩà§Ł à¦¤à¦¨
à¦¼ ?
Ġà¦¶à¦¹à¦° à¦Ł
Ġà¦² à¦Ł
Ġà¦ı à¦ĸà¦¤
à¦ĩ à¦ĸ
à¦ħ à¦²
à§ĭ !
à¦ı à¦ķà¦¦
m ent
à¦¨à§Łà¦¨ à¦¶
à¦¯ à¦ªà¦£
Ġà§§à§ª à§¦
à¦ĩà¦² à¦¸
Ġà¦ħà¦ª à¦ķà¦°
à¦ªà¦° à¦°
Ġà¦ĩ à¦°à¦«
Ġà¦ªà§Ł à¦²
ïģ ®
Ġà§© à§«à§¦
ac e
à¦¨ à¦¬à¦¸à¦®
Ġ G
à¦§ à¦¶
Ġà¦Ĩà¦¸ à¦ķ
am e
Ġà¦¬ à¦¹à¦°
Ġc on
Ġà¦® à¦ľà¦²
à¦ł à¦®
Ġà¦Ĺ à§Ł
à¦ķà¦Ł à¦¤à¦®
Ġà¦Ńà§Ł à¦Ń
en d
/ /
à¦ıà¦ĩà¦ļ à¦¡
Ð ´
Ġà¦Ĺà¦² à¦«
à¦¸à¦¬ à¦ľ
à¦Ĩà¦° à¦ıà¦®
à¦¼à¥¤ âĢĻ
à¦¦à¦ķ à¦¬
ÑĢÐ µ
ww w
ÑĢÐµ Ð´
à¦°à¦£ à¦Ł
à¦Ĩ à¦¬à¦°
à¦Ĩà¦° à¦¡
Ġà¦¸ à¦°à¦¬
Ġà¦«à§Ł à¦ľ
à¦¯ à§Łà¦¨
Ġà¦¬ à¦°à¦ķ
à¦¤ à¦¸à¦¹
à¦ıà¦¸à¦ĩ à¦ıà¦ķ
à¦ķ à¦²à¦ķ
Ġà¦¶ à¦ĸ
à§« à§¬
Ġà¦Ĺ à§Łà¦¨
e p
Ġà¦ı à¦®à¦¸
Ġ un
Ġo r
t p
à¦Ń à¦ľà¦¨à¦ķ
Ġà§§à§¯à§Ń à§«
à¦¸à¦¬ à¦ķ
à¦¤à¦¬ à¦ķ
Ġà¦¨à¦ĵ à¦¶
u p
o d
Ã ¸
à¦°à¦¥à¦® à¦¤
: //
e m
Ġà¦° à¦ļ
Ġà¦ĺ à§ľ
âķ £
Ġà¦¶ à¦¸
à¦ı à¦ıà¦²
à¦°à¦® à¦ľ
Ġp l
Ġà¦Ĩ à¦ĩà¦²
à§ĩâĢĻ ,
ÑĢÐ·ÐĿ ÑĢÐ¶
à§¨à§¦à§¦ à§®
g mail
Ġà¦ıà¦¸ à¦ıà¦®à¦ıà¦¸
Ġp eople
ig ht
Ġà§§à§¬ à§¦
à¦¯ à¦ĸà¦¨
à¦¶ à¦ķà¦°
à¦ĺ à¦²
à¦ļ à¦ªà¦°
à¦®à¦¨ à¦ĩ
Ġà¦¸ à¦ľà¦²
Ġà¦ľà¦¨ à¦ªà¦¦
à¦¬ à¦¹à¦°
à¦ķ à¦ªà¦ķ
à¦ĩà¦¨ à¦Ł
à§Łà¦¨ à¦Ĺà¦°
à¦ª à¦®à¦¨
à¦¿âĢĻ ,
Ġc l
Ġà¦Ĺ à¦«
Ġà¦ĩ à¦īà¦ľ
Ġà¦ĵà¦ĩ à¦¦
Ġà¦Ł à¦ªà¦ķ
à¦ĺ à¦¸
à¦¨à§Łà¦¨ à¦ª
à¦¡ à¦ĵà§Ł
à¦Ń à¦®
Ġs a
à¦ıà¦¸ à¦ı
Ġà¦¬ à¦§
à¦¤ à¦ľà¦¨à¦ķ
à¦°à¦¤ à¦°
à¦Łà¦ķ à¦®
Ġà¦« à¦ľ
o c
Ġà¦Ń à¦Ĺ
à¦ł à¦ªà¦°
à¦Ľ à¦ķ
Ġà¦ı à¦°à¦®à¦§
à¦°à¦® à¦¤
à§¦ à§¬
à¦Ĥ ,
Ġà¦Ł à§Łà¦²
à¦¦ à¦®à¦¤
Ġà¦¤à¦ĸà¦¨ à¦ķ
Ġà¦®à¦¨ à¦®
Ġà¦¯à¦ĸà¦¨ à¦ĩ
Ġg o
Ġà¦¬à§ľ à¦¦
à¦² à¦§
à¦ľà¦¨ à¦¸
à¦¾ âĢĮ
à¦²à¦¤ à¦¬
Ġw ww
à¦¬ à¦īà¦¦
Ġ L
Ġ very
Ġà¦¸ à§Ł
à¦§ à¦ª
à¦® à¦°à¦ķ
on e
à¦²à¦¨ à¦ķà¦ķ
Ġt r
Ġà§§à§¯à§Ń à§¨
à¦¸ à¦ł
à§ĩà¥¤âĢĿ âĢľ
i k
à¦°à¦¦ à¦¤
à¦ī à§İà¦¸à¦¬
Ġà¦§ à¦°à¦¬
à¦ª à§Łà¦¸
à¦ķ à¦ĩà¦¨à¦«
à§Ģ à¦Ĥ
Ġà¦ĩà¦¨à¦« à¦°à¦®
Ġà¦®à¦¤ à¦²à¦¬
Ġà¦ıà¦ķ à¦ĩà¦¸à¦Ļ
ĊÂłĊÂł ĊÂłĊÂł
Ġà¦¸ à¦ªà¦°
à¦¤à¦¨ à¦ķ
Ġà¦ıà¦« à¦¡
à¦ĩ à¦¸à¦°
à¦¬ à¦ªà¦°
Ġs e
Ġà¦¸ à¦¶
Ġà¦¬ à¦®
à¦ļ à¦ķà¦¦
Ġh as
Ġà¦ķà¦² à¦¹
Ġh im
Ġà¦ķ à¦ĵà¦®
à¦°à¦ľà¦¨ à¦¨
à¦°à¦Ń à¦Ļ
Ġà¦ıà¦² à¦¬
Ġ ïĤ
à¦ľà¦¨ à¦ª
à¦¦ à¦ķà¦°
à¦ĺ à¦ķ
à¦£ à¦ĺ
Ġà¦¦ à¦¶à¦Ł
Ġà¦¸ à¦ĵà¦ľ
i re
à¦īà¦ªà¦ķ à¦°à¦£
à§¦ à§¨
on g
Ġà¦«à¦² à¦ª
in d
Ġà¦ħà¦¬ à¦§
à§« à§ª
, âĢĿ
à¦ª à¦ķà¦°
u re
Ġà¦ıà¦¤ à¦¦
à§Ł à¦ķà¦¤
à¦ĩ à¦ĩà¦ī
à¦ľ à¦ĺà¦°
à¦¨à¦ĵ à¦Ĺ
Ġà¦® à¦¦à¦¦
à¦° à¦Ŀ
Ġà¦Ĩ à¦ĩà¦°
à¦ıà¦¸à¦ıà¦® à¦ıà¦®à¦ĩà¦ī
Ġà¦¨ à¦¸
al l
Ġà¦§à¦° à¦Ľ
à§Ń à§§
Ġà¦ķ à¦¦à¦°
Ġà¦ı à¦®à¦°
Ġà¦ªà¦¦ à¦ļ
à¦¨ à¦ľà¦°
Ġà¦ħà¦¬ à¦ľ
Ġà¦īà¦Ń à¦¯
Ġà¦Ĩà¦¹ à¦°à¦£
âĢ ¦
à¦ª à¦¶à¦¨
à¦¤ à¦ªà¦°
à¦¦ à¦°à¦ķ
is t
à¦Ń à¦Ł
à¦¨ à¦Ĺà¦ŀ
Ġà¦Ĩà¦ª à¦¸
à¦ļ à¦ĩ
Ġà¦ħà¦° à¦«
Ġà¦ļ à¦ķà¦²
à¦£ à¦°
Ġà¦ıà¦¸ à¦¡
Ġ j
Ġà¦ıà¦ĩ à¦¡
Ġà¦ı à¦¯
à¦¬à¦¨ à¦Ĺà¦°
ab le
Ġà¦¤à¦° à¦Ļ
à¦°à¦® à¦ª
à¦Ĺ à¦Ń
à¦ıà¦¸ à¦ĩà¦ī
Ġà¦° à¦ľ
à¦ª à¦ĩ
Ġà¦Ĩ à§Łà¦¨
à¦Ĩà¦ĩà¦¨ à¦ľ
à¦· à¦°à¦£
i b
Ġà¦ĵ à¦¡
ÑĢÐ·Ð Ľ
à¦¹ à¦ªà¦°
ot her
l ad
Ġà¦² à¦Ĺ
âķ Ŀ
à¦¸ à¦Ľ
Ġà¦ķà¦¦ à¦®à¦¤à¦²
Ġà¦¬ à¦Ľ
Ġà¦Ĩà¦¦ à¦²
Ġd ay
à¦¸à¦¦ à¦¦
Ġà¦ıà¦® à¦ı
Ġà¦¬à¦Ľà¦° à¦Ĺ
Ġà¦ªà¦¥ à¦¸à¦Ń
à¦Ļ à¦¤
à¦¶à¦¨ à¦Ł
Ġ *
à¦Ļ à¦²
Ġà¦īà¦ªà¦¸ à¦ļ
à¦¯à¦® à¦ķà¦°
à¦¾ ...
à¦¤à¦° à¦¸
à§« à§¦à§¦
Ġà¦¦à¦² à¦¬à¦¦à¦²
m p
à¦¨ à¦¥
Ġà¦īà¦ª à¦ļ
à¦Ł à¦°à¦ķ
Ġà¦Ĩà¦¸ à¦¨à¦Ł
à¦¬ à¦ķà¦°
à§§ à§¦à§¦
Ġà¦¨ à¦ĩà¦²
à¦¤ à¦¹
* ;
Ġyou r
à§« à§©
Ġà¦ķ à¦¨à¦ķ
à¦Ŀ à¦°
Ġà§§à§¯à§¯ à§Ń
Ġà¦¦ à¦¨
à¦¨ à¦ķà¦°
à¦²à¦ķ à¦¸à¦¹
à¦Ĺ à¦Ńà¦¬à¦¨
Ġà¦ıà¦ķ à¦ķà¦Ń
à§ģ :
ÂłÂłÂłÂł ÂłÂł
ĠWh at
à¦¿à¦Ĥ âĢĻ
à¦ļà¦² à¦ļ
à¦² à¦ĵà¦¯
Ġst ud
Ġà¦¤à¦¤ à¦ĩ
ĠâĢ ĭ
à¦Ĩà¦ĩ à¦ı
Ġà¦ļ à¦¡
ar y
Ġà¦Ĩà¦Ĺ à¦¤
à§ģ à§ģ
à¦Ļ à¦°
Ġà¦ī à§Ł
à¦£ à¦Ĺ
Ġà§ª à§«à§¦
Ġ 5
à¦¡ à¦¸à¦¹
Ġà¦ļà¦°à¦® à¦ªà¦¨
à¦£ à¦®à¦¨
)- --
Ġà¦Ľà§Ł à¦ľà¦¨à¦ķ
Ġà¦Ĩ à¦¯à¦®
à¦ķ à¦ĸ
Ġà¦ķ à¦¡
à¦¶ à¦¬à¦ª
Ġà¦Ĩà¦ľ à¦®à¦²
âķ ¢
à¦ķà¦Ľ à§ľ
à¦ī à¦ĩà¦¨
à¦¼à§ĩ ,
Ġà¦¬ à¦ĸà¦¤
à§¨à§¦à§¦ à§Ń
à¦°à¦¨ à¦¦
à¦¨ à¦®à¦¤
à¦ıà¦® à¦ıà¦«
à¦ī à¦«à¦²
Ġà§§à§¦ à§«
Ġà¦Ĩà¦² à¦«
Ġà¦ªà¦° à¦ķ
Ġà¦¯ à¦ķ
Ġà¦ħ à¦Ĺà¦£
Ġà¦¬à¦¸à¦¤ à¦ĺà¦°
en c
à¦¹ à¦Ł
à¦¦à¦¨ à¦Ĺà¦°
à¦ı à¦®à¦ķ
Ġà¦¡ à¦ľà¦¨
à¦¨à¦® à¦£
à¦®à§Ł à¦ķà¦°
Ġà¦® à¦Ĺà¦¬
à¦°à¦ķ à¦Ł
à¦Ĩ à¦¸à¦¨
à¦¦ à¦ľ
à¦Ĩ à¦¬à¦¹
Ġà§§à§¯à§¯ à§¨
à¦¸à¦ķ à¦¦
à¦¬ à¦ĩà§Ł
à§¬ à§¬
à¦Ĺà¦£ à¦¤à¦¨
à¦§ à¦ĵ
à§¦ à§§
Ġà¦īà¦ª à¦®à¦¨
à¦ı à¦ıà¦¸à¦Ĩà¦ĩ
à¦ħ à¦¥à¦ļ
à¦īà¦¨ à¦²
à§Ģ !
es h
à§Ł à¦¬à¦¦
Ġà¦¬à¦Ł à¦¤à¦²
Ġà¦® à¦¦à¦¨
à§ĩ '
as t
à¦¶ à¦Ĺà¦¤
à¦ī à¦ŀ
à¦ĵ à¦¡
à¦¸ à¦¦à¦ķ
Ġf ol
Ġà¦¬à¦°à¦ķ à¦¤
à§ĩà¥¤ *
p r
Ġthe ir
Ġà¦ħà¦¬ à¦Ĺà¦¤
Ġà¦ķ à¦ĩ
k s
à¦¦ à¦ĸà¦²
Ġà§§à§¦ à§§
à¦ľ à¦¡
à¦ĵ à¦ıà¦¸
Ġà¦ľà¦® à¦ľà¦®
Ġà¦ķà§Ł à¦Ł
à¦ī à¦ıà¦ĩà¦ļ
o st
if e
à¦°à¦« à¦°
à§ĩà¦¾ -
im e
Ġà¦ĩ à¦Łà¦ª
à¦ª à¦¦à¦¸
o y
Ġhe r
Ġà§§à§¨ à§«
à§ĩ, âĢĿ
à¦¤ à¦®à¦¨
Ġà¦§ à¦²
ar d
à¦ª à¦§
Ġà¦Ĩà¦² à¦Ń
à¦ľ à¦ķà¦¦
à¦¬ à§İ
Ġà¦Ŀ à¦¡
à¦ħ à¦®
à¦ĺ à¦¬à¦¦
à¦¸à¦¬ à¦ļ
Ġà¦Ĺà¦£ à¦§à¦°
ou g
à¦ī à¦¶
à¦ĩà¦¨ à¦®
à¦·à¦£ à¦Ń
à¦°à¦¸ à¦«
à¦ī à¦Ľ
Ġà¦ĩ à¦Ľ
à¦² à¦īà¦¦
Ġà¦¸à¦° à¦²
à§« à§§
à¦°à¦® à¦¬à¦°
Ġà¦¨ à¦Ł
Ġthe y
à¦Ł à¦¶
à¦¨à¦¤ à¦²
Ġà¦¤ à¦°à¦®
Ġà¦īà¦ª à¦ª
Ġà¦¹ à¦ĩà¦ļ
à¦ĵ à¦ļ
âĢ Ī
à¦¤ à¦ªà¦ķ
à¦ĺ à§ľ
à¦ĩ à¦ªà¦²
à¦¨ à¦°à¦¸
à¦ı à¦ıà¦¸à¦ª
Ġà¦Ĩà¦ĩà¦¨ à¦ª
à¦Ĩ à¦¨à¦¨
à¦ıà¦° à¦ĩ
à¦¦ à¦ĩ
Ġà¦ĸ à§ľ
Ġà§¦ à§Ń
à¦¬à¦Ľà¦° à¦ĩ
à¦¹ à¦ľà¦¨à¦ķ
à¦¨à§Łà¦¨ à¦ķ
à§« à§¯
ÑĢÐ¶Ð ¿ÑĢÐ¶
Ġà¦ķà¦¤ à¦ľà¦¨
Ġà¦¶ à¦¶
à¦Ĩ à¦Ľ
Ġ K
Ġà¦ĵà¦ªà¦° à¦ĵ
à¦ļ à¦ĵ
à¦¼ à¦¿,
Ġà¦ıà¦ıà¦« à¦¸
à¦®à¦°à¦£ à¦¸à¦Ń
ĠÑĢÐ¶Ð º
Ġà¦¶ à¦®
à¦¸à¦ĵ à¦ľ
à¦· à¦§
à¦ıà¦¨ à¦Ł
Ġà¦¦ à§ľ
Ġà¦ıà¦² à¦¡
Ġà¦ķ à¦¸à¦¬
à¦· à¦ľà¦¨à¦ķ
Ġfol low
Ġà§¦ à§¬
e ar
à¦ľà¦¨ à¦Ĺà¦£
Ġs ent
Ġà¦ĵ à¦ľ
Ġà¦ļ à¦ŀ
à¦Ľ à¦¦
Ġà¦¸à§ľà¦ķ à¦Ĺ
à¦¯ à¦Ļ
Ġà¦ıà¦ķ à¦ļ
à¦¯à¦® à§Ł
à¦§ à¦¸à¦¹
à¦Ĺà¦£ à¦®
à¦ªà¦ķ à¦¥à¦¨
Ġ 3
à§¨à§¦ à§§à§¯
Ġab out
à§ĩ âĢĵ
Ġà¦ıà¦¸ à¦ı
Ġà¦ĩ à¦®à¦ª
à¦°à¦® à¦¬
Ġà¦° à¦¥
à¦¸ à¦Ĩà¦ª
à¦¬ à¦ĸ
Ġà¦¦à¦® à¦ķà¦²
Ġà¦ı à¦ľà¦²
à§Łà¦¨ à¦ķ
à¦ĩà¦ľ à¦¡
à§ĩ )à¥¤
n ow
à§ĩà¦¾ :
à¦°à¦® à¦¶
à¦Ĥ à¥¤
s o
à¦Ł à¦°à¦¦
Ġcom p
à¦°à¦ķ à¦ķ
à¦¦ à¦¶à¦®
Ġà¦¬à¦¸ à¦¤à¦¬
à¦·à¦£ à¦¶
Ġà¦¸à¦ķ à¦²à¦ķ
Ġà¦ľà¦¨ à¦ĩ
Ġà¦ķà¦®à¦¨ à¦ĵà§Ł
à¦¤à¦¬ à§Łà¦¸
à¦ķ à¦£
à¦¦ à¦¯
Ġà¦¬à¦¨ à¦Ń
Ġà¦¸à¦° à¦ĵà§Ł
à¦Ł à¦ķà¦°
à¦Ĺ à¦°à¦®
à§¬ à§¨
à¦² à¦ķà¦°
Ġà¦Ł à¦Ł
à¦ĩ à¦®à¦°
à¦ı à¦ıà¦¨à¦ıà¦¸
Ġà¦¬à¦ķ à¦¶
Ġà¦® à¦łà¦¬
à¦®à¦¨ à¦ķ
à¦ıà¦« à¦¸
Ġà§§à§¯à§¯ à§«
à¦¶à¦¨ à¦Ĺ
Ġà§§à§¯à§¯ à§ª
à¦°Ã¦ à¦¤
Ġà¦ľà§Ł à¦²
Ġà¦· à¦¡
Ġà¦¨ à¦²
à¦¤ à¦²à¦ķ
Ġà¦Ł à¦°
à¦ªà¦ķ à¦¥
Ġà¦ĩ à¦ķà¦°
Ġà¦ħ à¦ľà§Ł
Ġà¦¤ à§ľ
Ġà¦¬à¦¸ à¦Ľ
à¦ıà¦« à¦¬
Ġà¦®à¦¤ à¦ª
à¦Ŀ à¦²
ang lad
à§į -
à¦ł à¦Ĺà§ľ
à¦® à¦¹à¦²
Ġà¦¨ à¦¡
Ġà¦ľ à¦²à¦ª
à¦Ŀ à¦¬
Ġà¦¸à¦«à¦² à¦Ń
à¦ľà¦¨ à¦¤
à¦£ à¦ĵ
ĠÑĢÐ¶Ð¥ ÑĢÐ¶
anglad esh
Ġà¦īà§İà¦¸ à¦°
ul t
Ġà¦ĵ à§ľ
f f
er e
à¦· à¦ľà¦¨
à§Ģà¥¤ âĢĻ
Ġc oun
ic e
Ġà¦ľ à¦²à¦¸
en ce
Ġà¦ķà¦² à¦Ļ
à¦ĩà¦² à¦°
Ġà¦Ł à¦²
ĠâĢ ĵ
à¦¯ à¦¸à¦®
Ġà¦ħà¦ª à¦ļà§Ł
Ġà¦ıà¦® à¦Ń
Ġà¦¦à¦ĸà¦² à¦®
à¦ª à¦¸à¦¹
à¦¦à¦¨ à¦ĵ
Ġon e
Ġà¦ľà¦Ĺ à§İ
Ġà¦ħà¦ª à¦ļ
à¦°à¦¤ à¦®
Â ¡
ÑĢÐ·ÐĹ ÑĢÐ¶Ð
Ġà¦Ĩ à¦¦à¦¨
à¦² à¦¸à¦¨
i al
à¦Ĩ à¦¹à¦¤à¦¦
à¦ıà¦² à¦ľ
à¦¸à¦¨ à¦¬
Ġà¦Ĩà¦° à¦¶
Ġà¦ľà§Ł à¦Ł
à§Ģ )à¥¤
Ġà¦ıà¦¨ à¦°
Ġà¦® à¦ĵà¦²
à¦²à¦ķ à¦ª
Ġp r
à¦Łà¦ķ à¦²
à¦Ĩ à¦§
à§¯ à§¯
Ġà¦ı à¦¨à¦Ł
à¦Ń à¦°à¦¤
Ġà¦¹à¦ĩà¦ļ à¦ĩ
à¦·à§Ł à¦¬à¦¸
d er
Ġ ïģ¬
Ġi v
Ġà§¦ à§«
à¦ļ à¦¡
u c
à¦¬ à¦ļà¦°
à¦°à¦¬ à¦¹
Ġà¦® à¦ĵà¦ķ
g l
Ġm y
Ġà¦ľà¦¨ à¦®à¦¨
Ġà¦¥ à¦®à¦ķ
à¦ı à¦°à¦¶
t her
à¦¨ à¦·
à¦¼ à¦¿à¥¤
Ġà§¦ à§ª
à¦²à¦ķ à¦²
oo l
à¦ľ à¦¤à¦¨
à¦ķ à¦®à¦²
à¦¹ à¦ł
à§Ł à¦ĸ
Ġg r
Ġà¦²à§ľ à¦Ľ
Ġà§¦ à§®
Ġà¦Ĩà¦Łà¦ķ à¦ķ
Ġà¦ķà¦®à¦² à¦Ĺà¦ŀ
à¦ī à¦ªà¦¸
Ġà¦Ĩà¦¦ à¦®
Ġà¦¬à¦Ľà¦° à¦ĵ
re at
à¦¬à¦¸ à¦¨
Ġà¦¸à¦° à¦«à¦°
à¦¿ ...
à¦¨ à¦īà¦¦
à¦£ à¦§
à§Ł à¦ľà¦¨
ĠïĤ ¾
Ġal l
à¦ĵ à¦¹
à¦® à¦®à¦¤
Ġà§¦ à§¯
Ġcoun tr
à¦Ĩ à¦¹
oun d
Ġà¦ªà¦¦ à¦Ł
Ġà¦ı à¦¨à¦¸
à¦¸ à¦®à¦¸
à¦ĩà¦ī à¦¤
à¦¬à¦¹ à¦¨à¦®à¦¨
Ġà¦ıà¦ķ à¦°à¦ķà¦®
Ġà¦Ĩà¦¬ à¦¶
à¦ªà¦¨ à¦ķ
à¦¤à¦° à¦¬à¦Ļ
à¦°à¦£ à¦ĵ
à¦ł à¦ķà¦¦
Ġt ime
Ġà§§à§¦ à§¨
à¦ĩà¦¨ à¦ļ
Ġb ec
à¦¬à¦¶ à¦¤
ĠThe y
Ġà¦¦à¦² à¦ĵ
à¦¬ à¦ªà¦¤
Ġà¦¡ à¦°
Ġà¦¸à¦® à¦¤à¦²
à¦¤à¦¬ à¦¦à¦²
Ġà¦¶à¦¹ à¦°à¦¤à¦²
Ġà§¦ à§¨
à§¨à§¦à§¦ à§¬
ent s
à¦ļ à¦¤à¦°
à¦¹ à¦¹
Ġà¦¸à¦® à¦ªà¦°
ÑĢÐ¶Ð ¼
à¦Ĩà¦° à¦Ĩà¦ĩ
Ġd e
Ġà¦ªà¦¦ à¦®à¦°
ĠÑĢÐ¶Ð ĸ
Ġà¦® à¦°à¦ķ
à¦Ł à¦¸à¦¨
à¦¾à¦Ĥ ,
à¦Ĩ à¦¹à¦®
à¦· à¦¬à¦°à¦£
ot h
Ġà¦ı à¦ıà¦¸à¦ª
Ġà¦Ĺà¦£ à¦¬
o v
Ġà§§à§§à§ ¬
Ġà¦¯ à¦¤à¦ķ
i p
à¦¬à¦¨ à¦¬
à¦Ĩà¦ĩ à¦Ń
Ġsa id
à¦¥ à¦¦à¦£
à§§à§¯à§Ń à§§
Ġà¦° à¦ľà¦¨
à¦Ł à¦ĵà¦¯
à¦¸ à¦ĸ
Ġà§§à§¦ à§ª
Ġà§§à§¯à§Ń à§©
Ġà§¦ à§§
à¦ķ à¦²à¦¨
Ġà§§à§§à§ «
à¦¨à¦¦ à¦£
à¦ĩ à¦ŀ
Ġà§§à§¯à§® à§¬
Ã Ĳ
Ġà¦īà¦ª à¦¤
à¦²à§Ł à¦¸à¦¹
ÑĢÐ¶Ð ¶
Ġà¦ľà¦² à¦¦à¦¸
) .
à§Łà¦¨ à¦°
à¦¡ à¦¡
Ġà§§à§¦ à§Ń
à¦Ĺ à¦ķà¦°
à¦Ĩà¦ĩ à¦ĩà¦ī
Ġà¦Ĩà¦ª à¦¡
à¦Ĩ à§ľ
à¦¸à¦¹ à¦¯
Ġl ife
Ġà¦ļ à¦¶à¦®
Ġthe m
he n
à¦® à¦Ĺà¦¤
v i
à¦¸à¦« à¦°à¦®
Ġà§§à§Ń à§¦
)- -
à¦ıà¦¸ à¦Ĩà¦°
à¦ľà§Ł à¦ª
à§¬ à§¯
à§¨à§¦à§¦ à§ª
Ġà¦¦ à¦°à¦¦
à¦² à¦¬à¦¨
à¦¾ /
à¦§ à¦¨à¦ķ
à¦¬à¦² à¦Ľ
Ġfollow ing
Ġà§§à§¦ à§©
Ġà¦² à¦ĺ
Ġà§§à§¦ à§¬
à§ĭà¥¤ âĢĿ
Ġà¦¶à¦¹à¦° à¦Ĺ
à¦Łà¦¸ à¦ħ
à¦°à¦¹ à¦¸à¦¨
à¦ĺ à¦¬
à¦¶ à¦Ļ
Ġà¦ĩ à¦®à¦¦
à¥¤ '
Ġà¦Ĺ à¦¦
à¦ķ à¦¸à¦¬à¦ľ
à§¦ à§©
à¦ıà¦« à¦ıà¦²
à¦Ń à¦°à¦¯
Ġà¦īà§İ à¦ĸ
Ġà§§à§¦ à§¯
Ġth is
an s
à¦¾? âĢĻ
à¥¤ ïģ¬
Ġ en
à¦ķ à¦ĵà§Ł
Ġà¦¨à¦° à¦ĵà§Ł
à¦ķà¦° à¦ª
Ġà¦ħ à¦ĺà¦Łà¦¨
à¦² à¦°à¦¦
à§¬ à§Ń
à¦ħà¦¨ à¦²
à¦°à¦ļ à¦²à¦¨
? (
Ġà§§à§¦ à§®
Ġthe re
Ġsh ould
Ġà¦Ĩà¦ľ à¦ĩ
0 0
ĠW e
Ġà¦¦à¦°à¦ªà¦¤ à¦¨
à¦ħà¦ªà¦° à¦¦
f ul
ĠâĢ ¢
ch ool
à§¬ à§®
Ġà¦¹ à¦°à¦®
Ġan s
Ġà¦Ĩ à§ľà¦¤
Ġà¦ª à¦²à¦ķ
Ġà§¦ à§©
Ġà§§à§¯à§Ń à§ª
à¦¨ à¦ªà¦¨
à¦ī à¦ĩà¦¯
x t
Ġà¦ª à¦¦à¦¸
à¦¨à¦ľà¦¨ à¦ĩ
Ġans wer
ĠĠ Ġ
Ġà¦ħ à¦¤à¦°
Ġà¦ħ à¦¦à¦ķ
Ġà¦Ĩà¦ĩ à¦¬
à¦Ĩ à¦ĩà¦ķ
ic h
à¦ıà¦® à¦ıà¦®
à¦ĩ à¦¸à¦¹
Ġà¦² à¦¬
Ġà¦ħ à¦®à¦¨
Ġà§¨à§¦ à§©à§¦
Ġà¦¨ à¦ĸ
Ġs he
Ġà¦ı à¦ĵ
Ġà¦ĩ à¦¸à¦¹
Ġà¦ľà¦¨ à¦ľ
p l
à¦ıà¦¸ à¦ıà¦¨
it ion
Ġà¦¦ à¦ĩ
à¦Ĳ à¦¤
Ġ Â
Ġà¦¦ à¦ĸ
Ġà¦¸ à¦ĵà¦¦
rit e
Ġà¦ĵ à§ľà¦¨
à¦¦à¦ķ à¦¸à¦¹
à¦¤à¦° à¦ªà¦¤
i ed
à§Ń à§¨
Ġà¦¹à¦¤ à¦¦à¦°
Ġà¦Ĩà¦ľ à¦Ĺà¦°
Ġo ther
Ġà¦ħà¦¬ à¦¤
à¦¿ âĢĮ
Ġà¦Ĩà¦ª à¦²
à¦¹ à¦Ĺ
à¦ĩà¦Ľ à§ľ
Ġà¦ªà¦¥ à¦ļà¦²
à¦ķ à¦¬à¦°
à¦ı à¦ķà¦¨
à¦¸ à¦ŀ
à¦¾à¦Ĥ à¥¤
à¦¬à¦¸ à¦¤
à§¨à§¦à§¦ à§§
Ġà¦ľ à¦ĺà¦¨
Ġà¦Ĩà¦¶ à¦«
à¦¬ à§Łà¦¸
à§Łà¦ķ à¦ķ
à¦°à¦¥à¦® à¦Ł
à¦°à¦¸ à¦ķ
ĠĠĠĠĠĠĠĠĠĠĠĠĠĠĠĠ ĠĠĠ
he re
Ġà¦® à¦°à¦£
à¦§à¦¬ à¦ª
à¦¯ à¦°à¦ķà¦®
Ġà¦ķà¦® à¦ĩ
Ġà¦Ĳà¦ķ à¦®à¦¤
à¦®à¦ķ à¦Ń
à¦ıà¦ĩ à¦¡
Ġà§§à§¨ à§®
Ġw ill
à¦¦à¦ķ à¦¸
Ġà¦ĩà¦¨ à¦Ł
Ġk now
Ġà¦¸ à¦°à¦£
is e
Ġfr i
à¥¤âĢĻ âĢĺ
à¦ıà¦² à¦¡
i z
à¦°à¦¹à¦£ à¦®
à¦ľà¦¨ à¦Ł
à¦ı à¦ıà¦ĩà¦ļ
Ġà¦¤ à¦¦à¦¬
à¦ī à¦¯
à¦²à¦¨ à¦Ĺà¦°
Ġà¦ĩ à¦«
à¦¸à¦¬ à¦¹
à¦¬à¦¨ à¦Ł
Ġà¦Ĩà¦ĩ à¦¸à¦ķ
Ġà¦ı à¦¹
Ġà§§à§§à§ Ń
à¦²à¦¨ à¦®
à¦ĩ à¦®à¦¨
à¦ĸ à§ľ
à§Ŀ à¦¤
Ġà¦« à¦¯
Ġà¦ıà¦ĩ à¦Ł
à¦°à¦¤ à¦¨
à¦¤à¦¨ à¦Ĺà¦°
ĠS he
à§Ń à§Ń
à¦¦ à¦Ľ
Ġà§Ń à§«à§¦
à¦Ŀ à¦®
Ġà¦Ĩà¦° à¦¸
à¦Ĩà¦ĩ à¦ĵ
Ġà¦Ĩà¦Ł à¦ľà¦¨à¦ķ
Ġà§¦ à§§à§Ń
Ġà¦ıà¦ķ à¦¸
Ġà¦Ķ à¦·à¦§
Ġà¦Ĩ à¦ĩà¦ķ
Ġà¦¤ à¦ª
ap p
Ġà¦ī à¦®à¦°
a v
Ġ ĊĊ
Ġ J
Ġh ad
à¦¨ à§ľ
à¦Ĥ :
ac h
à¦ĩ à¦²à¦ķ
à§¦ à§ª
à¦Ĺà¦® à¦Ĺà¦ŀ
i a
à¦²à¦¸ à§ľà¦ķ
enc es
Ġà§§à§§à§ §
à¦Ŀ à¦ķ
à¦¼ à¦Ĥ
à¦ıà¦ĩà¦ļ à¦¬
Ġà§§à§¯à§¯ à§©
Ã Ĺ
Ġà¦Ńà§Ł à¦Ļ
Ġà¦¸à¦¹ à¦¨
à¦Ĺ à¦²à¦ķ
Ġà¦ħà¦Ń à§Ł
Ġw ere
à¦ħ à¦Ł
à¦ī à¦ĸ
Ġà§§à§¯à§Ń à§¦
Ġ up
Ġà§§à§§à§ ¨
à¦¯ à¦¦à¦²
à¦« à¦«à¦°
Ġà¦ĸ à¦¸à¦¡
à¦ıà¦ĩà¦ļ à¦¸
Ġà¦ĩ à¦¶à¦°
Ġ U
à§Ģ âĢĶ
Ġp ass
à¦² à¦Ŀ
à¦¥ à¦ĩ
à¦°à¦¤ à¦ķà¦°
Ġà¦ľà¦¨ à¦¸à¦ļ
à¦°à¦®à¦£ à¦Ń
à§¬ à§ª
Ġà¦ıà¦ķà¦¦à¦® à¦ĩ
Ġ x
k ed
à¦§ à¦ķà¦°
à¦¤ à¦Ńà¦°
à¦Ĺà¦¤ à¦¦
u e
à¦ĩà¦« à¦Ł
à¦£ à¦®à¦¤
Ġà¦ħ à¦ĸ
à¦Łà¦¨ à¦ķ
Å ¸
o b
at ive
Ġ [
Ġà¦®à¦¨ à¦Ł
Ġà¦ĵà¦ĩ à¦¸à¦¬
Ġà¦ĺà¦¨ à¦«
ÑĢÐ·Ð ¯
Ġà¦Ĩà¦²à¦¬ à¦¦à¦°
Ġ Y
à¦Ĩà¦ĩ à¦ıà¦¨
à¦¬ à¦¹à¦¤
Ġà¦¬à¦¦à¦° à¦Ĺà¦ŀ
à¦¥ à¦ķà¦Ń
à§¬ à§§
Ġà¦¬à§Ł à¦ķà¦Ł
ĠB angladesh
Ġà¦ħà¦¬ à¦²
à¦¾à¦ģ -
Ġà¦īà§İà¦¸à¦¬ à¦®
à¦ł à¦¸
Ġà¦Ĩà¦Ł à¦²
à¦°à¦®à¦£ à¦ķ
ĠÑĢÐ¶Ð Ł
Ġà¦Ĩà¦® à¦¬
e w
à¦Ĺ à¦¨à¦¸
Ġà¦ľ à¦ĵà§Ł
ing s
à¦¦à¦² à¦Ł
at er
Ġ 4
Ġà§§à§© à§«
Ġà¦ĩà¦¨ à¦¶
Ġà¦ĩ à¦¹à¦¸
Ġà¦ħ à¦°à¦¬
à¦ıà¦« à¦¡
Ġà¦Ŀ à¦°à¦¨
à¦°à¦¤ à¦¤
Ġà¦¸à¦¬ à¦Ł
à¦° à¦¬à¦¸
Ġà¦īà¦ª à§ľ
Ġà¦ķà¦¤ à¦Ĺ
Ġà¦¨à¦Ĺ à¦°à¦ķ
Ġà¦¶ à¦Łà¦Ĺ
Ġà¦® à¦ľà¦¨
Ġà¦Ĺà¦¤ à¦¬à¦Ľà¦°
Ġà¦Ľ à¦²
Ġà¦Ŀ à¦²à¦¸
à¦ª à¦ªà¦¤
Ġs o
à¦¨ à¦Ĺà¦¤
Ġà¦īà§İà¦ķ à¦£
a us
à¦¹ à¦ķà¦ķ
Ġà¦Ńà¦¬à¦¨ à¦Ĺ
à§Ł à¦®à¦ķ
à¦Ĩ à¦°à¦ĩ
Ġs ome
à¦Ĺ à¦ľà¦¨à¦ķ
Ġa r
ĠâĢĶ .
à¦¡ à¦ĩ
Ġà§§à§¦ à§¦à§¦
Ġl ik
Ġà¦® à¦¬
à¦£ à¦¶
à¦¬ à¦ĺ
à¦°à¦£ à¦Ń
âķ ĸ
ĠÑĢÐ¶Ð ¼ÑĢÐ¶
à¦¨ à¦īà¦²
à¦ı à§Ł
Ġà¦¸à¦¹ à¦¸à¦®
Ġà¦ħ à¦®à¦²
Ġà¦¶à¦¤ à¦¬à¦°
à¦¿à¦Ĥ )
Ġg ood
u b
Ġà¦Ĩà¦Ĺ à¦°à¦¤à¦²
Ġà¦°à¦£ à¦ľ
à¦¦ à¦Ń
Ġà¦® à¦Ĺ
à¦¨ à¦ĺ
à§Ł à¦Ĺà¦ŀ
à¦¶à¦ķ à¦ķ
à¦¶à¦¨ à¦¸à¦¹
âĢ º
Ġà¦Ĩà¦¹ Å¸
à¥¤ #
Ġd id
Ġà¦¬à¦ĩ à¦Ľ
Ġà¦ħà¦¸ à¦¤
à§ľ à¦¤à¦²
Ġa d
ÂłÂłÂłÂłÂłÂłÂłÂłÂłÂłÂłÂłÂłÂłÂłÂł ÂłÂłÂłÂłÂłÂłÂłÂłÂłÂłÂłÂłÂłÂłÂłÂł
Ġà¦īà¦ĩ à¦Ļ
Ġà¦¸à¦¹ à¦¨à¦¶
Ġà¦ıà¦² à¦ª
Ġà§§à§§à§ ®
à¦¾à¥¤ âĢĺ
Ġa m
Ġà¦ĩà¦īà¦ıà¦¨ à¦ĵà¦°
Ġ âķĽ
Ġà¦ıà¦ķ à¦¸à¦®à¦¯
Ġà§§à§¯ à§ªà§Ń
à§ĩ! âĢĻ
Ġà§§à§¯à§® à§®
Ġà¦Ŀ à¦ķ
à¦¯à§Ł à¦¬à¦¹
à¦ľà¦¨ à¦Ĺà¦°
Ġà§§à§§à§ ©
à¦Ī à¦¶
Ġà¦ĩ à¦ĩà¦īà¦°
Ġà¦°à¦ķà¦® à¦ĩ
à¦§ à¦ľ
Ġà¦ĩ à¦¥
Ġh t
à¦Ĺà¦ł à¦¨à¦ķ
à¦Ł à¦ľà¦¨
à§¬ à§©
Ġà§§à§§à§ ª
à§İ à¦ľ
Ġht tp
Ġà¦ī à¦§
Ġà¦®à¦¨ à¦ķ
à§ĩà¥¤ '
à¦ł à¦Ł
Ġs chool
à¦ıà¦¸ à¦ıà¦²
Ġà¦®à¦ľ à¦¬
Ġà¦¸à¦«à¦° à¦°à¦¤
à¦ľ à§Łà¦¨
à¦²à¦ķ à¦®
ĠÑĢÐ¶Ð ¸
Ġà¦¨ à¦¸à¦°
à¦¨ à¦ļà¦°
il d
> >
Ġà¦Ĺ à¦¹
Ġà¦Ī à¦°
à§İà¦¸à¦ķ à¦ķ
à¦°à¦¤ à¦¹
or m
al ly
Ġal so
à¦¯ à¦¸à¦Ń
Ġà§§à§¯à§® à§¦
ÑĢÐ·Ð Ĳ
à§Ł à¦ľ
Ġb r
Ġà¦ħà¦¨ à¦Ń
Ġà¦ļ à¦°à¦ķ
Ġà¦Ķ à¦ªà¦¨
Ġà¦ķ à¦ľà¦¨
à¦¡ à¦¸à¦¨
Ġà¦ªà¦° à¦¬
à¦¶à¦¨ à¦ĵ
à¦Ŀ à¦ªà¦¥
à¦¯ à¦ŀ
à¦Ĺà¦¨ à¦Ń
Ġà¦ķ à¦ĩà¦°
Ġà¦ıà¦¸ à¦ķ
Ġà§§à§¨ à§©
Ġà¦¸à§ľà¦ķ à¦ªà¦¥
à¦¯ à¦§
in e
n ing
Ġà¦ĺ à¦°à¦Ł
Ġà§¬ à§«à§¦
Ġà§§à§¯à§® à§¨
à¦¨à¦¬ à¦ľ
Ġcountr y
Ġà¦Ĩà¦ķ à¦®à¦²
ay s
à§ľ à¦°
Ġà¦ħ à¦£
Ġà¦ıà¦¤ à¦ĩ
Ġà¦ħà¦ª à¦°à¦ķ
Ġwor ds
Ġà¦¸ à¦¹à¦®
al th
à¦¸à¦ķ à¦ķ
s p
à¦¤ à¦ªà¦¨
Ġà¦ħ à¦²à¦¸
Ġà¦¨à§Ł à¦¤
Ġà¦¦ à¦²à¦¨
à¦ļ à¦Ĺà¦¡
à¦§ à¦Ĺ
Ġà¦ıà¦ĩà¦ļ à¦¡
Ġà¦¶ à¦®à¦¸
Ġà¦¥ à¦®
ÑĢÐ¶Ð¾ ÑĢÐ¶
à¦Ĺ à¦¤à¦¬
T he
à¦Łà¦ķ à¦®à¦ķ
Ġà¦°à¦¦ à¦¬à¦¦à¦²
Ġ ?
re e
Ġà¦Ĩ à¦ł
Ġà¦Ĩà¦Ĺ à¦²
Ġà¦īà¦Ńà§Ł à¦ªà¦ķ
p p
Ġà¦¸à¦«à¦Ł à¦ĵà¦¯
Ġà¦¹à¦¤ à¦¬
Ġà¦ľà¦¨ à¦®
à¦ıà¦® à¦ıà¦²
Ġà¦ĭà¦£ à¦ĸ
Ġà¦¬à¦ĩ à¦¯
f er
à¦¿à¥¤ âĢĺ
Ġà§§à§¯ à§¦
à¦² à¦®à¦°
Ġà§§à§§à§ ¯
Ġà¦Ĩà¦ĩ à¦ıà¦ıà¦¨à¦ıà¦¸
Ġà¦® à¦ķà¦¸
Ġà§§à§¨ à§Ń
à¦£ à¦ł
Ġà§¨ à§¨à§¦
à¦ıà¦¨ à¦ıà¦«
Ġà¦ıà¦¤ à¦Ĺ
Ġà¦ħ à¦Łà¦²
Ġà¦ıà¦² à¦¸
Ġdo es
Ġà¦« à¦ľà¦°
à¦¦à¦° à¦Ń
ĠE n
à¦¾. )-
Ġà¦Ĩà¦° à¦Ł
ĠÑĢÐ¶Ð ¾
à§¨à§¦à§¦ à§«
t e
à¦¶ à¦ªà¦¤
Ġà¦ľà¦¨ à¦¬
à§Ĥ -
? âĢĿ
Ġà¦¤ à¦ķà¦®
à¦ıà¦® à¦Ł
à¦§à¦¶ à¦¤à¦ķ
Ġà¦¨ à¦®à¦¨
à¦¾ âĢĿ
Ġà¦ķà¦² à¦¸
Ġà¦¤ à¦¸à¦²
Ġi mp
Ġà¦ĭ à¦·
à¦°à¦ª à¦¥
à¦°à¦¡ à¦Łà¦ķà¦®à¦ķ
à¦¹ à¦¬à¦¨
Ġà¦īà¦ĩ à¦¥
Ġà§§à§© à§¨
à¦ľ à¦ªà¦°
Ġan y
à¦¹à¦¨ à¦ª
Ġà¦¸à¦« à¦°à¦¸à¦Ļ
à¦ĸ à¦¦
at her
Ġà¦Ĩà¦² à¦ľ
à¦¸ à¦®à¦¤
à¦ª à§İà¦¸
à¦¥ à¦¹
à¦°à¦¬ à¦ļ
à¦² à¦ľà§Ł
ĠâĢĺ âĢĺ
à¦° à¦¹à¦®
à¦ĵ à¦¹à¦°
à¦ķ à¦Łà¦ķ
Ġà¦¨à¦ķ à¦Ĩà¦īà¦Ł
à¦ħ à¦ľ
à¦¸ à¦«à¦°
à¦ľà¦² à¦Ń
Ġà¦® à¦°à¦Ĺ
Ġb l
us t
Ġà¦ħà¦¸ à¦ļ
Ġ- --
à¦°à¦¹ à¦¨
Ġà§§à§¨ à§§
Ġà¦¹ à¦¸à¦ª
Ġquestion s
à¦° à¦ĵà¦¯
à¦°à¦Ľ à§ľ
Ġà¦ĺ à¦·
Ġà¦Ľ à¦¦
Ġsent ences
à§ĩ âĢĮ
Ġà§§à§¨ à§¬
Ġà¦¦ à¦®à¦ķ
Ġà§§à§¯à§® à§ª
à¦ĩà¦« à¦īà¦¦
Ġà¦¬ à¦ĩà¦¤
à¦ª à¦Ļ
à¦ķ à¦ĸà¦¨
Ġà¦ıà¦®à¦¨ à¦ĵ
à¦ª à¦Łà¦¨
à¦¾! âĢĻ
Ġth an
à§ĥ à¦Ĥ
Ġà¦ĸ à¦¸
à¦ıà¦« à¦ı
Ġ1 0
à¦§ à§ľà¦ķ
à§ģ à§į
à¦¬à¦° à¦Ĺà¦ŀ
à¦®à¦® à¦Ń
à¦¦ à¦ĵà§Ł
à¦®à¦¤ à¦ķ
à¦ĩ à¦ľà¦¨à¦ķ
Ġà¦¬à¦ĩ à¦Ĺ
, "
Ġà¦ħà¦« à¦¸
à¦°à¦« à¦¤
à¦ıà¦ıà¦« à¦ª
Ġà¦¸à¦¬ à¦ĸ
Ġà§§à§¨ à§ª
ĠB ut
Ġà¦ıà¦² à¦ıà¦¨à¦ľ
Ġà¦ ¿
à¦® à¦¦à¦ķ
à¦²à¦Ľ à§ľ
Ġwor ld
h an
à§İ à¦ĩ
Ġà¦ħ à¦²à¦ķ
à¦°à¦® à¦ķ
à§Ń à§®
à¦¬ à¦¶à¦ķ
à¦£ à¦¸à¦¹
Ġo ut
Ġà¦Ĩà¦² à¦Ł
Ġà§§à§¯à§® à§¯
à¦ıà¦®à¦ıà¦ĩà¦ļ à¦¬
ÑĢÐ·ÐĿÑĢÐ¶Ð ¿
à¦£ à¦ĸ
Ġà§§à§¨ à§¨
Ġà¦īà§İ à¦ªà¦¤
à¦£ à¦Ł
i ous
à¦ª à¦Ń
Ġà¦ħà¦ª à¦¶à¦¨
Ġà¦ľà¦¨à¦¸ à¦®à¦ķ
à¦²à¦ĩ à¦¸à¦²
à¦¬à¦² à¦ĩ
à¦ª à¦°à¦ķ
Ġm other
Ġwh o
Ġà¦¤ à¦«
Ġà¦¸à¦¹ à¦ľà¦²à¦Ń
à¦¶ à¦ļ
Ġà§© à§¨à§¦
b er
à¦¸à¦¬ à¦ĩ
Ġà¦¨ à¦Ľ
Ġà¦¯ à¦¤à¦¦
Ġà¦Ŀ à¦²à¦ķ
à¦¼ à§ĩà¦¾
Ġà¦ĵ à¦Ĩà¦ĩà¦¸
à§¯ à§¬
à¦ı à¦ıà¦Ĩà¦°
Ġà¦ħà¦¸ à§İ
Ġà¦²à§ľ à¦¬
Ġà¦Ĩà¦ĩà¦¨ à¦¬
à¦ķ à¦°à¦¤
à¦¯ à¦ĸ
Ġà¦ıà¦² à¦ĩà¦¡
à§ĩ âĢĿ
ĠĠĠĠĠĠĠĠĠĠĠĠĠĠĠĠ ĠĠĠĠĠĠĠĠĠĠĠĠĠĠĠĠ
Ġà¦¬à¦² à§Ł
Ġà¦ªà¦Ł à¦Ń
Ġ- ----
Ġà¦¹ à¦ĩà¦²
Ġà¦¸à¦¹ à¦¶
à¦ī à¦Ĺ
à¦£ à¦¬à¦¨
à¦Ĩ à¦ĵà¦¯
Ġ- -
à¦® à¦ªà¦ķ
à¦ļ à¦ĺ
à¦· à¦¸à¦¹
à¦² à¦ªà¦¤
à§® à§«
r y
Ġb ut
à¦ľà¦¨ à¦ĵ
Ġà¦Ŀ à¦²
Ġà§§à§¯à§® à§«
ÑĢÐ¶Ð º
Ġà¦Ń à¦°à¦ª
Ġà§¨ à§©à§¦
Ġà§¨à§ª à§¦
Ġà¦® à¦¹à¦®
à¦¨à§Łà¦¨ à¦®
à¦ıà¦« à¦ĩà¦īà¦ľ
ĠâĢ Į
à§Ģ âĢĻà¥¤
à§Łà¦¨ à¦¯
à¦£à¦ª à¦¦à¦ķ
à¦®à¦¸ à¦®
Ġà¦ħ à¦¥à¦°
à¦¤ à§Ł
à¦ķà¦¶ à¦ª
à§¨à§¦à§¦ à§¦
ec h
o g
à¦® à§Łà¦¨
à¦ªà¦° à¦¦
âĢĶ âĢĺ
à¦¬à¦² à¦¡à¦¨
Ġà¦ªà¦¥ à¦Ł
Ġà¦Ĺà¦£ à¦¯
d ay
Ġà¦ĩ à¦ıà¦¸à¦ª
ÑĢÐ¶Ð ¼ÑĢÐ¶
à¦ı à¦²à¦¸
id e
à¦ªà¦° à¦¶
Ġà¦Ŀà¦² à¦®à¦²
Ġà¦ķà¦ĸà¦¨ à¦ĩ
Ġp o
à¦¹ à¦ļ
at ed
Ġà¦¹ à¦°à¦£
Ġà¦īà¦ª à¦Ĺ
à¦ıà¦« à¦ıà¦«
à§ľ à¦¹
à¦®à¦¸ à¦ľ
à¦ł à¦Ń
Ġà¦ī à¦¹
Ġà§« à§«à§¦
Ġà¦Ĩà¦ĩà¦¨ à¦ķ
Ġà¦Ĩà§Ł à¦¶
Ġà¦ī à¦¸à¦®
Ġa g
à§® à§®
Ġà¦ħ à¦¦à¦®
à¦ª à¦ĸ
à¦§ à¦ķà¦°à¦£
à¦¡ à§Łà¦¨
i x
à¦Ĳ à¦ķ
à§ĭà¥¤ "
à¦¤ à¦¬à¦¸
Ġg reat
à¦Ń à¦ª
Ġà¦°à¦¹à¦®à¦¤ à¦Ĺà¦ŀ
Ġà§§à§« à§©
à¦ĩà¦ī à¦¸
ï Ģ
à¦°à¦£ à¦¯
Ġà¦ħ à¦°à¦£
l l
S et
ic al
à¦¾à¥¤ *
à¦ľ à¦¤à¦²
Ġà¦ı à¦ıà¦ĩà¦ļ
à¦¾ à¦ĥ
ac her
à¦²à¦ķ à¦¬
Ġà¦²à§ľ à¦¤
Ġà¦ķà¦® à¦°
à¦¹ à¦°à¦ķ
' à¥¤
à¦ĸ à¦ķà¦¦
Ġm ore
Ġà¦ıà¦ĩà¦ļ à¦Ĩà¦ĩà¦Ń
Ġà¦ħà¦¸ à¦¦
à¦« à¦«
à¦ı à¦ıà¦¨
à¦ĩ à¦«à¦¤
Ġà§§à§¯à§« à§¨
a z
à¦ĸ à¦¸à¦¹
à¦ı à¦ķà¦¬
Ġà¦Ĩà¦¦ à¦®à¦¦
Ġà¦¬à¦Ľà¦° à¦Ł
Ġà¦Ńà¦Ł à¦Ńà¦Ł
ÑĢÐ¶Ð´ ÑĢÐ¶
k ing
à¦¯à¦ľà¦¨ à¦ķà¦Ń
à¦ħ à¦¶
Ġà§§à§ª à§«
Ġà§§à§¯à§Ń à§®
Ġ ÂłÂł
à¦¨à¦¬ à¦¦
Ġà¦Ĩà¦¹à¦® à¦¦à¦ķ
Ġà¦¤à¦°à¦« à¦¦
Ġà¦ħà¦ª à¦¶à¦ķ
Ġà§§à§¯à§Ń à§¯
à¦° à¦Łà¦¨
ĠÑĢÐ¶Ð ¶
à¦° à¦ļà¦¨
Ġà¦ķ à¦¦à¦®
Ġà¦ķà¦° à¦®
à§Łà¦¨ à¦¦
à¦§ à¦ªà¦°
Ġà¦¹à¦² à¦Ĺ
à¦ªà¦¨ à¦ļ
Ġà¦ĺ à¦°à¦®
à¦¤ à¦ķà¦²
Ġà¦¹ à¦¦
Ġà¦ħà¦¤ à¦ıà¦¬
à¦Ł à¦Ĩà¦ª
à¦¾ à¦¿
à§© à§¦à§¦
à¦§ à¦Ĺà¦®
h ak
Ġà¦¬à§ľ à¦²
Ġà¦¬à§Łà¦¸ à¦¸
ĠO n
Ġà¦ľ à¦®à¦ķ
à¦ķ à¦¸à¦®
à¦Ľà¦¨ à¦Ľ
Ġà¦¬à¦¨ à¦¶
Ġc ol
à¦°à¦¬ à¦§
Ġà¦«à§Ł à¦¸à¦²
Â Ń
Ġà§§à§© à§¬
Ġ 6
or y
à¦¨à¦¤ à¦¤
Ġà¦ª à¦¸à¦°
Ġà¦¹ à¦ĩà¦¬
à¦·à¦ķ à¦¸à¦¹
Ġà¦ļ à¦£
oug h
Ġà§§à§Ń à§«
à¦ļà¦ª à¦¦à¦¸
Ġà¦ħ à¦¯à¦¥
Ġà¦Ĩà¦¨ à¦ļ
Ġà¦¤ à¦Ľà¦¨à¦Ľ
Ġà§§à§¯à§® à§©
à¦ľà¦¨ à¦ķà¦Ń
Ġà¦ħà¦¤ à¦Ł
i e
o x
ÑĢÐ·Ðĳ ÑĢÐ¶
à¦ī à¦²à¦ķ
Ġ č
Ġà§§à§© à§ª
´ ÑĢÐ¶
Ġà¦¶à¦°à¦£ à¦ĸ
à§ª à§¦à§¦
ĠThe re
Ġà§§à§® à§¯
f ter
Ġà¦ļ à¦°à¦«
Ġf ood
Ġà¦¶ à¦°à¦¬à¦¤
ĠT h
à¦ĩà¦Ł à¦Ĺ
Ġà§§à§© à§®
Ġà¦īà¦¦ à¦ĺ
ÑĢÐ¶Ð¸ ÑĢÐ¶
à¦® à¦ļà¦¨
à¦Ĺà¦° à¦ª
à¦¨à¦¬ à¦ª
Ġà¦ıà¦ķ à¦Ĺ
Ġà¦Ĩ à¦ĵà¦²
Ġà§©à§¬ à§¦
à¦¨ à¦¬à¦²
Ġà¦ħ à¦ķà¦²
Ġà¦¨ à¦Īà¦®
Ġà¦¤ à¦²à¦¦
Âł ĊÂł
it ies
à¦«à¦° à¦Ĺ
à¦¡ à¦¹
à¦¯à¦¬ à¦ĩ
ac t
à¦Ł à¦Ļ
à¦Ĩà¦° à¦ıà¦¸
à¦ıà¦®à¦¨ à¦Ł
Ġà¦ħà¦Ń à§Łà¦¨à¦Ĺà¦°
ar m
ÂłÂłÂłÂłÂłÂłÂłÂł Âł
1 0
t o
à¦¸ à¦«à¦²
à¦¸à¦ķ à¦®
Ġà§§à§¯à§® à§§
Ġà§§à§¨ à§¯
¯ ÑĢÐ¶
à¦¿. ,
à¦¤à¦° à¦Ļ
Ġà¦Ĩà¦¨ à¦ľ
Ġà¦ľ à¦Łà¦²
à¦ĩà¦¸ à¦Ĺ
Ġà¦ıà¦« à¦¸
Ġà¦¦à¦ĸ à¦²à¦ķ
à¦¾- à§ĩ
à§¨à§¦à§¦ à§©
Ġà¦ıà¦ĩ à¦¡à¦¸
ĠEn gl
Ġà¦ªà¦° à¦²
à¦¹ à¦ĵ
Ġlik e
à¦ľ à§Łà¦ķ
à¦Ĩà¦° à¦ıà¦«
Ġ ïģ®
à¦ĵà¦² à¦ľ
Ġman y
Ġà¦īà¦¦ à§Ł
Ġà¦° à¦Ł
Ġà¦ħà¦¸à¦¹ à¦¯
à¦¬à¦¦ à¦®
à¦¯ à¦Ĺà¦¤
Ġà¦§ à¦°à¦®à¦ª
Ġà¦ľ à¦ķ
à§Łà¦¤ à¦²
ht tp
à¦ªà¦¦ à¦®à¦¨
Ġà¦ĵ à¦¤
à¦« à¦ĸà¦°
Ġà§§à§« à§ª
à¦® à¦¤à¦¬
Ġà§§à§¯à§® à§Ń
à¦° à¦ħà¦¨
à¦¸ à¦ĺ
Ġà¦Ĩà¦ĩ à¦ĵà¦ıà¦¸
Ġà¦ľà¦¨à¦¸ à¦®à¦°
à¦· à¦°à¦¤
à¦§ à¦ĩ
Ġà¦ļ à¦¬
Ġà¦Ĩà¦¬ à¦Ľ
o ve
Ġà¦® à¦°à¦¤
Ġà¦ıà¦¸ à¦ıà¦®à¦ĩ
ou se
à¦ĸ à¦ķà¦°
Ġne ed
Ġà¦Ī à¦®
Ġà¦Ĺà¦£ à¦Ĺ
Ġà¦Ĩà¦ĩ à¦¸à¦²
Ġà§§à§¬ à§«
à§į ,
p er
à¦§ à¦®à¦ķ
Ġà¦« à¦²à¦ķ
Ġcl ass
à¦¸ à¦ªà¦¨
à¦°à¦¹ à¦ķ
Ġà¦Ĩà¦ļ à¦®à¦ķ
à¦¼ à¦¾à¦Ĥ
c c
à¦ıà¦ĩà¦ļ à¦ıà¦¸
à¦¶à¦¨ à¦¬
à§ľ à¦Ĺ
Ġà§§à§ª à§¨
aus e
Ġà¦ħà¦¨ à¦¬à¦¦
Ġà§§à§© à§¯
ÑĢÐ¶Ð¥ ÑĢÐ¶
res s
à¦¬à¦° à¦Ł
Ġà¦¸à¦¬ à¦ķà¦Ł
à§¨à§¦ à§¨à§¦
à¦ĩà¦ī à¦ķ
Ġà§¨à§® à§¦
à¦¿? âĢĻ
à¦¦à¦¨ à¦¬
à§Ģ ;
à¦¦ à¦²à¦ķ
à¦ĵ à¦Ľ
Ġstud ents
à§Ł à¦°à¦ķ
Ġà¦¡ à¦Ĺ
à¦¦à¦° à¦Ĺ
Ġm ake
à¦¼ âĢĻ
à¦ł à¦ķà¦Ł
Ġà¦¶à¦¤ à¦¤à¦®
Ġd if
à¦¦ à¦īà¦¦
à¦ıà¦® à¦ĵ
Ġà¦Ĩà¦ĩ à¦ıà¦®à¦ıà¦«
Ġà¦Ĩà¦ĸ à§ľ
à¦¾à¦ģ à¥¤
à¦°à¦ķ à¦¨
ĉ ĉ
à¦ļà¦² à¦®
Ġà¦Ĩ à¦ķà¦²
ĠS h
à¦° à¦Ĩ
r u
Ġà¦ļ à¦ĵà§ľ
Ġte acher
Ġ ...
à¦¯ à¦¶à¦¸
à¦¦ à¦®à§Ł
à§ĩâĢĻ âĢĶ
Ġà¦Ń à¦¨
Ġà¦ħà¦¬ à¦¬
Ġà¦¬à¦¸ à¦¤à¦Ń
Ġà¦ķ à¦¸à¦®
a j
Ġà¦ıà¦¡ à¦ĵà§Ł
ac k
à¦¨ à¦¬à¦¸
à§ľ à¦§à¦¸
à¦° à¦īà¦¤
Ġà¦Ł à¦°à¦¨
à¦Ń à¦¦
à¦°à¦¨ à¦®
Ġà¦¨à¦¬ à¦Ĺà¦ł
à¦¯ à¦ªà¦Ł
ĠÑĢÐ¶Ð ķ
Ġà¦Ŀ à¦Ł
Ġà§§à§« à§¨
Ġà¦¯ à¦®à¦ľ
à¦¡ à¦²à¦¸
Ġl iv
à¦°à¦¥à¦® à¦¦
Ġà§¨à§Ń à§¦
à¦°à¦° à¦¹à¦®
Ġ Q
p le
à¦¥ à¦Ł
Ġb ook
Ġ ro
à¦ª à¦ľà§Ł
Ġà¦ħà¦¨ à§ľ
Ġw ant
à¦ľà¦® à¦¹à¦²
Ġà§¨ à§§à§¦
Ġf am
s h
à¦¾ à¦¾
Ġà§§à§© à§§
à¦¨ à¦ĺà¦°
Ġà¦Ĩà¦īà¦Ł à¦¸
Ġà§§à§« à§«
Ġà¦ķà¦¬ à¦ľ
Ġà§§à§© à§Ń
à¦¸ à¦®à¦¨
ĊĊĊĊ Ċ
e ad
Ġà¦ıà¦ķ à¦ľ
t ain
oth om
à§§à§¯à§¯ à§¬
Ġà¦¬à¦¨ à¦ª
à¦Łà¦° à¦°
Ġà¦¸à¦¬à¦¸à¦®à§Ł à¦ĩ
ĠEngl ish
à¦ļ à¦²à¦¬
Ġà¦ľ à§Łà¦ķ
ire ct
Ġà¦ıà¦ĩà¦ļ à¦ª
he d
Ġà§§à§ª à§Ń
Ġà§§à§© à§©
à¦ĩ à¦Ļ
Ġà¦Ĩà¦īà¦Ł à¦²
à¦¤ à¦¹à¦¤
à¦Ĺ à¦«à¦²
Ġcom m
Ġà¦ħà¦Ĺà¦£ à¦¤
à¦¹à¦¨ à¦Ĺà¦ŀ
à¦ıà¦² à¦ĵ
ÑĢÐ¶Ð ¬
à¦ıà¦¸à¦ĩà¦ī à¦ıà¦®
Ġà¦ªà¦¦ à¦Ĺ
à¦¤à¦¨ à¦Ń
Ġà¦¬à¦¨ à¦¦à¦¸
Ġ /
à¦ļ à¦¦à¦¶
Ġà§§à§ª à§®
à§ĩà¥¤ ïģ¬
Ġre ad
Ġà¦¤ à¦¹
Ġg et
t s
à¦¤ à¦¬à¦¸à¦®
à¦ĩà¦¸ à¦Ł
ĠH ow
à¦® à¦ĩà¦¨
Ġà¦Ĩà¦¤ à¦²
à¦ħà¦ª à¦¹à¦°à¦£
à¦ļà¦² à¦Ł
Ġà¦¸ à¦ĩà¦¤
Ġp re
Ġà§§à§® à§®
à¦¤à¦ķ à§ľ
Ġw ater
à¦Ĩ à¦¶à¦°
à¦ļà¦¨ à¦Ł
f orm
Ġà§§à§¬ à§¨
à¦°à¦¡ à¦Łà¦ķà¦®
à¦°à¦£ à¦Ĺ
Ġà¦ĭà¦£ à¦Ĺ
Ġà§§à§« à§§
Ġi f
hak a
à¦° à¦Ĩà¦ª
à¦§ à¦²
à¦Ĩ à¦ļ
à§Ń à§©
à¦¹ à¦¸à¦¹
à¦· à¦¤à¦¬
à§¯ à§«
Ġte xt
ĠÑĢÐ¶Ð¸ ÑĢÐ¶
Ġà¦¦à¦° à¦ĸ
iv ers
à¦« à¦ª
à§Ń à§¬
Ġà¦¬à¦¹ à¦¦
à¦¨ à¦Ĩà¦īà¦Ł
à¦¶ à¦§
à¦· à¦¹
à¦² à¦ĺà¦°
.... ....
od y
ĊÂłĊÂłĊÂłĊÂł ĊÂłĊÂłĊÂłĊÂł
Ġà¦¸à¦¹à¦® à¦°
Ġà¦«à¦² à¦®
ir st
Ġà¦īà¦² à¦«
Ġà¦ªà¦¦ à¦¬
Ġà¦¤à¦ĸà¦¨ à¦ĵ
à¦Ń à¦²à¦¬
Ġà¦ıà¦¨ à¦Ń
Ġà§§à§ª à§§
ĠC h
Ġà§§à§ª à§¬
à¦¾ à§ĩ
Ġà¦ĩà¦ī à¦²
Ġà¦¶à¦¹ à¦°à¦ķ
à¦Ĩà¦° à¦ľ
Ġà¦ª à¦¹
Ġle t
à¦® à§Łà¦ķ
à¥¤ âĢĶ
Ġà¦ľ à§Łà¦¸
l p
Ġà¦Ĺà¦łà¦¨ à¦®
Ġà§§à§ª à§¯
à¦ľ à¦Ĺà¦¤
Ġà¦¹à¦² à¦¦
Ġà¦ıà¦¡ à¦Ń
Ġwor d
à¦¡ à¦ıà¦«
Ġà¦ªà¦¦ à¦¯
à¦² à¦ŀ
Ġà¦¬à§ľ à¦ª
à¦¤ à¦ķà¦¦
à¦ªà¦¨ à¦¸à¦°
on s
à¦Ĩ à¦ĸ
ation al
al o
ĠS o
Ġà¦ľ à¦Ĺà¦¦
Ġà¦ĸà¦¨à¦¨ à¦ķ
à¦£ à¦ķà¦°
Ġà¦ıà¦ķ à¦¤à¦²
à¦¯ à¦ļà¦°
à¦® à¦®à¦¨
à¦ļ à¦²à¦¨
ĊĊĊĊ ĊĠ
à¦ª à¦ļà¦°
Ġà§¨à§¦ à§ªà§§
à¦ıà¦« à¦ª
à¦®à¦Ĺ à§ľ
ÑĢÐ¶Ð¸ ÑĢÐ·ÐĿÑĢÐ¶Ð
à¥¤ :
à¦Ŀ à¦¡
à¦Ĩà¦ĩ à¦°
à¦Ĥ âĢĶ
ed uc
à¦¤ à¦ĸ
à¦¤à¦« à¦¸
âĢĻ âĢĵ
à¦¯à¦Łà¦¨ à¦®à¦¨
Ġà§§à§ª à§©
Ġà§¨à§¬ à§¦
Ġà¦ħ à¦°à¦ķ
Ġà§§à§¯à§¬ à§¯
Ġà¦Ĩà¦ĩà¦ķ à¦¨
à¦Ĩà¦ĩ à¦¯
à¦ķà¦Ł à¦ª
à¦° à¦ıà¦ķ
âĢĮ à§ģ
on d
à§Ł à¦ļ
l es
Ġà§§à§¬ à§§
Ġà¦Ĩà§Ł à¦°à¦¨
Ġà¦ħà¦ªà¦° à¦ľà¦¨
à¦¥ à¦ĵ
Ġà¦² à¦²
Ġà¦ĵ à¦¶
Ġà¦¦à¦² à¦¬
an ge
à¦ľ à¦²à¦¬
à¦° à¦ĭà¦£
Ġà¦Ľ à¦Ł
Ġà¦ľà¦² à¦¢
Ġà§©à§Ń à§¦
à¦Ĺà¦° à¦¦
Ġà¦¹ à¦ĩà¦¤
Ġh app
à¦¬ à¦²à¦¨
à¦ĩ à¦Ĩà¦°à¦¸
à¦Ĩà¦Ĺ à¦¸
Ġà¦¤à¦¬ à¦²
Ġà¦¬ à¦¶à¦°
à¦ī à¦ªà¦¦
à¦¿à¥¤âĢĿ âĢľ
ÑĢÐ¶Ð §
à§¨à§¦à§¦ à§¨
à¦ĵ à¦«
Ġà¦ħà¦ª à¦Ł
Ġe v
Ġà¦¸ à¦ĵà§Ł
à§Ń à§ª
Ġà¦īà¦ªà¦° à¦¨
à¦ķ à¦¨à¦¸
à¦ļà¦² à¦Ĺ
à¦¦à¦¨ à¦ª
Ġà¦¬à§Łà¦¸ à¦Ń
Ġy ear
à¦ľ à¦ľ
ÂłÂłÂłÂłÂłÂłÂłÂł ÂłÂłÂł
Ġwh ich
à§ĩ ),
à¦Ĩà¦ĩà¦¨ à¦¶
r ow
Ġà§¨à§¨ à§«
Ġà§§à§¯à§Ń à§¬
à¦ıà¦®à¦¨ à¦ķ
Ġà¦ı à¦¨à¦ķ
à¦ķà¦Ł à¦¬à¦°
Ġpass age
ic k
à§® à§¦à§¦
à¦® à¦ĵà§Ł
e ech
à§ĭ âĢĻà¥¤
à¦¨à¦¸ à¦ĩ
Ġà¦Ĺ à¦®à¦¨
Ġà¦ĩ à¦¬à¦¤
à¦Łà¦° à¦¯
Ġ 8
Ġà¦ıà¦¨ à¦Ĩà¦°à¦¸
Ġhe alth
Ġà¦¬à¦¨ à¦¬
Ġà¦ľà¦¨ à¦¦
à¦¼ :
ut ion
o se
à¦ĵ à¦¥
Ġus e
Ġà¦¬ à¦¦à¦¨
à¦°à¦¹ à¦Ł
à¦Ĺ à¦²à¦¨
Ġà¦ıà¦® à¦ıà¦²
à¦°à¦¤ à¦¬
à¦°à¦¬ à¦ķ
à¦¦à¦° à¦¨à¦Ĺà¦°
à¦ķà¦°à¦£ à¦Ł
) ;
à¦ª à¦Ľ
à¦¦à¦ķ à¦®
Ġà¦ļ à¦°à¦ª
à¦ıà¦² à¦ıà¦ĩà¦ļ
Ġà¦ħà¦¸à¦¹ à¦¨
Ġà¦ĩ à¦¸à¦ķ
Ġà¦Ĩ à¦°à¦ķ
Ġà§§à§« à§®
Ġ1 9
Ġà¦Ĺ à¦ŀ
Ġto o
ïĢ ł
à¦¡ à¦ľ
à¦ĩà¦¡ à¦²
Ġà§§à§¯ à§ªà§®
Ġà¦ħà¦§ à¦°
à¦Łà¦° à¦ªà¦¨
Ġà¦ļ à¦°à¦¬
à¦ıà¦¸ à¦ıà¦¸à¦¸
Ġà¦Ĺ à¦«à¦°à¦Ĺ
Ġà¦Ĺà§ľ à¦²
Ġd is
Ġà¦¨ à§ľà¦¬
Ġà¦§ à¦¬à¦²
à¦ĩ à¦¥
Ġà¦Ĩà¦¹ à¦¤à¦°
Ġà¦¡à¦² à¦«
ĊĊ ĠÂł
à¦¿ à¦¾
à¦ıà¦ķ à¦¸à¦®à§Ł
à¦¬ à¦Ĺà¦¤
Ġin ter
à§ģ âĢĵ
Ġà¦ª à¦®
à¦¯à¦® à¦Ł
Ġà¦ĸ à¦ª
Ġà§¨à§¦ à§¨à§¨
Ġfri end
Â ¬
Ġà¦® à¦Ł
à¦Ĺ à¦ļ
à¦ķà¦° à¦Ĺ
à¦ªà¦¤ à¦¨
re n
à§İ à¦¬
Ġb ir
Ġà¦Ĩà¦° à¦ª
Ġhe lp
à¦°à¦® à¦¹
à¦ĸ à¦ļ
à¦Łà¦¬à¦² à¦ª
à§§à§¯à§Ń à§«
à¦ľ à§Łà¦¨à¦Ĺà¦°
il y
à§ģ .
Ġà¦ıà¦ķ à¦²
, âĢĻ
Ġà¦¦à¦° à¦Ĺ
à¦ĩà¦ī à¦¬
Ġà¦¸à¦¹ à¦§à¦°
à¦°Ã¦ à¦ª
à§Ń à§¯
Ġa ct
à§® à§©
à¦ıà¦ķ à¦ĩà¦¸à¦Ļ
Ġà¦¸ à¦ªà¦ķ
Ġà§¯à§¯ à§¯
à¦ī à¦ªà¦°
Ġà¦¨ à¦¬à¦¬
Ġà¦ĩ à¦¬à¦°
à¦¿ âĢĿ
à¦ķà¦° à¦Ľ
Ġwor k
Ġà¦Ĩà¦ĩ à¦ıà¦¸à¦ª
pr othom
Ġà¦ħà¦ªà¦° à¦Ł
Ġà§§à§« à§¯
ÂłÂłÂłÂłÂłÂłÂłÂł ÂłÂł
à¦° à¦ľà§Ł
Ġà¦ľà¦¨ à¦¬à¦¹
Ġfor m
Ġà¦Ĩà§Ł à¦¤
à¦¸ à¦¬à¦¨
Ġà¦¬à§Ł à¦²
à¦ķ à¦ķà¦°
Ġà¦¶ à¦Łà¦Ł
Ġà¦° à¦ĺ
à¦¼ âĢĶ
à¦® à¦§à¦¨
Ġà¦Ĩà¦® à¦Ĺ
à¦² à¦°à¦°
Ġà¦° à¦Ĺ
---- ----
Ġà¦¬à¦¨ à¦Ĺ
Ġà¦ĩà¦īà¦ıà¦¨ à¦¡
à¦¯à¦¬ à¦ĩà§Ł
Ġà§§à§« à§¬
Ġà¦Ĩà¦ĩ à¦ļ
à¦¨à¦¬ à¦®
à¦ľ à¦¸à¦ķ
Ġà¦Ĺà¦² à¦¦
Ġà¦ı à¦Ĩà¦ĩ
Ġà§§à§¬ à§¬
Ġà§§à§¯à§Ń à§Ń
à¦ķ à¦¨à¦ķ
Ġà¦Ľ à§Łà¦¤à¦²
Ġà¦Ĩà¦² à¦Ĺ
à¦°à¦£ à¦ª
Ġà¦ıà¦¬ à¦Ľà¦°
à§® à§¯
Ġin d
, âĢĺ
à¦ıà¦ıà¦¨ à¦ıà¦®
Ġ V
Ġà¦Ĺà¦¡ à¦«
Ġà¦¶ à¦²
Ġà¦Ĩà¦ĩ à¦ĩà¦¡
à¦·à¦£ à¦ĵ
Ġt ake
à¦ıà¦®à¦ıà¦ĩà¦ļ à¦¸
à¦°à¦ķ à¦¥
à¦° à¦ħà¦Ń
Ġà¦ķà¦° à¦¨
à¦« à¦ľ
Ġà§§à§¯à§¬ à§¨
à¦ Ĭ
à¦ĩ à¦¤à¦²
Ġà¦¶à¦° à¦«
à¦Ń à¦§
el y
Ġà¦ª à¦ļà¦¨
à§ľ à¦ľ
à§¬ à§¦à§¦
Ġà¦ıà¦¤ à¦ķ
à¦¬à¦¶ à¦°
à¦Ľ à¦®
Ġà¦®à¦ľ à¦¹
à¦¸ à¦ķà¦²
à¦Ĩ à¦¯
g ov
Ġà¦« à¦£
à¦ķà¦° à¦¬
à§Ł à¦ķà¦¦
à¦·à¦£ à¦ª
Ġp ers
ĠÑĢÐ¶Ð ¼
à¦Ł à¦ľà¦ķ
Ġà¦ĩà¦ī à¦Ń
um n
Ġà¦¹à¦ķ à¦¸à¦¹
Ġà¦¹ à¦Łà¦²
à¦ľà¦¨ à¦¸à¦¹
Ġà¦ī à§ľà¦¤
à¦£ à¦¯
ĠN o
b ook
à¦·à¦£ à¦®
à¦·à¦ķ à¦¬
à¦Ĺà¦£ à¦¤
u es
Ġà¦īà§İà¦ª à¦²
Ġà¦ĸà¦°à¦ļ à¦ĵ
à¦²à¦¨ à¦Ł
i et
à¦ĸ à¦ĵ
à§ľ à¦Ļ
ul ar
à¦ª à¦¦à¦ķ
el f
Ġà¦Ĺ à¦ĵà¦¹à¦°
Ġt w
Ġà¦¦à¦² à¦®à¦¤
à¦°à¦ªà¦° à¦ĩ
ÑĢÐ¶Ð Ĺ
. #
à¦£ à¦ļ
à¦¿! âĢĻ
Ġimp ort
Ġà¦¹ à¦ĩà¦Ľ
à¦£ à¦ļà¦°
om et
Ġà¦¬à¦¨ à¦ľ
Ġà§§à§« à§Ń
Ġà¦Ĩà¦¶ à¦ķ
à¦Ĩ à¦¡
ah oo
Ġl ive
à¦Łà¦° à¦Ĺ
Ġà¦«à¦° à¦ľ
à¦ıà¦¸ à¦ıà¦¨à¦¡
à¦° à¦ħ
Ġà¦Ĩà¦²à¦® à¦¡
à¦®à¦¶ à¦¤à¦¬
à¦² à¦ļà¦¤
à¦¤à¦® à¦ŀ
Ġà¦Ł à¦¬
à§ľ à¦Ń
à¦¸ à¦¯à¦ľ
à¦¼ à§Ģà¥¤
à§ĩ âĢĺ
Ġà¦Ĩà¦ĩ à¦ıà¦¸à¦Ĩà¦ĩ
Ġm ost
Ġà¦®à¦¹ à§İ
Ġ educ
Ġ 7
Ġà¦§à¦° à¦ª
à¦¨ à¦§
à¦¡ à¦§
v el
à¦¾à¥¤âĢĿ âĢľ
à¦¯ à¦¯à¦¨
Ġà¦¹ à¦ĵ
oug ht
Ġà¦ĵ à¦Ĺ
ang u
âĢĻ !
Ġà§§à§Ń à§¬
y ahoo
à¦Ĩ à¦ŀ
Ġà§§à§¯ à§«à§¦
Ġà¦Ŀ à¦¨
à§® à§¬
Ġ' '
ÑĢÐ·ÐĹ ÑĢÐµÐ´
à¦ıà¦« à¦Ĩà¦ĩ
à¦°Ã¦ à§Ł
Ġà¦ľ à¦²à¦®
à§İà¦¸ à¦°
. âĢĻ
Ġà¦¶ à¦¬à¦¨à¦®
Ġà¦Ĩà¦Ľ à§ľ
Ġà§® à§«à§¦
Ġe very
ĠY ou
ĊĊĊĊ ĊÂł
Ġà¦¸ à¦°à¦¸
Ġà§§à§¬ à§Ń
à¦Ĺ à¦¶
Ġà¦¬à§ľ à¦¬
or g
Ġà¦ıà¦« à¦ı
ĠW rite
à¦¸ à¦ĵà¦¯
à¦Ł à¦¡
à¦° à¦²à§Ł
Ġà¦Ĩà¦¦ à¦¤
à¦ıà¦® à¦ľ
à¦¤ à¦ķà¦¤
à¦¬à¦° à¦ª
Ġà¦® à¦«à¦¸
à§Łà¦£ à¦ª
Ġas ked
à¦ªà¦¨ à¦Ł
à¦¿ à§ģ
à¦ĩà¦¨ à¦ĺ
Ġà¦®à¦¨ à¦ª
Ġà¦§ à¦®à¦ķ
Ġà¦¤ à¦¤à¦¦
Ã ¿
Ġà¦ī à¦ľà¦¬
à¦ıà¦¨ à¦Ĩà¦ĩ
à¦¬à¦¨ à¦§
à¦Ĩà¦Ł à¦ľà¦¨
Ġà¦ĵ à¦¸à¦¬
à¦ļà¦¨ à¦Ĺ
ÑĢÐ¶Ð ª
à§® à§ª
à¦¨ à¦§à¦°
Ġà¦ĵ à¦ıà¦¸à¦¡
as e
à¦¥ à¦ªà¦¥
Ġà¦¤ à¦ķ
à¦Ĩ à¦¦à¦°
à¦°à¦¹ à¦¸
à¦®à¦¤ à¦ª
à¦ķ à¦ĺà¦°
à¦Ĺ à¦¹
à¦¼ !
à¦¤à¦° à¦ŀ
ĠÑĢÐ¶Ðº ÑĢÐ¶
à¦® à¦ĺà¦°
à¦ıà¦¸à¦ıà¦¨ à¦ıà¦²
Ġà¦§ à¦¨à¦ķ
à¦¤à¦ķ à¦ķ
Ġà¦ľà¦¨ à¦ķà¦²
Ġà¦¸à¦ļ à¦°
it e
# #
Ġà¦¬à¦² à¦°
à¦Ĩ à¦°à¦ķ
Ġp art
à¦ļ à¦ķà¦Ń
fer ent
à§® à§§
Ġo ver
Ġp h
à¦ı à¦ľà¦¨
Ġà¦ıà¦ıà¦ĩà¦ļ à¦ıà¦®
à¦łà¦ķ à¦ķ
Ġà¦ľ à¦²à¦ķ
à¦ĺ à¦¶
Ġà¦® à¦Łà¦°
" ,
à¦¸ à¦ľà¦®
Ġon ly
he s
à¦£ à¦ĩ
Ġà¦Ĩà¦° à¦¡
Ġà¦īà¦ª à¦¶à¦¹à¦°
Ġà§§à§¯ à§©
Ġà¦īà§ľ à¦Ľ
à¦ľ à¦Ĺà¦¨
Ġà¦¨à§ľà¦¬ à§ľ
à¦ħ à¦·
ĠA n
à¦ķà¦ľà¦¨ à¦ĵ
Ġà¦Ĩ à¦īà¦¶
ig h
à¦ĩà¦² à¦ļ
à¦¬à¦¨ à¦¨à¦Ĺà¦°
Ġà¦ļ à¦°à¦Ń
à¦¾âĢĻ âĢĶ
à¦¨à¦ķ à¦ķ
ad e
Ġà¦ķà§Ł à¦°
Ġà¦ľà¦¨ à¦¸à¦¹
ĠâĢ Ŀ
Ġà¦ĩà¦īà¦ıà¦¸ à¦ı
en ds
Ġg iv
à§Ł à¦¶
Ġà¦¬à¦° à¦¦
al s
Ġà¦Ĩà¦²à¦® à¦¸à¦¹
Ġà¦Ĩà¦¤ à¦¶à¦¬
à¦§ à¦¯
à§ĩà¦¾ âĢĻ
à¦·à¦£ à¦¸à¦¹
à§® à§Ń
à¦¾ (
Ġà¦§ à¦ķà¦²
Ġà¦Ĩà§ľ à¦¤à¦¦
à¦ĸ à¦®à¦£
Ġw ould
ic t
Ġà¦Ĩà¦ĩ à¦¯
à§Ł à¦¸à¦¹
à¦ħ à¦ŀ
à¦Ĩà¦Łà¦ķ à¦ķ
Ġà¦ıà¦¨ à¦Ĩà¦°à¦¬
à¦¸ à¦ķà¦°
à¦®à¦¯ à¦ľ
à§ģ à¥¤âĢĻ
Ġà§§à§¨ à§¦à§¦
à¦¾ Â¤
à¦ĩ à¦ĵà¦¯
Ġà¦¸à¦¦à¦° à¦ª
Ġle ar
Ġà¦ħà¦¨ à¦¤
ed u
à¦īà¦ıà¦ĩà¦ļ à¦ĵ
Ġv ill
Ġà¦Ĩà¦§ à¦ĺà¦£
Ġf irst
à¦· à¦¦à¦ķ
à¦® à§İà¦¸
à¦¸à¦¬ à¦¶
ÂłÂł ĊĊĊĊ
Ġà¦ħà¦ª à¦Ľà¦¨
à¦Ĩà¦ĩà¦¨ à¦®à¦¨
Ġà¦ħ à¦ªà¦¤
Ġà¦¬à¦Ľà¦° à¦ľ
Ġà¦¸à¦¨à¦¦ à¦ªà¦¤
Ġà¦ķ à¦¤à¦ķ
Ġà¦¤ à¦°à¦ķ
Ġà¦Ĩ à¦īà¦²
à¦ıà¦ķ à¦ĩà¦Ń
ĠC om
à§® à§¨
d u
à¦Ĩà¦° à¦¡à¦¬
Ġà¦¥ à¦°
à¦Ľ à¦²à¦¤
à¦ĩà¦ķ à¦¬
à§Łà¦¨ à¦¸à¦¹
à¦¨à¦¤ à¦ķ
as h
ace book
Ġà¦īà§İ à¦ªà¦¨
Ġà§§à§¯à§¬ à§¬
à¦§à¦¬ à¦¦
à§ĩà¦¾ ?
à¦« à¦ľà¦²
à¦ĩà¦® à¦§
à§ģ ?
Ġe ar
à¦°à¦® à¦ĵ
Ġà¦¬à¦²à¦¬ à§İ
à§¨ à§§à§¨
angu age
à§¨ à§§à§©
à¦¡ à¦¦
à¦ªà¦¥ à¦Ĺ
ĠâĢ ł
à§ĩà¥¤âĢĻ âĢĺ
à¦ıà¦ĩà¦ļ à¦ª
os ition
Ġà§©à§¦ à§¨
Ġà¦° à¦ľà¦¬
en s
Ġà¦ī à¦¤à¦°
Ġà¦Ĩà¦¸ à¦Ĺà¦°
à¦¼ à§Ĥ
Ġà¦Ł à§Ł
Ġh ouse
čččč čččč
Ġà¦® à¦²à¦®
Ġà§§à§¯ à§¬à§¦
ĠĠĠĠĠĠĠĠĠĠĠĠĠĠĠĠĠĠĠ čččččččč
0 1
à¦¬à¦° à¦¦à¦¸
č ĠĠĠĠĠĠĠĠĠĠĠĠĠĠĠĠĠĠĠ
Ġà¦ľ à¦¬à¦¸
ĠĠĠĠĠĠĠĠĠĠĠĠĠĠĠĠĠĠĠčččččččč čč
Ġà¦¹ à¦ĩà¦¨
à¦¹à¦¤ à¦Ń
à¦¶ à¦Ľ
à¦°à¦¤ à¦¬à¦°
à§ĩà¦¾ à¥¤âĢĻ
Ġà§§à§¬ à§©
Ġà¦¸à¦° à¦Ĺà¦°à¦®
Ġà§§à§Ń à§ª
à¦¯ à¦ªà¦°
à¦Ĺ à¦°à¦ķ
à¦²à¦¶ à¦¹à¦°
Ġp ol
w e
à¦ĩà¦¨ à¦Ń
Ġà¦ľà¦² à¦ľ
Ġà§§à§Ń à§¨
à¦Ĺ à¦Ńà¦°
à¦Ĩà¦ĩ à¦ıà¦¸à¦ª
à¦¬à¦¤ à¦ĩ
ÑĢÐ¶Ð ¯ÑĢÐ¶
Ġse e
à¦°à¦¸ à¦¨à¦ķ
à¦° à¦ıà¦ķà¦Ł
Ġà§¨à§¦ à§«
Ġà¦Ĩà¦« à¦Ľ
à¦¬à¦° à¦ĸ
à¦¦à¦° à¦Ł
à§¨ à§§à§ª
Ġà¦ıà¦¨ à¦ª
an ce
à¦¨ à¦¬à¦°
Ġb u
Ġà¦¨ à¦Łà¦°
Ġà¦īà§İ à¦ķà¦°
Ġe at
Ġà¦¯ à¦¤à¦¬
à¦ļà¦¨ à¦ĵ
Ġà¦ľ à¦Ĺà¦²
Ġl ook
à¦ªà¦° à¦®
Ġà¦ıà¦ĩ à¦¬
à¦ĩà¦ķ à¦Ĺ
Ġà¦¹ à¦ĩà§Ł
Ġà¦Ľà§Ł à¦¬
Ġà§§à§¬ à§®
ÑĢÐ¶Ð´ ÑĢÐ·ÐĹ
Ġà¦ħà¦§ à¦¸
at ch
à¦· à¦ĸ
à¦²à¦ķ à¦¨
à¦· à¦·
Ġà¦ª à¦¥à¦¨
à§Ģ âĢĻ,
à¦¡ à¦¬à¦²
à¦®à¦¤ à¦Ń
w n
à¦¶ à¦Ĺà¦ŀ
à¦ĩ à¦īà¦Ł
à¦®à¦¸ à¦Ł
à¦ıà¦ķ à¦ªà¦°
Ġà¦¸ à¦Ĺ
) âĢĻ
à¦²à¦¨ à¦ĵ
à§¨ à§§à§«
à¦¥à¦¬ à¦¹
Ġà¦Ĩà¦® à¦°à¦£
j ect
à¦¼à¦¾ )
Ġà¦¨à§Ł à¦ľà¦¨à¦ķ
à¦ī à¦Ńà§Ł
Ġà§¨à§¦ à§§
ĠF ill
I n
à¦§ à¦ĺ
à¦²à¦¸ à¦ł
i le
Ġà§ ·
Ġà¦² à§Ł
Ġà§ª à§¨à§¦
Ġà¦ļà¦ķ à¦ļà¦ķ
à¦·à¦£ à¦ĩ
Ġà¦¡ à¦®
à¥¤ -
à§¯ à§¨
Ġc ould
Ġne w
à¦ĩ à¦ĺ
à¦Ł à¦§
Ġà¦ĸà¦¬à¦° à¦ĵ
à¦ī à¦ĩà¦²
à¦°à¦£ à¦ķà¦ķ
à¦®à¦¦ à¦®
Ġà§§à§® à§«
y s
ÑĢÐ¶Ð Ĵ
à¦ªà¦¦ à¦®
Ġs m
à¦¬ à¦²à¦ķ
à¦ĩà¦Ł à¦ĵà§Ł
à¦ĩ à§ľ
à¦¹ à¦ĵà§Ł
Ġs oc
ÑĢÐ¶Ð ·
Ġà¦Ŀ à¦Ĺà¦¡
Ġà¦ı à¦ıà¦ª
à¦¸à¦ķ à¦Ĺ
. )-
Ġà§§à§Ń à§§
à¦¬à¦¹à¦¨ à¦¶
à§¯ à§§
Ġà¦ı à¦¥
à¦¹ à¦ĸ
à¦Ĩ à¦¨à¦¸
à¦¨ à¦ķà¦²
Ġà¦ıà¦® à¦ıà¦®
à§§à§¯à§¯ à§¯
à¦Ĩà¦°à¦ĩ à¦ī
Ġà¦ħ à¦ĺ
ur al
Ġà¦¸à¦¦à¦° à¦¦à¦ª
à¦¶à¦¨ à¦®
Ġà¦ļà¦®à¦ķ à¦ª
Ġà¦®à¦¹ à¦¡
à¦ıà¦® à¦Ń
à¦ıà¦« à¦Ł
à§¯ à§®
à¦¾, âĢĿ
Ġà¦ĸ à¦¬
Ġch ild
Ġ 9
Ġà¦¬à¦² à¦ª
Ġf ather
à¦ļ à¦ķà¦ķ
Ġà§§à§® à§¨
à¦Ĩà¦¤ à¦Ļ
Ġlet ter
à¦°à¦¸ à¦®à§Ł
à¦ľ à¦ķà¦¤
Ġa fter
à¦Ĩà¦°à¦ıà¦® à¦ĵ
à¦®à¦² à¦®à¦¤
à¦Ĩà¦ĩ à¦ıà¦®à¦ıà¦«
... à¥¤
ĠA s
Ġà¦īà¦Ńà§Ł à¦ĩ
Ġà¦ıà¦ĩ à¦ļà¦Ł
Ġà§§à§Ń à§Ń
à¦ľà¦¸ à¦ľ
à§ľ à¦ĩ
Ġà¦Ĩà¦ľ à¦®à¦¤
à¦ĩà¦¨ à¦¸à¦¹
à¦Ĺà¦² à¦ª
Ġà¦ªà¦¥ à¦¶
Ġà¦¡ à¦¬à¦²à¦®
Ġà¦¦à¦² à¦Ĺà¦¤
à§Ģà¥¤ âĢĿ
Ġà¦ħà¦¨ à¦§
a ir
le ct
à¦· à¦ªà¦¥
à¦¤ à¦¯
à¦ĩà¦ī à¦ıà¦¨
Ġà§¨à§¯ à§¦
à¦Ł à¦°à¦Ł
à¦¾ âĢĭ
Ġw ell
à¦ł à¦ķà¦°
it t
à§Ł à¦®à¦¤
Ġà¦Ŀà¦ķ à¦Ŀà¦ķ
Ġà¦Ĩà¦ĩà¦¨ à¦¸
Ġà¦¸à¦« à¦°à¦Ł
à¦Ĩ à¦®à¦¦
Ġà¦ķà¦® à¦²à¦¨à¦Ĺà¦°
Ġpers on
u g
à¦° à¦¨à¦¬
Ġ )
Ġà§§à§¯ à§¨
à§Ł à¦°à¦¦
Ġà¦¸à¦® à¦®à¦¨
Ġs c
à¦ķà¦Ľ à¦¡
Ġà¦Ĩ à¦¹à¦²
Ġw rit
Ġà¦Ĺà¦£ à¦ķà¦¬à¦°
âĢĿ à¥¤
à¦¤à¦°à¦£ à¦ķ
Ġà¦ļà¦°à¦® à¦Ń
h ing
Ġà¦¶à¦° à§İ
Ġà¦¯à¦¤ à¦Ĺ
Ġà¦ħà¦¬à¦¨ à¦®à¦¨
Ġà¦ĸà¦¨à¦¨ à¦¯à¦¨
à¦ľ à§Łà¦¦
à¦² à¦¸à¦®
Ġà¦° à¦¸à¦¦
Ġà¦ªà¦¦ à¦¬à¦ŀ
à¦¹à¦¨ à¦Ĺ
Ġà¦® à¦ł
à¦ĩà¦¨ à¦°
Ġbe en
à¦¦à¦¸ à¦®
a w
Ġà¦¦ à¦¬
à¦¦à¦¨ à¦¹
Ġà§© à§©à§¦
à¦ľà¦¨ à¦¬
Ġà§¨ à§§à§«
Ġà¦ĺ à¦¨à¦¤
à¦Ĩà¦ĩ à¦ıà¦®
à§¨à§¦ à§¨à§§
Ġà¦Ĩ à¦·
Ġà¦¹à¦² à¦°
ĠD haka
à§ģ âĢĻà¥¤
à§§à§¯à§¯ à§§
Ġà¦Ī à¦¦à¦ķ
Ġà¦ıà¦® à¦Ł
Ġ |
à¦ĩà¦® à¦ļà¦°
Ġà¦ĩà¦īà¦ıà¦¨ à¦ıà¦ĩà¦ļà¦¸
à¦¿ |
Ġà¦Ł à¦ķà¦¶
à¦°à¦£ à¦®
Ġà¦ıà¦ĩ à¦¸à¦¬
' -
Ġà¦¦à¦² à¦¬à¦²
Ġà¦ı à¦ĺà¦Łà¦¨
Ġà¦« à¦¸à¦ķ
ĠÑĢÐ¶Ð ¬
à¦ľà¦¨ à¦®à¦¤
à§¯ à§Ń
à¦Ł à¦°à¦¬
Ġà¦Ĭ à¦·
Ġd r
Ġà¦Ĩà¦° à¦«
Ġà¦¨ à¦«à¦²
e ep
à¦¹ à¦£
Ġf e
Ġf l
Ġà¦§à¦¬à¦² à¦§
Ġa w
Ġre s
à¦ª à¦ªà¦°
Ġà¦ļ à§Łà¦¨
Ġà¦ª à¦Ĺà¦¬
Ġà¦ķ à¦¤à¦¦
Ġà¦¨ à¦ĵà¦°
à¦¤à¦° à¦Ĺ
' s
à¦¹ à¦¶
Ġà¦ħà¦ķ à¦ªà¦Ł
Ġà§§à§¬ à§¯
à§Ģ ),
à¦¤ à¦¹à§Ł
à¦ĵ à¦ı
à¦ĩà¦ķ à¦ª
Â ¦
Ġà¦ħ à¦¥
Ġà¦« à¦¸
à¦°à¦£ à¦¸à¦¹
à§ĩ? âĢĿ
à§Ł à¦¡
à¦¬à§Ł à¦¹
c l
Ġbec ause
Ġà¦ħ à¦ľà¦¸
à¦¤à¦¨ à¦ĵ
Ġp er
à§Ģ '
à¦¸à§ľ à¦ķà¦Ł
Ġà¦¸ à¦¶à¦°
à§Ł à¦°à¦¨à¦®
à¦¯ à¦Ľ
Ġà§¨à§« à§¬
Â ¯
Ġà¦ķ à¦¤à¦¬
it al
à¦ĩà¦ľ à¦Ń
à¦¿ Â¤
à§Ģ âĢĵ
g r
à¦¿) -
à¦¤ à¦ļà¦°
à¦°à¦¤ à¦¸à¦¹
Ġà¦ĩ à¦°à¦¶
Ġdif ferent
Ġà§§à§® à§©
à§ľ à¦¸
à§¯ à§ª
Ġn ame
à¦ĩ à¦ĩ
à¦°à¦£ à¦ªà¦¤
à¦Ĩ à¦¹à¦¤à¦°
Ġre m
Ġcom e
Ġà¦ħà¦ªà¦¤ à§İà¦ªà¦°à¦¤
à¦¹ à¦ķà¦¸
Ġà¦ıà¦¨ à¦ĩà¦¸
Ġà¦¹ à¦Łà¦¸
à¦°à¦¤ à¦ĵ
Ġà¦Ĩà¦² à¦¸
ĠÑĢÐ¶Ð ´ÑĢÐ¶
Ġà¦¬à§ľ à¦ľ
à¦ĩà¦« à¦¸
ÂłÂł ĊĊĊ
ĠÑĢÐ¶Ðº ÑĢÐ·ÐĿÑĢÐ¶
Ġà¦¦à¦¶ à¦ľà¦¨
ÑĢÐ¶Ð¶ ÑĢÐ·ÐĹÑĢÐ¶
à¦¬ à¦²à§Ł
à¦¥ à¦ķà¦ķ
Ġà¦Ĩà¦² à¦ªà¦¨
is s
½ ÑĢÐ¶
Ġà§§à§Ń à§©
ĠÂ ¯
à§ĩ à§ĩ
Ġà§§à§¯à§¬ à§Ń
Ġ ÃĹ
Ġà¦ıà¦¸à¦¬ à¦ĩ
en g
Ġimport ant
ĠÂłĠÂłĠÂłĠÂł ĠÂłĠÂłĠÂłĠÂł
à¦¸ à¦°à¦²
Ġà¦ļ à¦°à¦£
à¦īà¦ĩ à¦ļ
à§¨ à§§à§¦
Ġà¦Ĩ à¦īà¦¯
b le
Ġà¦¹ à¦°à¦Ń
à§§à§¯à§¯ à§®
Ġà¦¬à¦Ľ à¦°à¦¬
à¦¦ à¦ĸ
à¦¶ à¦®à¦¨
à¦ıà¦¸ à¦ıà¦ĩà¦ļ
Ġà¦īà¦ĩà¦² à¦¸à¦¨
à¦¬à¦§ à¦²
à§Łà¦¨ à¦¬
à§¯ à§©
Ġà¦¸ à¦ĩà§Ł
in k
à§Ģà¥¤ âĢľ
Ġsu b
à¦ªà¦¦ à¦¬
à¦¯à§Łà¦¨ à¦°à¦¤
à¦² à¦¬à¦°
à¦Ĩà¦ĩ à¦ĩà¦¡
Ġà¦Ŀ à¦°à¦Ľ
à¦ĩà¦Ł à¦¬
Ġà¦īà¦ªà¦ķ à¦£
à¦¯à¦Łà¦¨ à¦ķ
t ic
Ġà¦¹ à¦°à¦ķ
Ġà¦ħà¦¨ à¦¬à¦°à¦¤
Ġà¦®à¦¨ à¦¨
à¦Ĺà¦£ à¦¸
à¦¤ à¦§
à¦Łà¦¬ à¦²à¦ķ
à¦ıà¦°à¦ªà¦° à¦ĩ
à¥¤ ...
à¦¤ à¦ĺ
à¦°à§Ł à¦¸
Ġà¦ĩà¦ī à¦ıà¦¸à¦¬
Ġà¦¶ à§Łà¦¤
à¦Ĺ à¦¤à¦°
à¦ĩà¦Ľ à¦¡
ion s
à¦Ĩà¦¸ à¦Ľ
am m
à¦Ĺ à¦¯
à¦° à¦¡à¦¬
Ġà§§à§Ń à§®
g ative
à§ģ !
Ġà¦ķà¦¤ à¦ĸ
à§Ŀ à¦Ń
Ġà¦° à¦£à¦ķ
à§ĩà¦¾ à¦Ĥ
à¦¦à¦¨ à¦Ĺ
Ġà¦ħà¦ķ à¦¥
Ġà¦Ń à¦°à¦£à¦ª
à¦°à¦² à¦¸
à¦Ĺà¦£ à¦ª
à¦Ĩà¦²à¦® à¦Ĺ
Ġà¦Ĩà¦ĩà¦¨à¦Ĺà¦¤ à¦Ń
Ġà¦ľ à¦²à¦¦
f o
Ġà¦ĸ à¦²à¦¨
à§¯ à§¦à§¦
Ġpl ay
Ġà¦¨ à¦ĵà¦¯
Ġà§§à§¯à§¬ à§«
Ġà¦ıà¦ķ à¦Ŀ
à¦ıà¦®à¦ĩà¦ī à¦ıà¦¸
Ġà§¨à§¨ à§ª
à¦« à¦¸à¦¹
à¦ķà¦¸ à¦ľ
Ġà§¯à§¯ à§¦
à¦Ĩà¦ĩ à¦ıà¦°
ĠA l
à§Ł à¦ķà¦°
à¦·à¦£ à¦Ł
à¦ł à¦°
à¦·à¦£ à¦¬
à¦¨à¦ķ à¦¶
à¦ĩà¦ī à¦ıà¦¸
Ġn ow
Ġà¦ıà¦ķà¦ķ à¦¥
à§§à§¯à§¯ à§¦
à¦¶ à¦°à¦£
Ġà¦¸à¦¹à¦ľ à¦Ń
Ġà¦ł à¦ķ
Ġà¦Ķ à¦¦
Ġà§¨ à§§à§©
à¦ĩà¦¨ à¦Ĩà¦ª
ÑĢÐ¶Ð ³
à¦Ł à¦¬à¦¦
à¦¬à¦ľà¦¨ à¦ª
Ġà¦°à¦ĵ à¦¨à¦ķ
ĠÂł Ġ
Ġà¦° à¦ĵà§Ł
ver b
Ġà§¨à§¨ à§¨
Ġh ome
ap er
à¦ª à¦ĩà§Ł
ow n
à¦Ł à¦¯
Ġà¦¦ à¦®à¦¦à¦®
Ġit s
Ġà§§à§® à§§
â Ĺ
à§ µ
or s
ĠW hen
Ġà¦Ĩà¦¸ à¦¨à¦¸
Ġà¦ĩà¦ī à¦Ľ
Ġà¦ķà¦¨ à¦¡
Ġà§¨à§© à§ª
Ġà¦ĸ à¦¤à¦®
Ġà¦¸à¦¬ à¦¦
Ġà§§à§¯à§¬ à§ª
ig n
à§ģ âĢĮ
Ġà¦¨ à¦²à¦¡
à¦ĵ à¦ªà¦°
à¦®à¦¸ à¦ļ
Ġtw o
à¦ķ à¦ĭà¦£
Ġà¦ª à¦¬à¦¨
Ġg ap
à¦° à¦ıà¦ĩ
Ġà¦ı à¦®à¦¤
Ġà§§à§® à§Ń
Ġà¦ĩà¦¸ à¦®à¦¤
Ġà¦ľà¦¨ à¦Ĺà¦¨
Ġà¦ľ à¦²à¦°
à¦¤à¦° à¦ĵ
à¦ľ à¦²à¦ķ
âĹ ı
à¦ħ à¦¨à¦¨
à¦¸à¦¨ à¦¸à¦¹
à¦ļ à¦ķà¦¬
à¦¿, âĢĿ
Ġ @
Ġn ec
' '
à¦ĸ à¦Ĺ
à¦²à¦¸ à¦¡
Ġst art
Ġà¦ħ à¦¹à¦¨
à¦¡ à¦²à¦ķ
Ġà§§à§® à§ª
à¦¯à¦ķà¦° à¦Ń
Ġc all
à§ĥ -
Ġag ain
Ġà¦ı à¦¹à¦¤
Ġà§¨à§¦ à§ª
Ġà§§à§¯à§¬ à§®
1 2
Ġà¦ľ à¦®à¦¤
Ġà§§à§« à§¦à§¦
Ġà¦¬à¦Ľ à¦°à¦ķ
à¦® à¦ĵà¦¦
à¦°à¦¶ à¦ķ
ĠH is
à¦· à¦ªà¦°
à¦ªà¦¦ à¦¤
à¦²à¦¡ à¦Łà¦ķà¦®
à¦Ĩ à¦ļà¦°à¦£
Ġà§§à§Ń à§¯
Ġb oy
Ġwh at
one y
à¦¶ à¦¸à¦®
à¦¯ à¦Ŀ
à¦¤à¦¨ à¦¸à¦¹
or d
Ġà§Ńà§Ń à§Ń
à¦ı à¦ķà¦ķ
Ġà§¯ à§«à§¦
Ġà¦° à¦ľà¦¤
Ġà§¨ à§§à§Ń
Ġb ox
g et
à¦¸à¦¨ à¦¦
à¦ľ à¦²à¦¸
Ġà¦ıà¦° à¦ĩà¦®à¦§
Ġà¦Ĩà¦¸à¦¨ à¦Ĺ
à¦¨ à¦¸à¦ķ
à¦® à¦«à¦²à¦ķ
à¦¦ à¦¯à¦¨
à¦ļ à¦¸à¦¹
Ġà§©à§¦ à§ª
ĠA ns
Ġme ans
Ġà¦ ĥ
à§ľ à¦ĵ
Ġw hen
Ġà¦¨ à¦²à¦Ľ
Ġà§§à§¯à§« à§ª
à¦¦ à¦°à¦¤
à¦°à¦¶ à¦®à¦¨
à¦¤à¦° à¦¬
Ġa pp
Ġiii à¦Ĺ
Ġà§§à§¯ à§§
Ġà§¨ à§§à§¨
à¦ĩà¦¨ à¦Ĺ
à¦ıà¦ĩà¦ļ à¦ıà¦¸à¦¸
Ġà¦ľà¦¨ à¦¶
à§¨ à§§à§§à§
Ġfri ends
u ch
t y
à¦° à¦ĸà¦¨
Ġvill age
à§ģ )à¥¤
Ġà¦Ĩà¦¬ à¦°à¦£
à¦Ĺà¦¤ à¦¤
) âĢĶ
à¦¬ à¦ķà¦Ł
à¦Ĩ à¦Ļ
Ġà¦¹à¦°à¦Ń à¦ľà¦¨
à¦²à¦¤ à¦ĸ
à¦ħ à¦¸à¦®
à§ľ à¦Ŀ
Ġà¦ļ à¦ª
à¦ī à¦Łà¦¨
vel op
Ġà¦¸à¦«à¦²à¦¤ à¦®
ĊĊĊĊĊÂł ĊĊĊ
Ġà¦īà§İà¦¸à¦¬ à¦Ł
ÑĢÐ¶Ð¥ ÑĢÐ·ÐĹ
Ġst r
?âĢĻ âĢĺ
Ġà¦¬à¦¨ à¦¸
Ġà§¨à§Ń à§«
à¦ļ à¦°à¦®
Ġof f
à¦¦ à¦¬à¦°
à§ĭ ;
Ġà¦« à¦ķà¦°
Ġà¦Ĺà§ľ à¦¬
ĠT r
à¦¤à¦¤ à¦ªà¦ķ
Ġà¦ĭà¦£ à¦¦
f ore
à¦¬à¦² à¦²
à¦¥ à¦ĵà§Ł
à¦®à¦£ à¦ª
à¦® à¦¸à¦²
à¦®à¦ķ à¦®
à¦ıà¦« à¦Ĩà¦ĩà¦¸
Ġe ach
Ġpl ace
à¦° à¦¯à¦¨
à¦¯ à¦ĺ
à¦ĵ à¦ıà¦ĩà¦ļà¦ıà¦¸
à¦Łà¦ķ à¦Ĺ
ĠIn d
a ut
à¦ĸà¦¨ à¦¨
à¦¥à¦² à¦ľ
Ġl ong
à¦ıà¦ĸà¦¨ à¦ĵ
à¦īà¦ľ à¦ķ
à¦¯ à¦¨à¦¤
à¦ĩ à¦ķà¦°
Ġp op
à§Łà¦¨ à¦ĵ
Ġà¦ĭà¦£ à¦ªà¦¤
an ks
à§ĩ âĢĭ
Ġà§¨à§¦ à§¬
ol d
à¦¬ à¦ıà¦ĩà¦¡
à¦ī à§İà¦ķ
Ġà§¨à§¦ à§¨
Ġà§§à§¯à§« à§®
à¦Ń à§İà¦¸
Ġà¦ªà¦¥ à¦°
a f
Ġin to
à§¨ à§¨à§¦
Ġà¦¬à§ľ à¦ĩ
à§§à§¯à§¯ à§Ń
Ġà¦Ĺ à¦Ĺ
Ġà§©à§¬ à§«
Ġà¦® à¦¥
as ed
ĠS et
à¦ī à¦ĩà¦¦
à¦°à¦® à¦°
à¦¼à¦¿ -
Ġà¦ħ à¦ĸà¦£
Ġ .
à¦¦à¦¨ à¦®
à¦ªà¦ķ à¦ķ
Ġà¦ľà§Ł à¦Ĺ
Ġsu it
à¦ī à§İà¦ª
à¦¦à¦° à¦ª
Ġà¦ĺà¦¨ à¦¬à¦¸à¦¤
Ġà¦ĺ à¦¡
Ġà§¨à§ª à§¨
Ġ 0
Ġà¦ķ à¦Łà¦¨
à¦¬à¦¨ à¦¸
Ġà¦¨ à¦Ĺà¦£
à¦ĩ à¦Łà¦ķ
à¦« à¦¦
à¦¬à¦° à¦¸à¦¹
à¦¬à¦¸ à¦ķ
Ġm or
à¦¹ à¦°à¦¦
Ġà¦Ĩà§Ł à¦¬à¦¹
à¦¯ à¦ªà¦¨
à¦¿âĢĻ âĢĶ
Ġà¦ļ à¦·
à¦« à¦°à¦®
Ġà¦ıà¦¸ à¦ĩà¦¸
iet y
à¦ľ à¦ĸ
Ġà§¨à§¦ à§©
Ġà§¨à§© à§¯
Ġà¦īà¦ĩ à¦ĺ
Ġ Z
à¦® à¦·
Ġà¦¸à¦¬ à¦®
Ġà¦®à¦¤ à¦Ń
ÂłÂł Ġ
Ġun der
à¦Łà¦ķ à¦ķ
à¦¯à¦® à¦£
à¦ķà¦ľ à¦®à¦ķ
t ing
à¦²à¦¨ à¦¸à¦¹
Ġm ay
à¦Ĩ à¦¸à¦ķ
Ġà¦Ĩà¦² à¦ķ
Ġw ent
ĠWh y
Ġà¦ĭ à¦¦
à¦ļà¦² à¦ĵ
Ġà¦¥ à¦²
à¦¦ à¦ļ
in fo
im a
à¦¬à¦° à¦ĵ
à¦ıà¦° à¦Ĩà¦Ĺ
Ġà¦ıà¦¨ à¦«
à¦ģ à§ģ
à§ĩà¦¾ )
à¦ªà¦ķ à¦¦
Ġl anguage
Ġà¦ļà¦²à¦¨ à¦¬
Ġà¦Ľà¦Ł à¦«à¦Ł
Ġc ame
Ġà¦¹ à¦°à¦¹
à¦Ľ à¦¯
ĠS t
à¦¦ à§Łà¦¬
à¦° à¦¡à¦ķ
à¦ł à¦ľà¦¨
1 1
al k
à¦ħà¦¬à¦¸ à¦°
à¦° à¦Ĩà¦Ĺ
à¦ĩ à¦ıà¦¸
à¦Ĺà¦£ à¦¨
à¦¹ à§Łà¦¤
à¦ĩà¦¨ à¦¸à¦ķ
v ii
g oo
à¦¸ à¦¸à¦ķ
Ġp res
Ġà¦Ń à¦¸
à¦ľà¦¨ à¦Ĺ
Ġà¦Ĩà¦° à¦ıà¦¸à¦ıà¦¸
Ġo ld
à¦¿âĢĻ -
à¦¶à¦¨ à¦ľà¦Ł
à¦Ń à¦ĵ
Ġà¦Ĺ à¦¯
Ġà§§à§¯ à§ª
Ġà¦ªà¦¦à¦ķ à¦ª
form ation
à¦ķ à¦¨à¦Ĺà¦°
à¦Łà¦¤ à¦ĩ
Ġà¦ķ à¦¹
à¦ĵ à¦®à¦°
à¦°à¦® à¦¶à¦ķ
Ġà¦«à¦² à¦Ł
à¦¶ à¦¶
Ġà¦ªà¦° à¦Ĺà¦¨
ĠS p
à¦² à¦¸à¦ķ
ĠA t
Ġà¦Ĺ à¦ļ
à¦°à¦£ à¦¸à¦®
Ġà¦¤ à§İà¦¸
à¦² à¦¹à¦ľ
Ġà¦ĵ à¦ķà¦¸
ĠÑĢÐ¶Ð §
à¦¸ à¦¶
Ġt ak
à¦ªà¦ķ à¦¤
à¦ħ à¦¯
à¦°à§Ł à¦ķà¦°
à¦¹ à¦ĩ
à¦ľ à¦¬à¦¨
Ġà§§à§® à§¬
Ġà¦¶à¦ª à¦¥à¦¬
ĠÑĢÐ¶Ð¾ ÑĢÐ¶
Ġm ade
Ġh ow
Ġà§¨ à§§à§ª
st it
ÑĢÐ·ÐĿÑĢÐ¶Ð ¿ÑĢÐ¶
à¦°à¦² à¦¸à¦Ń
Ġà§¨à§© à§«
Ġhttp s
à¦§à¦¨ à¦®
Ġà¦īà§ľ à¦¨
à§ĩà¥¤ #
Ġnec ess
à¦¦à¦ķ à¦®à¦£
ÂłÂłÂłÂłÂłÂłÂłÂł ÂłÂłÂłÂłÂłÂłÂł
à¦ľ à¦¤à¦¬
Ġà¦ıà¦¨ à¦Ĩà¦ĩà¦¡
à¦ª à¦ľà¦²
à¦°à¦¸ à¦¦à¦¸
à¦¾âĢĻ -
Ġb et
à¦ħ à¦¦
à¦Ī à¦²
Ġb est
Ġre pl
Ġà¦¶ à¦®à¦¶
à§ľ à¦ª
l ed
Ġà¦¬ à¦Łà¦®
Ġà¦¶ à¦¤à¦°
Ġà¦® à¦Łà¦°à¦¸
ÂłÂłÂłÂłÂłÂłÂłÂł ÂłÂłÂłÂł
à¦ĩ à¦Łà¦¨
à¦·à§Ł à¦ĵ
Ġk eep
à¦Ĩ à¦¹à¦¸
or n
Ġm ust
Ġà§¨à§© à§¨
à¦§ à¦¹à§Ł
Ġ( -
ĠU n
an y
Ġà¦ıà¦ķ à¦§
à¦Ĩ à§Łà¦¨
Ġà¦¨à¦ĵ à¦«
Ġà¦ĩà¦īà¦ıà¦¨ à¦¬
à¦¯à¦® à¦ŀ
à¦ħ à¦Ļ
Ġà¦ıà¦« à¦ıà¦®
à¦ĵ à¦Ĩà¦ĩà¦ª
à¦°à¦« à¦ķ
Ġà¦Ĩà¦ĩ à¦ĵ
f acebook
à¦¤à¦° à¦ĸ
Ġà¦ıà¦² à¦Ĩà¦°à¦¬
g an
o h
à§ĩ Â¡
à¦ĩ à¦ľà¦®
à¦¬à¦¹ à¦£
à¥¤ (
à¦¬à¦¨ à¦¸à¦Ļ
à¦¸à¦¹ à¦ľ
à¦ļ à¦ķà¦Ł
Ġà¦¹à¦¤ à¦Ńà¦®
à¦¬à¦ķ à¦¨
à¦²à§Ł à¦ĵ
Ġm uch
i an
à¦¹ à¦²à¦¬
à¦Ļ à¦Ľ
Ġà§¨à§¦ à§®
Ġex p
Ġà§¨à§Ń à§¨
à¦Ĺà¦² à¦¬à¦¨
Ġà¦ľà¦¨à¦Ĺà¦£ à¦ĩ
^ à¦¾
Ġà¦ıà¦ķà¦ľà¦¨ à¦ĵ
Ġre sp
are n
Ġà¦ħà¦¨ à¦¸
à¦¸à¦® à¦Ŀ
à¦²à¦¦ à¦¹
à§Ģ? âĢĻ
Ġà¦ı à¦ĸà¦²
Ġà¦ħ à¦Ľ
à¦¬ à¦ľà¦¨à¦ķ
à¦¨à¦Ĺ à§ľ
ÑĢÐ·ÐĹÑĢÐ¶Ð «
Ġà¦¸à¦® à¦·
Ġà¦ĺ à¦¨à¦®
à¦¦à¦ķ à¦¢
Ġin v
à¦² à¦¹à¦ķ
à¦¤à¦° à¦¦
Ġà¦ľ à§Łà¦°
Ġà¦ľà§Ł à¦¶
Ġà¦ļ à¦¸
à¦°à¦£ à¦ĩ
à¦¬ à¦¦à¦°
à¦¸ à¦¦à¦¨
à§ĭ '
à¦· à¦°à¦ķ
à¦łà¦ķ à¦ĵ
à¦Ľ à§Łà¦Ł
Ġà§§à§¯à§¬ à§§
à¦ľ à¦ķà¦¨
à¦ľà¦¨ à¦¨
à¦²à¦ķ à¦ĵ
à¦° à¦¢
à¦ļ à¦Ļ
Ġà§¨à§¦ à§¯
Â¡ à¦¾
à¦¨ à¦ªà¦°
Ġà§¨ à§§à§®
Ġf ive
Ġà¦Ł à¦¨à¦ķ
Ġà¦Ń à¦£
à¦¸ à¦¥
à¦ĩà¦² à¦Ĺ
Ġà¦ķà¦¸ à¦°à¦¤
à¦ı à¦ķà¦®
à¦¯ à¦°à¦¸
Ġà§© à§ªà§¦
Ġa c
ĠC ol
Ġà¦Ĩ à¦£à¦¬
m s
Ġà¦ļà¦°à¦Ń à¦¦
Ġc are
µ ÑĢÐ¶
à¦ıà¦² à¦Ł
j oy
à¦ı à¦¬à¦²
Ġà¦ıà¦ķ à¦ĺ
Ġà§¨ à§§à§¬
à¦¼à§ĩ -
à¦ĩà¦ª à¦Ĺ
Ġv is
Ġbl anks
ÑĢÐ¶Ð «
Ġà§¨à§¦ à§Ń
à¦¹à¦ľ à¦°à¦¤
H e
Ġà§ªà§® à§¦
Ġà¦ Ļ
à¦¹ à¦Ĺà¦¨
Ġà¦ľ à¦¬à¦°à¦¦à¦¸
à¦¼à¦¾ âĢĻ
à¦Ĩà¦ĩ à¦«
à¦¥à¦² à¦¸
à¦Ĩ à¦Łà¦Ł
Ġà¦ħà¦ľ à¦Ĺà¦°
? :
Ġà¦°à¦¹à¦®à¦¤ à¦īà¦²
Ġà¦ħà¦¹ à¦°à¦¹
Ġs omet
Ġth r
à¦Ĩà¦ĩ à¦Ĩà¦°
à§§à§¯à§Ń à§¨
à¦¯ à¦¹à¦¤
Ġyear s
Ġà¦¬à¦Ľà¦° à¦ĸ
à¦§à¦¨ à¦¶
à¦ª à¦°à¦¤
Ġà¦Ĩà¦Ĺ à¦®
à¦°à¦ľà¦¨ à¦ĩ
Ġ <
Ġt able
Ġgiv en
Ġfam ily
Ġsuit able
à¦¨ à¦ªà¦²
Ġà¦ħ à¦¶à¦¨
à¦¥ à¦¸à¦Ń
à¦¬ à¦ļà¦¨
à¦·à§Ł à¦Ń
Ġà¦īà§İà¦¸à¦¬ à¦ķ
à¦¤à¦ļ à¦°à¦¬
Ġde velop
Ġà¦¸à¦° à§Ł
à¦²à¦¸à¦¹ à¦ķ
à¦ķ à¦¢
Ġà¦ĺ à¦Łà¦ķ
Ġà¦ı à¦ıà¦¸
à¦ĩà¦Ń à¦¸
à¦ļà¦¨ à¦ĩ
à¦ķ à¦®à¦¨
à¦¬à¦¨ à¦ª
ar k
w ays
Ġà¦®à¦¹ à¦ķ
à¦ĩà¦ī à¦¡
Ġw ay
Ġà¦ıà¦ĩà¦ļ à¦ıà¦¸à¦¬
à¦²à¦¨ à¦¸
âĢĿ ,
at h
o ver
Ġà¦®à¦¨ à¦Ľ
Ġv i
à¦ı à¦ı
à¦ıà¦® à¦ıà¦°
Ġi d
à¦¸ à¦¤à¦°
Ġà¦ĵ à¦°à¦¸
à¦ı à¦ķà¦¸
Ġà¦ıà¦® à¦ıà¦¸
e y
à¦²à¦¨ à¦ķà¦¶
Ġà§¨à§¨ à§¬
ar r
Ġà¦Īà¦¦ à¦¯
Ġà¦ĸ à¦¡
ĠWh o
à¦° à¦Ĺà¦£
Ġà§¨ à§§à§§
à¦ī à¦ł
Ġà¦Ĩà¦ĩà¦¨ à¦¸à¦Ń
Ġà¦ĭà¦£ à¦¸
à¦¸ à¦ľà¦¨
à§ĩ à§į
Ġà§© à§§à§¦
Ġà¦ĺà¦° à¦Ĺ
Ġt ell
Ġà¦Ĩ à¦ĸà¦¨
Ġà¦ħà¦¬ à§Łà¦¬
à¦īà¦¥ à¦ĩà¦¸
Ġstud ent
Ġà¦¬à¦² à¦ķ
Ġà§©à§® à§¦
it ed
Ġme an
Ġà¦ıà¦¸ à¦Ł
Ġà¦Ĩ à¦ĵà¦°
à§§à§¯à§¯ à§¨
Ġ1 2
it s
Ġà¦ħ à¦ªà¦ķ
à§ĩ *
Ġà§¨à§¨ à§Ń
t en
à¦¸à¦¨ à¦ĵ
à¦¸à¦¦ à¦¬
à¦ªà¦° à¦¬
Ġà¦¬à¦° à¦ľ
à¦Ī à¦¦à¦ķ
Ġrepl ied
Ġwith out
Ġà§¨à§® à§®
Ġà¦ıà¦ķà¦ľà¦¨ à¦ĩ
Ġà¦ľà§Ł à¦²à¦²
Ġà¦ĵ à¦ıà¦®à¦ıà¦¸
Ġà¦«à¦¸à¦² à¦¹
Ġà¦ļ à§Ł
à¦¤à¦¨ à¦¬
à¦¸à¦¨ à¦®à¦¨
à§Ł à¦°à¦ª
à¦· à§ľà¦¯à¦¨
à¦Łà¦ķ à¦¹
Ġà¦® à¦¶à¦ķ
à¦ĵ à¦¸à¦ķ
à¦« à¦°à¦¹
à¦ıà¦®à¦ıà¦ĩà¦ļ à¦ª
à¦ķ à¦°à¦ķ
ĠI f
Ġà¦Ĩà¦ľ à¦¬
à§ĩ (
Ġà¦ıà¦ķ à¦¹
à¦ı à¦ıà¦®à¦Ł
à§Ń à§¦à§¦
ĠÑĢÐ¶Ð £
à¦ĺ à¦¤à¦®
Ġn at
à¦¨ Ãĳ
Ġà¦ī à¦ĩà¦¦
Ġà§¨ à§§à§¯
à¦ļà¦² à¦¸à¦¹
à§ĩ ^
à¦ī à¦¸à¦ķ
Ġà¦¥à¦® à¦¥à¦®
à¦Ń à¦¯
Ġà¦ıà¦ķ à¦ĺà¦°
à¦ħ à¦®à¦°
u ally
à¦ķà¦² à¦¸
à¦°à¦¤ à¦ľ
à¦ī à¦ªà¦¨
à¦¶à¦¨ à¦ĩ
à¦īà¦¬ à¦ĵà§Ł
à¦ĵ à¦ĩà¦¦
Ġà¦ħà¦¸ à¦®à§Ł
à¦¥ à¦¸à¦¹
à¦¾à¦ģ âĢĻ
Ġnecess ary
: (
n ot
à¦Ł à¦ĵà¦Ń
à§§à§¯à§¯ à§ª
h r
à¦ķà¦¦ à¦®
Ġà¦°à¦® à¦°à¦®
à¦ıà¦« à¦ĵ
à¦¿à¥¤âĢĻ âĢĺ
Ġà§¨à§¨ à§®
Ġà§Ńà§© à§Ń
à¦¡ à¦¤
à¦ªà¦¦ à¦Ĺ
à¦Ļ à¦¬
Ġà¦¬à§ľ à¦Ń
Ġl ist
m an
ĠÂł ĊĊĊĊ
Ġà§§à§¯à§« à§¬
à¦² à§ľ
à¦ıà¦¸ à¦Ĩà¦°à¦ıà¦®
à¦°à¦² à¦ª
à¦°à¦ĸ à¦°
Ġf ore
à¦ĵ à¦ĸ
à¦ĵ à¦¸à¦®
à¦°à¦¬ à¦¦
Ġà¦Ĩ à¦°à¦¤
Ġà¦«à¦² à¦¦
à¦ĩà¦ľ à¦¦
à¦¦ à§Łà¦ķ
à¦² à¦ªà¦°
Ġà¦¬ à¦ªà¦¨
Ġà¦®à¦¦à¦¨ à¦ª
à¦Ľà§Ł à¦ľà¦¨
Ġ verb
à¦¾ *
Ġà¦¶ à¦°à¦¤
à¦ľ à¦¸à¦®
Ġà§¨à§© à§§
iz e
Ġ ÑĢÐ·Ð
à¦® à§İ
Ġà¦Ĩà¦¦ à¦®à¦ľ
à¦°à§Ł à¦²
Ġà§¨à§ª à§«
à¦Ń à¦°à¦ª
à¦ļ à¦®à¦¬
à¦®à¦¨ à¦ľ
... âĢĻ
à¦¯ à¦²
R ead
em ber
Ġà¦¸ à§Łà¦²
à§Łà¦¤ à¦ĩ
Ġà¦¬ à¦°à¦¬
Ġà¦¤ à¦¡
à¦ļà¦² à¦Ľ
at es
Ġà§¨à§© à§Ń
Ġà¦¦ à¦¡
Ġà¦«à¦² à¦ĵ
à¦ķ à¦¸à¦¬
Ġà¦¸ à¦Łà¦ķ
Ġà¦Ĩà¦ĩ à¦Ńà¦°
Ġw om
Ġà¦ī à¦Ł
à§į à¥¤
Ġà¦īà¦ª à¦§
à¦¸à¦¨ à¦ª
à¦¦ à¦¶à¦ķ
à¦Ł à¦ªà¦£
à¦· à¦¬à¦°
à¦ħ à¦ļ
à¦¸ à¦°à¦¦
Ġ ent
Ġà¦° à¦ĩà¦¸
Ġà§¨à§¨ à§¯
Ġà§¨à§© à§¬
Ġm oney
Ġà¦īà¦¦ à§Łà¦¨
à§§à§§à§ ¨
à§§à§¯à§¯ à§«
Ġsh ort
à¦ļà¦¨ à¦ª
à¦·à¦ª à¦ŀ
à¦īà§İà¦ķ à¦£
Ġà¦ī à¦¶
Ġtoo k
à¦ª à¦¸à¦®
à¦ıà¦ĩ à¦ļà¦Ł
Ġto ld
à¦§ à¦Ľ
à¦ı à¦ıà¦¸
Ġà¦Ĩà¦ªà¦¨ à¦ľà¦¨
Ġà§¨à§« à§Ń
à¦¸ à¦¸à¦ļ
à¦ł à¦Ĺà¦¡
ĠThe n
Ġà¦ħà¦¸ à¦Ļ
Ġbe aut
Ġà§© à§§à§¨
Ġà¦ıà¦¨ à¦ıà¦¸à¦Ĩà¦ĩ
iv er
à¦¬ à¦Ĺà¦¨
à¦¦ à§İ
à¦·à¦£ à¦Ĺ
à¦Łà¦Ĺ à¦²
Ġc ult
Ġd ec
Ġmor ning
à¦Ń à¦°à¦Ń
Ġà¦°à¦£ à¦¤à¦°
Â ²
à¦·à¦ķ à¦ĵ
Ġbook s
c on
à§ĩà¥¤ -
à¦¨à¦¨ à¦Ĺà¦°
an k
à¦® à¦¹à¦°
à¦Ĺ à¦Ńà¦Ļ
* )
à¦¶ à¦¬à¦¨
Ġà¦ħà¦¨ à¦Ĺ
à¦Ĺà¦£ à¦ľ
à¦Ĺà¦² à¦¦
ect ed
à¦Ĺ à¦Ĩà¦īà¦Ł
à§ģ âĢĶ
à¦ķ à¦Ĩ
à¦°à¦ľà¦¨ à¦¨à¦ķ
Ġat t
s s
à¦¤ à¦¦à¦²
à¦¾à¥¤ ïģ¬
à¦¦à¦° à¦ªà¦²
Ġà§¨à§¬ à§«
à¦° à¦Ĩà¦¬
Ġb us
Ġà§¨à§ª à§ª
ÂłÂłÂłÂłÂłÂłÂłÂł ÂłÂłÂłÂłÂłÂł
à§§à§« à§¦
Ġthr ough
à§ĭ âĢĻ,
à¦°à¦¹ à¦¶
... à¥¤âĢĻ
ter n
l a
à¦¨ à¦Ŀ
à¦ĩà¦¨ à¦ª
Ġn um
Ġen joy
ĠA r
os s
er n
à¦ķ à¦Łà¦¨
à¦¤à¦° à¦¸à¦¹
à¦¤ à¦¸à¦¨
Ġà¦ª à¦¸
p t
ĠâĢĮ âĢĺ
Ġà¦¸ à¦²à¦Ļ
à¦Ļ à¦¨à¦ķ
à¦¯à¦¬ à¦¶à¦¤
Ġà§§à§¯ à§ªà§«
Ġà¦¹à¦ķ à¦ĵ
à¦¤à¦¤ à¦²
à¦ĩà¦¨ à¦ĵ
à¦°à§Ł à¦£
Ġà¦Ĩ à¦¤à¦°
à¦¬à¦² à¦¸
Ġà§¨à§¨ à§§
ur n
Ġà¦¹ à¦°à¦«
à¦¤ à¦¸à¦®à§Ł
Ġà¦¸à¦¹à¦ľ à¦¤à¦°
Ġ {
à¦° à¦ħà¦§
Ġà¦¬ Ã¸
Ġà§¨à§¯ à§®
p s
Ġà¦ľ à¦¶
à¦ļà¦¨ à¦®
Ġà¦¬à¦¨ à¦®à¦¨
Ġre g
à¦°à¦£ à§Ł
à¦°à¦Ĩà¦¨ à¦ĸ
à¦ĩà¦¨ à¦¡
Ġà§© à§§à§«
à¦¨à¦Ĺ à¦¡
Ġgo ing
Ġà§¨à§ª à§Ń
Ġc or
Ġà¦ª à¦Łà¦ķ
Ġà¦° à¦ĩà¦Ľ
Ġc le
ĠÑĢÐ¶Ð¶ ÑĢÐ¶
Ġact iv
Ġà¦Ń à¦°à¦¤
à§¯ à§¯à§¦
Ġà¦Ĩà¦Łà¦ķ à¦¦
à¦²à§Ł à¦¶
Ġà¦īà¦ª à¦®
à¦Ĺà¦£ à¦¹à¦¤
à¦Ĩ à¦®à¦²
Ġeduc ation
Ġà¦¦à¦² à¦¸à¦¹
à¦ıà¦« à¦ıà¦ĩà¦ļà¦¬
er v
Ġà¦¤ à¦ľ
Ġb el
ÑĢÐ¶Ð ¦
Ġà¦® à¦¹à¦¤
in ess
p osition
à¦¶ à¦®à¦¤
Ġà¦ľ à¦²à¦ķà¦ª
à¦ĸ à¦¹
Ġhapp y
Ġk ing
! !
ĠA ll
à¦Ĺ à¦ĺà¦¨
à¦°à¦ĵ à¦¸
à§§à§§à§ «
à¦Ń à¦°à¦¨
Ġà¦Ĺà§ľ à¦¨
stit ution
Ġà§ª à§ªà§¦
ĠTh is
Ġà¦ıà¦¨ à¦Ĺ
Ġà§¨à§« à§©
à¦ľà¦¤ à¦ĸ
Ġbec ome
Ġà¦ĵ à¦ıà¦¸
Ġà¦¬à¦ĩ à¦ĵ
Ġà§¨à§¯ à§¯
Ġà¦ĩà¦¸ à¦¤
à§§à§§ à§¦
Ġth ings
Ġal ways
à¦¾ âĢĺ
Ġà¦ı à¦§à¦°à¦¨
à¦¤à¦¨ à¦ĸ
à¦·à¦ķ à¦ĩ
Ġà¦ªà¦¦ à¦¦à¦²
Ġà§¨à§® à§¯
Ġà¦®à¦¤ à¦ĩ
à¦ĸ à¦²à¦¨
à¦¡ à¦ıà¦®
à¦ĩà¦¨ à¦¦
à¦¾) :
à¦Ĺà¦¤à¦¬ à¦Ľà¦°
à¦ª à¦¸à¦¨
à¥¤" "
Ġst ory
à¦²à¦¨ à¦ª
Ġà§¨à§¦ à§¨à§©
à¦ĩ à¦¸à¦ķ
à¦¥ à¦ķà¦¤
ic ation
Ġà¦¨ à¦¨à¦¦
à§ĩà¦¾ !
as es
à¦£ à¦¸à¦®
à¦°à¦¡ à¦Ĺ
à¦¥ à¦°à¦ķ
Ġà¦¸à¦° à¦«
Ġà¦¸ à¦¯
à¦ĺ à¦¡
Ġà¦ıà¦° à¦Ĩà¦Ĺ
re ct
à¦¬ à¦īà¦²
Ġà§© à§¨à§«
Ġà¦ĵ à¦²à¦Ł
Ġà¦§à¦° à¦¨à¦Ł
Ġw rite
à¦ıà¦Ĩà¦° à¦ıà¦ĩà¦ļ
Ġw here
à¦Ļà¦¨à¦ķ à¦¬à¦²
à§Ĥ à¥¤
an c
Ġhe re
à¦¶ à¦¤à¦ķ
à¦¯ à¦ªà¦¤
à¦£ à¦ľà§Łà¦¨
à¦¨ à¦Ľà§ľ
à¦Ĩ à¦ķà¦°
Ġà§¨à§« à§§
Ġà¦° à¦¨à¦ľ
à¦ĺ à¦°à¦Ł
Ġà§¨à§® à§«
Ġà¦ķà¦¨à¦ķ à¦¨
à¦¦à¦° à¦¦
im es
t he
à¦Ľ à¦ĵ
_ _
à¦¤à¦¨ à¦Ł
ĠÂ ¾
Ġà¦®à¦¨ à¦Ĺà§ľ
p ort
à¦ĩ à¦ı
Ġà¦Ĩà¦¦ à¦®à¦¶
Ġà¦¬à¦¦à¦² à¦Ĺ
Ġà¦Ĩà¦® à¦ľà¦¨à¦¤
ĠÑĢÐ¶Ðĸ ÑĢÐ¶
b e
Ġà¦¶à¦¹ à¦°à¦¬
à¦¿à¥¤ *
à¦ĸ à¦ĩ
à¦ī à¦ĩà¦°
à¦°à¦¸ à¦¤
er c
)--- -
ĠAns wer
Ġà¦Ĺ à¦ľà¦²
ĠÑĢÐ¶Ðĸ ÑĢÐ¶Ð¾ÑĢÐ¶
à¦®à¦ĩ à¦°à¦¹
Ġsoc iety
Ġà§§à§¯à§¬ à§©
Ġà¦® à¦ĸà¦¦
Ġà¦®à¦¹ à¦¬
à¦ķà¦¨ à¦«
Ġr ight
à¦¼ ;
Ġà¦ľà¦¨ à¦¬à¦¸à¦¤
à¦¤à¦® à§Ł
Ġcall ed
Ġex am
b ody
c re
Ġà¦° à¦ļà§Ł
à¦ıà¦ķà¦¨ à¦ľà¦°
Ġà§¨à§« à§«
Ġà¦ľà¦²à¦® à¦¹
à§ĭ. ..
Ġà¦ľ à¦ĩà¦¶
Ġà¦ħà¦° à¦²
ĠÂł ĊĊĊ
ĠP r
à¦Ĩ à¦ķà¦¸
Ġà¦ıà¦¸ à¦¸
ĠM r
Ġchild ren
Ġà¦¹à¦² à¦®
Ġà§¨à§ª à§®
Ġà§¨à§¬ à§¨
à¦°à¦« à¦²
Ġà§§à§¯à§« à§©
Ġus ed
à§¨à§¦ à§©à§¦
à¦¡à¦Ń à¦¨
Ġbe fore
à¦Ĩà¦° à¦ıà¦«à¦ıà¦²
à¦¦ à¦°à¦¸
Ġà¦¤ à¦ŀ
Ġre l
Ġà¦ĩ à¦Łà¦¨
Ġà¦ĩà¦īà¦ıà¦¸à¦ı à¦Ĩà¦ĩà¦¡
à¦°à¦£ à¦°
à§Ł à¦¯
ÑĢÐ·ÐĹ ÑĢÐ¶Ð¸
à¦Ł à¦®à¦¨
Ġà¦ļ à¦°à¦Ĺ
à¦ªà¦¨ à¦¸à¦¹
Ġà¦Ĩà¦ĩ à¦ıà¦«à¦Ĩà¦ĩà¦¸
Ġc r
Ġc ap
Ġl ast
Ġà§¨à§¨ à§©
Ġcomp le
Ġà¦Ĺ à¦¹à¦¨
Ġà§¨à§¯ à§«
) (
à¦Ł à¦¸à¦ķ
Ġà¦Ĩà¦Ł à¦¬
Ġà¦ĸ à§Ł
à¦¾à¦Ĥ âĢĻ
à¦¯à¦¬ à§Łà¦¸
à¦ı à¦²à¦¬
à¦ķà¦ľà¦¨ à¦ĩ
à¦ľ à¦Ĩà¦ª
Ġcon s
à¦¼à¦¾ :
à¦¿à¦Ĥ :
à¦¶ à¦Ŀ
à¦¬à¦ª à¦¦
Ġà¦ı à¦«à¦Ł
à¦ī à¦¤à¦°
à¦ıà¦« à¦ıà¦¸
ud d
à¦ķà¦Ł à¦®à§Ł
à¦°à§Ł à¦®
Ġà¦ļà¦Ł à¦ªà¦Ł
à¦¬ à¦®à¦¤
Ġà¦« à§ľ
à§ĩà¥¤ âĢĶ
Ġà¦¸à¦¨ à¦ľ
à¦ıà¦® à¦Ĩà¦°
à¦°à¦Ľ à¦¡
à¦ľ à¦ĺ
Ġp le
Ġà¦¬à¦° à¦¯
Ġm on
à¦Ĩà¦ķ à¦¬à¦°
Ġà¦ħ à¦Ŀ
à§ĭ âĢĵ
à¦¼ à¦¿à¦Ĥ
à¦ĺ à¦¸à¦¹
à¦ªà¦ķ à¦Ł
à§§à§¨ à§¦
Ġad d
à¦¿ (
à¦¹à¦° à¦Ĺà¦ŀ
ĠN ow
à¦¶ à¦ıà¦¬à¦²
à¦Ĩà¦° à¦ıà¦²
Ġà¦Ń à¦Ĺà¦¬
Ġà§¨à§© à§©
à¦ª à¦¹
Ġà¦¨ à¦°à¦ķ
à¦Ĩà¦ľ à¦¹
W h
Ġà¦¹à¦² à¦Ł
à¦¤à¦¨ à¦¶
à¦ĵ à¦·
à¦£ à¦¶à¦ķ
à¦°à¦ľ à¦Ĺà¦¤
ib le
' ,
ÂłÂłÂłÂłÂłÂłÂłÂł ÂłÂłÂłÂłÂł
à¦¶ à¦¡
à¦¡ à¦ī
à¦¸à¦¬ à¦²
à¦Łà¦ķ à¦²à¦Ĺ
à¦ĩà¦² à¦¬
Ġà¦Ĩà¦Ł à¦ª
Ġà¦ĩà¦īà¦ıà¦¨à¦ĵ à¦ķ
à¦® à¦®à¦¹
à§ĩà¥¤ :
ÑĢÐ¶Ð ½ÑĢÐ¶
à¦¬ à¦®à§Ł
à¦¸ à¦°à¦¶
à¦¤à¦® à¦ķ
Ġà¦īà§İ à¦«
Ġà¦Ī à¦Ĺà¦²
Ġà¦¬à¦ĩ à¦ªà¦¤
à¦¹ à¦°à¦ª
à¦ı à¦°à¦®à¦§
Ġf arm
Ġà¦Ĩà¦ĩà¦¨ à¦¤
à¦¨à§Łà¦¨ à¦¬
Ġth ree
à¦Ĩà¦ĩà¦ĩà¦ī à¦¬
Ġne ver
Ġpro ble
à§į à§į
Ġà¦¬ à¦īà§Ł
Ġà§¨à§ª à§¬
ĠOn e
à¦ļ à¦¢
à¦ıà¦¸à¦ıà¦®à¦ıà¦®à¦ĩà¦ī à¦¤
à¦¿ âĢĭ
Ġà¦ªà¦° à¦ĸ
um an
à¦ĩ à¦°à¦¨
à¦¦à¦° à¦ľ
à¦ıà¦¸ à¦Ĩà¦ĩà¦Ł
à¦¸ à¦§
Ġthe n
à§įâĢĮ -
C om
Ġà¦ľà§Ł à¦¯
Ġaw ay
Ġf ew
Ġlear n
Ġà¦« à¦ķà¦¨
Ġà§¨à§© à§®
à¦¯à§Łà¦¨ à¦ªà¦¤
à¦¹ à¦¨à¦ķ
à¦ķà¦Ł à¦¸
Ġl and
Ġà¦Łà¦® à¦Łà¦®
à¦¬à¦² à¦ľ
Ġà¦ĸà¦¬à¦° à¦¦
à¦ĩ à¦°à¦¹
à¦¬à¦¨ à¦ĵ
Ġà§¨à§ª à§©
à¦¦à¦°à¦¬à¦¨ à¦ķ
à¦£ à¦ªà¦£
Ġà¦ĵ à¦Ŀ
à¦¡ à¦Łà¦ķà¦®
à§§à§¯à§® à§¯
b r
à¦ħ à¦¬à¦¹
Ġà¦Ĩà¦Ł à¦ĺà¦°
à¦ħà¦¨ à¦¶à¦¨
Ġs ec
à¦¤ à¦²à¦®
Ġà¦¬à§ľ à¦¸à§ľ
à¦ķà¦ľà¦¨ à¦¦
Ġà¦¤ à¦ĵà¦¬
Ġin t
à¦¬ à¦ĩà¦Ł
à¦Ń à¦¶
Ġo b
Ġg ive
Ġà¦² à¦ĩà§Ł
Ġà¦ħà¦¸ à¦¤à¦°
à¦° à¦²à¦¨
à¦¬à¦¨ à¦ĩ
à¦Ĩ à¦ľà¦®
Ġà¦ıà¦® à¦ľ
à¦·à§Ł à¦ĩ
à¦ħà¦ª à¦Ľà¦¨
ul l
à¦ı à¦ıà¦ª
± ÑĢÐ¶
à¦°à¦¸ à¦ª
o in
à¦ķ à¦¸à¦ķ
à§§à§¯à§® à§¬
Ġà¦Ĩà¦ĵà¦° à¦Ļ
à¦ª à§ľà¦¤
Ġà§©à§¦ à§Ń
i ence
à¦® à¦Īà¦¨
à¦¬à¦ķ à¦¬
Ġà¦Ĩà¦ĩà¦ıà¦¸ à¦ķ
Ġcan not
u estion
à¦ĩ à¦Ĩà¦°à¦¡
à¦Ŀ à¦¨
Ġor der
Ġsent ence
Â ¨
Ġà¦Ĩà¦¬ à¦Ĺ
à¦² à¦ļà¦°
Ġà¦² à¦¬à¦Ļ
à¦Ĺà¦® à¦¸à¦¹
ÑĢÐ¶Ð¸ ÑĢÐ·ÐĹ
à¦ķà¦² à¦°
in ation
Ġan im
aren ts
Ġà¦¤ à¦¤à¦¬
à¦¥ à¦¸à¦ļ
à§İà¦¸à¦ķ à¦¸à¦¹
Ġà§©à§Ń à§«
Ġsp eech
Ġà¦¸ à¦¦à¦¨
Ġà¦¸à¦¬ à¦²
Ġà¦ıà¦² à¦Ł
Ġà§ª à§¬à§¦
Ġà§¨à§Ń à§§
à¦¤à¦° à¦ĩ
à¦¦à¦ªà¦¤ à¦¨
ÑĢÐ¶Ðº ÑĢÐ¶
à¦¸à¦¨ à¦¤à¦¨
Ġà¦Ĩà¦® à¦¸
à¦¤ à¦ķà¦Ł
à¦ıà¦® à¦ĩà¦Ł
; (
à¦® à¦®à¦°
à¦° à¦ı
à¦®à¦°à¦£ à¦ķ
2 4
Ġà¦¢ à¦Ļ
Ġà¦ıà¦¡ à¦®
à¦Ŀà§ľ à¦Ł
Ġà¦¡ à¦°à¦®
à¦¸ à¦Łà¦¨
à¦Ĩà¦ĩ à¦ıà¦²à¦ĵ
Ġà§§à§¯ à§«à§«
Ġà¦¬à¦ĩ à¦ª
Ġà¦¬ à¦Łà¦Ĺ
à§ĩà¥¤" "
à¦£ à¦¨à¦Ĺà¦°
Ġà§¨à§¬ à§ª
Ġà¦ľà¦¨à¦ķ à¦£
à¦¤ à¦¸à¦®
à¦ĩ à¦¸à¦®
à¦ıà¦®à¦ĩ à¦īà¦°
à§§à§§à§ ©
à¦ĩà¦ī à¦ıà¦«à¦ıà¦²
our s
à¦¾à¥¤âĢĻ âĢĺ
Ġà§¨à§¬ à§¬
ol og
v iii
à¦¥ à¦ªà¦°
Ġà¦§à¦¨ à¦ŀ
Ġà§©à§¦ à§§
à¦ıà¦² à¦ª
Ġà¦Ī à¦¸
ĠÂłĠÂł ĠÂł
à¦« à¦ĵ
à¦ī à¦§
Ġà§« à§¬à§¦
à¦°à¦ĵ à¦ªà¦°
à¦Ł à¦ªà¦°
à¦Ĩ à¦²à¦¤
Ġà§¨à§¦ à§¨à§ª
Ġà¦¨à¦¬à¦¬ à¦§
à¦ķà¦° à¦²
Ġà§« à§ªà§¦
Ġà¦ªà¦¥ à¦ĵ
à§§à§¯à§¯ à§©
Ġpres ent
à¦° à¦īà¦ª
à¦¬à¦¸ à¦¹à¦ķ
ĠW here
à¦¶à¦¨ à¦ª
Ġà§©à§¦ à§©
Ġà¦¬ à¦ľà¦°
Ġà¦Ĩà¦¦ à¦Ń
ÑĢÐ¶Ð¥ ÑĢÐ·ÐĿÑĢÐ¶
à¦°à¦® à¦Ł
u al
Ġà¦īà¦ª à¦¸à¦®
Ġà§¨à§¦ à§«à§¦
Ġà¦Ĺà¦£ à¦ħà¦Ń
Ġà¦Ĩà¦® à¦²à¦ķ
à¦Łà¦ķ à§Ł
à¦°à§Ł à¦ª
à¦Ĺà¦£ à¦«
Ġà¦® à¦Ĺà¦ľ
Ġà¦Ľ à¦Ĺ
Ġthe se
ct or
ivers ity
Ġà¦® à¦ĩ
Ġà§©à§ª à§¨
um m
à¦Ĩ à¦«à¦°
à¦Ł à¦²à¦Ĺ
à¦¶ à¦ļà¦¨
Ġà¦Ĺà¦£ à¦¹
à¦ĩà¦® à¦Ł
Ġcon t
Ġg l
ĠM ar
à¦¥ à¦¨à¦ķ
à¦ļà¦¨ à¦¬
à¦ªà¦Ł à¦ªà¦Ł
à¦Ĩ à¦®à¦¤à¦²
ick et
à¦ī à¦¤à¦²
à¦°à¦¬ à¦®à§Ł
Ġsomet hing
à¦¤à¦² à¦ľ
Ġd es
Ġà¦ıà¦® à¦ıà¦ĩà¦ļ
Ġà§©à§¦ à§«
à§ĩâĢĻ -
ur ing
Ġà¦°à¦¥ à¦¯
à¦¦à¦¸ à¦ĩ
Ġm ain
Ġl ot
e ak
à¦ª à§Łà¦²
Ġb ody
à¦ıà¦¸à¦ıà¦® à¦ıà¦®à¦ĩà¦īà¦°
Ġpo or
Ġà¦ıà¦ĩ à¦°
à¦¨à¦¦ à¦°à¦¬
à¦¦ à¦Ļ
à§ĭ ?âĢĻ
Ġà¦ħ à¦ķà¦Ł
Ġà¦®à¦° à¦Ľ
Ġà§¨à§« à§¯
à¦¶à¦Ĺ à§ľ
Ġà§¨à§® à§¨
Ġ2 01
à¦Ĩà¦¹à¦® à¦¦
ÂłÂł Ċ
Ġà§¨à§« à§®
à§ĭ )à¥¤
Ġà¦ī à¦¥
Ġà§§à§¯ à§©à§¦
à¦ıà¦ķ à¦¤à¦°à¦«
à¦ĵ à¦¸à¦¹
à¦ıà¦ķà¦¸ à¦Ļ
Ġà¦ĩ à¦¦à¦²
n g
à¦¨ à¦ļà¦²
à¦ĩà¦ī à¦ıà¦¨à¦¡
à¦¬ à¦ľà§Ł
à§§à§§à§ ª
Ġinter est
à¦¤à¦² à¦Ł
ĠSp eech
à¦° à¦ľà¦®
à¦· à¦¶
à¦ªà¦¨ à¦ĵ
à¦ıà¦ĩ à¦ı
Ġà¦ľ à¦¬à¦°à¦¦
Ġà§¯ à§«à§«
à§§à§¯ à§ªà§Ń
à¦° à¦ĺà¦Łà¦¨
Ġb ig
Ġà¦ľ à¦ĵà¦¹à¦°
ĠI s
à¦° à¦ĩà¦¸
à¦ª à¦²à¦ķ
Ġà¦¹à¦¤ à¦Ń
Ġà¦ĩà¦ī à§Ł
Ġà§¨à§¬ à§®
Ġh on
Ġà¦®à¦¦à¦¦ à¦¦
à¦īà¦¸ à¦Ĺ
ct ion
Ġà¦® à¦ķà¦°
à¦Ń à¦Ĺ
Ġà¦Ĩà¦ĩ à¦ıà¦®
à¦« à¦Łà¦ķ
Ġà¦ıà¦® à¦Ĩà¦°à¦Ĩà¦ĩ
à¦ĸ à¦¡
Ġà¦ıà¦ķà¦¨ à¦ľà¦°
Ġday s
Ġà¦¶ à§Łà¦¨
Ġà§©à§© à§©
à¦ł à¦Ĺ
Ġbec ame
à¦ĵ à¦ıà¦¸à¦¡
Ġà§¨à§ª à§§
à¦¯à¦Łà¦¨ à¦¶
Ġà¦ħ à¦¯à¦¤
à¦²à¦¬ à¦¦
à¦Łà¦® à¦¹à¦²à¦¬
ĠM y
Ġà§Ń à§¨à§¦
Ġà¦¬à¦°à¦¬ à¦Ł
à¦¨ à¦Ĺà¦£
Ġpol l
à¦²à¦¬ à¦ķ
à¦ľà¦² à¦¦
ad m
à¦ķà¦Ĩ à¦ªà¦Ł
Ġà¦¡ à¦Ĺà¦²
Ġà¦ĩà¦ī à¦¡
Ġà¦ľ à¦ŀ
Ġà¦Ĩà¦ĩ à¦¤
Ġf ind
âĢĮ âĢĮ
Ġd own
ÑĢÐ·Ð Ĵ
à¦®à¦ĺ à¦£
ak es
Ġsa w
2 0
à¦ı à¦ĺà¦Łà¦¨
Ġà¦ķà§Ł à¦ľà¦¨
Ġà§§à§¯ à§ªà§¯
Ġk ind
e en
à¦·à¦£ à¦¸
er tain
à¦¨à¦ľ à¦Łà¦®
Ġd on
à¦¼ )
à¦īà¦Ł à¦¸
ap h
à¦ıà¦®à¦ı à¦Ĩà¦°
à§Ł à¦«
Ġà§¨à§Ń à§®
ire d
e b
à¦ĸ à¦¢
Ġà§© à§¨à§§
ĊÂł ĊĊĊĊ
à¦ªà¦¨ à¦¦
Ġà§§à§¯ à§ªà§¬
Ġà¦¨à¦Ĺà¦° à¦ľ
ep end
Ġcomm un
à¦ªà¦¦ à¦¶
Ġà§© à§¨à§¨
à§ĩâĢĶ âĢĺ
à¦ķà¦° à¦¦
Ġà¦ıà¦ĩ à¦Ń
Ġà¦Ĩà¦Ĺ à¦·
Ġà§¨à§® à§¬
à¦§ à¦°à¦£
Ġà§¨à§« à§¨
Ġf ound
Ġre c
i ate
à¦ĵ à¦¶
Ġà¦Ĺ à¦¤à¦°
à§ľ à¦¸à¦¹
à¦ľ à¦ĵà¦¯
Ġà¦ıà¦° à¦«
à§Ł à¦¤à¦®
à¦¦ à¦ĺà¦¨
Ġwrit ing
tic le
à¦ĩà¦® à¦¸à¦ķ
à§§à§¯à§Ń à§©
à¦ī à¦ĩà¦®
Âł ĊĊÂłĊ
à¦°à¦°à¦« à¦ķ
à¦® à¦®à§Ł
Ġà§¨à§¦ à§¨à§«
Ġà¦¸à¦° à¦·
à¦ĩ à¦°à§Ł
Ġà¦Ĩà¦Ĺ à¦°à¦ĵà§Ł
à¦ĩà¦Ł à¦®
Ġg ot
à¦¬à¦° à¦¬
à¦¬à¦° à¦®
à¦Ĭ à¦°
à¦¤ à§ľ
Ġà¦¸à¦®à§Ł à¦Ĺ
Ġà¦ħà¦« à¦¶
Ġà¦Ĩà¦® à§ľ
à¦ħà¦¨ à¦Łà¦¨
à¦ħà¦ª à¦¹
à¦Ĺ à¦¸à¦¨
Ġsu ff
Ġpro per
Ġliv es
à¦® à¦łà¦¬
à§Łà¦¨ à¦Ĺ
Ġà¦® à¦²à§Ł
ut e
Ġfe el
à¦¿) :
à§ĩà¥¤' '
Ġà¦¹ à¦łà¦ķ
Ġà¦ıà¦¨ à¦ıà¦²à¦¡
Ġwant ed
à¦ľà¦¨ à¦¸à¦Ń
à§¨ à§«à§¦
if ul
à¦²à¦ķ à¦°à¦¤
Ġcountr ies
ÂłÂłÂłÂłÂłÂłÂłÂłÂłÂłÂłÂłÂłÂłÂłÂłÂłÂłÂłÂłÂłÂłÂłÂłÂłÂłÂłÂłÂłÂłÂłÂł ÂłÂłÂłÂłÂłÂłÂłÂłÂłÂłÂłÂłÂłÂłÂłÂłÂłÂłÂłÂłÂłÂłÂłÂłÂłÂłÂłÂłÂłÂłÂłÂł
k han
m b
Ġà¦§ à¦²à¦ĺ
à¦¨à¦¬ à¦°à¦£
à¥¤âĢĿ âĢĺ
an ds
Ġà¦ıà¦® à¦Ĩà¦°à¦ª
à¦ĩà¦¨ à¦ľ
Ġà§§à§¯à§« à§Ń
n ess
r a
ow er
Ġà¦ľà§Łà¦¨ à¦Ĺà¦°
à¦ĺ à¦·
Ġà¦ıà¦° à¦ĵ
in a
c r
à¦ĭ à¦¤
Ġà¦Ĩà¦¬ à¦ľ
Ġà¦ıà¦ķà¦ĩ à¦¦
Ġà§§à§¯à§« à§¯
à¦Ĩà¦° à¦ıà¦Ĩà¦°
Ġà¦Ĩà¦ĩ à¦¡à¦²
Ġà§¨à§¬ à§§
Ġà§ª à§©à§¦
ĠĠ ÂłĠ
Ġà¦¬à¦¦à¦° à¦īà¦¦
Ġà¦¶à¦¹à¦° à¦ľ
Ġà¦Ĩà¦ª à¦¸à¦¹
id ed
Ġres ult
Ġà¦ľ à§Łà¦¤
Ġà¦ħà¦¸ à¦®à¦¤
à¦®à¦¬ à¦¹
Ġà¦Ńà¦¬à¦¨ à¦¸à¦¹
Ġà§¨à§ª à§¯
à¦¨à¦Ĺ à¦°à¦¬
Ġà§©à§¯ à§¦
à¦¡ à¦¹à¦ķ
Ġà¦« à¦°à¦ļ
à¦¶à¦¤ à¦¬à¦°
ĠÑĢÐ¶Ð ¿
ĠÑĢÐ¶ÐŁ ÑĢÐ¶Ð¥
Ġgap s
1 9
g g
à¦¦ à¦°à¦®
Ġà¦ı à¦®à¦ķ
ĠâĢ ¦
Ġ----- --
à¦ķ à¦ªà¦¥
à¦§à¦¨ à¦¸à¦¹
Ġev en
à¦¦ à¦¬à¦ª
Ġà¦ı à¦ıà¦¸à¦ıà¦®
ter s
Ġà¦ħ à¦¤à¦¨
à¦ı à¦Ĩà¦ĩ
Ġà¦§ à¦¨à¦¬
Ġà§« à§¨à§¦
à¦ª à¦Ŀ
ation s
à¦® à¦¥
à§Łà¦° à¦°
Ġà§¨à§Ń à§¯
iss ion
Ġm od
c le
à¦¹ à¦¨à¦¤
à§İ à¦¶
à¦ĩ à¦®à¦²
à¦¬à¦° à¦§
à¦ĩà¦« à¦ķ
Ġà§©à§¨ à§¬
Ġà¦ıà¦² à¦Ĺ
à¦ıà¦« à¦Ĩà¦ĩà¦¡
Ġà¦®à¦Īà¦¨ à¦īà¦¦
à¦¨ à¦¤à¦°
Ġà¦Ĩà¦¬ à¦¹à¦®
led ge
Ġà¦ı à¦ľà¦¬
à¦Ľ à¦¤à¦²
à¦¡ à¦ļ
Ġà¦¯ à¦ľ
à§¨ à§©à§«
à§§à§¯à§Ń à§¦
Ġà¦Ĩà¦¯ à¦¹
à¥¤' '
à¦¦à¦¨ à¦ĩ
à§Łà¦ķ à¦ĵ
à¦ıà¦°à¦ªà¦° à¦ĵ
Ġà¦Ľ à¦¹
re ad
Ġà§ªà§¯ à§¦
a ug
p h
à¦² à¦¬à¦²
Ġà¦® à¦¤à¦¨
à¦ıà¦¸ à¦ĵ
Ġà¦Ĺà¦£ à¦Ĩà¦¨
ĠÑĢÐ¶Ð ª
Ġà¦ľà§Ł à¦ľà§Łà¦ķ
Ġà§¨à§® à§Ń
Ġà¦Ĩà¦¤ à¦¤
Ġo wn
ic ult
f t
à¦§ à¦Ĺà¦²
Ġb orn
al king
ĊÂłĊÂłĊÂłĊÂłĊÂłĊÂłĊÂłĊÂł ĊÂłĊÂłĊÂłĊÂłĊÂłĊÂłĊÂłĊÂł
Ġà¦¨ à¦ĵà¦¦
à¦°à§Ł à¦¶
à¦¤à¦² à¦ª
Ġà§¨à§Ń à§¬
ĠR ead
Ġà¦ķ à¦¶
Ġà¦®à¦¹ à¦°à¦¤
ĠT o
à§Ŀ à¦ª
Ġà¦° à¦£à¦¦
Ġà§© à§¨à§©
à¦¬à¦² à¦¬
Ġà§ª à§§à§¦
Ġà§¨à§¯ à§¨
5 5
à¦¸ à¦ıà¦ķ
Â ©
à§Ł à¦Ľ
à§§à§© à§¦
à¦·à¦ķ à¦¨
à¦ľà¦² à¦īà¦¡
Ġle ad
Ġà¦Ń à¦¬à¦¦
à¦°à¦ĵ à¦¶à¦¨
à¦¨à§Ł à¦ľ
Ġb oth
Ġà¦¸à§ľ à¦ķà¦¬
à§§à§¯à§® à§¦
à¦ķ à¦Ļ
Ġà¦ļ à¦®à¦¤
Ġà¦Ĩà¦° à¦¬à¦ķ
s elf
Ġà¦ļ à¦Łà¦ķ
à§ĩà¦¾ âĢĶ
Ġà¦ľà¦¨ à¦°
Ġà§©à§¦ à§®
à§§à§¯à§Ń à§ª
et s
Ġà¦¬ à¦īà¦ķ
à¦Ł à¦§à¦°
à¦¹ à¦¨à¦¬
à¦ī à¦ıà¦®
Ġà¦ľ à¦¹à¦°
à¦®à¦ķ à¦¤
à¦ķà¦¬ à¦ļ
à¦ıà¦² à¦ıà¦«
à¦¬à¦¹ à¦¨à¦¬
Ġà§¨à§Ń à§©
à¦²à¦Ľ à¦¡
! âĢĿ
à¦¶ à¦ªà¦¨
à¦·à¦£ à¦ļ
à§§à§¯ à§«à§¦
Ġf low
à§ĩ. à¥¤
Ġà§¨à§® à§§
Ġactiv ities
i ent
à§ĩ âĢ¦
à¥¤ âĢ¢
Ġà¦® à¦ĵà¦¸
à¦°à¦¶ à¦¹à¦°
op e
Ġl ov
Ġà¦ĩ à¦Ĺà¦²
à¦²à¦¨ à¦Ĺ
Ġà¦ľà§Ł à¦ĩ
Ġyou ng
o k
Ġ à§Ł
à¦¸à¦¦ à¦¸à¦¹
Ġa cc
Ġà§¨à§® à§ª
al se
oo se
à¦®à¦¤ à¦²à¦¬
à§§à§¯à§® à§§
ÑĢÐ¶ÐĴ ÑĢÐ¶
Ġcor rect
Ġ ÂłÂłÂł
à¦¥ à¦°à¦¬
Ġà§¨à§Ń à§Ń
à¦ī à¦Ń
Ġ( âĢĺ
à¦¯à§Ł à¦Ń
oo ds
âĢº à¦¿
http s
Ġà¦īà¦¦ à¦Ĺ
Ġsm all
à¦ħ à¦¸à¦¹
à¦ĸà¦¬à¦° à¦Ł
à§Ģ /
à¦¥ à¦¯
à¦¬à¦ķ à¦¸à¦¹
Ġà¦Ĺà¦£ à¦¸à¦ļ
Ġà¦Ľ à¦®
Ġà¦®à¦¨ à¦¯
Ġà§¨à§¬ à§Ń
Ġc ro
Ġà¦ıà¦« à¦Ĩà¦ĩà¦Ĩà¦°
Ġà§«à§ª à§©
à¦°à¦« à¦Ł
Ġà¦Ĩà¦Ĺ à¦¨
à¦¬à¦¤ à¦£
à¦²à¦¨ à¦¬
à¦²à¦¨ à¦ķà¦°
à¦¬à¦¹ à¦¨à¦ķ
à¦ķà¦ľà¦®à¦ķ à¦ª
Ġà¦Ĩà¦° à¦Ń
Ġà¦Ĩà¦ĩà¦¨ à¦Ĺ
à¦¶à¦ķ à¦ª
Ġà¦ĭà¦£ à¦ļ
Ġà§¦ à§§à§¯
à¦¿ âĢĺ
à¦ıà¦² à¦ĵà¦°
Ġbe ing
Ġà¦ħà¦Ń à¦¯
à¦²à§Ł à¦®
à¦·à¦ķ à¦¸
à¦ļà¦² à¦Ń
Ġà§¦ à§§à§®
Ġan other
à¦¬ à§İà¦ķ
à¦ķ à¦ªà¦°
à¦ł à¦ļà¦ķ
à¦ĩà¦ķ à¦Ł
à§ĩà¥¤âĢĿ âĢĺ
à§ĩ à¦¿
Ġà¦ıà¦¸ à¦ıà¦¸
Ġà§©à§¨ à§ª
à¦«à¦° à¦īà¦²
à¦¥à¦² à¦Ń
à¦¨ à¦īà¦¤
à¦ĵ à¦ľà¦¨
Ġà¦Ĩà¦° à¦ıà¦«à¦ıà¦²
Ġf i
Ġà¦¸à¦®à¦¬ à§Łà¦¸
Âł ĊÂłĊ
Ġà§¨à§¯ à§§
ent ion
à§§à§¯à§® à§¨
Ġà§© à§§à§®
Ġà¦¥ à¦ĩ
Ġà¦ĩ à¦Ĩà¦°à¦¡
Ġà¦Ńà¦¬ à¦ĺ
Ġà§¨à§¯ à§ª
à¦¨à¦Ń à¦Ļ
à§ģâĢĻ ,
Ġà§«à§Ń à§¦
Ġb ack
à¦ıà¦ĩà¦ļ à¦Ĩà¦°à¦¡à¦¬
m ake
à§ĩà¥¤ ...
à¦° à¦īà¦²
Ġà¦ķà¦° à¦®à¦°
Ġà¦ħà¦¨ à¦°
Ġà¦ķà¦¨ à¦ķà¦°
à§§à§¯à§® à§®
Ġà§¨à§« à§ª
Ġm ind
iv ed
Ġ1 4
ÑĢÐ·ÐĽ ÑĢÐ¶
Ġvis it
ĠĠ Âł
Ġà§©à§© à§®
à¦Ĳ à¦¶
ag es
à¦ĸ à¦ķà¦ķ
à¦īà¦ľ à¦ª
Ġh and
Ġà¦®à¦¨ à¦¤
Ġsh ow
à¦¸ à¦¶à¦¸
à¦¸à§ľà¦ķ à¦Ĺ
ï ¿
ĠP eople
Ġv ar
à¦ī à§İà¦¸
Ġà¦Ĺà¦£ à¦§
Ġl ove
ĠQ ues
à¦Ĺà¦° à¦ªà¦¥
Ġà¦Ĩà¦¹ à¦Ľ
iv es
ï¿ ½
Ġà¦« à¦°à¦¸
à¦°à¦¹ à¦ĵ
Ġà§¨à§Ń à§ª
Ġf ish
ĠC l
ĠP art
n et
Ġà¦ªà¦¦ à¦§
Ġà¦ķ à¦ŀ
r i
Ġà¦® à¦°à¦¬
Ġà¦ħà¦² à¦Ļ
à¦® à¦°à¦ª
Ġà¦ħ à§Łà¦¨
ÑĢÐ·ÐĿÑĢÐ¶Ð ¼ÑĢÐ¶
ÑĢÐ¶Ð¸ ÑĢÐ·ÐĹÑĢÐ¶
v is
Ġà§§à§¯ à§¨à§¦
Ġà§©à§¦ à§¯
à¦®à¦¨ à¦Ń
Ġp ar
Ġbu ild
Ġ !
Ġà¦Ł à¦ķà¦¦
à¦ļà¦¨ à¦¸à¦¹
Ġà¦ľà¦ĵà¦¹à¦° à¦²
Ġs ur
âĢĻ âĢĻ
âĢĻ ;
Ġà¦¨ à¦ļ
à¦°à¦£ à¦¹
à¦§ à¦¡
Ġà¦Ĩà¦¸ à¦°à¦Ł
Ġà¦ķà¦ķ à¦ª
à¦ªà§ľ à¦ļ
Ġà§© à§§à§ª
Ġà§© à§§à§©
à¦¨à§Łà¦¨ à¦¸à¦¹
d uc
Ġà¦ľ à¦ľà¦ķ
à¦ķà¦Ł à¦°
à¦¨à§Ł à¦Ł
ĊÂł ĊĊ
à¦® à¦¸à¦ķ
Ġà¦ıà¦ķ à¦ĩà¦¸
à¦¬à¦¨ à¦¨
Ġà§© à§§à§¬
Ġà¦Łà¦¹à¦² à¦°à¦¤
à¦¤ à¦¹à¦¬
Ġà¦ª à¦Łà¦²
Ġà¦¹ à¦ªà¦ķ
Ġm en
am al
w or
Ġà¦ħ à¦Ĺà¦¤
à¦·à¦£ à¦¤
à¦Ĩ à¦¸à¦¤
Ġà§¨à§® à§©
Ġp arents
Ġh ard
Ġà¦ı à¦ŀ
à¦ļ à¦°à¦ķ
à¦ĸ à¦ªà¦¤
Ġà¦Ĩà¦ĩ à¦®
à¦¯à§Ł à¦ĵ
à¦® à¦¦à¦°
Ġà¦¸ à§İà¦ķ
à¦¸à¦ķ à¦Ń
à¦ĩ à¦¸à¦¨
à§§ à§¦à§¦à§¦
Ġ1 8
à§§à§¯ à§ªà§®
* *
à¦¤à¦° à¦Ń
à¦¯à¦¨ à¦Ĺà¦°
à¦ħ à¦¡
à¦ı à¦ĩà¦Ł
Ġà¦Ĳ à¦ļ
Ġà¦ĩà¦¨ à¦¬à¦ķ
à¦°à§Ł à¦¡
à¦ªà¦£ à¦ķ
Ġs y
à¦ł à¦¤à¦®
à¦ī à§İ
Ġà¦īà¦¦ à¦°
Ġà¦ĸà¦¬à¦° à¦ĩ
Ġà¦ªà§ľ à¦¶
à¦²à¦¬ à¦¶à¦¤
à¦°à§Ł à¦¦
à¦¤à¦¦ à¦¶
Ġc ity
à¦ª à¦¸à¦ļ
Ġà¦Ĩà¦Ł à¦ķà¦°
am es
à¦¤ à¦°à¦¤
à§¨ à§©à§¦
à¦¤à¦¨ à¦®
à¦®à¦¤ à¦ĵ
Ġà¦ıà¦¨ à¦ıà¦¸
à¦«à¦² à¦ĵ
Ġgr ow
Ġà¦¥ à¦ķ
ut er
Ġà¦Ńà¦¬à¦¦ à¦¹
à¦¤ à¦Ļ
à¦ļ à¦Ľ
ub l
à¦ľ à¦ļ
à¦· à¦²à¦§
à¦¯à¦® à¦¸à¦¹
à¦¶à¦ķ à¦¸à¦¹
5 0
Ġc ar
Ġà¦® à¦¦à¦°
à¦¤à¦® à¦ľ
à¦¤ à§İà¦ķ
à¦ĩ à¦¶à¦¤
à§Łà¦¨ à¦Ń
à¦²à§Ł à¦¸
Ġà§¬ à§¨à§¦
Ġà¦°à¦ķà¦® à¦Ń
Ġà¦¨à¦ľ à¦°à¦ķ
Ġstart ed
à¦° à¦¶à¦¨
à¦ĩ à¦ľà¦°
Ġà¦ĵ à¦¤à¦ª
Ġà¦§ à¦ĩà¦°
à¦īà¦¨ à¦¸
Ġà¦¸à¦¹ à¦ļà¦°
Ġp ut
ĠA v
à¦¬ à¦Łà¦Ł
à¦« à¦īà¦¦
à¦ħ à¦¹
à¦ĩà¦¡ à¦¬
Ġ >
à¦¶ à¦¬à¦°
Ġà§«à§® à§¦
à§§à§¯à§® à§ª
Ġà¦Ĩà¦ĩ à¦Ľ
ic s
Ġiii à¦īà¦¤
eng al
à¦Ŀ à¦¨à¦¦
à¦²à¦ª à§ľ
ÂŃ à¦¾
à¦¨ à¦°à¦ķ
à¦ĩà¦¨ à¦Ĺà¦°
à¦¨à§Ł à¦ĵ
ïģ ľ
Ġch ange
à¦¬ à¦®à¦¨
ÑĢÐ¶Ð £
Ġà§©à§© à§§
à¦® à¦Ŀ
Ġà¦ļ à¦ĵà¦¡
à¦¡ à¦¸à¦ķ
à¦¬à¦° à¦ļ
à¦¦à¦¨ à¦¸à¦¹
Ġà§© à§§à§¯
à¦¶à¦ķ à¦¸
Ġà§©à§¨ à§®
Ġà¦ĸ à¦ļ
Ġà§Ńà§® à§Ń
Ġà¦°à¦¤à¦¨ à¦ª
à¦¡ à¦²à¦ª
à§ĩâĢĿ ,
à¦Ł à¦Ľà§ľ
Ġà¦° à¦¨à¦ķ
à¦ıà¦® à¦¡à¦¬
ĠE very
Ġà¦ªà¦¥ à¦ĩ
à¦ĩà¦ª à¦®
ĠâĢĶ à¥¤
ĠA d
Ġre t
Ġte le
Ġà¦Ĩ à¦¥
à§ľ à¦ĸà¦¨
č ĉĉ
à¦¶à¦¨ à¦¸à¦¨
à§Łà¦¨ à¦Ł
re ed
ag r
Ġà¦²à¦Ĺ à¦ĩà¦¨
Ġ X
à¦ĩ à¦ªà¦ķ
à¦ĩà¦² à¦Łà¦ķ
à¦Ľ à¦¸à¦¹
Ġà¦¨à¦¤ à¦ľ
Ġà§¬ à§ªà§¦
Ġà¦¬à§ľ à¦°
en er
ĠCol umn
Ġme et
Ġà¦ļ à§ľà¦¤
Ġà¦ħà¦Ĺ à¦Ń
Ċ ÂłÂłÂłÂł
Ġà§¨à§¬ à§¯
Ġre ce
u ation
à¦· à¦ķà¦²
Ġà¦« à¦¨à¦¸
à¦°à¦Ĺ à¦¬
à¦ľà¦¸ à¦ªà¦¤
Ġus ing
à¦¦ à¦®à¦¨
à¦ı à¦ıà¦®
Ġà¦Ĩà¦ĩ à¦ĵà§Ł
ÑĢÐ·Ð ¶
Ġà§¨à§¯ à§©
Ġà§©à§¨ à§¯
Ġth ought
Ġph ys
Ġà¦¬ à¦°à¦®
Ġà¦Ĩ à¦¬à¦¸
Ġread ing
Ġà¦Ĩà¦ĩ à¦ıà¦²à¦ĵ
à§§à§¯ à§«à§¨
Ġr ivers
Ġč ĉ
à¦§ à¦¸à¦®
à¦¹ à¦·
Ġà¦Ĩà¦ľ à¦Ĺ
à¦¶à¦ĵ à¦ķà¦¤
Ġà§§à§¯à§« à§§
Ġnum ber
à¦¯à¦Ł à¦ķà¦°
Ġà¦ļ à¦°à¦ĸ
à¦°à¦ļ à¦Ł
à¦ķà¦² à¦¬
Ġà¦¨à§Ł à¦ĩ
à¦°à¦Ń à¦ķ
Ġà§ª à§¨à§«
Ġà§©à§¦ à§¬
Ġo p
Ġdo ctor
à¦¹ à§Łà¦°
Ġà§© à§©à§«
à¦¤à¦² à¦¸à¦¹
ut h
Ġà¦Ĩà¦° à¦ıà¦¸
à¦ıà¦¸ à¦ıà¦ĩà¦ļà¦ı
Ġà¦Ĺà¦£ à¦°
à§¦ à§§à§Ń
à¦ıà¦® à¦ıà¦¨
à¦¹à¦² à¦«à¦¨
Ġà¦ĩà¦ĩà¦ī à¦¤
à¦ıà¦¨ à¦ķ
Ġà¦¬à¦¨ à¦ķà¦°
Ġà¦ı à¦¹à¦¨
âĸ ł
Ġà§ªà§Ń à§¦
hr ab
à¦ĸ à¦¸à§ľ
à¦Ĩ à¦ªà¦¦
à¦°à¦ªà¦° à¦¨
Ġà§¨à§¬ à§©
ĠÑĢÐ¶Ð Ļ
1 5
Ġà¦Ĩà§Ł à¦ĵ
Ġà¦ıà¦ĩà¦ļ à¦ıà¦®
à¦¨à¦® à¦§
à¦ıà¦®à¦ıà¦¸ à¦ıà¦¸
ĠâĢĺ ...
à¦ħ à¦¥à¦¬
t ed
à¦¦à¦¨ à¦¦
Ġh igh
are d
Ġid e
Ġà¦ı à¦²à¦ķ
Ġà§« à§§à§¨
Ġh uman
à¦ĵ à¦¨à¦ķ
à¦ķà¦¨ à¦īà¦¦
à¦ıà¦¨à¦ıà¦¨ à¦ķ
Ġà¦ľà¦¬à¦°à¦¦ à¦ĸà¦²
à¦ıà¦®à¦Ĩà¦ĩ à¦Ĩà¦°
Ġà¦ıà¦® à¦ıà¦ľ
à¦¤à¦¨ à¦Ĺ
ÑĢÐ·ÐĿÑĢÐ¶Ð ´ÑĢÐ¶
3 0
Ġà¦ķà¦° à¦¹
à¦¬à¦¨ à¦¤
à¦°à¦¶ à¦¤
Ġ et
à¦Ľ à¦ļ
à¦§ à¦¤à¦¨
à¦¦ à¦¤à¦¬
Ġà¦¡à¦ķ à¦ĩà§Ł
à¦¯ à§Łà¦¸
à¦Ł à¦¥
à¦·à¦¦ à¦Ń
à¦ļ à¦£
à¦ªà¦£ à¦¨à¦ķ
Ġknow ledge
e f
à¦® à¦īà¦²
à¦ļ à¦«
à¦·à¦ķ à¦¢
ĠÂł Ċ
Ġà¦ıà¦ķà¦¬ à¦Ľà¦°
oc k
Ġà¦¬ à¦¤
à¦¿à¥¤ '
Ġà§¬ à§§à§¦
Ġà¦«à¦² à¦¸
Ġà¦Ĩà¦Ľ à¦®
à¦ıà¦² à¦ı
Ġs ay
p ur
à¦ķ à¦ļà¦ķ
à¥¤ à¥¤
à¦§ à¦®à¦¨
Ġà¦¸à§ľà¦ķ à¦¸à¦¹
Ġà¦ľà§ľ à¦¤
p e
à¦¤ à¦ªà¦¤
à¦· à¦°à¦ľ
à¦¡ à¦ĵà¦¯
Ġ2 0
Ġhealth y
à¦§ à¦§à¦°
à¦ĵ à¦¬à¦¨
à¦ī à¦°à¦ķ
Ġà¦ıà¦ĩà¦ļ à¦Ĩà¦°à¦¡à¦¬
al ity
à¦ħà¦¬à¦¸ à¦°à¦ª
à¦ª à¦Ľà¦¨
à¦²à¦ķ à¦Ł
à¦§à¦¨ à¦ĵ
Ġà¦¨à¦¦ à¦Ń
à¦īà¦ª à¦¹
à§§à§¯à§Ń à§®
à¦¬ à¦ĩà¦®
os p
à¦Ĩà¦ĩà¦ĵ à¦ıà¦®
Â¬ à¦¾
Ġà¦¸ à¦°à¦¤
à¦Ĩ à¦ªà¦¤
Ġf in
Ġbir th
à¦° à¦¨à¦ķ
à¦°à¦¤ à¦ĩ
à¦· à¦Ľ
Ġà¦ĩ à¦²à¦®
à¦¬à¦¬ à¦Ļ
Ġc he
Ġth ink
Ġà¦Ĩà¦¨ à¦¹
à¦Ĺà¦łà¦¨ à¦¸à¦¹
Ġà¦ĩ à¦Ĺ
à¦²à¦¬ à¦£
Ġl ib
Ġà§« à§§à§¦
à¦ķà¦¤ à¦ķ
Ġà¦¨à¦Ĺà¦° à¦ª
Ġcomm on
Ġà¦īà¦ª à¦¡
Ġà¦Ĩà¦« à¦ľà¦²
2 1
à§Ł à¦ªà¦°
Ġà¦ķà§Ł à¦¦
ÑĢÐ¶Ð ±ÑĢÐ¶
Ġà¦¬à¦¦à¦° à¦ª
Ġp aper
Ġof ten
ĠĠĠĠĠĠĠĠĠĠĠĠĠĠĠĠĠĠĠĠĠĠĠĠĠĠĠĠĠĠĠĠ ĠĠĠĠĠĠĠĠĠĠĠĠĠĠĠĠĠĠĠĠĠĠĠĠĠĠĠĠĠĠĠĠ
-------- --------
à¦¡ à¦¯
ÑĢÐ¶Ð¶ ÑĢÐ¶
à¦ĵ à¦Ĩà¦ĩà¦¸
à¦°à¦¬ à¦²à¦Ń
itt le
M ake
Ġtr ain
enc y
Ġs im
Ġsp eak
à¦ĸ à¦°à¦ļ
à¦¡ à¦īà¦ĩà¦ļ
Ġà¦ķà¦¤ à¦ĩ
ĠM any
à¦Ĩ à¦®à¦¨
m ed
à¦ĥ )
Ġf ire
à¦īà¦¡ à¦¬
ang er
Ġà¦®à¦¹ à¦°à¦°à¦®
ro pr
" à¥¤
à¦¤ à¦¯à¦¶
Ġà¦ıà¦ķ à¦ªà¦ķ
Ġsh op
v es
Ġà¦§ à¦®à¦¨
Ġà¦ıà¦ķ à¦ĸ
Ġà§ªà§¦ à§¯
à¦®à¦¸à¦¨ à¦¦
re en
à¦ĩà¦ľ à¦¤
à¦īà¦ĩ à¦¥
à¦¨à¦¬ à¦¬à¦°
à¦° à¦Ĩà¦¦
à§Ł à¦ľà¦¨à¦¦
Ġà¦Ł à¦Ĺà¦¬
à¦®à¦¨ à¦ª
cc ess
Ġà§© à§§à§§
ĊÂłĊÂł Ċ
à¦¤ à¦¤à¦°
Ġà§© à§ªà§«
à¦Ĩà¦Ł à¦ķà¦°
pr ot
Ġpop ular
à¦ļ à¦¹
à¦ªà¦¤ à¦Ļ
S C
b y
à¦®à¦¨ à¦¡
à¦ĺ à¦¸à¦®à§Ł
Ġsp ort
à¦ł à¦ĵ
Ġà¦ıà¦¨ à¦ıà¦¸à¦¸
Ġà¦Łà¦ķà¦¦ à¦ĩ
à¦ıà¦« à¦Ĩà¦ĩà¦ĩà¦ī
à¦ıà¦ĸà¦¨ à¦ĩ
Ġother s
Ġnat ural
Ġà¦ĩà¦®à¦¨ à¦ķ
à§Ł à¦®à¦¬à¦¹
à¦ĩ à¦ĵà¦°
Ġà¦¸à§İ à¦Ń
Ġà¦īà¦¦ à¦¦
à¦°à¦¶ à¦ª
à¦ĩà¦² à¦«
à¦Ĺà¦® à¦ĵ
Ġà§¨à§¯ à§¬
à§§à§¯à§Ń à§¯
à¦ķ à¦ļà¦Ł
Ġà¦ıà¦² à¦ıà¦²à¦¬
ÑĢÐ·ÐĿÑĢÐ¶Ð ´
Ġ--- -
Ġà¦Ĩà¦° à¦¬à¦¸à¦¹
Ã ĸ
à¦Ĺ à§Ł
Ġà¦¸à¦« à¦°à¦¸
Ġà¦ĵà¦ĩ à¦Ł
at ure
à¦Ĩà¦¶ à¦Ļ
à¦¹ à§Łà¦¨
Ġà¦¤ à¦¨à§Ł
Ġà¦Ĩà¦ļà¦°à¦£ à¦ķ
Ġà¦ļ à¦°à¦¦
Ġà§©à§© à§ª
Ġstud y
Ġliv ed
Ġà¦¸ à¦¦à§Ł
à¦ļ à¦ĸ
Ġto day
à¦Ł à¦ľà¦¨à¦¦
à¦¶ à¦§à¦°
à¦¨à§Łà¦¨ à¦¬à¦ŀ
Ġs ound
ĠB engal
à¦ĸ à¦ĸ
à¦Łà¦¨ à¦¸
Ġà¦¸à¦¬ à¦§à¦°à¦¨
à¦īà¦¨ à¦Ł
à¦ĩà¦¡ à¦¸
Ġà¦Ŀà¦Ł à¦ªà¦Ł
Ġà§§à§® à§¦à§¦
Ġà¦ĩà¦« à¦«
Ġà¦Ĩà§ľ à¦®
ant s
ropr iate
Ċ ÂłÂł
Ġà¦¤ à¦²à¦ª
Ġà¦Ĩà¦ľ à¦®à¦ª
Ġà¦ĺà¦° à¦¬à¦¨
à¦Ĺà¦² à¦ľà¦¨à¦ķ
à§§à§¯à§® à§©
à¦° à¦Ĩà¦²
l ess
Ġà¦ªà¦° à¦Ľ
Ġà¦ıà¦ĩ à¦¸
à¦®à¦² à¦ķ
Ġà¦¦à¦² à¦Ń
Ġà¦Ĩà¦¨ à¦«
à¦Łà¦ķ à¦¨
Ġl ar
un d
iz ation
e ver
Ġà¦¯ à¦¬
Ġà¦ıà¦° à¦«à¦²
re ak
id er
Ġch ang
à¦ıà¦ıà¦« à¦¸
à¦¶à¦² à¦ªà¦¤
à§¨à§¨ à§¨
Ġr un
à¦¨ à¦ªà¦¦
à¦¤ à¦īà¦²
à¦°à¦ķ à¦¸à¦¹
Ġà¦Ĩà¦¨ à¦ķ
Ġà¦ªà¦¥ à¦ķ
Ġc row
Ġf ill
Ġf our
Ġpro v
Ġun cle
Ġà¦Ľà§Ł à¦¶
à¦ĩà¦ī à¦®
Ġà§©à§« à§¯
Ġà¦¬à¦¶ à¦¬à¦°
Ġà¦ıà¦® à¦Ĩà¦ĩ
à¦ĸà¦² à¦Ń
à¦ıà¦®à¦¨ à¦ĩ
Ġg ard
Ġ à§ĩ
à¦ĩà¦ķ à¦Ĩà¦ª
à¦¥à¦¨ à¦ĵ
Ġà¦ıà¦« à¦Ĩà¦°
Ġà¦¬à¦² à¦ĵ
à¦°à¦ķ à¦¬
Ġfr u
à¦¬ à¦ªà¦ķ
à¦°à¦ľ à¦¬
is hed
ff ect
Ġà¦Łà¦Ĺà¦¬ à¦Ĺ
W e
e k
Ġà¦ľ à¦®à¦¬
à¦ļ à¦¯à¦¨
Ġà¦ĸ à¦¦
Ġà¦¦à¦² à¦¬à¦¦
à¦¨à¦¬ à¦ľà¦®
Ġà¦¸à¦® à¦®à¦°
à¦Ĩ à¦²à¦¬
à¦¶à¦ķ à¦ĵ
Ġn ight
un g
à¦Ĺ à¦®à§Ł
Ġà¦īà¦ª à¦¶à¦®
Ġà§§à§¯ à§ªà§¦
Ã¸ à¦īà¦Ł
à ¤
à§ģ à¦¿
am p
à¦ķ à¦¥à¦¨
à¦¶ à¦¤à¦²
Ġà§¬ à§¬à§¦
Ġresp ect
à¦°à¦¶ à¦®
Ġr iver
n ment
à¦¨ à¦®à¦ķ
Ġin formation
Ġfore st
à¦ıà¦¨ à¦ıà¦°
Ġa ge
Ġà¦Ĩà¦ĩ à¦ĩà¦īà¦¬
as ter
à§§à§¯à§® à§Ń
Ġà¦®à¦Ł à¦°à¦¶
à¦Ł à¦¤à¦°
à§Į ,
à¦¦à¦² à¦Ĺ
on ment
Ġà§©à§© à§¨
st r
à§ĩ, "
à¦¶à¦¨ à¦¶
à¦¦à¦ķ à¦ĵ
Ġt re
Ġf ree
Ġto wn
Ġl ittle
Ġà§©à§© à§Ń
à¦° à¦ĩà§Ł
à¦²à¦¬ à¦¦à¦²
Ġà¦īà§İ à¦¸à¦®
à¦¡à¦¨ à¦Ń
Ġp e
à§§à§§à§ §à§
à¦¨ à¦¶à¦Ł
Ġà¦¦ à¦¯
Ġà¦¶ à¦¤à¦¬
Ġà¦Ĺ à¦Ĺà¦¨
à¦¾à¥¤ '
à¦¨à¦¤ à¦¤à¦°
à¦¯à¦¤ à¦¤
Ġà¦Ĺà§ľ à¦ªà§ľà¦¤
à§§à§¯à§Ń à§¬
Ġà¦¤ à¦°à¦¤
Ġà¦Ł à¦¯
Ġà¦ıà¦¤ à¦¥
Ġà¦ľà§Ł à¦¶à¦Ļ
Ġbir ds
e x
o ice
Ġà¦¹ à¦ĩà¦¹
Ġà¦Ĩà¦ķ à¦¬
Ġanim als
à¦£à¦Ĺà¦¤ à¦®
à¦ĩà¦īà¦ıà¦¨ à¦ıà¦ĩà¦ļà¦¸
à¦¸ à¦ľà¦²
Ġl ion
it ive
? âĢĶ
à¦¤à¦¸ à¦ĩ
so hrab
Ġà¦¨ à¦¬à¦¦à¦®
à¦ĩà¦® à¦ª
in ce
ĠÑĢÐ¶Ð ´
à¦Ł à¦Ĺà¦¤à¦Ń
à§İ à¦¸à¦¨
Ġà¦®à¦¹ à¦¨
à¦¤à¦® à¦¬
à§Łà¦® à¦Ł
· ÑĢÐ¶
Ġà§« à§©à§¦
Ġar ound
Ġbeaut iful
p ose
à§ľ à¦«
à¦ıà¦¨ à¦Ĩà¦°à¦¸
à¦¬ à¦¦à¦°à¦Ĺà¦ŀ
Ġà¦¬ à¦°à¦ķà¦²
Ġà¦®à¦¨ à¦¨à¦¶
Ġm in
us tr
ÑĢÐ¶Ð¸ÑĢÐ·ÐĿÑĢÐ¶Ð ´
à¦¾ à§į
Ġà¦¬à§ľ à¦Ĺ
Ġcon tr
v ir
à¦° à¦īà¦ªà¦°
Ġà¦ıà¦ķ à¦Ń
Ġà¦¨ à¦¹
Ġà¦ħà¦¨ à¦¡
en se
at ing
ĠP ro
Ġr ich
à¦ĩà¦² à¦¸à¦¹
it er
Ġà¦Ńà¦¬à¦¨ à¦ķ
er t
à¦¯à§Ł à¦ķà¦°
à¦¡ à¦¦à¦Ĺ
à¦¬à¦® à¦ŀ
Ġse a
à¦¨ à¦¢
à¦°à¦¸à¦¹ à¦ķ
ful ly
à¦¬ à¦ĵà§Ł
à¦ĩà¦Ł à¦ĵ
Ġà§Ń à§©à§¦
le ep
Ġne ar
à¦¿ à¦¿
à§ģ à§ĩ
à¦ĩ à¦ĵà¦¨
à¦ĺ Åĵ
à¦®à¦° à¦¨
ĠA fter
à§ĥ à§ĥ
Ġà§©à§« à§¨
il ity
à¦Ł à¦°à¦¸à¦¹
Ġà§« à§¨à§«
th ing
à¦« à¦®
à¦¤à¦¬ à¦¬
id es
Ġà¦Ŀà¦° à¦Ŀà¦°
ÑĢÐ¶Ð¼ ÑĢÐ·ÐĹ
à¦£ à¦ªà¦¦
à¦¬à¦° à¦²
Ġà¦ħà¦ª à¦¦à¦¸
à¦ļà§Ł à¦Ł
à¦¸à¦¦à¦° à¦ĺ
u res
Ġà¦®à¦¡ à¦°
Ġà§©à§« à§«
Ġà¦¬à¦°à¦ķà¦¤ à¦īà¦²
Ġà¦¨ à¦ľà¦®
Ġà¦¬à¦² à¦ĩ
à¦¾à¦Ĥ -
à§Ģà¥¤ "
à¦¶ à¦Łà¦¨
Ġà¦ı à¦īà¦ĩà¦¨
Ġà¦° à¦®à¦£
Ġà¦ĸ à§ľà¦ķ
à¦¤à¦¨ à¦¸
à¦°à¦¹ à§Ł
ÑĢÐ¶Ð ¯
if ic
ĠR e
ĠCom p
h a
à¦ıà¦² à¦ıà¦¨
Ġw on
à¦Łà¦¸ à¦Ļ
à¦® à§Łà¦¦
à¦¨ à¦ĩà¦ī
à¦ı à¦ĵ
ment s
Ġso on
à¦¤à¦° à¦®
Ġs it
Ġà§©à§ª à§§
Ġr ul
Ġas s
Ġà¦¸à¦¹à¦® à¦¤
à¦¶à¦® à¦£
à¦Łà¦« à¦°à¦®
Ġà¦Ł à¦¨à¦ª
Ġà¦Ĩà¦¤ à¦¹
Ġm ed
à¦¸ à¦¤à¦¨
à¦§ à¦¨à¦¬
à¦Ĩà¦ĩ à¦ıà¦«
Ġwom en
à¦ľ à¦°à¦¤
Ġà¦¬à¦² à¦¦
à¦¸à¦° à¦°
vir onment
à¦Ĺà¦łà¦¨ à¦ĵ
ÑĢÐ·Ð ĵ
à§ĭ !âĢĻ
à¦®à¦¤ à¦¸à¦¹
Ġà¦Ĩà¦ĩà¦¨ à¦¸à¦®
à¦Ĺà¦¦ à¦ĸà¦²
Ġà¦Ĩà¦¸ à¦¨à¦¬
: âĢĺ
à§ĭ ),
Ġà¦Ľ à§Łà¦¦
Ġà¦¦à¦² à¦Ĺà¦¤à¦Ń
Ġc our
Ġpro du
1 3
ÑĢÐ·ÐĿÑĢÐ¶Ð ¾
à¦ıà¦ĩà¦ļà¦ı à¦ıà¦ĩà¦ļ
we en
Ġà¦¨ à¦īà§Ł
Ġà§© à§§à§Ń
ÑĢÐ·ÐĽ ÑĢÐ¶Ð§
pp ort
In d
Ġà¦¬ à¦¹à¦®
Ġà¦ı à¦Ĩà¦ĩà¦ľ
Ġà¦ªà¦¦ à¦ĵ
er y
à¦ķ à¦Ĺà¦¨
à¦ľ à¦«
Ġà¦ı à¦¤à¦¬
Ġà§©à§¯ à§«
à¦¨ à¦¦à¦²
à¦Ĩ à¦§à¦Ł
Ġà§¬ à§©à§¦
âĢĿ -
r ange
à¦° à¦²à¦ķ
à¦¤à¦¨ à¦ľà¦¨
à¦¥à¦¨ à¦¯
Ġà¦Ĩà¦ĩ à¦ıà¦¸à¦¬
Ġà¦Ĩà¦ª à¦Ĺ
: )
Ġà¦ľ à¦²à¦¯
à¦¥ à¦¡
à¦§à¦¨ à¦ª
Ġà¦ıà¦® à¦«
Ġà¦ķà¦¨à¦ķ à¦ļ
ĠÑĢÐ¶Ð¬ ÑĢÐ¶
e mail
Ġà¦¤ à¦°à¦¬
à§ĩà¥¤ >>
à¦ıà¦ĩ à¦¡à¦¸
à¦Ĺà¦£ à¦Ńà¦¬à¦¨
ï ĥ
à¦Ł à¦²à¦¸
à¦¤à¦® à¦¹
à¦§à¦¨ à¦¹
re d
Ġà§¨à§¯ à§Ń
ir l
à¦ķ à¦¨à¦Ł
Ġà¦ıà¦ĩ à¦®
à¦Ĺà¦¤ à¦®
à¦¨à¦®à¦¨ à¦¸
un ct
Ġear ly
à¦° à¦°à¦ķ
à¦¶ à¦°à¦¤
Ġin cre
Ġst op
à¦¨ à¦¸à¦°
Ġà¦ĸ à¦Ĺ
Ġà¦Ŀà§ľ à¦Ł
ïĢł ïĢł
Ġà¦Ĩà¦²à¦® à¦ĵ
ar ds
Ġà§©à§© à§¬
à§ĩ ",
à¦¦ à¦°à¦¸à¦¹
Ġà¦¸à¦®à¦° à¦ľ
à¦ļà¦ķ à¦Ĺ
à¦īà¦ª à¦®à¦¹
Ġà¦ıà¦¹ à¦Ľ
Ġà¦Ĩà§Ł à¦®
Ġlear ning
à¦² à¦Ĺà¦°
à§ĥ .
Ġi ll
à§§à§¦ à§§
ec ial
Ġà¦Ĩ à¦īà¦¨
Ġà¦Ľ à¦°à¦°
Ġà¦ħà¦ª à¦¶
à¦ķà¦® à¦ª
à¦¨ à¦ĵà¦¯
Ġà¦¸à¦® à¦Ń
Ġà¦¬à¦¨ à¦°
Ġà§«à§¦ à§¨
prot ected
à¦° à¦ĺà¦°
à¦¸à¦¹ à¦¸
à¦Ĩà¦Ĺ à¦°à¦¤à¦²
à¦·à¦¦ à¦¸à¦¹
Ġà¦ħà¦ľ à¦¯
à¦¦à¦ļ à¦¶à¦®
b it
Ġà¦Ĩ à¦¹à¦°
Ġà¦Ľ à§Łà¦®
à¦Ĩà¦° à¦Ĩà¦°à¦¡
à¦¯ à¦Ĺà¦¤à¦Ń
Ġà§¬à§® à§¦
Ġà¦ı à¦ıà¦®
Ġà¦® à¦¸à¦¨à¦¦
ro gative
Ġà¦ħ à¦¢
Ġà¦¬à¦² à¦Ĺ
à¦®à¦¹ à¦¨à¦¨
à¦ıà¦¸à¦Ĩà¦ĩ à¦Ĩà¦°
Ġà¦Ĺà¦°à¦® à¦®à¦¸à¦²
Ġà¦īà¦ĩà¦² à¦¸
Ġwe ar
à¦ľ à¦¸à¦Ń
à¦£ à¦ªà¦¨
Ġà¦Ĺ à¦ľà¦¨
à¦¡ à¦¸à¦ķà¦®
Ġà¦¸à¦° à¦¨
à¦°à¦® à¦§à¦°
à¦° à¦Ĩà¦°
Ġà¦ı à¦Ńà¦°
Ġà¦ĸ à§Łà¦°
Ġà¦Ĩà¦īà¦Ł à¦¡
Ġà¦¬ à¦ĩà¦²
Ġà¦ıà¦ĩ à¦ĸ
à¦Ĩ à¦ĸà¦¤
à¦¾? âĢĿ
Ġà¦īà¦Ń à§Łà¦ķ
Ġmon th
% )
à¦Ĥ âĢĻ
Ġà¦Ľ à¦«
à¥¤âĢĻ âĢĻ
à¦ķà§Ł à¦²
à¦Ļ à¦¨à¦°
à¦°à¦® à¦®à¦¨
Ġ ÂłÂłÂłÂłÂłÂłÂłÂłÂłÂłÂłÂłÂłÂłÂłÂł
à¦¬ à¦¤à¦®
Ġà¦ķà¦² à¦°
à¦¨à¦Łà¦¨ à¦ķ
à¦°à¦£ à¦¸
Ġà§¯ à§¬à§¦
à¦ļ à¦Ń
Ġà¦¬à§Łà¦¸ à¦Ł
à¦« à¦¹
ĠR aj
à¦ļ à¦ĵà§Ł
Ġà¦ĩà¦¨ à¦ķà¦°à¦ª
à¦ķà¦¦ à¦²
à¦ķà¦¶à¦¨ à¦ıà¦ĩà¦¡
Ġà§ªà§Ń à§«
* )à¥¤
ĠS ima
ĠâķĽ .
y r
à¦Ł à§Ł
à§ĩà¥¤ (
à¦®à¦¨ à¦¸à¦¹
Ġà¦ķà¦® à¦¸
Ġà¦Ĩà¦ĩ à¦¥
Ġs ame
Ġà§«à§¦à§¦ à§¦
à¦Ĩ à¦¸à¦®
à¦īà¦ª à¦¯
Ġsub ject
Ġfi el
à¦° à¦ħà¦¤
Ġà¦ıà¦ķ à¦¨à¦²
à¦ı à¦¤à¦¦
à§ģ ),
Ġà¦Ł à¦Ĺà¦°
à¦°à¦ķ à¦Ĺ
à¦°à¦ª à¦¦
à¦ıà¦¸ à¦ıà¦¸à¦ľ
à¦¤à¦° à¦¨
Ġà¦°à¦¸ à¦Ĺ
Ġà¦® à¦°à¦¨
à¦¬à¦¸ à¦Ń
Ġà¦®à¦¹ à¦²à¦ķ
Ġw in
or row
Ġà¦Ĩ à¦Ľà¦°
à¦Ĩ à¦«à¦¸
Ġà¦®à¦¨ à¦°
à¦®à¦² à¦Ĺ
à¦ıà¦ĩ à¦ļà¦ķ
Ġà¦ªà¦° à¦®à¦¬
à¦°à¦ļ à¦ķ
à¦Ĺà¦² à¦Ł
à¦° à¦ıà¦²
à¦ĩà¦« à§Ł
à¦« à¦¸à¦²
Ġbet ter
Ġà¦¸à§İ à¦®
Ġà¦ľà¦²à¦® à¦Ĺ
à¦ķ à¦Ĩà¦īà¦Ł
à¦ĩ à¦Ĩà¦°
Ġà¦Ĩà¦¹à¦®à¦¦ à¦¸à¦¹
ïĤ ´
à¦¿à¦Ĥ âĢĻà¥¤
à¦²à¦¨ à¦ĩ
Ġà¦¦à¦² à¦Ľ
ĠS ome
à¦· à¦§à¦°
Ġà¦ī à¦«
ĠE x
à¦« à¦¤à¦°
à¦¯à¦® à¦¯
à¦ļà¦² à¦°à¦¤
le ge
à¦¦ à¦ĺ
Ġà¦ļ à¦°à¦ļ
Ġà§ª à§§à§¯
à§§à§¯ à§©à§¦
Ġà§©à§¦à§¦ à§¦
Ġà¦°à¦ĵ à¦ľ
Ġbet ween
Ġcle an
Ġsuff er
Ġà¦«à¦² à¦¶
à¦²à¦ª à¦¥à¦®à¦¨
Ġwor ks
à¦¤à¦¨ à¦¦
Ġà¦ıà¦® à¦Ĩà¦°
m un
à¦ıà¦ĸà¦¨ à¦ķ
ir m
Ġà¦¦à¦ĸ à¦²à¦¬
à¦Ń à¦¬à¦ķ
Ġà¦ķ à¦ĩà¦Ľ
à¦ł à¦¸à¦¹
Ġà¦īà¦² à¦Ń
in t
Ġsu ch
à¦¯ à¦¸à¦¬
à¦²à¦¤ à¦Ĺ
as on
ul ation
Ġpl an
à¦¨ à¦¬à¦¬
à¦£ Åĵ
à¦ĸ à¦ľ
à¦ľà¦¨ à¦°
Ġà¦ħà¦¤ à¦²
ÑĢÐ·ÐĿÑĢÐ¶Ð ¼
Ġcol umn
à§İ à¦¹
Ġà¦®à¦¤ à¦²
à¦ļà¦ķ à¦£
Ġà¦ħ à¦«à¦²
à¦ĵ à¦ĵ
Ġà¦° à¦Łà¦¨
à¦²à¦ķ à¦ĩ
Ġà¦ªà§ľ à¦¨
à¦·à¦ķ à¦ª
à¦ķà¦Ń à¦°
ÑĢÐ¶Ð ĳ
Ġb reak
Ġapp ropriate
à¦¸ à¦ħà¦°
Ġà¦ħ à¦Ĺà¦®
à¦« à§Łà¦¸
à¦¶ à¦²à¦¬
à¦¬à¦° à¦¸
Ġà¦Ĩà¦²à¦® à¦ª
Ġsec ond
Ġhon est
1 4
à¦Ńà¦¬à¦¨ à¦Ł
Ġà¦ĩà¦īà¦ıà¦¸ à¦Ł
Ġà¦Ĩà¦¦ à¦®à¦ª
à¦¯à¦® à¦ĵ
à¦ħ à¦¬à¦ķ
à¦Ŀ à¦Ľ
Ġà¦Ĩà¦ķ à¦¬à¦°à¦ķ
Ġà§«à§¯ à§¦
Ġà¦ĩ à¦Łà¦¬
à¦²à¦¤ à¦ĵ
à¦Ńà¦¬ à¦ªà¦°
Ġm ar
à§Ł à¦ľà¦¨à¦ķ
à¦¸ à¦®à¦ķ
Ġà¦¬à¦ķ à¦¸
Ġf oods
à¦Ĺà¦ª à§İ
à¦ħà¦¤ à¦ıà¦¬
Ġsu ccess
à¦° à¦īà¦ªà¦ľ
à¦°à¦¬ à¦¹à¦®
Ġd ep
Ġà§©à§ª à§¯
I t
à¦¬ à§ľà¦¦
Ġà¦Ĺ à¦īà¦Ľ
Ġ ve
Ġà¦ħà¦¸ à¦®à¦°
Ġà§¬ à§¨à§«
à¦ķà¦Ĩà¦ª à¦Ń
à§©à§Ń à§¦
Ġk ill
Ġà¦¬à¦¨ à¦«
ar s
Ġà¦ĩà¦īà¦ıà¦¨ à¦ıà¦«à¦ª
à¦ı à¦°à¦¦
à¦¿à¥¤ ïģ¬
Ġà§® à§¨à§¦
ĠF or
ass an
Ġà¦¡ à§Ł
Ġà¦¬à¦° à¦ĩà¦¤à¦²
à§§à§¨ à§§à§«
Ġv ii
à¦¿à¦Ĥ âĢĶ
ĠO ur
e le
s m
Ġà¦ī à¦¡à¦¸
Ġà¦ıà¦ĩ à¦ª
Ġà¦ıà¦® à¦Ĩà¦ĩà¦Ł
ĠS a
Ġà¦ªà¦ļà¦¨ à¦¶
u k
à¦² à¦Ńà¦°
à§© à§«à§¦
Ġà§ª à§§à§«
Ġà¦Ĩà¦¤ à¦ª
ĠÑĢÐ¶Ð «
Ġà§©à§® à§«
à¦¨ à¦ıà¦¬
à¦ĺ à¦Łà¦ķ
Ġà§§à§¯ à§©à§®
er m
Ġà§ªà§¦ à§«
Ã¿ à¦ķ
à¦¾à¥¤ :
à¦²à¦ķ à¦¡
à¦¨à¦Ĺ à¦¦
Ġà§©à§® à§§
ir d
à¦īà¦¦ à¦ª
Ġà§«à§¦ à§§
Ġà§©à§¨ à§Ń
Åĵ à¦¤
ple te
erc ise
Ġà¦° à¦¸à¦°
Ġp ubl
is ed
Ġà¦¸à¦¦ à¦°à¦¸à¦¹
Ġà¦ľà¦¨à¦Ĺà¦£ à¦ĵ
qu e
Ġinter n
à¦ı à¦ķà¦°
à¦ı à¦°à¦ķà¦®
à¦¾à¥¤ #
Ġà¦ħà¦ª à¦ļà¦¯
Ġà¦ľà¦® à¦Ľ
à¦¦à¦® à¦ķà¦²
Ġà¦ĩà¦ĩà¦ī à¦Ń
à§§à§§à§ ¯
à¦¸à¦® à¦®
Ġf ull
à§ĩ... à¥¤
Ġà¦Ĩà¦ĩà¦ĵ à¦ıà¦®
o f
à¦ Ķ
Ġà§ªà§¬ à§«
ab ul
agr aph
Ġà¦®à¦¦ à¦¦à¦ª
% à¥¤
Ġà§¨à§§ à§¦à§¦
Ġà§©à§© à§¯
à¦° à¦īà¦ĩà¦¨
à¦¸ à¦¸à¦®
à¦ļ à¦®à¦ķ
Ġà§©à§« à§§
Ġe as
à¦² à¦ªà¦Ł
à¦ıà¦¸ à¦Ń
à¦°à¦¹à¦£ à¦ĵ
Ġà§©à§« à§ª
Ġg irl
our n
à¦¤à¦¬ à¦®
Ġà¦ħà¦¬ à¦ļ
à¦¬à¦¬ à¦¹
al am
Ġ(- )
à¦ļà¦¨ à¦¸
à§İ à¦¸à¦¹
à¦ķà¦¦ à¦®à¦¤à¦²
Ġen vironment
à¦¬à¦¸ à¦Ĺ
Ġst ate
Ġà§ª à§§à§ª
à¦¨à¦Ĺ à¦°à¦ķ
à¦¨ à¦ıà¦ĩ
à¦¨à¦¡ à¦«à¦¸
à¦ıà¦ĩà¦ļ à¦Ĩà¦°
à¦Ĩà¦ļ à¦°à¦£à¦¬
Ġà¦® à¦°à¦²
Ġà¦® à¦Ĺà¦¨
à¦¹ à¦Ļ
à¦¥ à¦¸à¦®
à¦ĵ à¦ł
à§§à§¦ à§¬
Ġs ing
Ġà¦¦à¦®à¦¨ à¦ª
Ġà§©à§¬ à§Ń
à¦ıà¦¸à¦ıà¦« à¦ķ
à¦¤ à§İà¦ªà¦°à¦¤
à¦§ à¦¬à¦¨
à¦¶à¦² à¦Ł
Ġs et
Ġà¦¬à¦¹à¦¨ à¦¯
Ġà§§à§¬ à§¦à§¦
à¦Ĺ à¦²à¦¸
à¦ļà¦¨ à¦ķà¦®
le t
à¦Łà¦¨ à¦¸à¦¹
Ġà¦¬à¦¹ à¦°à¦®à¦ª
ent ial
2 3
v en
Ġà¦ħ à¦²à¦Ł
à¦Ĩ à¦ĺ
Ġa p
à§§à§¯ à§ªà§«
Ġh ab
à¦Ĺà¦ł à¦ķà¦¦
à§§à§¦ à§¯
Ġbr other
Ġà¦¸ à¦ĩà¦Ľ
Ġà¦ļ à¦°à¦¸
à¦¦à¦¨ à¦®à§Ł
Ġà¦Ĩà¦ĩ à¦ĩà¦¬
à¦ļà¦¬ à¦Ł
ar i
ĠÑĢÐ¶Ð ¿ÑĢÐ¶
Ġà¦® à¦¶à¦Ĺ
à¦§à¦¨ à¦¸
Ġà¦Ĩà¦Ł à¦¶
Ġc ur
à§§à§§à§ §
Ġex c
1 6
r om
à¦Ł à¦ªà¦¤à¦Ļ
Ġs w
ĠA b
Ġre st
à¦ķà¦®à¦² à¦Ĺà¦ŀ
à¦§ à¦¬à¦ķ
à¦Ń à¦¡
à¦ķà¦¬ à¦Ľà¦°
à¦¨à§Łà¦¨ à¦ĵ
à¦¯à¦¸ à¦Ļ
Ġà§ªà§¦ à§¬
Ġd ress
Ġà§©à§« à§©
Ġl ess
ĠP re
à¦° à¦Ĩà§Ł
à¦¤ à¦ĺà§ľ
à¦®à¦¸ à¦°
Ġb ad
à¦¹à¦°à¦£ à¦¸
à¦¡à¦² à¦«
ĠÂłĠÂł Ġ
à§§à§§à§ ®
Ġbu y
â Ļ
Ġà¦Ĩà¦¨ à¦²à¦ķ
à§¨à§§ à§¦à§¦
Ġà¦® à¦°à¦®
à¦¡ à¦īà¦ĩà¦¥
Ġà¦Ń à§ľà¦ķ
Ġà¦¬à¦¨ à¦²à¦¤
Ġp ower
Ġproble m
Ġgard en
Ġ __
à¦® à¦¶à¦¤à¦¬à¦°
Ġà¦ĸ à¦¬à¦°à¦ķ
à§Ģà¥¤ âĢĺ
Ġà¦Ĩà¦Łà¦ķ à¦ķà¦°
à§§à§¯à§® à§«
à¦®à¦Ĺ à¦¬
à¦¨à¦ĵ à¦Ń
Ġà¦Ĩ à¦ĸà¦²
Ġs k
Ġà§¬à§Ń à§§
à¥¤ >>
à¦§ à¦¹
Ġà¦ıà¦ĩ à¦ľ
à§ĩ?âĢĻ âĢĺ
à¦¤à¦ķ à¦£
Ġà¦Ĩà¦ĩ à¦¶
à¦®à¦ļ à¦°
Ġà§©à§« à§Ń
Ġliv ing
Ġà¦ıà¦®à¦ıà¦² à¦ıà¦¸à¦ıà¦¸
Ġà¦ĩ à¦¹à¦°
Ġà¦ħà¦¨ à¦Łà¦¨
Ġà¦īà¦ª à¦¦à¦²
à¦¯à¦ķ à¦®à¦ª
à¦¬à¦ľà¦¨ à¦¸à¦¹
Ġp ur
¦ ÑĢÐ¶
à¦¦ à¦¶à¦Ł
à§Łà¦ķ à¦ĩ
à¦ĭ à¦·
Ġne xt
ĠAn d
âĻ ¦
Ġ &
Ġà¦Ń à¦°à¦¦
he ns
à¦ĺ à¦¨à¦ķ
à§§à§¬ à§¦
Ġà¦Ń à¦ľà¦¨
à¦°à¦ĵ à¦ĩ
Ġà¦ıà¦® à¦ıà¦¨à¦ª
Ġmean ing
à¦« à¦°à¦ķ
Ġà¦Ĩà§Ł à¦²
à¦·à¦¤ à¦¸
à¦¾: )
Ġà§ªà§¨ à§Ń
à¦ķà¦¡ à¦ĩà¦¨
Ġà¦ķà¦° à¦Ł
à¦°à¦ķ à¦°à¦£
à¦°à¦¥à¦® à¦Ĩà¦²
à§ĩà§Ĺ -
Ġf act
Ġintern ational
h assan
à§ĩà¥¤ ]
à¦ł à¦ĸà§ľ
à¦ĩà¦¨ à¦²
à¦°à¦Ń à¦°
à¦¥à¦¨ à¦ª
Ġà§©à§Ń à§©
O n
à¦² à¦®à¦ķ
Ġà¦ħ à¦¸à¦²
Ġd uring
à§ĩâĢĿ à¥¤
Ġà¦Ĩà¦° à¦¦
à¦ķà¦² à¦ľ
à¦°à¦®à¦£ à¦ª
Ġcomp uter
à¦¨à¦¬à¦¸ à¦Ń
à¦® à¦Ľà§ľ
à¦ª à¦Łà¦ķ
à¦ĩ à¦®à¦¤
Ġà¦ĸ à¦°à¦Ĺ
à¦°à¦² à¦®
Ġà¦ıà¦ķà¦ĩ à¦°à¦ķà¦®
Ġà§©à§ª à§®
Ġmod ern
Ġà¦¸ à¦¯à¦¤
à¦¿) âĢĻ
Ġà¦ķ à¦Ľ
à¦¸à¦ķ à¦¨à¦¸
is hes
Ġ# #
à§ªà§¯ à§¦
Ġverb s
d r
à¦§ à¦ķà¦²
Ġà¦Ĩà¦ĩà¦¨ à¦ĵ
Ġà¦Ĺà¦£ à¦¸à¦®
Ġà¦ª à¦ł
à¦·à§Łà¦ķ à¦®à¦¨
at ter
à§§à§¨ à§¦à§¦
Ġp ast
ff ic
ĠIs l
à¦Ĺ à¦¦à¦²
à¦¬à¦¨ à¦Ń
à¦ķà¦Ł à¦ĵ
à¦ıà¦® à¦Ĩà¦°à¦ıà¦«
Ġi m
Ġà¦Ĩà¦ĩ à¦ıà¦²à¦ĵà¦°
à¦ķà¦¨ à¦ľ
à§§à§¯ à§¬à§¦
à¦ķà¦¶à¦¨ à¦¸
el s
à¦Ĩà§Ł à¦ķà¦°
Ġet c
à¦¨à¦¬ à¦ķ
Ġà¦¬à§ľ à¦¹
à§§à§§à§ Ń
ÑĢÐ·ÐĴ ÑĢÐ¶
à¦® à¦¶à¦ķ
à§ģ ;
Ġà§ª à§§à§®
Ġà¦ĩà¦¨ à¦¹
-- -
Ġà§©à§¬ à§§
Ġà¦ı à¦ıà¦¨à¦¸
à¦ļ à¦ķà¦²
à¦Ń à¦«à¦²
à¦ķà¦° à¦ŀ
à¦¨à¦¨ à¦ķ
à¦¬à¦¹à¦¨ à¦®
à¦ļà§Ł à¦ĵ
Ġre p
ie ve
Ġà¦¬ à¦ļà¦¸
à¦ĵ à¦°à¦¬
Ġà¦¬à¦¨ à¦®
Ġà¦¶à§Łà¦¨ à¦ķà¦ķ
v ent
Ġà¦ıà¦ķ à¦ĺà¦£
à¦ĩà¦² à¦ľ
Ġà§§à§¯ à§©à§¬
Ġà§Ńà§® à§¦
Ġà¦«à¦²à¦¨ à¦ĵ
à¦° à¦ħà¦°
Ġà¦ĭà¦£ à¦ª
à¦² à¦¹à¦¤
à¦¡ à¦īà¦ĩà¦ķ
Ġà§ª à§©à§«
Ġà§©à§« à§¬
Ġà¦Ĩ à¦¯à¦®à¦ķ
Ġà¦¶à¦¹ à¦°à¦¸à¦¹
à¦ıà¦« à¦Ĩà¦ĩà§Ł
à¦ıà¦² à¦ĩà¦¡
in es
Ġà¦¸à¦«à¦² à¦ĵ
Ġà§©à§® à§®
Ġà§©à§® à§¬
à¦² à¦īà¦¡
Ġà¦ı à¦Ĩà¦°
à¦Ĩ à¦¸à¦¬
à¦ªà¦¨ à¦ĩ
ot e
f icult
à¦· à§ľ
ac es
ÑĢÐ¶Ð· ÑĢÐ¶
Ġà¦ıà¦ĩ à¦¦
Ġà¦Ĩà¦ĩà¦¨ à¦¸à¦ļ
à¦ļà¦ľà¦¨ à¦ĩ
à¦Ĩ à¦¶à¦ª
Ġà¦¨à¦° à¦ĵà¦¯
ĠA m
Ġà¦¶à¦ªà¦¥ à¦Ĺ
à¦ķ à¦Ĺà¦£
à¦£ à¦Ńà§Ł
à¦¦à¦° à¦ªà¦¤
Ġà¦¬à§ľ à¦¶
Ġfam ous
ĠUn iversity
Ġà¦« à¦¸à¦«à¦°
Ġà¦§ à¦¬
à§§à§¯ à§«à§ª
à§§à§¯ à§¬à§¯
Ġs ong
à¦ī à¦¹
Ġà¦ªà¦¦ à¦ĩ
........ ........
à¦¤ à¦Ľà§ľ
à§§à§¨ à§©
à¦¯ à¦ªà¦ķ
à¦ľ à¦ħ
Ġà¦¦ à¦¹à¦¨
à¦®à¦¨ à¦®
à¦Ĩà¦² à¦«
ic a
à¦¬à¦ªà¦¨ à¦ķ
Å ¡
à¦¬ à¦ľà¦°
Ġà¦ķ à¦¨à¦°
à¦¶à¦¨ à¦¸à¦ķ
Ġà§®à§Ń à§¦
ÑĢÐ·ÐĲ ÑĢÐ¶
Ind irect
à¦§ à¦ªà¦¤
al e
Ġn ation
- âĢĺ
Ġ à§į
Ġà¦® à¦ķà¦Ľ
Ġà¦¯ à¦¶à¦°
à§ĭà¥¤ âĢľ
Ġà§«à§¦ à§«
Ġà§ªà§¦ à§§
Ġm ill
Ġà¦¨à¦ĵ à¦®
Ġà¦Ĩ à¦°à¦£
ĠÑĢÐ¶Ðª ÑĢÐ¶
à§Łà¦ķ à¦¤à¦¨
à¦°à¦ľà¦¨ à¦¨à¦¸
à¦¸à¦®à§Ł à¦Ł
ĠB e
à¦® à¦ł
Ġà¦ĩ à¦¶à¦ķ
à¦¿à¥¤ :
Ġà¦ıà¦ĩ à¦ļà¦¬
Ġà§¨à§« à§¦à§¦
à§§à§¯ à§¨à§¦
à¦¤à¦ķà¦° à¦¬
' t
Ġà¦ħ à¦®à¦¤
à¦ī à¦ıà¦«à¦ª
Ġà¦ķà¦® à¦¡
à¦¤à¦ķ à¦¡
à¦Ĺà¦² à¦Ĺ
à¦Ī à¦®à¦ķ
ĠB ang
à¦°à¦² à¦ľ
Ġà¦Ĩà¦ĩ à¦ıà¦«à¦¸
Ġb ased
à¦ıà¦¸à¦¬ à¦ĩ
Ġgo ver
Ġà¦¨ à¦¬à¦°
à¦¤à¦¨ à¦ĩ
Ġà¦«à¦² à¦ĩ
à¦¼à¥¤ ïģ¬
Ġà§©à§¯ à§¯
à¦ıà¦Ĩà¦° à¦Ĩà¦°
Ġlib r
à¦ķ à¦¤à¦®
à¦¦ à¦¹à¦¨
à¦Ĺ à¦¨à¦ķ
Ġà¦ħ à¦ľà¦¨
Ġà§«à§« à§«
à¦¦ à¦°à¦¸à¦®
Ġà¦ĸ à¦°à¦¸
Ġà¦Ĩà¦ĸ à¦¡
à§ĩ âĢ¢
à¦ĸ à¦ľà¦¨à¦ķà¦Ń
Ġà¦¨à¦¬ à¦Ĺ
à¦ĩà¦ī à¦Ń
av ing
à¦® à¦¦à¦¨
à¦¯ à¦Ńà¦°
à¦· à¦¤à¦ķ
à¦¬à¦ķ à¦¶
Ġà¦ľà§Ł à¦ĵ
à¦ľà¦ª à§ľ
ÑĢÐ·ÐĿÑĢÐ¶Ð º
00 0
ÑĢÐ·Ð¯ ÑĢÐ¶
à¦¦ à¦®à¦¸
à¦ĸ à¦§
à¦¡ à¦¸à¦°
à§Łà¦¨ à¦ĩ
à¦¸à¦¨ à¦¸
Ġà¦Ńà¦¬à¦¨ à¦§à¦¸
Ġin s
Ġà¦Ĺà¦ł à¦¨à¦ķ
à¦¯à¦Łà¦ķ à¦¬
à¦¬ à¦ķà¦¤
à¦ĩà¦ķ à¦ļ
à¦ĩà¦Ł à¦¹
Ġà§Ń à§ªà§¦
à¦¨à§Łà¦¨ à¦ķà¦°
Ġà§ªà§¯ à§¯
à¦¡ à¦¦à¦²
à¦°à¦ª à¦Ł
à¦¨à¦¬ à¦ķà¦²
Ġà§§à§¯ à§ªà§¨
Ġw atch
à¦ıà¦ķà¦¦ à¦²
Ġà¦Ńà§Ł à¦Ł
Ġm us
Ġà§©à§® à§©
à§§à§§à§ ¬
à¦Łà¦¨ à¦Ń
à¦ĺ à¦²à¦ķ
Ġà§Ń à§§à§¦
ad ition
Ġbe g
v ed
Ġà¦ī à¦Ľà¦®
Ġà§ªà§¦ à§®
Ġpr act
v b
à¦°à¦ķ à¦ª
à§§à§¯ à§«à§«
Ġà§ªà§¦ à§©
à§§à§ª à§¦
à§Ł à¦¶à¦ĩ
à¦® à¦Ĺà¦¤à¦Ń
à¥¤ )
à¦ł à¦ľ
à§§à§¯ à§¬à§¬
à¦ªà¦¥ à¦ļ
à¦£à¦¬ à¦Ļ
Ġà¦Ĩà¦ĩà¦ıà¦¸à¦Ĩà¦ĩ à§Ł
Ġpe ace
Ġà¦ĵ à¦²à¦®
Ġà¦¬à¦Ľà¦° à¦ª
à¦¸à¦ķ à¦¸à¦¹
Ġà¦ıà¦¡ à¦ĵà¦¯
Ġà¦¨à¦ĵ à¦¹
Ġbir d
à¦¯ à¦Ĺà¦£
à¦ľ à¦īà¦²
Ġà¦ªà¦° à¦ª
à¦¬à¦² à¦¸à¦¹
à¦ĩà¦Ł à¦Ń
Ġs we
at ely
à¦° à¦¨à¦¨
à¦ķ à¦ļà¦°
Ġà¦Ĩ à¦ĵà§ľ
à¦ľ à¦¥
à¦¼à¦¾ )à¥¤
at a
Ġdif ficult
à§ģ à¦¾
à¦Ľ à¦ĩ
Ġà¦¨ à¦¨à¦¸
à¦ħ à¦ªà¦®
à¦¸à¦° à¦¬à¦°
Ġs un
Ġà§©à§¬ à§ª
Ġus ually
Ġfarm er
Ġà¦Ĩ à¦¹à¦¨
à¦ıà¦¸ à¦ıà¦®à¦ıà¦¸
à¦Ĺà¦£ à¦¶
ou d
Ġà§ªà§® à§§
à¦Ĩà¦ĩà¦ıà¦¸ à¦ıà¦¸
Ġwh y
p ar
Ġà¦ ¾
Ġà¦¦à¦² à¦ªà¦¤
en ed
Ġre f
Ġà¦ľ à¦²à¦ªà¦¥
à¦ļ à¦ŀ
Ġà¦ªà¦° à¦ļ
Ġà§® à§ªà§¦
ÑĢÐ·Ð¯ ÑĢÐ·ÐĹ
à¦® à¦¹à¦¸
Ġà¦¬à§ľ à¦ķ
Ġà¦īà§İ à¦ķà¦Ł
à§§à§¯ à§¬à§¨
Ġà¦Ĩà¦ļà¦°à¦£ à¦Ĺà¦¤
à¦ķà¦ĵ à¦®
uc k
à¦°à¦¸ à¦¦à¦°
Ġà§©à§ª à§¬
Ġre qu
Ġà§¬à§¬ à§ª
ĠD o
Ġ ÂłÂłÂłÂł
Ġà¦ļà¦Ł à¦ľà¦²à¦¦
à¦ļà¦ķ à¦ĵ
à¦¨à¦ľà¦¨ à¦¸à¦¹
Ġà¦Ķ à¦ľ
Ġà¦Ĩà§Ł à¦¸
on t
oun t
, ''
. :
à¦¤ à¦ĵà§Ł
à¦ī à¦¬à¦²
à¦ħ à¦ľà§Ł
Ġà¦Ŀ à¦°à¦²
Ġm ag
Ġr ain
à¦ĵ à¦°à¦ª
à¦ĩà¦¨ à¦¸à¦¨
à¦ħ à¦²à¦°
à§§à§¯à§Ń à§Ń
os itive
à¦¿ à§ĩ
à¦¸ à¦ķà¦Ł
Ġà§ª à§§à§¬
à¦ıà¦¸ à¦ıà¦®à¦ĩ
Ġà¦¬à§ľ à¦®
à¦ķà¦¨ à¦Ń
ÑĢÐ¶Ð ©
à¦ıà¦² à¦ıà¦¨à¦ľ
Ġm akes
Ġà§©à§ª à§ª
Ġj oin
à¦ıà¦« à¦ķ
ab les
ĠâĢĶ ?
à¦Ĺ à¦ĵà§Ł
à¦¹ à¦¯à¦°à¦¤
Ġà¦ļ à¦¨à¦®à¦¨
Ġà¦¸à¦® à¦ª
âĢĻ ?
à¦°à¦® à¦¸
Ġà§©à§® à§¨
ĠInd ia
à¦° à¦Ĩà¦ĩà¦¨à¦ľ
à¦¨ à§Łà¦ķ
à¦°à¦¸ à¦°à¦ķ
à¦ķà¦² à¦Ļ
à¦ĩà¦° à¦«
Ġa ff
Ġà§©à§® à§ª
ĠM atch
ĊÂłĊÂł ĊÂł
ter rogative
Ġgr amm
ÑĢÐ¶Ð¬ ÑĢÐ¶
1 8
à¦¨ à¦ħà¦¨
Ġà¦¬ à§Łà¦°
à¦°à¦¤ à¦¯
Ġà¦īà¦¨ à¦¸à¦¤
à§§à§¯ à§¬à§Ń
Ġà§Ńà§¯ à§¦
Ġab ove
Ġà§ª à§¨à§§
à¦Ĩà¦® à¦ľ
Ġà§©à§¬ à§©
Ġà¦¶à¦°à§İ à¦ļà¦¨
Ġagain st
à¦° à¦ıà¦¬
Ġà¦® à¦²à¦¦
Ġà¦Ĺ à¦¨à¦¸
à¦¼ à§Ģ-
Ġà¦ĵà¦ĩ à¦Ń
à¦®à§Ł à¦²
Ġà§©à§Ń à§§
ix es
w ard
à¦¯à¦¬ à¦ĩà¦¯
osp ital
Ġre al
Ġà§¬à§Ń à§¦
à¦¨à¦¬ à¦¹
Ġà§©à§¬ à§¨
à§ª à§«à§¦
Ġà§ª à§¨à§¨
à¦ķà¦¦ à¦«
Ġà¦ªà¦¥ à¦ª
à§§à§¯ à§ªà§¦
at s
Ġpro gr
Ġpar agraph
à¦· à¦²
Ġà¦Ĺ à¦¸
à¦¤à¦¬ à¦²
à¦ıà¦®à¦ĵ à¦ĩà¦ī
Ġgover nment
C l
à¦Ľ à¦Ń
à§ĩà¦¾ âĢĮ
Ġà¦ĸà¦¬à¦° à¦Ĺ
à§ĩ? :
à¦°à¦¹à¦® à¦¤
à¦¤ à¦¸à¦ķ
à¦ĩ à¦°à¦ª
à¦°à¦§ à¦°à¦ĵ
Ġà§§à§¯ à§©à§¯
à¦¹à¦¨ à¦ĵ
Ġam ong
Ġà§ª à§§à§Ń
Ġà§Ń à§¬à§¦
Ġex ercise
ĠïĤ ´
à¦ıà¦«à¦ı à¦ĵ
n ew
Ġà¦® à¦ľà¦®
à¦¶ à¦£
Ġà¦ħà¦¨ à¦®à¦¨
Ġ ;
Ġà¦ħ à¦¹à¦®
à§Łà¦¨ à¦Ĺà¦ŀ
Ġà§ª à§§à§¨
Ġà§¯ à§¨à§¦
à§ĭà¥¤ #
à¦īà¦² à¦Ĺ
à¦¸ à§Ł
Ġà¦° à¦ĩà¦ļ
Ġà¦² à¦Łà¦ķà¦¨
Ġt est
à§§à§¯ à§«à§®
à§§à§¯ à§«à§¬
Ġs leep
Ġj ourn
i er
à¦¯ à¦¬à¦¨
Ġà¦¸à¦®à§Ł à¦ľ
à¦ªà¦ķ à¦¹
à§§à§¯ à§¦à§¦
Ġw alk
Ġg ener
tr a
à¦¾ âĢ¦
à¦° à¦ĩà¦²
à¦Ł à¦°à¦ļ
à¦¹ à¦ľà¦®
à¦¹ à¦ľà¦¨à¦ķà¦Ń
Ġà§« à§¨à§©
ÑĢÐ¶Ð¸ ÑĢÐ·ÐĽ
Ġj ob
Ġbr ought
Ġent ertain
? âĢĺ
m r
à¦ķ à¦¬à¦ķ
à¦ļ à¦°à¦«
à¦°à¦¹à¦£ à¦¸à¦¹
Ġà¦ıà¦¨ à¦Ĩà¦ĩà¦ı
Ġà¦ľ à¦®à¦²
à¦ıà¦¨ à¦ıà¦¸à¦Ĩà¦ĩ
com e
Ġ----- -
à§ľ à¦¬à¦ķ
à¦ĩà¦² à¦ĵ
à¦ĩà¦Ł à¦²
à¦Ĩà¦° à¦Ĩà¦ĩà§Ł
à¦ķà¦ª à¦ŀ
Ġà§©à§Ń à§Ń
Ġà¦Ŀà¦¨ à¦Ŀà¦¨
o ot
an u
Ġà§¬à§¯ à§¦
Ġà¦ķà¦®à¦¨ à¦ĵà¦¯
à¦ĩ à¦¶à¦°
Ġà¦īà¦ª à¦¦à¦ª
à¦°à¦ª à¦²
ass ive
Ġà¦° à¦¸à¦¨
à¦£ à¦«à¦²
à¦°à¦¤ à¦¥
Ġà¦Ĩà¦° à¦ıà¦ķ
à¦¸à¦® à¦¬
Ġà§©à§® à§Ń
Ġà¦° à¦¸à¦¬
à§§à§¦ à§¨
Ġà§ªà§« à§¬
Ġà¦Ĩà¦° à¦¬à¦¦
à¦¥à¦² à¦ªà¦¥
à¦¬à¦ĩ à¦¯
Ġd est
ÑĢÐ·ÐĿÑĢÐ¶Ð µÑĢÐ¶
sohrab hassan
à¦Ĩ à¦¨à¦¤
Ġ ÂłÂłÂłÂłÂł
Ġà¦ĸ à¦°à¦¤
à¦¾à¥¤ âĢĶ
Ġà¦Ŀ à§ľà¦¬
à¦¯à¦° à¦ŀ
Ġà¦Ĩà¦īà¦Ł à¦«
Ġč ĠĠĠĠ
Ġstr ong
o on
à§§à§¦ à§©
à¦¡à¦¨ à¦ª
Ġth ing
Ġse en
à§¯à§¯ à§¯
à¦£ à¦ķà¦²
Ġà¦¨à¦¬ à¦¯
Ġà¦®à¦£ à¦ª
Ġg u
ïĤ ¾
Ġà¦ĵ à¦ķà¦²
à¦« à¦¥
à¦¤à¦® à¦¸à¦ľ
Ġà¦Ĩà¦« à¦Ł
Ġà¦§à¦¨ à¦¸à¦®
à¦ľà¦Ĺ à§İ
Ġà§©à§¬ à§¯
Ġcont in
M y
à¦¨ à¦ıà¦ľ
à¦Ĺ à¦ªà¦¨
à¦Ĺ à¦²à¦®
Ġà¦¹à§Ł à¦¬à¦²
à¦°à¦¶ à¦°
à¦¯à¦ķ à¦¤
Ġà¦¸à¦¹ à¦¦à¦ª
Ġà¦ĩà¦Ń à¦Ł
Ġrem ain
Wh at
ĠĠĠĠĠĠĠĠĠĠĠĠĠĠĠĠĠĠĠĠĠĠĠĠĠĠĠĠĠĠĠĠĠĠĠĠĠĠĠĠĠĠĠĠĠĠĠĠĠĠĠĠĠĠĠĠĠĠĠĠĠĠĠĠ ĠĠĠĠĠĠĠĠĠĠĠĠĠĠĠĠ
č ĠĠĠĠ
à¦°à¦¸ à¦ł
Ġt ree
à¦¬à¦¤ à¦ª
re hens
at ives
Ġà¦ļà¦ķ à¦ª
à§§à§® à§¦à§¦
Ġà§¯à§® à§¦
Ġà¦¨à§Łà¦¨ à¦ķ
Ġph r
v w
Ġà¦® à¦ļ
à¦§ à¦°à¦¤
à¦¸à¦¬ à¦Ĺ
Ġs er
Ġà¦Ńà§Ł à¦ĵ
à¦ļ à¦Ĺà¦¤
Ġgr ou
à¦Ĺ à¦§
à¦ī à¦°à¦®
à¦¸à¦¨ à¦Ĺ
à¦°à¦®à¦£ à¦ĵ
à§§à§¦ à§«
Ġà§©à§Ń à§ª
ÑĢÐ·ÐĹÑĢÐ¶Ð Ĺ
Ġčĉ ĠčĠĠĠĠ
à§ĩà¥¤âĢĻ âĢĻ
Ġà¦¨à¦° à¦¡
Ġvar ious
y ing
à§Ł à¦£à¦¤
Ġà§ªà§¯ à§¬
à¦¬ à¦ķà¦²
or ies
à¦īà¦ª à¦²à¦ķ
st ru
à¦Łà¦®à¦¹à¦² à¦Ĺ
Ġà¦¶ à¦°à¦®
Ġà¦ıà¦² à¦Ń
Ġà¦ħà¦ª à¦¶à¦¨à¦Ł
Ġà¦Ŀ à¦°à¦¤
à¦¶à¦² à¦ĵ
à¦¹ à¦ĭà¦£
à¦ªà¦° à¦ªà¦°
Ġà§©à§ª à§©
Ġcult ure
f or
à¦°à¦£ à¦¨
Ġà§« à§©à§¨
Ġà¦°à¦¹à¦® à¦¤à¦ª
à¦¨ à¦ªà¦ķ
à¦¬à¦° à¦¨
Ġh are
Ġà¦Ĩà§Ł à¦¬
Ġs at
à¦®à¦°à¦¤ à¦¦
) âķĽ
a it
e gative
Ġà¦¤ à¦¹à¦®
à¦·à¦£ à¦Ĺà¦£à¦¨
Ġà§¬ à§¨à§ª
Ġà§§à§¯ à§¨à§¯
Ġà§§à§ª à§¦à§¦
Ġà¦ĵà¦ł à¦¬à¦¸
Ġà§®à§® à§¦
2 2
Ġà¦ķ à¦ĩà¦¤
Ġà¦® à¦ķà¦²
in s
Ġà¦ıà¦ıà¦« à¦ıà¦®
Ġà§«à§¯ à§«
à¦® à¦ªà¦¦
à¦ķà¦®à¦¨ à¦ĵà§Ł
Ġreg ular
N o
à¦ıà¦¨ à¦ıà¦²à¦¡
à¦Łà¦¬à¦² à¦Ł
oc r
Q uestion
à¦ķ à¦ªà¦Ł
à¦ĩ à¦Ŀ
à¦Łà¦¬à¦² à¦ĩ
Ġv al
Ġbirth day
s el
à¦Ł à¦ħ
Ġà¦¦ à¦ĩà§Ł
Ġà§§à§¯ à§©à§¨
Ġà§©à§Ń à§¨
à¦ķ à¦¤à¦¨
à¦ķ à¦ķà¦Ł
à¦¤ à¦§à¦¨
à¦¤ à¦ļà¦ķ
à§ĩà¥¤ âĢ¢
à¦¬à¦¨ à¦Ĺ
Ġà¦¹à¦² à¦«
à¦īà¦¸ à¦«
à¦ķà§ľ à¦¸
Ġà¦ķ à¦ĵ
à¦¯ à¦¤à¦°
Ġà¦ı à¦ıà¦¨
à¦¹ à¦Ĩà¦²à¦®
à¦¤à¦° à¦ªà¦¶
Ġà§ª à§§à§©
Ġp unct
Ġpo et
à§Ł à¦°à¦¸à¦¹
à§ĩ, âĢĻ
Ġw ays
ou th
Ġà§¬à§Ń à§«
Ġ `
Ġ( +
Ġà§©à§ª à§Ń
ÑĢÐ¶Ð¸ ÑĢÐ·ÐĳÑĢÐ¶
Ġà¦Łà¦ª à¦ħà¦°
à¦¸à¦ªà¦¨ à¦¸
Ġà¦ĩà¦¸à¦ķ à¦¨
Ġsoc ial
Ġà¦ĵ à¦«
Ġà¦ľà¦¨ à¦¯
à¦ķà¦Ł à¦ľà¦¨à¦ķ
Ġà§« à§©à§®
Ġà¦¶à¦¤ à¦¶à¦¤
Ġà¦ļà¦° à¦ľ
Ġà¦īà¦ªà¦° à¦ĵ
Ġà§Ńà§Ń à§¦
Ġme m
n a
à¦¦ à¦¶à¦¨
à¦ķà¦° à¦¨
Ġa v
n u
Ġà¦® à§ľ
à¦ĩ à¦¬à¦¨
à¦ł à¦¯
à¦·à¦£ à¦ľà¦¨
an a
Ġà§©à§Ń à§¬
à¦¬à¦ľà¦° à¦Ļ
à¦¨ à¦°à¦ķà¦®
à¦Ń à¦²à¦ªà¦®
Ġà¦ıà¦ķ à¦ĸà¦£
à¦Ĩ à¦¦à¦®
Ġà¦ıà¦° à¦¨
à¦®à¦ľ à§Łà¦¨
aus es
) .(
j v
à¦Ł à¦²à¦Ł
à¦¥ à¦«
Ġà¦¶ à§Ł
à§§à§¯ à§ªà§¯
in c
ÑĢÐ·Ð ¬
ic es
Ġteacher s
g le
à¦¶ à¦ĵà§Ł
Ġà¦ı à¦ıà¦¨à¦Ĩà¦ĩ
à¦¡à¦ī à¦ĩà¦Ł
a id
Ġà§§à§§ à§¦à§¦
à¦¥à¦² à¦Ĺ
à§§à§¯ à§«à§©
à¦Łà¦® à¦£
à¦Ĩà¦¦ à¦®à¦¦
Ġà§©à§Ń à§®
Ġwor king
f l
Ġà¦¬ à¦īà¦¬
à¦§ à¦ªà¦¥
à§Łà¦® à¦Ĺ
at ical
Ġth ose
Ġev ents
ÑĢÐ¶Ð· ÑĢÐ·ÐĿÑĢÐ¶Ð¿
à¦° à¦Ŀà§ľ
à¦¨ à¦ħ
Ġà§¯ à§©à§¦
Ġà§¬à§ª à§©
ÑĢÐ¶Ð¼ ÑĢÐ·ÐĹÑĢÐµÐ´
olog y
Ġà¦ªà¦¥ à¦¯
Ġd el
Ġà§©à§« à§®
Ġà§©à§¬ à§¬
Ġà§«à§Ń à§«
ir t
st em
Ġhelp s
ĠĠĠĠĠĠĠĠĠĠĠĠĠĠĠĠĠĠĠĠĠĠĠĠĠĠĠĠĠĠĠĠĠĠĠĠĠĠĠĠĠĠĠĠĠĠĠĠĠĠĠĠĠĠĠĠĠĠĠĠĠĠĠĠĠĠĠĠĠĠĠĠĠĠĠĠĠĠĠĠ Ċ
on y
à¦¡à¦² à¦ħà¦°
Ġà§©à§¯ à§§
Ġe mp
st and
à§Ł à¦¸à¦®
Ġà¦® à¦°à¦ļ
à¦· à¦¥
à¦ĵ à¦¤à¦°
ÑĢÐ¶Ð¸ ÑĢÐ·ÐĿÑĢÐ¶Ð¿
à¦®à§Łà¦ķà¦° à¦Ń
à¦¶ à¦¤à¦Ń
Ġà¦Ĩà¦® à¦¡
Ġà¦Ĩà¦¨ à¦®à¦¨
à¦¸à¦¬ à¦ĸ
à¦īà¦¨ à¦ķ
ÑĢÐ¶Ð ¿
Ġc ut
Ġh ours
ĠS y
Ġ Ã
à¥¤ ïģ®
à¦ļ à§Łà¦ķ
Ġà¦ĩ à§Łà¦¨
Ġà¦īà¦ĩ à¦¸à¦ķà¦¨à¦¸
ĠM s
Ġv oice
à¦² à¦Ĩà¦¬
Ġà¦¤ à¦Łà¦¸
Ġà§ª à§ªà§«
à§¦à§¦ à§¦à§¦
à¦¶à¦² à¦Ĺà¦¤à¦Ń
Ġà§©à§Ń à§¯
Ġà§ªà§¯ à§®
Ġj ust
/ -
m y
Ġà¦® à§ľà¦ķ
Ġà¦ĺà¦¨ à¦ĺà¦Ł
Ġà§ªà§¯ à§¨
à¦£à¦Ĺ à¦¹
Ġexam ination
à¦¬ à¦ī
Ġà¦ķ à¦Łà¦ķ
Ġà¦ļ à¦°à¦Ł
Ġà¦¹à§Ł à¦Ľ
à¦Ĺà¦² à¦¹
Ġà§ªà§ª à§©
Ġà¦°à¦¤à¦¨ à¦ķ
Ġpr ot
à¦¦à¦°à¦® à¦¹à¦²
1 7
à¦° à¦Ĩà¦®
à¦ķ à¦īà¦²
à§Ģ âĢĿ
à¦ī à¦ıà¦¸
à¦Ĩà¦ĩà¦¨ à¦Ł
Ġà¦ħà¦¨ à¦ķ
à¦Ńà¦¬ à¦ĵ
Ġà¦ĺà¦° à¦Ľ
à¦°à¦®à¦£ à¦Ł
Ġà§«à§¯ à§¯
âĢĻ :
à¦ªà¦¨ à¦¸
à¦¸à¦¹ à¦ķà¦°
Ġm et
ow s
ut es
Ġà¦¸à§ľ à¦ķà¦¦
à¦ĵ à¦ķà¦°
à¦ī à¦ķà¦ķ
à¦ķà¦¤ à¦Ł
Ġà¦ķà¦°à¦¬ à¦ĩ
Ġà§® à§¨à§«
Ġà¦ľà§Łà¦¨ à¦¬
Ġcons ider
Ġchang es
rehens ion
Ġà¦® à¦²à¦¤
à¦ĩ à¦Ĺà¦ŀ
Ġà¦ļ à¦°à¦¶
à¦·à§Ł à¦¸à¦¹
à¦¨à¦¸ à¦°à¦ķ
à¦°à¦ĩ à¦īà¦¨
o ad
à¦¨ à¦ĩà¦¨
Ġà¦ª à¦łà¦¨
à¦¸à¦¦ à¦ĵ
à¦ıà¦¬ à¦Ľà¦°
ab i
ĠIn tern
lad in
Ġà¦Ĩà¦ĩ à¦īà¦¬
Ġp oss
ĠF alse
à¦¦à¦°à¦¸ à¦ľ
à¦Ľ à¦ĺ
Ġà§ª à§§à§§
à¦¨à¦¬ à¦¦à¦²
Ġà§§à§¯ à§ªà§§
Ġà¦ªà¦Ł à¦ªà¦°
Ġà§ªà§Ń à§¬
Ġcommun ication
Ġtre es
irm ative
h ood
à¦ļ à§Łà¦¦
Ġà¦ļ à¦¯
à¦¸à¦® à§Łà¦ķ
ĠÑĢÐ¶ÐŁ ÑĢÐ¶
- à¦¿
N A
à¦ķ à¦īà¦¤
Ġà¦¬ à¦ĩà¦¬
à§ľ à¦¸à¦®
ĠN ew
à¦Ł à¦ĺ
à¦£ à¦ªà¦¤
Ġà¦ħà¦¸ à¦Ń
Ġà¦¬à§ľ à¦ªà¦°
ÑĢÐ¶Ðª ÑĢÐ¶
à¦Ł à¦ĩà¦¨
à¦Ĩà¦ĩà¦ĩà¦ī à¦¸
à§Łà¦¸ à¦°à¦ķ
Ġà§ªà§ª à§ª
ĠH er
à¦¥à¦ª à¦°à¦¤
ĠQ uestion
Ġà¦¸ à¦ľà¦¨
Ġf un
Ġà¦ľ à¦Ĺà¦®
Ġà¦ī à¦ĩà¦Ĺ
à¦ľà¦¨ à¦®
Ġà§«à§¦ à§¬
Ġs erv
Ġf air
à¦ıà¦¸à¦ĩ à¦ıà¦¸
Ġ1 6
if t
à§į +
à§ľ à¦¨à¦¬
à¦°à¦ķ à¦ĺ
Ġà¦ħà¦° à¦Ĺ
Ġà§« à§©à§«
à¦Ī à¦ĸ
Ġdo ing
Ġà¦Ĩ à¦ªà¦¦
à¦Ĺ à¦ľà¦Ł
Ġà¦ķà¦° à¦¬à¦°
Ġà¦¬à¦¨ à¦ķ
Ġt ort
Ġà¦Ĩà§ľ à¦ª
Ġà¦¬Ã¸ à¦ķ
Ġà¦ªà¦° à¦ľ
Ġà§©à§¯ à§®
Ġà¦īà¦ªà¦ķà¦°à¦£ à¦Ĺ
Ġà¦ħ à¦ĩà¦¬
Ġà¦ªà¦¥ à¦Ĺ
à¦«à¦Ł à¦¬
Ġp m
---- -
ÑĢÐ¶Ð´ ÑĢÐ·ÐĿÑĢÐ¶
.... ..
à¦° à¦¨à¦¤
à¦°à¦® à¦ĩ
Ġà¦Ĩà¦ľ à¦®à¦ķ
Ġà§«à§¦ à§ª
T here
à¦¬ à¦®à¦°
à¦¸ à¦ħ
Ġà¦¹à§Ł à¦ĩ
Ġà¦ĸ à¦ĩ
âĢĻ .
Ġà¦ıà¦¤ à¦¸à¦¬
Ġà§® à§§à§¦
à¦Ĩà¦° à¦ıà¦°
à¦£à¦¬ à§Łà¦¸
Ġd ist
et ency
Ġare a
e xt
à¦® à¦¬à¦¨
Ġà¦ķ à¦ĩà¦²
à¦· à¦«
Ġà¦Ł à¦¨à¦¸
à¦¿à¦Ĥ âĢĻ-
à¦²à¦ķ à¦Ĺ
ĊĊ Ġ
Ġà§ªà§¦ à§ª
ect ion
Ġlar ge
ÑĢÐ¶Ð© ÑĢÐ·ÐĿÑĢÐ¶Ð
e ed
Ġà¦Ĩ à¦ľà¦¨
à¦£ à¦ªà¦¶
à¦ģ -
à¦¬à¦° à¦ªà¦¤
à¦ĩà¦¨ à¦īà¦¦
à¦°à¦¬ à¦ŀ
Ġà¦ıà¦® à¦ĵ
à¦«à¦² à¦Ł
Ġà¦¬à¦ĩ à¦¸à¦¹
khan bd
à¦ĩ à¦ıà¦«
à¦¬à¦° à¦°
Ġà¦¸à¦¨ à¦®
Ġgo es
à¦·à¦£ à¦¦
ĠÑĢÐ¶Ð ·ÑĢÐ¶
à§ĩ à¦ĥ
à¦ĩ à¦īà¦²
Ġs umm
Ġ z
à§ľ à¦¨à¦ķ
Ġà¦ĸ à¦Łà¦ķ
Ġà¦¬à¦° à¦ªà¦ķ
à¦Ĩà¦° à¦ıà¦¸à¦ıà¦¸
Ġan g
Ġà§©à§¯ à§Ń
ĠTr ue
Ġphys ical
Ġsim ple
Ġà¦Ĩ à¦ī
à¦Ŀ à¦ŀ
à¦¦à¦² à¦ĩ
Ġà¦ļà¦° à¦ľà¦¬
Ġà§ªà§® à§«
Ġst and
Ġte ach
à¦ıà¦¨à¦ıà¦« à¦ª
Ġà¦ĩ à¦ķà¦¨
Ġg ame
Ġe ffect
Ġà§ªà§ª à§Ń
ĠCh oose
Ġ19 7
à¦¿ *
Ġà¦¬ à¦Ĺà¦²
à¦£ à¦®à§Ł
Ġà¦®à¦¨ à¦®à¦¤
à¦ªà¦ķ à¦¸à¦¹
Ġà¦ĩà¦¨ à¦ª
Ġà§ªà§¬ à§Ń
Ġtr adition
ech n
à¦° à¦ĩà¦¨
à¦Ł à§Łà¦¨
Ġà§ª à§©à§¨
Ġà¦ĩà¦¤ à¦¸
Ġà¦¦à¦°à¦ķ à¦·
à§§à§® à§¦
Ġà§ªà§« à§¨
est er
Ġsport s
f ort
Ġà¦° à¦°
Ġà¦¬à¦° à¦ĩ
à¦ħ à¦¸à¦¨
Ġà§ª à§¨à§®
Ġà¦¨à§Ł à¦¬
à¦ķà¦¤ à¦²
à¦¯à¦¤ à¦Ł
Ġà¦ħà¦ľà¦Ĺà¦° à¦Ł
Ġinterest ing
à¦ķ à¦ĵà¦Ń
Ġà¦Ń à¦²à¦«
Ġà¦Ń à¦°à¦¤à¦¨
Ġà¦ĩà¦¨ à¦ļà¦¨
à¦īà¦ľ à¦«
à¦Ĩà¦ĩ à¦¤
Ġa ir
it a
Ġà¦ıà¦ĩà¦ļ à¦Ĩà¦°
à¦ıà¦¨à¦ıà¦¸ à¦ı
vis ion
à¦¬à¦¨ à¦Ńà¦°
Ġà¦ıà¦Ł à¦°
à¦Ĩà¦« à¦ľ
Ġlik es
Ġind epend
Ġà¦¬ à§İà¦¸à¦°
à¦ľ à¦ªà¦¤
à§§à§¯ à§«à§¯
Ġex t
à¦ľà¦¨à¦Ĺà¦£ à¦ķ
av y
Ġad v
d om
à§Ł à¦Łà¦¸
à¦²à¦Ń à¦ª
Ġh ospital
ĠÑĢÐ¶Ð Ĺ
Ġà¦ķà¦¸ à¦®à¦¸
sel ves
A R
à¦Ĥ )
Ġà§¬ à§©à§¨
à¦¨à¦Ĺ à¦°à¦¸à¦¹
Ġà¦ıà¦ľ à¦¹
à§§à§¨ à§«
Ġg ave
ĠA ladin
ol l
à¦Ń à¦ĩ
Ġà¦ļ à¦°à¦¨
à¦ŀ à¦ķ
Ġm il
Ġl ost
à¦Ĩà¦ĩà¦ķ à¦¨
ĠOn ce
r on
à¦¿ ]
à¦ĵ à¦ħà¦§
Ġà¦Ĩà¦° à¦¨
Ġà§§à§© à§¦à§¦
à§§à§¦ à§ª
Ġhe ad
) à¥¤âĢĻ
à¦¨ à¦Ĩà¦®
à¦® à§Łà¦¸
à¦Ľ à¦ķà¦ĩ
Ġà¦ĵ à¦°à¦ķà¦®
à¦¼à§ĩ âĢĻ
à¦°à¦® à¦²
à¦¸à¦ķ à¦¨
Ġà§§à§¬ à§¨à§¨à§¨
Ġà§ªà§Ń à§§
ĠW ith
ĠM ay
Ġ1 3
? "
Ġà¦Ĩ à¦īà¦Łà¦°
à¦¶ à¦ªà¦°à¦®
Ġ1 1
Ġpl aces
Ġà¦®à¦¦à¦¨ à¦®
Ġà¦Ĺà¦²à¦¦ à¦ĺà¦°
c o
f e
à¦¶ à¦ªà¦²
Ġà¦¨ à¦ĩà¦®
à¦ĸ à¦¶
Ġà¦ī à¦¥à¦²
Ġà¦ıà¦¸ à¦ıà¦¨à¦¸
Ġn ational
Ġà§©à§¬ à§®
Ġà§©à§¯ à§¨
Ġwom an
ĠAr ticle
mr khanbd
D irect
Ġà¦¸ à¦¬à¦°
à¦¾- à¦¾
ĠS chool
Ġtr av
Ġà¦ıà¦®à¦ıà¦² à¦ıà¦®
» ÑĢÐ¶
à¦¬ à¦ļà¦ķ
Ġà¦ķà¦° à¦¸
à¦ķà¦¨ à¦¸à¦¹
Ġe le
n er
à¦ļ à¦ľ
Ġà¦ıà¦ķ à¦¡
Ġà¦² à¦£
Ġà¦ľà¦¨ à¦Ń
à¦°à¦¬ à¦Ĺ
à§Łà¦¸ à¦Ļ
Ġà¦Ĺà§ľ à¦Ľ
à§§à§¯ à§«à§Ń
Ġà§¦ à§§à§¬
Ġà§©à§¯ à§¬
c ess
i o
à¦ľ à¦ķà¦ķ
à¦ĩ à¦°à¦¤
Ġà¦Ĩà¦® à¦¤
à¦°à¦¸ à¦Ł
Ġà§« à§§à§¬
à¦ļà¦® à§İà¦ķ
Ġà¦® à¦¦à¦ª
à¦¸à¦² à¦ĸ
à§Łà¦ķ à¦®
Ġc o
w ith
à¦² à¦īà¦¤
à¦² à¦¥à¦Ń
à¦£ à¦¤à¦®
ĠâĢĺ âĢľ
à¦¶à¦¨ à¦¦
à¦²à¦¤ à¦ķà¦ķ
à¦·à¦¤ à¦ļ
Ġà§ªà§® à§¨
us m
ly mp
à¦¯à¦ĸà¦¨ à¦ĩ
ÑĢÐ·ÐĹÑĢÐ¶Ð« ÑĢÐ·ÐĹÑĢÐµÐ´
Ġgramm atical
! )
Ġà¦¹ à¦Łà¦¤
à¦ī à¦°à¦¨
à¦°à¦® à§Ł
à¦°à¦¸ à¦®à¦°
Ġà§® à§¬à§¦
à¦·à¦¦ à¦Ĺ
à¦²à¦Ł à¦¸
Ġà§ªà§¯ à§«
In terrogative
g y
à§Ģ (
Ġà¦° à¦¹à¦¨à¦ª
à¦ľà¦¨ à¦¶à¦ķ
Ġt y
ro ss
Ġpre position
à¦ĩ à¦²à¦¨
à¦¸à¦¨ à¦ĩ
Ġà¦¬à§Łà¦¸ à¦ĵ
à¦®à¦ª à¦²
Ġà§ªà§¬ à§ª
con om
ĠÑĢÐ¶ÐŁÑĢÐ¶Ð¥ ÑĢÐ¶Ð¯ÑĢÐ¶
Ã į
à¦¬à¦² à¦Ł
Ġà§ªà§© à§ª
Ġà§ªà§Ń à§Ń
Ġà§«à§ª à§¨
à¦Ĩà¦Łà¦ķ à¦¦
ist an
m a
à¦®à¦² à¦¤
ĊĊ ĠĊ
Ġà§¯ à§§à§§
Ġà¦ıà¦¨ à¦ıà¦¸à¦ı
Ġà§¬à§¦ à§¬
à¦¸à¦°à¦£ à¦ķ
Ġà§«à§® à§«
Ġfiel d
µ ÑĢÐ·ÐĹ
à¦° à¦Ĩà¦¹
à§ģ âĢĭ
Ġà¦ķ à¦²à¦¤
Ġà§« à§¨à§¨
Ġà§¬ à§§à§¨
à¦¬à¦ķ à¦ĵ
à¦Ĩà¦ĩ à¦ıà¦«à¦¸
Ġà¦¨à¦¬ à¦Ĺà¦Ļ
à¦Ĩà¦ľ à¦ĵ
Ġà§ªà§© à§¬
ak ing
ĠC O
Ġor gan
Ġexp ress
2 01
à¦° à¦īà¦¨
à¦· à¦¦à¦¸
Ġà¦¦à¦² à¦¤
in ed
Ġà§ªà§¨ à§¬
Ġà§ªà§¯ à§§
Ġint ro
B C
à¦® à¦¬à¦²
à¦¶ à¦ªà¦°
à¦£ à¦°à¦¸
à¦°à§Ł à¦¹
à¦Ĩà¦° à¦Ĩà¦°
à¦² à¦ļà¦¨
Ġà¦¡ à¦¬à¦²
à§İ à¦ªà¦¦
à¦²à¦¨ à¦¶
Ġà§ªà§« à§Ń
Ġà§ªà§® à§Ń
Ġà§ªà§© à§®
un a
à¦¾' à¥¤
one e
ist s
Ġà¦ıà¦¸à¦ı à¦²à¦¸
Ġà¦¦à¦®à¦ķà¦² à¦ķà¦°
Ġà¦ĭà¦£ à¦ĵ
Ġsub stitution
à¦¥ à¦ĭà¦£
Ġà¦¸à¦® à¦¶
à¦¹à¦°à¦£ à¦ĵ
à¦¸à¦«à¦Ł à¦ĵà§Ł
our ce
Ġrem ember
Ġà¦¶ à¦¤à¦°à¦ŀ
à§§à§« à§¦à§¦
Ġà§«à§Ń à§©
Â¯ à§į
à¦ı à¦ıà¦®à¦ıà¦ĩà¦ļ
à§§à§¯ à§¬à§«
Ġà§«à§¬ à§«
Ġà§Ńà§® à§¬
ang onee
Ġà¦ĩà¦ķà¦° à¦ļ
usm angonee
° ÑĢÐ¶
à¦Ń à¦°à¦¸
à¦¡ à¦īà¦ĩà¦¨
Ġà¦ī à¦Ĺà¦°
Ġà¦« à¦ĵà¦ľ
à¦ľà¦¨ à¦Ń
à¦°à¦¸ à¦¬à¦ķ
à¦ĺ à¦ľ
Ġà§¬ à§§à§¬
Ġm ouse
à¦īà¦ĩ à¦ıà¦«
Ġà¦ĩà¦Ľ à¦¹
ĠÑĢÐ·Ð ·
à§Ł à¦ĺ
à¦ĩ à¦ľà¦¨à¦ĩ
à¦¡ à¦ªà¦¤
à¦ī à¦Ĩà¦ĩà¦ıà¦¸
Ġà§ª à§¨à§©
à§ĩ- -
ÂłÂłÂł Ġ
ĠM ake
Ġbe h
Ġà¦ħ à¦ĩà¦Ľ
Ġà¦ıà¦® à¦ıà¦«à¦ıà¦¸
Ġs on
Ġp i
Ġv iii
à¦Ĩà¦°à¦ĩ à¦¬
à¦Ĩà¦ĩà¦ıà¦® à¦ĩà¦¡
à¦°à¦ķ à¦ĵ
à¦¾à¥¤ ...
à¦ľà¦¨ à¦ķà¦°
à¦Ĩ à¦°à¦®
à¦°à¦® à¦Ĺ
Ġà¦®à¦¹ à¦°à¦®
Ġà¦«à¦² à¦Ĺ
à¦ķà¦ľà¦¨ à¦¸à¦¹
à¦ıà¦ĩ à¦¬
à¦ħà¦Ń à§Łà¦¨à¦Ĺà¦°
Ġfam il
à¦¦ à¦ªà¦¨
Ġà¦ıà¦¸ à¦Ń
à§Łà¦® à¦®
Ġà¦Ĩà¦Ł à¦¤à¦²
Ġd one
à§įâĢĮ ,
à¦¬à¦°à¦£ à¦ķ
Ġà¦¦ à¦¹à¦Ĺ
Ġà¦¶ à¦ľ
à¦¨à§Łà¦¨ à¦ĩ
Ġà¦Ĩà¦ĩ à¦ıà¦ĩà¦ı
Ġà§ªà§ª à§¯
Ġà§ªà§¯ à§©
à§Łà¦Ł à¦Ĺà¦ŀ
Ġro ad
Ġplay ing
Ġpop ulation
à¦¦ à¦¬à¦¨
Ġà¦Ĺ à¦ľà¦¬
Ġà¦¸à¦° à¦ĵà¦¯
à¦¬à¦¦ à¦°à¦¬
Ġà§ªà§¦ à§¨
Ġà¦®à¦¦ à¦¸à¦¹
Ġpoll ution
à¦¤ à¦®à¦¤
à¦Ĩ à¦Łà¦²
à¦Ĺà¦° à¦ĸ
ÂłÂłÂłÂłÂłÂłÂłÂłÂłÂłÂłÂłÂłÂłÂłÂł Âł
à§ĩ... à¥¤âĢĻ
Ġfru its
à¦® à¦Łà¦¬
Ġà¦¬ à¦Łà¦¬
à¦¦ à¦²à¦¨
à¦¿à¥¤ #
à¦¤à¦¬ à¦°à¦£
à§§à§¯ à§ªà§¨
Ġà§Ńà§« à§¨
ĠÂłĠÂł ĠÂłĠ
Ġà¦®à¦¹ à¦°
à¦ĩà¦ī à¦ıà¦¸à¦Ł
Ġà¦ªà¦¶ à¦¤
Ġw r
Ġà§ªà§ª à§®
Ġà§«à§ª à§¯
Ġcon d
Ġknow n
Ġrece ived
à¦® à¦ĵà¦²
Ġà¦¸ à¦¦à¦ķ
Ġà§¬ à§¨à§¨
à¦Ĺà¦£ à¦ķ
Ġh our
Ġà§ªà§¬ à§¨
ak istan
ail y
h at
à¦¤ à¦¡
à¦ĩ à¦ĩà¦īà¦°
Ġà¦Ĩà¦° à¦ıà¦®à¦ĵ
Ġà§ªà§¦ à§Ń
Ġp ain
ut ed
Ġà¦¹ à¦°à¦°
à¦Ĺ à¦¸à¦®
Ġà§§à§¯ à§¦à§¦
Ġa ch
Ġà§©à§¯ à§©
ĠB rit
Ġwe ek
ĠO lymp
à¦¦ à¦¤à¦°
à¦ĩ à¦ªà¦¸
à¦ĺ à¦¬à¦¬
à¦²à¦ķ à¦ļ
Ġà§« à§§à§ª
Ġà§§à§¯ à§©à§ª
Ġcomp et
Ġform s
Ġà¦¸à¦® à¦ķà¦ķ
à¦¾à¥¤ >>
à¦ĩà¦² à¦¡
à¦¤à¦ķ à¦°à¦¤
Ġà¦Ĩà¦ĸ à¦ļ
Ġà§ªà§¬ à§¬
Ġcom es
o ise
Ġà¦ı à¦§à¦°à¦£
Ġà¦¡ à§Łà¦ļ
Ġà§ªà§« à§®
Ġà¦¶à¦Ł à¦ĵ
ÑĢÐ·ÐĿÑĢÐ¶Ð ¯
Ġde ath
Ġple as
Ġà¦ļ à¦ªà¦²
à¦¡ à¦ıà¦ĩà¦ļ
Ġà¦¸à¦® à¦ħà¦§
à¦Ĩ à¦¸à¦°
Ġà¦¸à¦¹ à¦¬
Ġà¦ªà¦¦ à¦¸à¦¹
Ġà¦Ĩà¦ĩ à¦ıà¦®à¦ĩ
à¦¬à¦¹à¦¨ à¦Ĺ
ĠB y
à¦¯à¦Łà¦ķ à¦ķ
Ġà¦Ĺà¦« à¦«
; &
à¦® à¦°à¦¦
à¦¬à¦¨ à¦¹
Ġà¦Ĩà¦¬ à¦ķ
à¦²à§Ł à¦¸à¦®
Ġà¦ķà¦¥ à¦¨
Ġà§ªà§¬ à§®
c es
â Ī
à¦Ł à¦ļà¦ķ
à¦¹ à¦Ĩà¦²
à¦¿. à¥¤
à¦¤à¦ľà¦¨ à¦¦
m e
à¦Ł à¦Ĺà¦¤
à¦°à¦ķ à¦®à¦£
à¦¸à¦° à¦«
al i
à¦®à¦£ à¦ķ
Ġg old
à¦²à¦ļ à¦²à¦¨
Ġà¦Łà¦¹à¦² à¦¦à¦²
Ġve get
à¦¾ #
Ġà¦® à¦ĩà¦ľ
à¦ı à¦®à¦°
à§Łà¦¨ à¦ªà¦°
Ġà¦¸à¦° à¦«à¦¤
à¦Ĩà¦ĩ à¦ıà¦ĩà¦ı
à¦ĩà¦ī à¦ıà¦¨à¦ıà¦«à¦ª
à§§à§¯ à§ªà§§
Ġc Ãĸ
Ġà§«à§« à§®
âĶ ¤
Ġtak en
Ġret urn
à¦¨ à¦ł
à¦¤ à¦§à¦°
à¦¸ à¦¤à¦¤
Ġà¦ĵ à¦ļ
Ġà¦ªà¦¤ à¦Ļ
am ed
Ġà¦ĩà¦īà¦ıà¦¸ à¦ıà¦ĩà¦¡
tic les
à¦¾ )-
Ġà¦ķà¦° à¦ľ
à¦°à¦ķ à¦¸
à¦¤à¦¬ à¦¯
Ġà¦¬à¦° à¦ª
Ġà¦Ĩà¦Łà¦ķ à¦ĵ
à¦īà¦² à¦¦
à¦¸à¦Ń à¦°
Ġà¦Ĩà¦¸à¦¨ à¦ĵ
Ġà§ªà§ª à§¨
ut ure
ord ing
m ost
Ġà¦¤ à¦°à¦¤à¦°
Ġà¦¶ à¦ľà¦¨
Ġà§ İ
à¦Ĩà¦ĩ à¦ıà¦¸à¦Ĩà¦ĩ
à¦ªà¦¦ à¦ľà¦¨à¦ķ
à¦ĩà¦ľ à¦¬
Ġà¦ıà¦Ĩà¦ĩ à¦Ĩà¦ĩà¦¬
Ġà¦¸ à§İà¦¸
à¦¼ à§ĩà¥¤âĢĻ
à¦Ĩ à¦ł
à¦ĩà¦² à¦ª
à¦¶à¦ķ à¦¶
à§§à§¯ à§¬à§ª
cr ib
ĠIsl am
Ġà¦ª à¦¶à¦®
Ġà¦Ĩà¦Ĺ à¦¤à¦¦
Ġà¦ıà¦² à¦Łà¦¨
à¦¨à¦° à¦ĵà§Ł
Ġà§¬à§¦ à§«
ob al
Ġlibr ary
- à§ĩ
à¦¶à¦¨ à¦Ĺà¦°
Ġà¦¹à¦² à¦ķ
Ġà§¬ à§¨à§§
Ġà¦Ĩà§Ł à¦ķ
Ġà§§à§¯ à§ªà§©
à¦¨à¦¹ à§Ł
à§¨à§¨ à§¦à§¦
Ġhe art
up pose
Ġhim self
à¦°à¦¤ à¦°à¦¤
à¦ıà¦¨ à¦Ĩà¦ĩà¦¡
Ġà§§à§¯ à§¦à§«
à¦¬à§Ł à¦¬
à¦Ĩà¦¨ à¦²
à§§à§ª à§Ń
Ġe y
am at
Ġwas te
Ġtr ans
à¦¨ à¦°à¦®
à¦Ĺ à¦°à¦¸à¦¹
à¦¹ à¦ļà¦°
Ġà¦ļ à¦īà¦ķ
Ġà§® à§ªà§«
à¦¦à¦² à¦ª
à¦¨à¦¸ à¦¤
à¦ªà¦¦ à¦ĵ
à¦ªà¦Ł à¦²
Ġc reat
Ġd ut
Ġd ise
Ġbe gan
Ġà§®à§¯ à§¦
Ġcol lect
à¦¿ ^
Ġà¦ıà¦¸ à¦°
à¦°à¦ª à¦¶
Ġà§«à§® à§©
ĠR ah
Ġneed s
à¦ı à¦ķà¦ľà¦¨à¦ķ
à§ĥ à¦¿
Ġà¦Ĩà¦¨ à¦®
Ġnot hing
Ġprogr amm
N egative
Ġà¦ķ à¦²à¦¬
à¦ľ à¦¤à¦ķ
à¦°à¦¤ à¦¦à¦¨
à¦¬à¦° à¦ļà¦¨
Ġà¦ĵà¦ĩ à¦ĸ
Ġà¦°à¦ķ à¦¸
Ġhe ar
à¦² à¦°à¦¸à¦¹
à¦ķà¦² à¦Ĺ
Ġà¦¸à¦° à¦²à¦¤
Ġà¦ľà§Ł à¦¬
Ġw ar
Ġdevelop ment
Ġop en
à¦¶ à¦¤à¦®
Ġà¦¤ à¦Ľà¦°
Ġà¦Ĩà¦ĩà¦¨ à¦¬à¦¹
Ġà§«à§¦ à§Ń
à¦²à¦Ń à¦¬à¦¨
ĠÑĢÐ¶Ð¥ ÑĢÐ·ÐĿÑĢÐ¶
Ġà¦ķ à¦ªà¦Ł
à¦· à§İ
à¦°à¦ķ à§Ł
à¦°à¦¹ à¦ĩ
à¦¶à¦ķ à¦®
à¦§à¦¨ à¦¦
Ġà¦ĩà¦ī à¦ıà¦ĩ
Ġà¦ĸà¦¬à¦° à¦ª
Ġà¦Ńà¦° à¦Ľ
Ġà¦Ĩà¦ĩ à¦ı
Ġà¦Ĩà¦« à¦®
à¦¬à¦¹à¦¨ à¦¸
Ġal one
Ġcap ital
Ġwon der
à¦¦ à¦§
Ġà¦ĩ à¦ĸà¦¤
Ġà¦Ŀ à¦ŀ
Ġà§¯ à§ªà§¦
Ġi x
à§§à§¯ à§ªà§¬
à§§à§¯ à§¬à§®
in ds
à¦¾. ),
Ġà¦īà¦ªà¦° à¦ĩ
à¦²à¦ľ à¦¯
à¦¸à¦« à¦°à¦ķ
ie f
adm ission
Ġrul es
à§ĩ ÂŃ
à¦¡ à¦¸à¦Ń
Ġà§§à§¯ à§ªà§ª
à¦īà¦° à¦°à¦¹à¦®
Ġà§«à§¦ à§©
prothom alo
ĠTr ans
Ġadd ed
à¦¡à¦ī à¦ĩà¦¡
à¦¶ à¦īà¦¦
à¦Łà¦ķ à¦¥
à¦·à¦ķ à¦Ĩà¦¨
Ġà¦®à¦¤ à¦ķ
Ġp ay
ĠÑĢÐ¶Ð ½ÑĢÐ¶
am b
Ġà§ªà§¯ à§ª
udd en
à¦® à¦ªà¦¤
Ġà¦« à¦Ĺ
Ġà¦ıà¦¬ à¦¦
à¦²à¦¤ à¦¨
à¦ķà¦² à¦¹
Ġà¦°à¦ľà¦¤ à¦ľà§Łà¦¨
à¦ı à¦ĩà¦¸
à¦ķà¦Ł à¦¸à¦¹
à¦®à¦ķ à¦¥
ĠD r
Â Ŀ
Ġà¦« à¦²à¦¬
à¦ķà¦° à¦Ń
Ġà¦Ĩà¦ĩà¦¨ à¦¸à¦¹
Ġà§§à§¯ à§©à§Ń
Ġs ays
ur y
à¦¾à¦ĥ )
Ġà¦ıà¦¨à¦ıà¦¸à¦Ĩà¦ĩ à§Ł
Ġhab it
à¦ĩ à¦ıà¦¨
Ġà¦¸à¦® à¦¦
Ġà¦Ľ à¦²à¦Ľ
à¦¸à¦° à¦ŀ
à¦Ĺà¦£ à¦ªà¦°
à¦¬à§ľ à¦²
à¦® à¦¹à¦®
Ġà¦Ĩà¦¸ à¦®à¦¤
Ġà¦Ĺà§ľ à¦¬à§ľ
à¦ĩà¦ľ à¦ª
Ġà§¬à§¬ à§¬
anc ed
Ġà¦ļ à¦°à¦¤
à¦°à¦ķ à¦°à¦¤
Ġà¦Ńà¦¬à¦¨ à¦®
Ġf ox
à¦² à¦®à¦¤
à¦¹ à¦ĩà§Ł
Ġà¦¶ à¦®à¦°
Ġà¦ī à¦¯
Ġà¦Ĩà¦¸ à¦ª
Ġà¦ıà¦° à¦ľà¦¨
Ġà§¬ à§§à§«
à¦§à¦¨ à¦¯à¦ľ
à¦Ĺà¦£ à¦Ń
ar ch
is m
Ġex tra
à¦¶à¦°à¦£ à¦ĸ
? âĢľ
à¦ı à¦ıà¦ĩà¦ļà¦ı
Ġà§ª à§¨à§ª
à¦¤à¦® à¦ª
Ġà¦ĺà¦Ł à¦®
Ġd anger
Ġl ate
Ġà¦Ĩà¦Ĺà¦®à¦¨ à¦ķ
à¦® à¦«à¦¨
Ġà¦¦ à¦¶à¦°
à¦¶à¦¨ à¦¨
à¦²à¦¤ à¦ĩ
Ġà¦ĩà¦ī à¦¬
Ġà¦ĸà¦°à¦ļ à¦ĩ
Ġp at
Ġà§¯à§Ń à§¦
Ġbus iness
b angladesh
à§ĭ /
à¦¹ à¦°à¦®
Ġà¦Ń à§Łà¦ķ
Ġà§§à§¯ à§©à§©
Ġproble ms
à§Ł à¦¬à¦²
à¦¦ à¦¬à¦ķ
à¦¡à¦² à¦¸à¦¹
Ġind ustr
à§į !
Ġà¦ī à¦ĩà¦ª
à¦¸à¦® à¦Ĺ
à¦Ĺà¦łà¦¨ à¦¤à¦¨
Ġà¦¨à¦¦ à¦Ł
ĠS ub
az ar
Ġro om
Ġuse ful
Ġ ïģ
à¦¤ à¦¸à¦°
à¦¸ à¦¬à¦¸
à¦« à¦ĵà§Ł
Ġà¦¸à¦¬ à¦°à¦ķà¦®
Ġà¦Ĩà¦ĩ à¦ĵà¦Ł
Ġs n
Ġw alking
ĠP akistan
Ġpro f
t ings
à¦¨ à¦Ĩà§Ł
à¦Ł à¦¬à¦¨
à¦£ à¦Ńà¦°
à¦ı à¦°à¦ĵ
Ġs is
Ġw ood
Ġà§©à§¯ à§ª
Ġà§Ńà§« à§§
Ġà§ªà§© à§Ń
us e
à¦¨à¦¸à¦® à¦ĵà§Ł
Ġad m
à¦ħà¦ªà¦¹à¦°à¦£ à¦ķ
2 5
à¦¯ à¦¤à¦ķ
à¦¯ à¦īà¦¤
Ġà¦¸à¦¦à¦° à¦¹
à§§à§¯ à§©à§¨
Ġc ook
à§§à§ª à§ª
Ġex per
Ġpart ic
Ġpubl ic
Ġpunct uation
i od
Ġà¦¬ à¦ļà¦¨
Ġà¦ķà¦² à¦¡
Ġà§Ńà§« à§®
Ġà§«à§® à§¨
ep t
ĠÃĹ ;
Ġentertain ment
e e
o ard
à¦® à¦Ĺà¦£
à¦¦ ÃĲ
Ġà¦ı à¦ªà¦°
à§¨à§¦ à§¨à§¨
à¦ķà¦°à¦£ à¦ķ
Ġm ight
Ġre ally
Ġà§«à§¬ à§®
Ġwin ter
A n
D ear
Ġà¦īà¦ª à¦¬à¦¨
à¦²à¦¤ à¦¸
Ġà¦Ĩà¦¸à¦¨ à¦ĩ
Ġà¦Ĩà¦ª à§İà¦ķ
Ġwho le
à¦¹ à¦Ľ
à¦°à¦® à¦®
à¦ĩà¦ķ à¦ķ
à¦¨à¦ª à¦ŀ
ĠÑĢÐ¶Ð µÑĢÐ·ÐĹ
is tr
Ġà¦ħà¦¨à¦¶à¦¨ à¦°à¦¤
à¦Ł à¦Ĩà¦īà¦Ł
à¦¿à¦Ĥ '
Ġà§§à§¯ à§¨à§§
à¥¤âĢĻ âĢĶ
Ġf ail
Ġf uture
à¦īà¦¡ à¦ķ
Ġpart s
d haka
à¦² à¦Ĩà¦²à¦®
à§Ł à¦ıà¦ķà¦Ł
à§ģ ...
Ġà¦ª à¦¯à¦°
à¦°à¦¸ à¦°à¦®
Ġt imes
à§§à§¯ à§§à§®
Ġà§ªà§« à§«
ïĢ Ń
Ġeduc ated
ĊĊĊĊĊÂł ĊĊĊĊ
ï¿½ ï¿½
Ġà¦ĸ à¦ŀ
à¦ľà¦¨ à¦°à¦¸
à¦°à¦® à¦¸à¦ļ
à¦°à¦¬ à¦Ľà¦°
Ġà¦Ĩà¦¨ à¦ª
Ġà§«à§¦ à§®
Ġà¦ħà¦® à¦Ļ
ĠN ob
C ol
h ab
à¦¾ ]
à¦Ĺ à¦ľà¦¨
Ġà¦ĩ à¦Łà¦¸
à¦Ĩ à¦ĩà¦²
Ġà§Ń à§ªà§Ń
à¦°à¦¸à¦¹ à¦¯
Ġà§¬à§¦ à§¨
Ġà§©à§® à§¯
Ġdis tr
udd in
à¦² à¦ļà¦ķ
Ġà¦ļ à¦ĩà¦²
Ġà¦®à¦¶ à¦¹
ĠL et
Ġwant s
Ġtak ing
ester day
à¦ļ à¦ļ
ĠT amal
Ġre ach
Ġà§«à§¬ à§¬
Ġà§¬à§Ń à§©
Ġà§®à§Ń à§«
Ġà¦ķ à¦·à¦¤
Ġà¦® à¦Ĺà¦¡
à¦Ĩ à¦°à¦Ń
Ġà¦Ĩà¦² à¦®à¦¸
à¦®à¦¦ à¦¸à¦¹
à¦ıà¦² à¦ıà¦®
Ġf ine
Ġà§ªà§¨ à§¯
Ġhe ard
Ġst ay
ÑĢÐ¶Ð©ÑĢÐ·ÐĿÑĢÐ¶Ð §
à¦¾ âĢ¢
Ġà¦ĺ à¦°à¦ĵ
à¦ĺ à¦Ĺ
Ġà¦Ĩà¦ĩ à¦ĩ
Ġf ar
ĠC an
ĠĊ Ġ
ĠF l
à¦ıà¦¸à¦ı à¦²à¦¸
Ġnat ure
a e
à¦« à§Ł
à¦¯à¦¤ à¦ĩ
à§§à§¨ à§ª
à¦¬à¦ľà¦¨ à¦¹
as k
Ġ1 7
Ġhis t
Ġear th
Ġsw im
Ġtort oise
Ġà¦¬ à¦ĩà¦ķ
Ġà¦ªà¦° à¦¶à¦®à¦£
Ġà¦ľà¦¨ à¦¸à¦¨à¦ķ
Ġà¦ķà¦® à¦«
à¦ĩà¦ī à¦ıà¦ĩ
er ry
re am
Ġà¦Ĩà¦īà¦Ł à¦Ł
Ġà§ªà§« à§ª
ÑĢÐ·ÐĿÑĢÐ¶Ð ¥
à¦ī à¦·
à¦¿à¦Ĥ âĢĵ
à¦¬à¦ķ à¦¹
à§§à§¦ à§®
Ġà¦¨à¦ĵ à¦ª
ĠM ost
Ġcomp osition
Ġmill ion
Ġphr ases
% ,
à§Ī ,
à¦°à¦¹ à¦²
à¦°à¦ĩ à¦ª
Ġà¦Ĺà¦°à¦® à¦ķ
ĠD ay
Ġ ĊĊĊ
à¦¨ à¦ĩà§Ł
à¦¤ à¦²à¦¬
à¦¸ à§İ
Ġà¦Ń à¦°à¦£
Ġà¦ĩ à¦ªà¦¸
Ġà¦Ĩà¦® à¦®
à¦ľà§Ł à¦Ł
à¦¨à¦ľà¦Ł à¦ĵ
Ġ1 5
à¦¿ Â¬
à¦¶ à¦ľà¦¨
à¦ī à¦ĵ
Ġt alking
à§¨à§¦ à§ªà§§
à¦°à¦®à¦£ à¦¬
Ġo cc
Ġà§ªà§® à§¯
à¦¨à¦ªà¦¤ à¦¨
Ġà¦¶à¦ĵ à¦ķ
em s
arm ing
ict ion
ĠAl i
à¦¡à¦īà¦ĩà¦¡ à¦¥
. âĢĿ
k now
Ġ# ##
ÑĢÐ¶Ð¶ ÑĢÐ·ÐĿÑĢÐ¶Ð
Ġà¦ħ à¦ľà¦¨à¦ª
Ġà¦ľà¦¨ à¦¹
Ġà¦Ĩà¦¸ à¦ĵà§Ł
Ġà¦¶à¦¹à¦° à¦°à¦ķ
à¦ªà¦¥ à¦Ł
à¦ıà¦ĩà¦ļ à¦ıà¦¸à¦¬
Ġl oc
Ġà¦® à¦Łà¦ķ
Ġà¦Ĩà¦® à¦ļ
Ġà§« à§§à§§
Ġà¦ķà¦² à¦²
Ġà¦Ĺà¦£ à¦ľà¦®
Ġà¦¡à¦Łà¦ķà¦® à¦¢
à§§à§© à§«
Ġbuild ing
à¦® à¦¤à¦¨
Ġà¦® à¦ĺ
à¦Ľ à¦§à¦°
à¦§ à¦¹à¦¸
à¦ı à¦°à¦ª
Ġà¦Ł à¦ªà¦¸
à¦Łà¦¨ à¦Ł
à¦®à¦¤ à§İà¦ªà¦°à¦¤
à¦¬à¦² à¦¹
Ġà¦§à¦°à¦¨ à¦ĵ
Ġs ail
Ġà¦ªà¦¦à¦ķ à¦Ł
Ġle ft
Ġsp ecial
Ġà¦ľà¦Ĺà§İ à¦Ł
Ġpol it
à¦¯ à§Łà¦ķ
Ġà¦ī à¦ĩà¦ľà¦¡
in al
à¦ªà¦¸ à¦ľ
Ġà¦ħà¦® à¦°à¦¤
b ers
à¦Ł à¦¸à¦¬
à¦Ń à¦¸à¦¹
à¦¡ à¦¸à¦®
Ġà¦īà¦ĩ à¦ļ
à¦¶à¦¦ à¦Ń
ear range
Ġà¦ıà¦Ĩà¦ĩ à¦ıà¦¡
C O
Ġà§« à§¨à§®
à¦ıà¦¸ à¦¡à¦¬
à¦¶à¦ķ à¦ĩ
âĢĻà¥¤ âĢľ
à¦¾âĢĶ âĢĺ
iz ed
Ġar r
Ġag o
Ġà¦ļ à§ľà¦ķ
âĢĿ à¥¤âĢĻ
à§§à§¯ à§©à§¬
Ġs ad
reed om
r ic
Ġà¦¨ à¦¬à¦ķ
Ġà¦ķà¦¤ à¦ľà¦¨à¦ķ
os ed
w Z
à§Łà¦¨ à¦ª
Ġà¦¬à¦ĩ à¦ªà§ľ
à§§à§¬ à§¦à§¦
Ġà§ªà§ª à§¬
Ġà§ªà§¯ à§Ń
id ent
à¦¿à¥¤" "
ĠWh ich
ĠPre position
Ġ ess
Ġà¦ıà¦¸ à¦ķà¦²
à¦²à¦ª à¦¸
âĢĻà¥¤ âĢĺ
à¦° à¦īà¦¡
à¦ķ à¦ħ
Ġà¦¯ à§İà¦¸
à¦°à¦£ à¦¶
à¦°à¦£ à¦ķà¦°
Ġà¦ıà¦¸ à¦ĩ
Ġà§« à§ªà§«
à¦īà¦ľ à¦Ĺ
à¦Ĩà¦ĩ à¦ĩà¦¬
Ġex pl
Ġcl im
ok e
a i
à¦¥ à¦¶
à¦¾à¦Ĥ :
à¦Łà¦¨ à¦ĵ
à¦¨à¦Ł à¦«
Ġà§¬ à§©à§®
Ġà¦Ĩà¦Ł à¦ĺ
Ġà§«à§¦ à§¯
Ġsur pr
à¦¯à¦¬ à¦¤
à¦²à¦® à¦£
à¦ıà¦² à¦Ĩà¦°
Ġà¦ľà¦² à¦ľà¦Ł
ĊÂł ĊĊĊĊĊĠ
Ġh ol
ÑĢÐ·ÐĿÑĢÐ¶Ð ¯ÑĢÐ¶
ÂłĠ ÂłÂł
Ġcon tain
Ġpr ay
Ġbel ow
Ġpi ec
à¦¨ à¦Ĩà¦¹à¦®
à¦ľ à¦īà¦ķà¦ķ
Ġà¦¤ à¦Ľà¦²
Ġà¦Ĺ à¦Ł
Ġà¦Ĺ à§İà¦¬
à¦¬à¦° à¦«
à¦§à¦¨ à¦ķà¦°
Ġà§® à§©à§¦
à¦¯à¦¦ à¦¶
Ġà¦Ńà¦¬à¦¨ à¦ĵ
à¦¹à¦ľ à¦¯
ĠÑĢÐ¶Ð ½
Ġà¦ĸà¦¸ à¦ĸà¦¸
à¦ļà¦°à¦® à¦ªà¦¨
Ġà¦Ĩà¦ĩà¦ıà¦®à¦ĩ à¦Ĩà¦ĩ
! :
Ġà¦¸ à¦ĵà¦Ĺ
Ġà¦ıà¦¬ à§ľ
Ġà§® à§©à§«
Ġà§ªà§« à§§
ĠM ore
ĉĉ ĉĉ
Ġeven ing
à¦° à¦Ĩà¦¶
à¦ľ à¦¤à¦¤
à¦« à¦£
à¦Ĩ à¦«à¦¤
Ġà§« à§§à§«
Ġà§ªà§Ń à§¨
ro p
à¦ªà¦¬ à§Łà¦¸
Ġsh all
Ġà¦ħà¦®à¦° à¦¨
Ġtak es
Ġcond ition
à¦ķ à¦¨à¦®
à¦°à¦ķ à¦£
à¦¦à¦¨ à¦ķà¦°
à¦°à¦¦ à¦¹
Ġà§ªà§® à§®
ĠB a
ĠM an
% ),
P art
er ation
sp aper
! âĢĺ
it ter
âĢ¡ `
ĠSh ah
ÑĢÐ¶Ðª ÑĢÐ·ÐĿÑĢÐ¶Ð
K v
S h
à§ĩ "
Ġà¦¬ à¦¤à¦°
à¦¶à¦¨ à¦ķà¦°
à¦Ĩà¦ĩ à¦¸à¦²
Ġà§§à§¯ à§©à§§
Ġà¦ĩà¦ľ à¦¹
Ġple ase
à¦¨ à¦Ĩà¦²
Ġà¦īà¦ª à¦²
Ġà¦Ĺà¦£ à¦¦
à¦ıà¦® à¦Ĩà¦ĩà¦Ł
à¦¬à§ľ à¦ª
Ġà¦ĵà¦²à¦Ł à¦ª
Ġà¦®à¦ľà¦® à¦ª
Ġ ÂłÂłÂłÂłÂłÂłÂłÂł
à¦¹à¦® à¦ĸà¦¦
Ġà¦ªà¦¦ à¦Ń
he t
Ġà¦Ĩà¦ĩ à¦ĩà¦īà¦¸
à§§à§¨ à§§
Ġm ove
Ġà§«à§© à§¬
Ġwe alth
Ġà¦Ĩà¦ĩà¦ıà¦® à¦ĩà¦¡
à§ĩà¥¤ à¥¤
à¦¤à¦° à¦²
à¦ĩà¦¨ à¦¹
Ġà§Ń à§¨à§«
Ġà§Ń à§ªà§«
Ġà§¯à§Ń à§«
um der
Ġà¦ıà¦¸à¦ıà¦® à¦ľ
Ġsong s
à¦Ń à¦ľ
à¦ģ à¦ģ
à¦ł à¦ĩ
à¦ľà¦¨ à¦¸à¦¨
Ġà¦¶à¦° à§İà¦ķ
à¦Ĺà¦² à¦«
ĠS c
Ġà¦«à¦²à¦¨ à¦¶
Ġnew s
Ġcomple te
Ġlov es
Ġà¦ķà¦° à¦®à¦ľ
à¦¡ à¦¬à§Ł
Ġà§¬ à§§à§§
Ġà§® à§§à§«
Ġà§§à§¯ à§§à§ª
à¦ķà¦°à¦£ à¦Ĺ
ĠU se
Ġoff ic
w as
à§Ł à¦°à¦¨
Ġà¦ħ à¦ĩà¦²
à¦°à¦ª à§Ł
Ġà§§à§¯ à§§à§§
Ġà¦ľà§Ł à¦§
à¦²à¦® à¦ŀ
ÑĢÐ¶Ð Ł
à§§à§¯ à§©à§¯
ĊĊĊĊ Ġ
Ġà¦ķà¦· à¦Ľ
à¦Ĩà¦īà¦Ł à¦¸
Ġcl ues
Ġ3 0
T h
r id
à¦¨ à¦°à¦Ł
à¦ķ à¦¦à¦°
Ġà¦ı à¦·
Ġà¦§ à¦²à¦ª
à¦¶à¦¨ à¦Ń
à§İ à¦ķà¦°
à¦ĺ à¦°à¦¸à¦¹
à§§à§¯ à§¬à§§
ĊĊĊĊ ĊĊĊĊ
Ġs ix
ent y
ĠW or
Ġwh ile
aj umder
Ġcare fully
m en
à¦£ à¦ľ
à¦« à¦¬
Ġà§« à§¨à§§
Ġà¦ĩà¦¨ à¦Ĺ
Ġà§¬ à§¨à§®
Ġà§¯ à§§à§¦
Ġà¦¸à§ľà¦ķ à¦ĵ
à¦¬à¦¹à¦¨ à¦¸à¦¹
ro c
Ġà¦ĸà§ľ à¦Ĺ
Ġcomp rehension
aug ht
à¦¿ ÂŃ
à¦ķ à¦ªà¦£
à¦°à¦¦ à¦²à¦ķ
Ġà§« à§§à§¯
à§§à§¯ à§¨à§«
Ġà¦īà§İà¦¸à¦¬ à¦Ĺ
Ġp ost
Ġd irect
Ġe lect
ĠC on
Ġon ce
oc abul
Ġprodu ct
ocabul ary
Ġ ........
à§ģ à¥¤âĢĿ
Ġà¦ĵ à¦Ĩà¦°à¦ľ
à¦Ĩ à¦°à¦¨
Ġà§« à§§à§©
à¦¨à§Łà¦¨ à¦®à¦¨
à¦ĩà¦ī à§Ł
Ġp ic
Ġdis c
Ġlook ed
Ġdec l
à¦® à¦īà¦¤
à¦ļ à¦°à¦£à¦ķ
Ġà¦Ľ à¦²à¦ļ
Ġà§§à§¯ à§¨à§¬
end ed
Ġà¦¬à¦Ľ à¦°à¦®
Ġà¦¡à¦ľà¦¨ à¦ĸ
av es
ĠÑĢÐ¶Ð« ÑĢÐ¶
h ip
Â ´
Ġà¦¸ à§Łà¦¦
à¥¤ [
à¦« à¦Ĺ
à¦ªà¦° à¦¸
Ġà¦¸à§ľà¦ķ à¦ľ
à¦ķà¦® à¦²à¦¨à¦Ĺà¦°
Ġà¦īà§ľ à¦¬
... âĢĻà¥¤
Ġà§«à§« à§Ń
Ġà§«à§ª à§ª
Ġper iod
Ġà¦ £
à¦¤ à¦ķà¦¬
à§ģ /
à¥¤ âĹı
Ġà¦Ľ à¦°
à¦ı à¦ķà¦¤
Ġà¦ĭ à¦·à¦Ń
Ġà¦ĸà¦°à¦ļ à¦Ł
à§§à§¨ à§®
Ġch art
ĠG r
Ġro le
Ġfl o
à§Ł à¦²à¦Ĺ
Ġà§§à§® à§«à§Ń
in king
à¦¡à¦² à¦Łà¦¨
Ġl iter
Ġà¦¬à¦¦à¦° à¦ĸ
ĠC or
ĠV ery
wor k
o le
Ġà¦ªà¦° à¦®à¦¤à¦¸à¦¹
Ġà¦ĵà¦ĩ à¦¬
à¦Ĺà¦° à¦¨
Ġà§§à§¯ à§¨à§®
Ġà¦ıà¦¨ à¦Ńà§Ł
à¦«à¦² à¦ª
à¦²à¦ª à¦²
Ġà¦ıà¦ĩà¦ļ à¦ıà¦®à¦¡
Ġà§ªà§© à§¯
Ġà¦ĩà¦ĩà¦ī à§Ł
sm usmangonee
Col umn
à¦° à¦ħà¦¬à¦¸
à¦¸ à¦°à¦¬
Ġà¦Ĩà¦¨ à§Łà¦¨
Ġà¦Ĩà¦īà¦Ł à¦ª
à¦ĩà¦¶ à¦¦
Ġ2 00
à§ĩ... âĢĻ
d o
à¦²à§Ł à¦ĩ
Ġà§¯ à§¨à§«
Ġf ac
Ġà¦Ĩà¦ĩà¦ª à¦¡
ec ause
Ġà§«à§¬ à§§
Ġà§¬à§ª à§¨
Ġà§Ńà§Ń à§«
Ġà¦¨à¦ķ à¦²à¦¨à¦¬
à¦°Ã¦ à¦Ł
à¦² à¦¥à¦ķ
à¦ª à¦ĵà§Ł
à¦¶ à¦²à¦ķ
à¦§ à¦¨à¦Ł
à¦ıà¦¨ à¦ıà¦¸à¦¸
à¦ħ à¦¬à¦¦
Ġà§¬ à§¨à§¬
à¦ĩà¦Ł à¦°
à¦ıà¦® à¦Ĩà¦°à¦ª
Ġà§«à§ª à§§
à§Ģ) :
Ġde ad
ĠMar ch
à¦¬à¦¨ à¦¦
à§§à§¯ à§§à§¦
ĠÂłĠÂłĠÂłĠÂłĠÂłĠÂłĠÂłĠÂł ĠÂłĠÂłĠÂłĠÂłĠÂłĠÂłĠÂłĠÂł
Ġjourn ey
Ġà¦Ľà¦²à¦Ľ à¦²
Ġà¦Ĩà¦ľ à¦°
à¦°à¦ª à¦Ļ
Ġà§Ń à§§à§«
Ġà¦ªà¦¥ à¦ĺ
à¦ıà¦ķ à¦ĩà¦¦
à¦Ĩà¦² à¦ľ
Ġà§®à§¦ à§«
ac hed
Ġà§«à§¯ à§ª
Ġà¦ķà¦®à¦¨ à¦°
Ġsu pport
ĠÑĢÐ¶Ð¥ ÑĢÐ·ÐĽ
ĠĊĊ Ġ
Ġà¦ľà¦¨à¦¬ à¦²à¦ķ
à¦® à¦¬à¦°
à¦Ł à¦²à¦ķ
à¦ı à¦¹à¦¸
à¦ıà¦ĩ à¦ī
Ġà¦ħà¦² à¦¸à¦ª
à¦¦à¦¶ à¦ľà¦¨
ĠP ass
Ġk inds
ik e
Ġevery day
Ġà¦§à¦¬ à¦§à¦¬
Ġ >>
à¦¶ à¦°à¦®
Ġà¦¦ à¦Ĺà¦¦
à¦ļ à¦ªà¦¦
Ġà¦¦à¦² à¦ª
Ġà§§à§¯ à§©à§«
à§§à§¯ à§§à§«
à§§à§¯ à§©à§ª
ĠThe ir
Ġà§¬à§¬ à§®
ĠG ood
mp er
i ant
à¦ķ à¦ĵà¦¯
à¦® à¦°à¦¹
à¦¦ à§ľ
à¦Ł à¦®à¦¬
Ġà¦ħà¦¬à¦¸ à¦°à¦ķ
Ġà§«à§« à§¨
Ġà§«à§® à§¬
ĠD irect
. ),
m ajumder
Ġà¦® à¦°à¦£à¦¬
Ġà¦Ĩà¦¸ à¦«
à¦²à¦Ł à¦Ł
Ġà§ªà§¬ à§©
ce pt
à¦¾à¥¤ .
Ġà¦Ĩà¦° à¦¨à¦²
à¦¬à¦¸ à¦¬
à¦¼à¦¾ âĢĶ
à¦ĩà¦ľ à¦ķ
à§§à§¦ à§Ń
Ġà¦¦à¦®à¦¨ à¦¨
Ġà§ªà§ª à§§
Ġgreat est
à¦Ĺ à¦«à¦°à¦Ĺ
Ġà¦° à¦¨à¦¬
à¦¡ à¦¬à¦²à¦®
Ġà¦Ĩà¦² à¦¶
Ġà§¬ à§§à§Ń
Ġà§«à§Ń à§¨
Ġà§¬à§© à§¯
Ġcr icket
i um
à¦° à¦ħà¦¸
à§Ŀ à¦ļ
ac y
Â¤ à§į
Ġà¦¦à¦Ĺà¦¦ à¦Ĺ
t es
à¦ı à¦¤à¦Ł
Ġà§Ń à§¨à§Ń
Ġà¦ıà¦® à¦ĩà¦ıà¦¸
à§İà¦¸à¦ķ à¦ĵ
Ġà§¬à§¦ à§§
ent ly
Ġà¦¸à¦ľ à¦²à¦ķ
Ġoff ice
2 00
A N
Ġ ÂłÂłÂłÂłÂłÂł
à¦° à¦Ĩà¦¸
à¦¨ à¦¶à¦°
à¦¤ à¦¤à¦ķ
Ġà¦ķà¦° à¦¯
à¦ī à¦Ĺà¦²
Ġà¦ĩ à¦¨à¦¤
Ġà¦« à¦¸à¦«
à¦¸à¦¹ à¦ª
Ġà§® à§§à§©
Ġà¦ķà¦¨ à¦¡à¦®
ÑĢÐ·Ð ĺ
Ġà§«à§¨ à§¯
Ġbr ing
og ue
č Ċ
à¦¿ âĢ¦
à¦ħ à§Ł
Ġà§Ń à§§à§¯
Ġà¦ªà¦¥ à¦Ń
Ġà¦¨à¦Ĺà¦° à¦Ńà¦¬à¦¨
at t
ĠBrit ish
à¦· Ã¿
Ġà¦ľ à¦¸à¦ª
à¦ļ à¦ľà§Ł
à¦Łà¦Ĺ à¦®
à¦¶à¦² à¦ĩ
à§§à§¯ à§«à§§
Ġs ign
Ġw ait
Ġà¦īà§İà¦¸ à¦¬à¦¸
Ġà¦¨à¦° à¦¹à¦¤
m ing
à¦° à§İ
Ġà¦ķ à¦ļà¦²
à¦ª à¦«
ĠâĢĺ (
à¦¶à¦¨ à¦°
Ġà§§à§¯ à§§à§Ń
à¦°à¦Ĺ à¦²
Ġà¦Ĭ à¦¨à¦¬
Ġà¦¬à§Ł à¦«
ic ks
ĠF orm
Ġtr ue
Ġà¦Ĺà¦¦ à¦ĸ
Ġen ough
Ġgl ass
Ġà¦ıà¦¨à¦ıà¦¸ à¦ıà¦°
Y our
a x
à§ĩà¥¤ ïģ®
Ġà¦ĩ à¦¶à¦«
à¦°à¦¸ à¦¬à¦¬
à§§à§¯ à§©à§«
Ġh ope
el t
à¦ħà¦ª à¦ª
ig er
Ġac qu
Ġà¦¸ à¦¸à¦®
à¥¤ âĢ¦
à¦°à¦¤ à¦¦
Ġà¦Ĩà¦¨ à¦ĵà§Ł
Ġà§« à§§à§Ń
Ġà¦Ĩà¦ĩà¦¨ à¦ĩ
à¦ļà¦² à¦ľ
à¦ıà¦¨à¦ı à¦Ń
Ġà¦¨à§Łà¦¨ à¦¤
Ġup on
Ġsc ience
Ġser ious
Ġveget ables
Ġà¦ķ à¦Łà¦°
à¦¯à¦ķ à¦°à¦£
Ġà¦ĵà¦ĩ à¦¸
Ġà§ªà§© à§©
Ġà§ªà§¦à§¦ à§¦
Ġcro ss
;& #
a im
z y
Ġ Ã¿à¦ķ
Ġà¦² à¦¬à¦¨
à¦ĺ à¦ĵ
Ġà¦ıà¦² à¦ļ
à§¨à§¦ à§«à§¦
Ġs elf
Ġf oot
à§§à§© à§©
ic ally
Ġà§ªà§¬ à§¯
Ġany thing
t w
Ġ Ãĳ
à¦ī à¦®à¦°
à¦ī à¦Ĩà¦°
Ġà¦ĩ à¦ĵà¦°
Ġà¦ĺ à¦°à¦ķ
à¦®à¦¨ à¦¨
à¦¨à¦¬ à¦Ľà¦°
à¦Ĩà¦ĩ à¦ĵà¦ıà¦¸
Ġà¦Ĺà§ľ à¦Ĺà§ľ
ĠâĢĶ .(
il ities
Ġà§«à§© à§§
ind ows
Ġflow ers
q v
Ġà¦¹ à¦Ĺ
à¦Łà¦ķ à¦ĩ
à¦ıà¦¨ à¦«
à¦ıà¦¨ à¦Ĩà¦ĩà¦ı
Ġà§« à§¨à§Ń
ÂłÂł ĠÂł
à¦ľà¦² à¦ª
Ġh arm
Ġà§¬à§¦ à§®
Ġess ential
Ġà¦¹ à¦°à¦¦
à¦ĩ à¦ıà¦Ł
Ġà¦¤ à¦¸
Ġà¦ĩ à¦ıà¦®à¦ķ
Ġà§Ń à§©à§«
à¦¨à¦Ĺ à¦¨
Ġà§¦ à§§à§«
Ġà§¬à§¬ à§¨
ĠAll ah
ĠOlymp ic
P assive
à¦¬ à¦®à¦¹
Ġà¦¬ à¦¦à¦®
Ġà¦¤ à§İ
à¦ĵ à¦ıà¦°
à¦¸à¦¦ à¦ĩ
à¦¶à¦² à¦Ĺ
Ġs ell
Ġà§¬à§¯ à§«
Ġà§Ńà§© à§¬
oun tain
à¦ıà¦ıà¦ĩà¦ļ à¦ıà¦¸
Ġper form
Ġà¦Ĺà¦ľà¦² à¦¡
p ed
à¦² à¦Łà¦Ĺ
à§Ł à¦«à¦²
à¦· à¦ļà¦¨
à¦§ à¦²à¦ķ
à¦£ à¦ļà¦¨
à¦¯à¦® à¦ĩ
Ġà§ªà§« à§©
i or
Ġà¦¹ à¦°à¦Ĺ
à¦ĩ à¦«à¦²
Ġà¦¤ à¦¸à¦¬
Ġà¦ľ à¦¬à¦°
à¦ļ à§Łà¦¨
à¦ªà¦¨ à¦Ĺ
Ġà¦ľà¦ľ à¦¦
Ġe conom
Ġà§¬à§« à§¨
Ġà§«à§© à§ª
Ġstud ies
Ġtradition al
à¦¶ à¦¬à¦ķ
Ġà¦ħ à¦ķà¦°
Ġà¦®à¦¨ à¦ĵ
Ġà§¬ à§§à§ª
ĠÑĢÐ¶Ð µÑĢÐ¶
Ġà¦¬à¦ĸ à¦¶
à§Ł à¦ı
Ġà¦¹ à¦īà¦ķ
Ġà¦¤ à§Ł
Ġà¦ī à¦ĩà¦¨à¦¸
Ġà¦īà¦ª à¦ĸ
à¦¤à¦° à¦ħà¦§
à¦ĺ à¦°à¦ķ
à§§à§¯ à§¨à§¬
à¦®à¦¹ à§ľ
Ġl ine
Ġà¦¦à¦® à¦¬à¦¨
Ġmed ic
ĠÑĢÐ¶ÐµÑĢÐ·ÐĹ ÑĢÐ¶Ð¥ÑĢÐ·ÐĹ
à¦² à¦ħ
Ġà¦® à¦¶à¦²
à¦°à¦® à¦¶à¦ĩ
Ġà§¬ à§©à§«
Ġà§Ń à§§à§Ń
Ġà¦ıà¦® à¦ıà¦¸à¦¸
à¦®à¦Ĺ à¦¡
Ġà§ªà§« à§¯
Ġà§ªà§© à§§
Ġà§¬à§® à§«
ial ogue
à¦¾âĢĿ à¥¤
Ġlist en
à¥¤ .
à¦°à¦£ à¦ľ
à¦ĺ à¦°à¦ĵ
Ġn ice
Ġà§¬à§¬ à§¯
ĠÑĢÐ¶Ðķ ÑĢÐ¶
Ġà¦ıà¦®à¦ĵ à¦ĩà¦ī
B angladesh
S t
Ġà§¬ à§¨à§¯
à§§à§¨ à§¨
Ġà§ªà§Ń à§®
Ġgiv es
f ast
p ro
Ġà¦ ŀ
à¦ĩ à¦ıà¦ĩà¦ļà¦¬
à¦ī à¦¸à¦®
Ġà¦¸à¦®à§Ł à¦¬
Ġà¦ħà¦§ à¦®
Ġà¦Ĩà¦ķ à¦®
Ġà¦¬à¦¸ à¦°
Ġà¦Ĩà¦ĩ à¦ĵà¦¸
ĠT w
Ġà§«à§« à§©
Ġà¦īà¦ĩà¦¨ à¦«
Ġà§¬à§® à§ª
Ġà§¬à§¯ à§¯
and er
ag er
Ġtr uth
Ġgr and
à¦¿à¥¤ âĢĶ
à¦¦à¦¨ à¦¸
Ġà§§à§¯ à§§à§®
ÑĢÐ¶Ð µÑĢÐ¶
Ġà¦Ĩà¦« à¦¨
à§ĩ? âĢĶ
Ġb ed
à¦ķà¦Ĺ à¦®à¦¨
ot hes
ĠB ecause
Ġte a
Ġà¦īà¦Ń à¦ļà¦°
S O
à¦¬ à¦ľà¦²
Ġà¦Ĩ à¦ĸà¦°
à¦Ľ à¦¥
Ġà¦° à¦¸à¦®
à¦°à¦¹ à¦¬
à§§à§ª à§¦à§¦
le ase
Ġ âķ
Ġà¦ı à¦ıà¦®à¦¡
à¦ĺ à¦¨à¦¤
Ġà¦ıà¦¸ à¦Ĩà¦°
à§¬ à§«à§¦
Ġà§¬ à§«à§«
Ġà§¯ à§©à§©
Ġà¦ĸà¦°à¦ļ à¦¸à¦¹
Ġà§«à§® à§¯
Ġà§«à§© à§Ń
Ġà§®à§¬ à§«
H ow
à¦· à¦¡
à¦§ à¦®à§Ł
à¦§ à¦²à¦Ń
à¦¥ à¦Ľ
Ġà¦ĩ à¦ıà¦Ł
Ġà¦Ĩà¦¬ à¦¹à¦¸
à¦¸à¦¦ à¦ª
Ġà§«à§« à§ª
à¦¸à¦¦à¦¸ à¦¦à¦¸
à¦ĵ à¦Ĩà¦ĩ
Ġà¦¸à¦¨ à§İ
Ġà§® à§«à§«
Ġà¦ıà¦® à¦ıà¦¨
Ġà§¯ à§§à§¨
Ġà¦Ĺà§ľ à¦®
à§§à§¯ à§¨à§¨
à§§à§¯ à§¨à§§
Ġà¦ĩà¦² à¦¹
Ġst re
Ġà§¬à§® à§¬
à¦¾... à¥¤
Ġar ticle
Ġà¦ļà¦Łà¦ķ à¦¦
à¦¨ à¦¸à¦®à§Ł
Ġà¦ĵ à¦ıà¦²à¦ĩà¦¡
Ġ( @
à§© à§¨à§¦
à¦Ĩà¦ĩ à¦ĩà¦īà¦°
Ġà§Ń à§§à§¨
à¦«à¦¤ à¦°à¦ķ
Ġà¦°à¦ķà¦® à¦Ł
al f
is on
Ġresp ons
Ġ er
à¦Ł à§Łà¦²
à¦¶ à¦¥
Ġà¦¶ à¦°à¦¦
Ġà¦ĵ à¦Łà¦¸
Ġà¦ļ à¦°à¦¹
à¦« à¦īà¦²
à¦¿à¦Ĥ )à¥¤
à¦²à¦¨ à¦ļ
Ġà§Ń à§§à§¬
Ġà¦ıà¦® à¦Ĩà¦ĩà¦ıà¦¸
ÂłĊĊĊĊ Ċ
ĠÂ¯ à§ĩ
à¦¤ à¦¸à¦ļ
Ġà¦® à¦ĩà¦°
à¦ī à¦Łà¦ķ
Ġà¦¡ à¦²à¦¬
à¦¥à¦² à¦Ł
Ġà§¯à§¦ à§©
Ġà§«à§® à§Ń
Ġà§Ńà§¯ à§¯
Ġneed ed
Ġimport ance
à¦¾ ïģ¬
à¦°à¦¥à¦® à¦ľà¦¨
Ġà¦Ĩà¦Ľ à¦¡
Ġà¦ıà¦¸ à¦ıà¦®à¦ª
Ġà§¬ à§§à§®
te let
ĠÑĢÐ¶Ð¶ ÑĢÐ·ÐĹÑĢÐ¶Ð
S he
à¦¨ à¦Ĩà¦ª
à§Ł à¦ħà¦¨
à¦°à¦® à¦¸à¦¹
à¦¬à¦² à¦Ĺ
Ġà§§à§¯ à§¨à§ª
à¦°à¦¹à¦£ à¦ķà¦°
à¦ĩà¦ľ à¦Ĺ
Ġà¦Ĩà§ľ à§İ
ĠY es
Ġmeet ing
E x
à¦ª à¦²à¦¬
à¦Ľ à¦Ľ
à¦ĩà¦ľ à¦ĺ
à¦ªà¦¸ à¦Ł
Ġà§«à§Ń à§®
Ġhapp iness
telet alk
à¦¨ à¦ı
à¦¯ à¦²à§Ł
à¦¸à¦¬ à¦®
Ġà¦ıà¦¸ à¦ľ
à¦ĩà¦ī à¦ıà¦¸à¦ı
Ġm is
à¦¾à¥¤" "
à¦ıà¦ķà¦¦ à¦®
Ġà¦¤à¦¹ à¦¶
Ġrequ est
e v
à¦¿ à§į
à¦ĩ à¦¬à¦°
à¦²à§Ł à¦ªà§ľ
à¦¦à¦¸ à¦¨
à§§à§¯ à§§à§Ń
à§§à§Ń à§¦
ay um
Ġà§«à§Ń à§¯
Ġor d
Ġ à¥¤âĢĿ
à¦² à¦¸à¦²
à¦® à¦ľà¦¨
Ġà¦¬ à¦ĩà¦¸
Ġà¦® à¦ĸ
Ġà¦Ĺà¦łà¦¨ à¦¸à¦¹
à¦¾âĢĻ !
à¦¬à¦¤ à¦¶
Ġà¦²à¦¬à¦£ à¦ļ
Ġà¦ħà¦¦ à¦²à¦¬à¦¦à¦²
ĠB r
Ġdid n
Ġà¦¨à¦Łà¦° à¦¡
à¦Ł à¦°à¦¨
à§Ģ ...
Ġà¦¤ à¦ķà¦²
à¦ī à¦Ĩà¦ĩ
Ġà¦ħà¦ªà¦° à¦ªà¦ķ
à¦ķà¦® à¦ªà¦ķ
es p
à¦¨à¦ĵ à¦¶
à¦¬à¦Ł à¦¤à¦²
Ġth ird
Ġà¦®à¦°à¦£ à¦«
Ġpass eng
ÑĢÐ¶Ð¬ ÑĢÐ¶Ð¸
2 7
à¦° à¦īà¦ªà¦¸
à¦ķ à¦¸à¦ª
Ġà¦ī à¦Łà¦ª
Ġà¦Ĩà¦² à¦Ŀ
à¦ĩà¦ķ à¦¸
Ġà¦¸à¦° à¦²à¦°
à¦īà¦ľ à¦¬
à¦ªà¦¦ à¦Ł
Ġà¦Īà¦¦ à¦Ł
Ġto w
Ġà§«à§« à§§
im ary
Ġà§«à§¬ à§©
Ġà§«à§¯ à§©
Ġcl othes
Y ou
â ĺ
à¦¬ à¦¤à¦ķ
à¦Ł à¦²à¦®
Ġà¦¹ à¦®
Ġà¦Ĩà¦° à¦ĩà¦¬
à¦ĩà¦ľ à¦¬à¦¨
Ġf it
Ġà¦¯à¦¤ à¦ĸ
Ġà§Ńà§¦ à§Ń
ir ty
Ġà§¬à§¯ à§¬
à¦ıà¦®à¦ı à¦²à¦¸
ÑĢÐ¶Ð¾ ÑĢÐ·ÐĿÑĢÐ¶Ðº
à¦ķ à¦ķà¦²
à¦Ł à¦ªà¦¨
Ġà¦° à¦ī
à¦¼ à¦¾à¥¤âĢĻ
âĢĮ âĢĺ
.. ...
Ġà¦¸à¦¹à¦ľ à¦ª
Ġà§Ńà§¦ à§§
Ġà¦¸à¦¨à¦¦ à¦Ł
Ġà§ªà§Ń à§ª
Ġà§«à§® à§®
à¦¤à¦ķà¦°à¦£ à¦¸à¦¹
Ġà§¬à§¬ à§Ń
à§ĩà¦Ĥ à¥¤
à¦¿' à¥¤
Ġal tern
à¦°à¦¬à¦£ à¦¶à¦ķ
Ġà¦ıà¦®à¦ı à¦ıà¦ĩà¦ļ
? -
A C
à¦ª à¦¬à¦¦
Ġà¦ľà¦® à¦¶
à¦Ĺà¦łà¦¨ à¦¸à¦®
à§¨à§¦ à§¨à§«
aug h
à§ĩ Â¬
à§Ł à¦¥
à¦ĩ à¦ıà¦®
à¦ĵ à¦ıà¦®à¦ıà¦¸
à¦¬à¦² à¦ĵ
Ġà¦¨à§Ł à¦¤à¦²
Ġà¦ıà¦¨ à¦¹
à§§à§¯ à§¨à§¯
Ġs ense
Ġc ost
Ġto get
Ġà§«à§« à§¬
Ġà§«à§® à§§
sh ip
2 9
Ġ ïĥ
à¦¬ à¦«
à¦¶ à§Łà¦Ĺ
ĠâĢĺ #
à¦²à§Ł à¦¬
à¦ıà¦¨ à¦¡à¦¬
à¦ıà¦¨ à¦Ĩà¦°à¦¬
à¦ĩà¦² à¦Łà¦¦
Ġà§ªà§® à§©
Ġà¦Ī à¦¦à¦¸
Ġhe avy
Ġà§«à§© à§©
Ġà§¬à§Ń à§¨
à¦Ĩà¦²à¦® à¦¡
Ġunder stand
Ġtoget her
à¦ı à¦¤à¦ķ
Ġà¦Ł à¦¡
Ġà¦ıà¦¸ à¦ıà¦¸à¦ıà¦«
à§ĩà¦ģ à§Ĺ
à¦¤à¦°à¦£ à¦¸à¦¹
à¦īà¦¡ à¦¸
Ġà¦¬à¦¦ à¦¹à¦ľà¦®
Ġà§¯à§« à§¬
Ġà¦ľà¦Ĺ à§İà¦ķ
ĠL anguage
Ġmar ks
à¦¨ à¦ıà¦ķ
à¦® à¦ľà§Ł
à¦Ĺ à¦¥
Ġà¦ķà¦® à¦ķà¦°
Ġà¦¸à§ľà¦ķ à¦ĩ
à§§à§¯ à§©à§Ń
à§§à§¯ à§¬à§©
Ġà§ªà§¬ à§§
ĠÂ¯ à§į
Ġcult iv
Ġmin utes
Ġmus ic
à¦¦ à¦ĵà¦¯
âĢĻ à¥¤âĢĿ
Ġà§§à§ª à§¨à§«
à¦ľà¦² à¦¢
Ġc ent
Ġf ace
à¦ķà¦°à¦£ à¦ĵ
Ġà¦īà¦ªà¦ªà¦° à¦°
à§§à§© à§§
ĠâĢĶ ,
ĠM other
b a
à§ĭ âĢĻ-
Ġà¦ªà¦° à¦Ĺ
à¦ł à¦ľà¦¨à¦¦
à¦¼à¦¿ âĢĻ
à¦°à¦ĸ à¦¬à¦°
à¦ķà¦°à¦£ à¦¸à¦¹
à¦°à¦£à§Łà¦¨ à¦ķ
Ġà§Ńà§¬ à§«
Ġr ice
Ġdr ink
à¦¸ à¦ıà¦¸
Ġà¦¨ à¦²à¦ļ
Ġà¦¬à¦² à¦§
Ġà¦Ĩà¦° à¦ıà¦®à¦ª
Ġf reedom
as ing
le x
ot t
Ġà§Ńà§« à§«
Ġà§¯à§¯ à§Ń
Ġà¦ĩà¦īà¦ıà¦¸ à¦ıà¦¸
Ġ end
à¦°à¦£ à¦¦
Ġà¦¡ à¦¸à¦¨
à¦ħ à¦ªà¦¸
Ġà§Ń à§©à§®
Ġà¦¬à§ľ à¦ĸ
Ġà§§à§¯ à§§à§¯
Ġà¦Ĺà¦° à¦ľ
Ġb ro
Ġà¦¬à¦°à¦« à¦ķà¦²
à¦¤à¦¹ à¦ĵà§Ł
Ġfore ign
m oh
à§į âĢĻ
à¦¿à¥¤ ...
à¦¸à¦¨ à¦Ń
ÑĢÐ·Ð ·
or a
à¦¿. )
Ġà§«à§ª à§Ń
un ch
Ġà¦Łà¦ķ à¦Łà¦ķ
Ġvi ew
echn ology
u ge
à¦ī à¦ı
Ġà¦¸à¦¨ à¦¦à¦ª
Ġà¦Ĩà¦ª à¦¸à¦°à¦«
à§§à§¯ à§©à§®
Ġs l
à¦¿? âĢĿ
Ġà¦ıà¦ķà¦° à¦Ļ
ĠS omet
à¦ıà¦®à¦ĩ à¦ıà¦ķ
us b
u f
Â ·
à¦¦ à¦²à¦¬à¦¦à¦²
à¦Ĺ à¦®à¦¤
Ġà§« à§¨à§¬
Ġà§¬ à§§à§©
Ġà¦īà¦² à¦Ļ
à¦ĸà¦° à¦ŀ
Ġà¦ıà¦ķà¦¦ à¦«
com p
ĠEvery body
à¦° à¦īà¦ĩà¦ķ
à¦¡ à¦°à¦¹
à¦¼ âĢĻà¥¤
à¦¼à¦¾ ;
à§İ à¦®
à¦¥à¦² à¦®
Ġb al
à§§à§Ń à§¦à§¦
Ġà§®à§¦ à§®
Ġà§«à§ª à§®
Ġà§¬à§¬ à§«
âĢĭ à§ĩ
à¦Ńà¦¸ à¦¬à¦¨
à¦¦à¦ĸà¦² à¦¦
m at
à¦¨ à¦īà¦¡
à¦® à§Łà¦¤
à¦ª à¦Łà¦Ĺ
à§§à§¯ à§ªà§ª
à§§à§¨ à§Ń
à§§à§© à§¦à§¦
Ġl ight
Ġg ames
ĠS umm
Ġab le
Ġcol d
ÑĢÐ¶Ð¸ÑĢÐ·ÐĿÑĢÐ¶Ð ¶
Ġsy stem
Ġà¦¯ à¦¤à¦¨
à§ľ à¦¨à¦®
Ġà¦Ń à¦ľ
à¦ī à¦¸à¦Ł
à¦ıà¦¨ à¦ĩà¦¸
Ġà§¦ à§¦
ar b
ĠS uppose
à¦°à¦Ĩ à¦ĵà¦¤
ru ary
Ġcar ry
à¦° à¦¹à¦¤
Ġà¦¸ à¦¦à¦²
à¦¦ à¦¬à¦²
à§Ģ âĢĮ
Ġà¦¦ à¦¶à¦¬
Âł ĠÂłĠÂł
à¦®à¦ķ à¦¬
Ġà§® à§ªà§®
Ġà¦ıà¦® à¦Ĩà¦°à¦Ł
Ġt reat
à§§à§¯ à§¦
âĢĭ à¦¿
à¦¾âĢĿ ,
Ġà¦ľà¦²à¦° à¦Ļ
ÑĢÐ·ÐĹÑĢÐ¶Ð¸ ÑĢÐµÐ´
u ided
Ġà¦® à¦ĸà¦²
Ġà¦¨ à¦¶
à¦ļ à¦¬à¦°
à¦ı à¦®à¦¦
à¦°à¦® à¦¥
à¦²à¦ķ à¦¬à¦¹à¦°
Ġà§¬ à§ªà§«
à¦Ĺà¦łà¦¨ à¦ĩ
à¦Ĺà¦£ à¦¬
Ġf ell
ÂłÂłÂłÂłÂłÂłÂłÂłÂłÂłÂłÂłÂłÂłÂłÂł ÂłÂłÂłÂłÂł
ĠF eb
à¦¡à¦īà¦ĩà¦Ł à¦¥
l oy
à¦¯ à¦¸à¦¨
à¦¬à¦¨ à¦¦à¦°
Ġà§« à§¨à§ª
Ġs ir
Ġà§¬à§¦ à§Ń
Ġà§«à§Ń à§ª
à§į âĢĭ
à§Ł à¦ħà¦Ń
Ġà¦ª à¦¶à¦²
Ġà¦¦ à¦Ļ
Ġà¦¤ à¦ĵà¦¹
Ġà¦ıà¦² à¦ĵà¦¸
Ġà§« à§§à§®
Ġà§§à§¯ à§¨à§¨
à¦¸à¦Ń à¦Ļ
Ġs ol
us h
à¦īà¦¶à¦¨ à¦¸
ĠJ erry
han k
Ġswe et
à¦° à§Łà¦¨
à§§à§¯ à§ªà§©
à¦Łà¦¬à¦² à¦¬
à¦¤à¦¦ à¦¬
Ġb en
Ġà¦¸à§İ à¦¬
ĠÑĢÐ¶Ð¿ ÑĢÐ·ÐĹ
F ill
g o
g est
Ġà¦¨ à¦²à¦¬
à¦ļ à¦īà¦ķ
Ġà¦ī à¦ĩà§Ł
à§§à§¯ à§§à§ª
Ġà¦ĭà¦£ à¦ķ
Ġc y
Ġà§«à§¬ à§Ń
ÂłÂłÂłÂłÂłÂłÂłÂłÂłÂłÂłÂłÂłÂłÂłÂł ÂłÂł
Ġà§Ńà§¬ à§Ń
Ġtr y
à¦ıà¦®à¦ıà¦® à¦Ĩà¦°
ÑĢÐ¶ÐªÑĢÐ·ÐĿÑĢÐ¶Ð «
r at
à¦ĩ à¦®à¦ķ
à¦ı à¦®à¦¤
Ġà¦¹à¦ķ à¦ļà¦ķ
Ġà§ªà§Ń à§©
Ġà§«à§Ń à§§
à¦¬à¦²à¦¤ à¦®
ud e
Ġà¦¸à¦¹ à¦ľà¦¬
Ġà§¬ à§§à§¯
à¦ıà¦° à¦ĩà¦®à¦§
à¦ªà¦¦ à¦ª
Ġm aking
à¦ĩà¦ª à¦ľ
un t
Ġà§«à§¯ à§®
Ġà¦¬à¦°à¦® à¦ļ
à¦¿ }
à¦ļ à¦¶à¦®
à¦« à¦²à¦¤
à¦°à¦¬ à¦£à¦ª
à¦ªà¦¨ à¦ķà¦°
Ġà§®à§¦ à§§
il t
Ġà§ªà§® à§ª
Ġà§¬à§© à§ª
du ce
Ġcontr ib
ĠFeb ruary
T r
c ent
à¦·à¦£ à¦°
Ġà§¯ à§¨à§¬
à¦ıà¦® à¦ıà¦¬
ÑĢÐ¶Ð Ļ
à§§à§¯ à§¨à§®
à¦¬à¦® à¦¹à¦²
Ġch ar
ÑĢÐ¶Ð« ÑĢÐ¶
udden ly
à¦ĩ à¦¦à¦£
à¦°à¦ĩ à¦¤
Ġà¦¦à¦¶ à¦¦
ĠM e
à¦Ĩà¦ĩà¦ı à¦ıà¦¨à¦ıà¦¸
Ġcol lege
ele br
à¦ļ à¦®à¦¨
Ġà¦Ł à¦ĩà¦Łà¦®
à§Łà¦¨ à¦ªà¦¤
Ġà¦Ĺà¦¤ à¦®
à¦¯à¦ķ à¦ķ
à¦¤à¦¨ à§Ł
à¦¤à¦ķ à¦®
à¦ıà¦ķ à¦¸à¦®à¦¯
Ġin fl
Ġd ied
âķĽ ,
Ġn amed
à¦Ĩà¦ĩà¦ıà¦¨ à¦§
à¦¿âĢĿ ,
Ġbreak fast
/ )
Ġà¦¤ à¦°à¦£
à¦§ à¦°à¦®à¦ª
à¦¬à¦² à¦¦
Ġà¦ªà¦¥ à¦¨à¦ķà¦¶
Ġà¦Ĩà¦¹à¦¤ à¦ĵ
ÑĢÐ¶Ð µ
à¦Ĺà¦¦ à¦¤
Ġà¦¹à¦ľ à¦¸à¦¨
Ġà§¬à§« à§¬
Ġwrit er
Ġbeaut y
à¦ľ à§Łà¦¸
Ġà§§à§Ń à§¦à§¦
ar ia
à¦¡à¦Ń à¦£
O H
à¦Ł à¦°à¦¶
à¦ª à¦¸à¦ķ
à¦§ à¦ĸ
à¦¤à¦° à¦¯
à¦¶à¦ķ à§Ł
à¦Ĩà¦° à¦ıà¦®à¦ª
Ġà¦Ĩà¦ĩ à¦ıà¦«à¦ı
à¦ıà¦² à¦ıà¦¸
à¦°à¦ľà¦¨ à¦¸à¦¹
Ġm er
Ġà¦ĺà¦¨ à¦ĺà¦¨
Ġ2 2
ÑĢÐ¶Ð¦ ÑĢÐ¶Ð¸
Ġbeg in
l and
à¦¼à§ĩ !
Ġà¦ıà¦¨ à¦ı
Ġà§¬à§¦ à§©
Ġà§ªà§® à§¬
Ġà§¬à§« à§ª
ct ive
Ġà§Ńà§¯ à§¨
à¦¾... à¥¤âĢĻ
Ġinv ent
Ġpract ice
l ine
à¦ĺ à¦²à¦¦
Ġà¦ħà¦¸ à¦¤à¦¤
Ġà§¯ à§©à§«
à§§à§¯ à§©à§©
Ġf acebook
Ġh usb
Ġà§¬à§¦ à§ª
à§§à§© à§¨
Ġe ver
à¦¤à¦ľà¦¨ à¦ĩ
Ġà§Ńà§Ń à§¬
Ġfamil ies
3 4
n ed
à¦¨ à¦Ĩ
à¦¨ à¦ªà¦Ł
à¦ķ à¦ĺ
à§Ł à¦ħ
à¦ĩ à¦¸à¦ª
Ġà¦ķà¦° à¦Ń
à§Ī à¥¤
à¦¾à¥¤âĢĿ âĢĺ
Ġà§«à§Ń à§Ń
Ġà§¬à§® à§®
Ġne gative
à¦ķà¦ĸà¦¨ à¦ĵ
ÑĢÐ·ÐĹÑĢÐ¶Ð« ÑĢÐ¶
ĠBang la
v q
à¦Ń à¦ļ
à¦£ à¦²à¦¤
Ġà§§à§¯ à§§à§©
à¦łà¦ķ à¦Ĺ
à¦°à¦®à¦£ à¦ĩ
Ġd em
am id
à¦Łà¦ĸ à¦Ł
ag ong
Ġar t
ÑĢÐ¶Ð¸ÑĢÐ·ÐĿÑĢÐ¶Ð ¸
itt agong
ÂłÂłÂłÂłÂłÂłÂłÂłÂłÂłÂłÂłÂłÂłÂłÂłÂłÂłÂłÂłÂłÂłÂłÂłÂłÂłÂłÂłÂłÂłÂłÂłÂłÂłÂłÂłÂłÂłÂłÂłÂłÂłÂłÂłÂłÂłÂłÂłÂłÂłÂłÂłÂłÂłÂłÂłÂłÂłÂłÂłÂłÂłÂłÂł ÂłÂłÂłÂłÂłÂłÂłÂłÂłÂłÂłÂłÂłÂłÂłÂłÂłÂłÂłÂłÂłÂłÂłÂłÂłÂłÂłÂłÂłÂłÂłÂłÂłÂłÂłÂłÂłÂłÂłÂłÂłÂłÂłÂłÂłÂłÂłÂłÂłÂłÂłÂłÂłÂłÂłÂłÂłÂłÂłÂłÂłÂłÂłÂł
ĠIntern ational
g s
à¦ķ à¦īà¦¦
à¦ľà¦¨ à¦¯
Ġà¦Ĩà§Ł à¦°
à¦°à¦¹à¦£ à¦ĩ
Ġh ot
Ġh aving
Ġtr a
ob ile
Ġbl ess
à¦¨ à¦¦à¦¨
à¦² à¦Ĩà¦®
à¦ľ à¦®à¦ķ
Ġà¦ı à¦²à¦¨
Ġà¦¦à¦² à¦¸à¦®
à¦¤à¦¬ à¦Ń
à¦·à¦ķ à¦Ĺà¦£
à¦°à¦ľ à¦¬à¦°à¦¦à¦¸
Ġb ank
à¦ıà¦®à¦ıà¦¸ à¦ıà¦¨
Ġse ver
Ġget s
Ġà¦ľ à¦Ĺà¦ľ
Ġà¦ĩ à¦°à¦¨
à¦°à¦¸ à¦ľ
Ġà§¨à§¦ à§ªà§¦
Ġà§§à§¯ à§§à§¦
Ġà¦Ńà¦¬à¦¨ à¦¸
à¦īà¦ª à¦ªà¦°
à§§à§ª à§«
à¦Łà¦¬ à§ľ
Ġà¦Ĺà¦® à¦Ĺà¦®
Ġà§Ńà§Ń à§¨
Ġ2 5
Ġà¦ľà¦Ĺ à¦¦à¦²
ĠK han
ĉĉ čĉĉ
sh ah
à¦ĩà¦īà¦ıà¦¨ à¦ĵà¦°
Ġà¦®à¦ļ à¦®à¦ļ
à¦² à¦¡à¦¨
Ġà¦¨ à¦Ľà¦°
à¦ĸ à§Łà¦°
à¦« à¦Łà¦¸
à¦ĩà¦ķ à¦²
à¦ĩà¦² à¦ªà¦²
à¦·à¦ķ à¦¸à¦®
à§§à§¯ à§¨à§©
Ġà¦Ĩà¦ļà¦°à¦£ à¦ĵ
Ġà¦¯à¦¶ à¦ª
ĠT ag
à¦Ĩà¦ĩà¦¨ à¦Ĺà¦¤
Ġy esterday
Ġà§«à§ª à§¬
Ġà¦¬à¦¦ à¦Ń
à¦²à¦ªà¦¥ à¦Ł
Ġà§Ńà§ª à§ª
Ġà¦¸à¦¬à¦¸ à¦®à¦¯
à¦ķ à¦ķà¦¨
à¦¯ à¦¶à¦ķ
Ġà¦Ĩ à¦īà¦ļ
à¦Ń à¦¤
à¦¡ à¦ĵà¦®
Âł ĊĊ
à¦²à¦ķ à¦²à¦®
à¦¸à¦¹ à¦¬
à¦·à¦ķ à¦®
à¦®à¦ķ à¦¸
à¦Ĩà¦ĩ à¦Ĩà¦ĩà¦ıà¦¸à¦ıà¦¸
Ġà¦Ĩà¦ĩ à¦Ĩà¦ĩà¦Ł
à¦¤à¦ľ à¦Ĺà¦¤
à¦¬à¦ļ à§Łà¦¨
Ġà§¬à§« à§Ń
ĠP ut
ail s
à§ĭà¥¤âĢĿ âĢľ
aj or
Ġey es
4 7
à¦¨ à¦®à§Ł
à§Łà¦ķ à¦¸à¦¹
à¦Ĺà¦® à¦ª
Ġà¦ķà¦¤ à¦Ń
à§¨à§© à§¦à§¦
Ġà¦Ĭ à¦¨à¦¸à¦¤
Ġst ill
Ġà¦ķà¦®à¦¬ à§Łà¦¸
Ġà¦ķà¦°à¦® à¦ľà¦²
Ġtele vision
Ġà¦°à¦ī à¦«à¦ķ
à§ĭ âĢĿ
Ġà¦ī à¦ĩà¦ľ
Ġà¦Ľ à¦²à¦¨
Ġà¦Ĩà¦° à¦ıà¦¨
âĢĶ âĢĶ
à¦¸à¦ļ à¦°
à¦ļà¦ķ à¦ĩ
à¦Ĺà¦² à¦ĵ
Ġs end
Ġm id
ot s
Ġ1 00
Ġà§¬à§© à§§
Ġà§Ńà§¯ à§«
Ġ5 0
à¦Ĩà¦°à¦¨ à¦²
à¦¨ à¦Ĩà¦¬
à¦ķ à¦®à¦°
Ġà¦Ł à¦ªà¦Ł
à¦Ĩ à¦·
Ġà¦īà¦¦ à§Łà¦ª
à¦°à¦Ń à¦¦
à¦¹à¦² à¦®
à¦¯à¦¤ à¦¦
Ġc re
Ġm ark
ĠS m
Ġà§«à§© à§¯
, '
à¦° à¦¥à¦²
à¦ķà¦° à¦ĵ
à¦ıà¦¨ à¦Ń
Ġà§Ń à§¨à§¨
Ġà¦ıà¦® à¦ıà¦¸à¦ıà¦¨
à¦·à¦¦ à¦ĵ
à¦ıà¦ķ à¦ª
à§§à§¯ à§§à§¨
Ġc over
ĠThe se
à¦Ńà§İà¦¸ à¦¤
à§¨à§¦ à§©à§§
Ġà¦¸à¦¨à¦¦ à¦§
Ġre ached
ÂłÂłÂłÂłÂłÂłÂłÂłÂłÂłÂłÂłÂłÂłÂłÂł ÂłÂłÂłÂłÂłÂłÂłÂłÂłÂłÂł
Ġà§¯à§¬ à§«
u h
Ġà¦¤ à¦¸à¦°
Ġà¦¬à¦² à¦¨
Ġà¦ľà¦¨ à¦ĺà¦¨à¦¤
à¦¸à¦ķ à¦¦à¦²
à¦ĩà¦Ł à¦ª
à¦īà¦² à¦¶
Ġà¦Īà¦¦ à¦¬
à¦¦à¦® à¦¯
à¦īà¦ª à¦¸à¦ļ
Ġm atter
Ġà§«à§Ń à§¬
Ġfor get
Ġà§®à§¯ à§«
ik at
à§ĩ' à¥¤
Ġang ry
- à¦¾
Ġà¦¹ à¦°à¦²
Ġà¦² à¦¯
à¦¨à¦Ł à¦°
à¦¸à¦° à¦Ł
Ġà§§à§Ń à§«à§Ń
Ġf ast
à§§à§¨ à§¯
à¦ķà¦¶à¦¨ à¦Ł
Ġar ticles
Ġregular ly
Ġhist ory
c a
à¦ª à¦¸à¦¦
Ġà¦¹ à¦ľà¦ķ
à¦Ń à¦¨à¦°
à¦« à¦ĩ
Ġà¦ĩ à¦²à¦¨
Ġà¦ĺ à¦°à¦Ń
à¦¸à¦¹ à¦¸à¦Ń
Ġà§¬ à§¨à§©
Ġà§¬ à§¨à§Ń
Ġà¦Ĩà¦ĸ à¦®
Ġà§¬à§Ń à§ª
Ġpro cess
igh b
à¦Ĩà¦²à¦¬ à¦¦à¦°
Ġeas y
à¦ĩà¦¨ à¦ĩ
à¦°à¦¹ à¦Ĺ
Ġà¦ıà¦ķà¦ľà¦¨ à¦¸à¦¹
à¦¹à¦¬ à¦¹
ÑĢÐ¶Ð ĸ
Ġà§¬à§ª à§¯
à¦¨à¦¶à¦¨ à¦Ń
app y
Ġide as
o id
à§ĩ ..
à¦² à¦¸à¦°
à§Ł à¦ªà¦¤
à¦Ľ à¦ĸ
à¦ħ à¦ĸ
à¦«à¦² à¦ĩ
Ġs ource
à¦¦à§Ł à¦Ń
Ġà§«à§¯ à§§
à¦īà¦¥ à¦ĵà§Ł
ĠÂłĠÂłĠÂłĠÂł ĠÂł
ure d
Com p
Ġà¦Ĩà¦ĩà¦ĩ à¦ıà¦²à¦Ł
c ious
à¦¶ à¦Ĺà¦²
Ġà¦ıà¦ĩ à¦Ĺ
à¦Ĩ à¦¦à¦¨
Ġà¦ĵà¦ĩ à¦¸à¦®à§Ł
Ġf ond
it zy
Ġà¦®à¦¶ à¦ķà¦°
ÂłÂłÂłÂłÂłÂłÂłÂłÂłÂłÂłÂłÂłÂłÂłÂł ÂłÂłÂł
Ġget ting
ash i
Ġrel ig
P A
p ing
Ġà¦ķ à¦ĩà§Ł
à¦¥ à¦¦à¦¨
à¦²à¦ķ à¦®à¦²
à¦Ŀ à¦°à¦¨
Ġà§Ń à§¨à§§
Ġà¦ıà¦® à¦ĵà¦ª
à¦ıà¦ĩà¦ļ à¦ıà¦²
à§§à§¨ à§¬
à§§à§® à§ªà§¦
à§§à§Ń à§«
à§ĩ! âĢĿ
Ġà§Ńà§ª à§¯
à¦ĩà¦²à¦«à¦²à¦ķ à¦Ł
ĠÑĢÐ¶Ð¶ ÑĢÐ·ÐĹÑĢÐ¶
f r
w ay
Ġ ĊĊĊĊĊĠ
à¦¨ à¦Ĩà¦Ĺ
à§Ł à¦¬à¦°
à¦ľ à¦Ĺà¦£
à¦ĩ à¦ªà¦¥
à¦ĩ à¦Ĩà¦°à¦ıà¦«
Ġà¦ªà¦° à¦ĵà§Ł
à¦ķà¦Ł à¦Ł
à¦¸à¦¨ à¦Ĺà¦°
Ġà¦¨à§Ł à¦®
à¦īà¦² à¦«
à¦¾. )à¥¤
à¦ıà¦ĩà¦ļ à¦ıà¦¨
à¦Ĺà¦ł à¦¨à¦¬
Ġà§¬à§ª à§ª
Ġà§Ńà§© à§¯
Ġà§¯à§® à§ª
à¦°à¦²à§Ł à¦Ļ
à¦¨ à¦Ĩà¦¦
à¦Ł à¦°à¦ĵ
à¦Ł à¦ľà§Ł
Ġà¦ħ à¦¥à¦ĩ
Ġà¦ĩ à¦Ĩà¦°à¦ıà¦«
à¦¿à¦Ĥ !
à¦²à¦ķ à¦°à¦£
à¦Łà¦ķ à¦ĵ
Ġs low
Ġh ig
à§§à§© à§Ń
em pl
ĠÑĢÐ¶Ð¬ ÑĢÐ¶Ð¸ÑĢÐ·ÐĿÑĢÐ¶Ð¿
A l
à¦ľ à¦ħà¦°
Ġà¦ĸ à¦Łà¦ĸà¦Ł
Ġà§¯ à§§à§¯
Ġà§¯ à§ªà§¨
Ġt ired
Ġà¦¤à¦° à¦ľà¦®
à§ĩ? âĢľ
à¦Ĩà¦ľ à¦¬
à§§à§® à§©à§¦
à§§à§© à§ª
âĢį +
Ġà§ªà§Ń à§¯
Ġà¦«à¦Łà¦ķ à¦Ł
ĠP h
à¦īà¦ıà¦ĩà¦ļ à¦ĵà¦°
ĠY our
ĠCom plete
Ġà¦¥à¦ĩ à¦¥à¦ĩ
Ġgrou p
Ġà¦° à¦¬à¦¸à¦¨
Ġà¦Ń à¦°à¦¬
Ġà§Ń à§¨à§®
Ġà¦¬à¦ķ à¦ļà¦°
Ġà§§à§¯ à§§à§¨
à¦ķà¦¨ à¦¹
Ġà§§à§ª à§¨à§¬
à§§à§© à§¬
Ġst ru
Ġbe ar
Ġà§®à§Ń à§¨
ain a
ĠG ames
Ġà¦¦à¦¶à¦° à¦¥
à¦ľ à¦¬à¦¸
Ġà¦Ĺ à¦²à¦¤
Ġà¦¥ à¦®à¦¸à¦¨
à¦ī à§ľà¦¤
Ġà¦¨à§Ł à¦Ľà§Ł
Ġà§¯ à§§à§«
Ġà¦¶à¦¹ à¦°à¦®
à§§à§¯ à§§à§©
à¦¬à¦ľà¦¨ à¦¬
Ġà¦ħà¦ªà¦¹à¦°à¦£ à¦¸à¦¹
Ġg reen
ĠW ater
ak h
ĠC ap
à§¨à§¯ à§¦
ĠF itzy
Ġpo in
w rite
à¦¸ à¦°à¦¸
à¦¦ à¦ľà¦¨à¦¨
à¦Ł à¦¸à¦¨à¦ķ
à§ĩà¥¤ .
Ġà¦² à¦Ĺà¦¨
à¦ī à¦¥à¦Ĺ
âĢĻ ...
à¦¬à¦¨ à¦¶
à¦¨à¦¬ à¦¶
Ġà§® à§§à§ª
Ġà§§à§¯ à§¨à§Ń
à¦łà¦ķ à¦ĸ
Ġc ertain
Ġk il
Ġsh ip
ess ion
à¦¤à¦ĸà¦¨ à¦ķ
Ġà¦ľà§Łà¦° à¦¥
à¦¸ à¦ıà¦²
Ġà¦¬ à¦īà¦®
à¦¯ à¦¡
à¦¹ à¦²à¦ķ
Ġà¦ľ à¦®à¦¸
à¦ļ à¦ķà¦¤
à¦°à¦¤ à¦ªà¦ķ
à¦ķà¦° à¦¸
Ġà§¯ à§¨à§§
à§Łà¦® à¦ĩ
Ġw ise
Ġf alse
Ġà¦¯à¦¤ à¦ľà¦¨
Ġà§¬à§ª à§®
ĠR earrange
og n
goo gle
à§ľà¦« à§ľ
Ġmag ic
Ġà¦īà§İ à¦ķà¦¨
Ġà¦«à¦° à¦ĵà§Ł
Ġb ab
ĠB ay
ĠB azar
Ġà§®à§ª à§¬
Ġà¦ĸà¦ļ à¦ĸà¦ļ
Ġà¦¬ à¦¸à¦ķ
à¦°à¦¤ à¦ª
à§ĩà¦¾ )à¥¤
à¦ķà¦° à¦¶
à§§à§® à§«à§«
as ons
ĠN a
à¦ıà¦¨à¦Ĩà¦ĩ à¦ıà¦ĩà¦ļ
ÑĢÐ·ÐĹÑĢÐ¶Ð« ÑĢÐ·ÐĹ
pport un
Ċ ÂłÂłÂł
à§ ´
à¦¨ à¦Ĩà¦¨
Ġà¦īà¦ª à¦¢
à§ĭà¥¤ *
à¦łà¦ķ à¦¸
Ġa uth
Ġs ick
iv ing
Ġe qu
Ġà¦Ķ à¦°
Ġcomp an
ĠU N
Ġcro ps
s ide
à¦° à¦Ĺà¦°
à§ģ âĢĺ
à¦Ĺ à¦¨à¦Ĺà¦°
Ġà¦¶ à¦°à¦¨
à¦£ à¦ªà¦ķ
Ġà¦ħà¦¨ à¦®
Ġà¦Ĩà¦° à¦²
à¦Ĩ à¦¤à¦²
Ġà¦Ĩà¦² à¦ª
à¦¬à¦¨ à¦°à¦¹à¦¸
Ġà¦ĩà¦¨ à¦Ńà§Ł
à¦¨à¦¬ à¦Ĺà¦ł
à¦ªà¦¸ à¦ĩ
Ġc ause
à§ĩ) :
Ġà¦¸à¦¨à¦¦ à¦ĵ
ĠM on
Ġà§¬à§® à§Ń
à¦Ŀà¦² à¦®à¦²
Ġacc ording
duc ation
S p
l im
u ff
à¦¾ "
à¦¬ à¦Łà¦Ĺ
Ġà¦¸ à¦ķà¦°
à¦Ĺ à¦Ĩ
Ġà¦Ĺ à¦Ľ
Ġà¦Ń à¦¬à¦¤
à¦ı à¦ıà¦¡
Ġà¦ĩ à¦¡à¦¬
à§Ĥ à§Ĥ
à¦°à¦¹ à¦ª
à¦ªà¦¦ à¦¯
Ġà¦ıà¦¨ à¦ıà¦¸à¦ľ
Ġà¦ıà¦¨ à¦ıà¦ĩà¦ļà¦ķ
Ġà§§à§© à§¨à§¦
Ġà¦ľà¦¨à¦Ĺà¦£ à¦¨
Ġc elebr
tr act
à¦¨ à¦Ĩà¦°
à¦ķ à¦īà¦¡
à¦¤ à¦¸à¦®à¦¯
Ġà¦¨ à¦¬à¦¦
à¦Ĺ à¦ªà¦¥
à§ĥ âĢĮ
Ġà¦Ĩà¦¸ à¦¹
à¦¬à¦ķ à¦ĩ
Ġà§Ń à§§à§©
à§§à§§ à§¦à§¦
ĠC ox
Ġà§Ńà§¬ à§§
Ġr is
ish ore
sp er
b i
à¦ĩ à¦¶à¦ª
âĢĻ âĢĺ
à¦Ĩ à¦°à¦¶
à¦¹à¦® à§Ł
Ġà¦ł à¦¨
à§ĭà¥¤ âĢĺ
à¦ĩà¦¬ à¦Ľà¦°
Ġà¦Ĳ à¦¹
ns een
ĠP l
ag h
ject ive
Ġnew spaper
ÑĢÐ¶Ð« ÑĢÐ·ÐĹ
Ġmil k
à¦¸ à¦ĸà¦¨
Ġà¦ı à¦Ļ
à¦ĩ à¦¦à¦ķ
à¦ı à¦¯
Ġà¦ĩ à¦Ĩà¦°
Ġà¦§ à§ľà¦«à§ľ
à¦¬à¦¨ à¦ļà¦ķ
à¦°à¦ĵ à¦¬
Ġà¦Ĩà¦¹ à¦ķ
Ġo pportun
Ġb es
el a
Ġà¦ħà¦¬à¦¨ à¦®
Ġle ave
à§Ńà§Ń à§Ń
ÑĢÐ·ÐĿÑĢÐ¶Ð¿ ÑĢÐ¶Ð¼ÑĢÐ¶
à¦ĩà¦ĩ à¦ĩ
Wh y
ĠSomet imes
à¦® à¦°à¦¸à¦®
à¦¯ à¦ļà¦ķ
à¦¯ à¦ħà¦§
Ġà¦ı à¦¥à¦¨
Ġà¦¸à¦® à¦²
Ġà¦² à¦¹à¦°
à¦ı à¦ıà¦ĩà¦ļà¦¡
Ġà¦ĺ à¦°à¦¦
Ġà¦ķà¦¥ à¦ķ
Ġà¦ħà¦¬ à¦Ĺ
à¦¬à¦¬ à¦²
à¦·à¦ķ à¦¦à¦²
Ġà¦ķà¦² à¦Ł
Ġà§® à§§à§¨
à§§à§¯ à§¨à§ª
à¦Łà¦¬à¦² à¦ĵ
Ġm s
ĠM ita
ÂłÂłÂłÂłÂłÂłÂłÂłÂłÂłÂłÂłÂłÂłÂłÂł ÂłÂłÂłÂł
od ay
Ġanswer s
à¦«à¦« à¦°à¦¨à¦Ĺà¦°
Ġmonth s
Ġindepend ence
Ġà¦Ĩà¦īà¦ļ à¦ª
m on
o es
à¦¯ à§İà¦ķ
Ġà¦¹ à¦«à¦®
Ġà¦ĩ à¦²à¦¦
à¦¾à¥¤ -
à¦Łà¦¨ à¦²
à¦Łà¦ķ à¦°à¦£
Ġà¦¬à¦¨ à¦§
Ġà§§à§¯ à§¨à§©
Ġà§§à§ª à§¨à§©
à§§à§¯ à§¨à§Ń
Ġf av
ĠT an
Ġà§«à§¬ à§¨
Ġà§«à§¯ à§¨
à§ĭâĢĻ âĢĶ
ĠCh ittagong
Ġà¦ıà¦®à¦ıà¦² à¦ı
Ġent er
f b
i ar
à¦² à¦ĸà¦°
à¦Ł à¦īà¦¡
à¦ľ à¦®à¦¨
Ġà¦Ĺ à¦¨à¦ľ
à¦ī à¦ıà¦«
Ġà¦« à¦¡
à¦Ĩ à¦Ń
Ġà¦ıà¦° à¦°
Ġà¦¬à¦¨ à¦°à¦ķ
à¦¦à¦² à¦ĵ
à§§à§¯ à§§à§¯
ar ing
Ġà§Ńà§® à§®
ff irmative
à¦¬à¦¹à¦¤ à¦®
Ġben ef
Ġinfl u
p es
à¦® à¦¸à¦¨à¦ķ
à¦¥ à¦¤à¦²
à¦°à¦§ à¦¸
à¥¤âĢĿ âĢĻ
à¦¥à¦ķ à¦·
Ġà¦ĭà¦£ à¦¸à¦¹
Ġà¦¯à¦¤ Åĵ
Ġd in
Ġà§Ńà§¦ à§®
Ġe ight
Ġà§«à§¯ à§Ń
Ġà§¯à§« à§Ń
Ġbl ood
Ġact ive
2 6
Ġà¦¹ à¦«
à¦ĩ à¦¶à¦ķ
à¦¸à¦® à§Łà¦¸
Ġà§§à§¯ à§§à§«
à§ĭà¦ģ à¥¤
Ġs ens
Ġà¦¹à¦°à¦¦ à¦®
Ġ est
à¦¯ à¦¸à¦¹à¦ķ
Ġt er
à¦ķà¦¶ à¦¤
er gy
à¦Ī à¦«
Ġà§Ńà§¯ à§®
Ġà§¯à§® à§«
P ositive
Â °
à¦° à¦ıà¦¸à¦Ĩà¦ĩ
à¦ķ à¦¸à¦®à§Ł
Ġà¦¹ à§ľà¦ķ
Ġà¦ĸ à¦¯
à¦¦à¦° à¦ĵ
Ġà¦ıà¦¸ à¦Ĩà¦ĩà¦ķ
à¦¸à¦° à¦«à¦°
à¦ĺà¦° à¦Ĺ
Ġà¦ħà¦ķ à¦¸
à§§à§« à§§
AR T
Ġtra ffic
7 0
g v
x i
à¦¶ à¦°à¦ķ
à¦²à¦ķ à¦¥
Ġb ur
Ġà§«à§¯ à§¬
Ġà§¯à§« à§¨
à¦Ĩà§Ł à¦°à¦¨
Ġun t
Ġpr om
à¦¾?âĢĻ âĢĺ
à¦¨ à¦¸à¦¬
à¦Ĺ à§İ
à¦Ń à¦ķà¦°
Ġà¦Ĩà¦¨ à¦Ł
à¦Łà¦ķ à¦ıà¦ķ
Ġà§Ń à§¨à§ª
Ġà§® à§©à§¨
à¦Ĺà¦ľ à¦Ĺ
ĠT V
ash ir
ron ic
Ġsurpr ised
Ġaltern atives
4 0
5 6
b l
à¦¿ Â¡
à¦¤ à¦ļà¦²
à¦¤ à¦ªà¦¥
à¦ł à¦ªà¦Ł
à¦¼à§ĩ ?
à¦¾- -
à¦²à¦¬ à¦ŀ
Ġà¦īà§İ à¦°
Ġin cl
Ġà§Ńà§¦ à§¨
Ġà§«à§¬ à§¯
Ġà§Ńà§¬ à§¯
ĠN as
ĠN oun
Ġà¦ħà¦²à¦¸ à¦¤
ĠÑĢÐ¶Ð¾ ÑĢÐ¶Ð·ÑĢÐ·ÐĿÑĢÐ¶Ð¿
à¦¨ à¦¸à¦ª
à¦® à¦ĩà¦²
à¦ı à¦Ĩà¦ĩà¦ĩà¦īà¦¬
à¦ī à¦ĩà¦²à¦¸
à¦ķà¦¬ à¦¹
Ġà§® à§¨à§¨
Ġc at
Ġn et
Ġà§¬à§® à§¨
Ġà§¬à§® à§©
Ġà¦®à¦ĩà¦¨ à¦īà¦¦
Ġà§Ńà§ª à§§
Ġfill ing
Ġsuffer ing
d i
Ġà¦ī à¦®à¦¤
Ġà¦ıà¦ĩ à¦¨
Ġà¦Ĩà¦² à¦¦
à¦ªà¦ķ à¦®
à¦ıà¦¸ à¦ıà¦°
Ġà§Ń à§§à§ª
à¦§à¦¨ à¦ĩ
Ġà§§à§¯ à§¦à§®
à¦ĩà¦Ń à¦ľ
Ġà§¬à§¦ à§¯
ĠH a
Ġà§®à§¯ à§¯
Ġletter s
Ġdevelop ed
ÑĢÐ¶Ð¿ ÑĢÐ·ÐĽÑĢÐ¶Ð§
s c
t ion
à¦° à¦ħà¦ª
à¦¨ à¦²à¦ķ
Ġà¦® à¦Ľ
Ġà¦® à¦ļà¦ķ
à¦Ĺ à¦°à¦¬
à¦ĩ à¦ªà¦Ł
Ġà¦¶ à¦£
à¦ı à¦ķà¦²
Ġà¦ĩ à¦ĵà§Ł
à§Ĥ ,
Ġà¦¸à¦¹ à¦¦
Ġà¦ħà¦¬ à¦ļà§Ł
Ġt urn
à¦īà¦¦ à¦¯
à§¨à§¦ à§ªà§¦
Ġs ide
in st
Ġe m
Ġà§¯à§¯ à§«
Ġv irt
ĠR ight
à¦ĩà¦¨à¦« à¦°à¦®
Ġbec om
Ġlook ing
Ġcontin u
Ġà¦¸à¦¦à¦² à¦¬à¦²
Ġà¦ı à¦°à¦ķ
à¦¼ )à¥¤
Ġà¦ıà¦ķ à¦¸à¦®à§Łà¦ķ
à¦¿à¥¤ ''
à¦®à¦¤ à¦ĩ
à¦ıà¦« à¦ľ
à¦°à¦ķà¦® à¦ĩ
Ġare as
Ġà§Ńà§© à§©
à¦°à¦¹à¦¸à¦¨ à¦®
pl ay
ater ial
à¦Ĩà¦°à¦ĩ à¦īà¦°
amm ad
Ġcontr ol
à¦¶ à¦Ĺà¦¤à¦Ń
à¦¡ à¦ķà¦°
Ġà¦ĩ à¦°à¦¤
Ġà¦ĩ à¦°à¦®
à¦¬à¦¨ à¦ļ
Ġà¦ķà¦® à¦¦
Ġà¦ıà¦¸ à¦Ľ
Ġà§Ń à§§à§§
Ġà¦ıà¦¨ à¦ĵà¦¸
Ġà¦Ĩà¦ĩ à¦¸à¦¨
Ġiii à¦¸à¦ł
Ġà§¬à§ª à§¬
à¦ıà¦¸à¦ıà¦® à¦ı
Ġà§®à§¬ à§Ń
our ces
à¦° à¦ıà¦ķà¦ľà¦¨
à¦Ł à¦°à¦ª
à¦ī à¦¸à¦¹
Ġà¦Ĩà¦² à¦ķà¦°à¦£
à¦·à¦£ à¦ķà¦°
Ġà§¯ à§¨à§©
Ġw ife
Ġh uge
ĠÑĢÐ¶Ð ¨
ro ve
Ġst ation
Ġà§Ńà§¬ à§©
Ġr ound
Ġne ighb
cl amat
Ġincre asing
à¦ļ à¦«à¦²à¦¨
Ġà¦¬à¦¨ à¦Ł
Ġà¦®à¦¹ à¦¦
à¦ĩà¦ķ à¦¯
à¦°à¦ª à¦¬à¦ķ
Ġà§Ń à§©à§¨
Ġà§® à§©à§ª
à¦ĩà¦¡ à¦Ĺ
Ġm om
Ġà§¬à§« à§®
Ġà§«à§¬ à§ª
Ġà§¬à§© à§¬
ab l
Ġà§®à§Ń à§©
âĢļ à¦ģ
ys elf
tw itter
j un
Ġà¦ķ à¦ľ
Ġà¦¡ à¦ķà¦Ł
à¦ĺ à¦¤à¦°
à¦ªà¦¨ à¦¸à¦°à¦¶
à¦ħ à¦¬à¦®
à¦ªà¦¦ à¦ĩ
Ġà¦Ĩà¦ĩ à¦ıà¦¨à¦ıà¦¸
Ġà§§à§® à§¯à§¦
à§§à§¯ à§§à§¬
à§§à§« à§ª
ĠS w
à¦®à¦Ľ à¦®
Ġun ivers
Ġà¦¤à¦« à¦¶
Ġà¦¬à¦ľà¦° à¦Ļ
Ġà¦¹à¦ĩà¦¹ à¦ĩ
Ġap pl
à¦ķ à¦Ĺà¦¤
à¦Ł à¦¤à¦®
à§Ģ !âĢĻ
âĢ ı
Ġà¦ĸ à¦Ł
à¦°à¦¬ à¦¬
à§§à§¯ à§§à§§
à§§à§¯ à§¦à§«
is ure
if ferent
ĠD ec
ĠÑĢÐ¶ÐŁ ÑĢÐ¶ÐĹ
Ġexam ple
clamat ory
k e
Ġà¦®à¦¨ à¦¶
à¦²à¦¨ à¦²à¦ļ
à¦ªà¦ķ à¦¸
Ġt alk
à¦Ńà¦¬ à¦ĩ
Ġm ess
Ġm ountain
Ġà§¯à§¦ à§ª
Ġà§«à§® à§ª
à¦¤à¦ĸà¦¨ à¦ĩ
ĠTh at
Ġmean ings
9 9
g n
Ġà¦¸ à¦²à¦¤
Ġà¦¹ à¦ķà¦¦
à¦¾à¥¤ ''
Ġà¦¸à¦®à§Ł à¦¤
à¦¦à¦ķ à¦ª
à¦Ĩà¦² à¦¹
ĠÑĢÐ¶Ð ¦ÑĢÐ¶
Ġà§®à§¦ à§¨
Ġà¦«à¦°à¦® à¦Ł
à¦¦à¦°à¦¬à¦¨ à¦¸
Ġà§Ńà§ª à§¬
Ġà§Ńà§¯ à§©
Ġà§®à§¯ à§¨
Ġcl os
Ġà¦ıà¦«à¦ı à¦ĵ
à¦¬ à¦Łà¦ķ
Ġà¦¨ à¦®à¦¸
à¦ľà¦¨ à¦¬à¦²
à¦ªà¦° à¦ĩ
à§İ à¦ĵ
à¦²à¦¤ à¦®
à¦®à¦¸ à¦Ń
à¦¨à¦¬ à¦¹à¦°
à¦¬à¦¤ à¦¸
à¦²à¦ª à¦¡
Ġà¦Łà¦¨ à¦Łà¦¨
us s
Ġ, ,
à¦ıà¦ıà¦« à¦ı
ĠMr s
ĠSa ikat
Ġemp loy
ĠTrans formation
ĠTw o
A r
Ġ ÂłÂłÂłÂłÂłÂłÂłÂłÂłÂłÂł
à¦¨ à¦Ĩà¦ªà¦¨
à¦ķ à§Łà¦°
à¦£ à¦§à¦°
Ġà¦¸à¦® à¦ŀ
Ġà¦¨à§Ł à¦¶
à¦¨à¦ķ à¦®
Ġà§¯ à§§à§®
à¦¿- -
Ġf ishes
Ġin stitution
čč ĉĉčĉĉ
tr l
ÃĲ à¦²
Â¦ à¦¾
ĠCol lege
ĠAm er
ččĉĉčĉĉ čĉĉ
à¦· à¦°à¦ĵ
Ġà¦ļ à¦°à¦²
à¦®à¦¨ à¦¦
à¦ıà¦¨ à¦°
Ġà¦¬à¦ķ à¦°à¦ķ
à§§à§¯ à§©à§§
re l
Ġg roc
ĠH ere
Ġà§¬à§ª à§Ń
ver ty
Ġà§¬à§¬ à§©
ce ed
Ġà¦¨à§Łà¦¨ à¦ª
Ġme mb
Ġpo verty
ĠÑĢÐ¶Ð¥ÑĢÐ·ÐĽ ÑĢÐ¶Ð¸ÑĢÐ·ÐĽ
Ġmemb ers
2 8
3 3
à¦¨ à¦Ĩà¦¤
à¦¸ à¦¯à¦¨
à¦ª à¦¬à¦¨
Ġà¦ħà¦ªà¦° à¦ļ
Ġà¦ľà¦² à¦§
Ġr ise
ÑĢÐ¶Ð¥ ÑĢÐ·ÐĹÑĢÐ¶
à¥¤# ##
Ġap art
Ġkil omet
à¦¸ à¦ªà¦°
à¦Ł à¦ĺà¦°
Ġà¦Ĩ à¦ªà¦ķ
à¦¬à¦° à¦Ń
Ġà¦¸à¦° à¦ľà¦®
à§¨à§¦ à§©à§«
Ġà¦Ľà§Ł à¦ľà¦¨à¦ĩ
à¦¤à¦² à¦Ĺ
Ġs ave
Ġc ities
Ġb ought
Ġà¦Ĩà§ľ à¦·
Ġl im
Ġl aw
Ġà§®à§® à§¯
Ġknow s
à¦°à¦Ĩ à¦ĸà§ľ
Ġdest ro
) /
A ffirmative
l het
à¦¯ à¦¦à¦°
à¦°à¦£ à¦¬à¦¶à¦¤
à¦ħ à¦¦à¦®
Ġà¦ĩà¦¨ à¦«à¦°
à¦ĩà¦Ł à¦¸à¦¹
Ġà¦¬à¦ķ à¦Ľ
à¦¼à¥¤ âĢĺ
à¦®à§Ł à¦®
à¦¬à¦¹à¦¨ à¦ĵ
Ġf il
Ġà§®à§¦ à§©
à¦¨à¦Ľ à¦¡
Ġà§Ńà§© à§ª
Ġà§®à§ª à§©
ÑĢÐ¶Ð¥ ÑĢÐ·ÐĿÑĢÐ¶Ð´ÑĢÐ¶
Ġà¦Ńà¦Ĺ à¦¬à¦¤
à¦ıà¦¸à¦ıà¦®à¦ıà¦®à¦ĩà¦ī à§Ł
Ġà§¦à§§à§Ń à§§à§©
igh ter
Ġâķ ¨
w here
à¦ķ à¦®à§Ł
à¦¤ à¦¬à¦¨
à§Ł à¦¤à¦°
Ġà¦¨ à§ľà¦¤
à¦Ĺ à¦¬à¦¤
à¦ı à¦¥
à¦°à¦¥à¦® à¦¸
à¦ħ à¦¸à¦®à§Ł
Ġb o
à¦¸à¦®à§Ł à¦®à¦¤
Ġà§Ńà§¦ à§¯
ĠS ent
Ġà§Ńà§® à§¨
Ġà§Ńà§© à§§
Ġle vel
Ġno ble
Ġà¦Łà¦² à¦®à¦²
à§Łà¦« à¦°à¦¨à¦Ĺà¦°
Ġà¦ħ à¦ĸà¦¨
Ġà¦ıà¦¬ à¦¤
à¦®à¦¤ à¦¤
Ġà¦Ĩà¦ľ à¦ĵà§Ł
à¦Ĩà¦ĩ à¦ıà¦®à¦ĵ
à¦¬à¦¹ à¦Ń
à¦ªà§ľ à¦¶
à¦ªà§ľ à¦ĵ
à§§à§ª à§§
Ġà§¬à§® à§§
Ġà§®à§« à§Ń
ĠÑĢÐ¶Ðķ ÑĢÐ¶Ð¸ÑĢÐ·ÐĹ
à¦ļà¦«à¦²à¦¨ à¦¶
. )à¥¤
à¦¤ à¦īà¦¤
à¦¬ à¦§à¦°
Ġà¦¸à¦® à¦§
Ġà¦¸à§ľà¦ķ à¦ķ
ÑĢÐ¶Ð ½
à¦ĩà¦¡ à¦ķ
Ġs ince
à§§à§« à§©
or ry
Ġm ention
ic ro
Ġà§¬à§¯ à§®
ÂŃ ÂŃ
Ġprov ide
ĠRaj shah
à§ĩ à§Ģ
Ġà¦® à¦ĩà¦¦
Ġà¦ļ à¦²à¦ķ
Ġà¦īà¦ª à¦¶
à§İ à¦²
à¦·à¦£ à¦§à¦°
Ġà¦ıà¦² à¦®
à¦ħ à¦¸à¦¤
à¦ħ à¦¬à¦ľ
Ġà¦ľà§Ł à¦®à¦¨
Ġà§¬à§« à§§
im khan
Ġà§¬à§¬ à§§
han ge
à¦¨ à¦ħà¦¤
Ġà¦¨ à§ľà¦Ľ
Ġà¦¯ à¦¬à¦¨
Ġà¦² à¦ĸà¦¨
à§Ī -
Ġà¦ķà¦² à¦Ĺ
Ġà¦ıà¦¤ à¦ľà¦¨
Ġà¦ľà§Ł à¦¹
à¦ıà¦« à¦Ĩà¦°
on est
Ġh ung
Ġà§¬à§Ń à§®
af i
ÑĢÐ¶Ð©ÑĢÐ·ÐĿÑĢÐ¶Ð§ ÑĢÐ·ÐĹ
à¦¨ à¦ĩà¦¬
à§Ł à¦īà¦¤
à§ĭ à¦¾
à¦ĩà¦¨ à¦·
Ġà¦¹à¦² à¦Ńà¦°
à¦ªà¦¨ à¦¨
à¦²à¦ķ à¦§
Ġà¦Ĩà¦ĩ à¦Ĩà¦°
Ġc amp
ÂłÂłÂłÂłÂłÂłÂłÂł ÂłĠ
!âĢĻ âĢĺ
Ġpl ants
mun imkhan
à¦·à¦¦à¦¸ à¦ļ
Ġliter ature
à¦² à¦¤à¦°
à¦°à¦¥à¦® à¦ªà¦¤
Ġà§Ń à§ªà§¨
Ġà¦īà¦² à¦®
à¦ªà¦¦ à¦¹
à§ĭ, âĢĿ
Ġan n
Ġà§Ńà§® à§¯
Ġà§®à§Ń à§Ń
Ġà§¯à§Ń à§¯
Ġdo or
stru ct
à¦¤ à¦¸à¦²
à¦ª à¦ľà¦¨
à¦Ĩ à¦ªà¦¸
Ġà¦Ĩà¦² à¦¨
à¦ªà¦¤ à¦®
à§Ī à¦ĥ
à¦ħ à¦®à¦²
Ġà¦¨à¦Ĺà¦° à¦Ĺ
Ġà¦ļà¦° à¦²à¦ķ
Ġà¦· à§ľ
ĠB ook
Ġst ories
Ġà§¯à§¬ à§Ń
à¦¿... à¥¤
ĠTh us
sh a
Ġeat ing
Com plete
Ġswim ming
à¦Ĺ à¦°à¦¤à¦²
à¦£ à¦¬à¦°
à§ĩà¥¤ âĢ¦
à§ľ à¦ĸ
Ġà¦ľà¦¨ à¦ķà¦ķ
à¦¬à¦¨ à¦°à¦ķ
à¦²à¦ķ à¦¸
Ġà§¯ à§©à§®
à¦°à¦Ĺ à§ľ
Ġs ac
Ġto p
Ġd et
is ion
à¦ľà¦īà¦¦ à¦¦
Ġtr ied
h al
à¦¨ à¦¤à¦¬
à¦ľ à¦ĺà¦¨
à¦¶ à§Łà¦¤
Ġà¦ħ à¦ĩà¦¤
à¦ĸ à¦¬à¦¨
à¦ī à¦£
à¦ĩà¦¨ à¦¶
à¦²à¦ķ à¦Ĩà¦¬
à¦°à¦¥à¦® à¦Ń
à¦°à¦ª à¦ŀ
Ġà¦ħà¦ª à¦²à¦ķ
Ġà§§à§¯ à§¨à§«
Ġf elt
à§§à§® à§«à§¦
ur b
ĠâĢĻ à¥¤
Ġà¦ªà¦ª à¦ķà¦°
à§¨à§§à§© à§¦
ïĢłïĢł ïĢłïĢł
ashi ul
Ġà¦ľ à¦ĵà¦¯
à¦Ĥ âĢĵ
à¦°à¦® à¦ĺà¦¨
à¦¬à¦¨ à¦¸à¦¹
à§¬ à§ªà§¦
à¦¸à¦ķ à¦¶
à¦¶à¦® à¦¶
Ġà¦Ĩà¦¹à¦®à¦¦ à¦ĵ
Ġà¦īà§İà¦¸ à¦¸
is her
Ġà§Ńà§¦ à§ª
à¦¬à¦ľ à¦Ĺà¦¤
Ġà§Ńà§¨ à§¯
Ġà§Ńà§® à§«
Ġà§®à§¬ à§®
à§ģà¦Ĥ à¥¤
Ġinv ited
à¦Ĺ à¦®à¦¸
à¦°à¦¬ à§ľ
à¦ĩà¦Ń à¦Ł
Ġà¦¸à¦« à¦¦
Ġà§¯à§¦ à§¨
Ġà¦ĵà¦® à¦°à¦ķ
à¦ıà¦¸à¦ı à¦ı
à¦ĵà¦ıà¦¸ à¦ıà¦¨
ÑĢÐ·Ð¬ ÑĢÐ¶
à§į à¦¾
à¦ĩ à¦¥à¦¨
à§ĩà¥¤ )
à§ľ à¦ĺà¦°
Ġà¦ħà¦¨ à¦¶à¦¨à¦ķ
Ġà§§à§¯ à§¦à§¬
Ġt our
Ġe gg
Ġà§¯à§ª à§ª
à¦ıà¦¸à¦ıà¦² à¦Ĩà¦°
à¦ļ à¦Ĩà¦¦
à¦£ à§Łà¦ķ
à¦²à§Ł à¦ľ
Ġà¦ıà¦¸à¦¬ à¦ķ
Ġà¦Ĩà¦ªà¦¨ à¦ľà¦¨à¦¦
à¦«à¦Ł à¦Ł
à¦¹à¦ķ à¦ĩ
Ġm ov
Ġd i
à¦¾? :
Ġà§Ńà§¦ à§«
à¦°à¦¦à¦² à¦ķà¦°
Ġà¦¶à¦Ł à¦ĩ
ĠM oh
Ġà§®à§® à§¨
Ġà§®à§¬ à§§
ĠïĤ «
ri ot
yr amid
à¦®à§Łà¦¸ à¦Ń
G uided
Ġà¦¸ à¦ĩà¦¬
Ġà¦ī à¦Łà¦ķ
à§Ĥ âĢĻ
Ġà¦Ĩà¦° à¦ļ
Ġf est
à§ģâĢĻ -
Ġà§®à§Ń à§®
rit ing
Ġà¦¬à¦°à¦ķ à¦¤à¦®à§Ł
à¦ıà¦«à¦ıà¦« à¦ıà¦¸
Ġproduct s
f ixes
o king
r ul
à¦¨ à¦ĵà¦¸
à¦· à¦ļ
Ġà¦Ĺ à¦ķ
à§¨ à§§à§§à§¦
à¦¬à¦² à¦ª
Ġà¦īà¦¤ à¦¸
Ġà§Ń à§¨à§©
Ġà¦¸à¦¦à¦° à¦īà¦ªà¦ľ
à¦°à¦Ĺ à¦Ń
Ġà¦¬à§Łà¦¸ à¦ĩ
an e
Ġf ly
Ġd iv
ĠB l
Ġà§¬à§¯ à§ª
ik h
à¦Łà¦ľà¦¨ à¦°
ĠHow ever
ĠSt ud
Ġfru it
ĠRaj u
ĠSy lhet
âĪ ı
Ġdistr ict
lex ander
a u
h una
à¦¨ à¦ªà¦¥
à¦ª à¦ľà¦¯
à¦Ĺ à¦°à¦¤
à¦¡ à¦°à¦ķ
à¦ı à¦¸à¦¹
âĢĻ )
Ġà¦ķà¦² à¦°à¦¬
Ġà§® à§§à§§
Ġt om
à¦¹à¦² à¦¦
à¦ļà¦ķ à¦®à¦£
Ġà§§à§ª à§¨à§¨
at c
à¦ıà¦¸à¦Ĩà¦ĩ à¦¬
Ġà§«à§« à§¯
ĠF rom
ub e
Ġanim al
à¦° à¦°à¦¶
à¦¼ à§ĭà¥¤
à¦ļà¦¨ à¦¨à¦Ĺà¦°
à¦²à¦¤ à¦¸à¦¹
à¦ħ à¦ĺà¦Łà¦¨
à¦Ŀ à¦Ĺ
Ġà¦Ĩà§Ł à¦®à¦¨
Ġà§¯ à§ªà§Ń
Ġà¦īà¦² à¦Ł
Ġw ind
Ġl unch
Ġà§Ńà§« à§ª
Ġà§®à§® à§ª
Ġ6 0
à¦¿âĢĿ à¥¤
empl oy
) !
à¦Ł à¦¤à¦¤
à¦ª à¦ĩà¦¯
à¦ĩ à¦ıà¦¸à¦ª
à¦ĵ à¦°à¦ķ
Ġà¦° à¦¡à¦°
à¦·à§Ł à¦¸à¦®
à¦¯à¦¬ à¦ļ
à¦ıà¦¸ à¦ıà¦®à¦ª
Ġà§® à§¨à§ª
à¦ıà¦¸à¦ıà¦« à¦Ĩà¦ĩà¦¸
Ġà¦ıà¦°à¦ķà¦® à¦ĩ
ĠInd ian
adm aster
âĢĮâĢĮ âĢĮâĢĮ
Ġrec ogn
Ġwr ote
h aj
Ġà¦¤ à¦ªà¦¸
à¦ı à¦ķà¦¶
Ġà¦ĩ à¦ķà¦¤
Ġà¦Ĩà¦° à¦¬à¦°
à§İ à¦¨
à¦¾, âĢĻ
à¦ªà¦¥ à¦¸à¦Ń
à§§à§¬ à§ª
Ġà¦¨à¦° à¦īà¦ĩà¦ļ
Ġà§®à§® à§Ń
Ġpr oud
Ġfarm ers
à¦¨ à¦īà¦ľ
Ġà¦Ĺ Ã¸
Ġà¦ĺ à¦°à¦¸à¦¹
à¦¤à¦¬ à¦§à¦°
Ġà¦ıà¦¸ à¦ıà¦®à¦¸
à¦ıà¦¸ à¦¸à¦¹
Ġà¦¦à¦ĸà¦² à¦¸à¦¹
à§§à§® à§¨à§¦
Ġà§Ńà§¦ à§©
am an
Ġà§¬à§ª à§§
ah ir
Ġcon f
Ġbl ind
ÑĢÐ¶Ð³ ÑĢÐ¶
w U
Ġ ÂłÂłÂłÂłÂłÂłÂłÂłÂłÂłÂłÂłÂłÂłÂł
à¦¨ à¦®à¦°
à¦¨ à¦¸à¦¨à¦ķ
à§Ł à¦Ĺà¦¤
à¦Ł à¦Ńà¦ķ
à§ĩ? "
à¦²à¦Ĺ à§ľ
à¦¥à¦ķ à§ľ
ar a
Ġd ark
à¦¶à¦¹à¦° à¦Ł
Ġpers ons
à¦¤à¦ĺ à¦¡
Ġà¦® à¦Ī
à¦ī à¦¬à§Ł
à¦¼à§ĩ :
Ġà§® à§¨à§Ń
Ġà§¯ à§ªà§«
Ġà¦īà¦ĩà¦ķ à¦²
Ġà¦Ĩà¦§ à¦ª
à¦Ĺà¦ĵ à¦¹
ÑĢÐ·ÐĿÑĢÐ¶Ð °ÑĢÐ¶
Ġà§¯à§¯ à§§
Ġthem selves
Ġà¦Ĺà¦Ĺ à¦¨à¦¬
ĠÑĢÐ·Ð· ÑĢÐ·Ð
Ġà¦łà¦¨ à¦łà¦¨
u j
à¦¨ à¦ħà¦Ń
à¦¦ à¦«à¦¤à¦°à¦ķ
à§Ģ âĢĺ
à¦Ľ à¦ªà¦Ł
Ġà¦ĩà¦¨ à¦Ľ
Ġw al
as an
iv id
Ġà§¯à§« à§ª
Ġpro sper
à¦¨ à¦ħà¦§
à¥¤ âĸł
à¦ĩ à¦Ĺà§ľ
à¦ı à¦ıà¦¨à¦¸
à¦¸à¦¬ à¦ĵ
Ġà¦Ĩà¦¹à¦® à¦ŀ
à¦¤à¦ķ à¦¸à¦¹
Ġà¦ıà¦¨ à¦ĵà§Ł
à¦ľà¦¤ à¦ķà¦°
Ġà§¯à§¦ à§«
čččč čĠĠĠĠ
ĠO r
à§¨à§©à§« à§«
ččĉĉčĉĉčĉĉ čččččĠĠĠĠ
r ing
Ġà¦ıà¦ĩ à¦ķ
à¦ķà¦² à¦Ł
Ġà§Ń à§§à§®
ĠĠ čĠĠĠĠ
ÑĢÐ·ÐĿÑĢÐ¶Ð ¬
Ġà§¯à§¯ à§¨
Ġà§¬à§© à§Ń
Ġfr ont
Ġà§®à§® à§®
Ġcom ing
Ġev ent
à§¨à§§à§« à§¦
read y
Th is
Ġà¦®à¦ĸ à¦®à¦²
ččĉĉčĉĉčĉĉčččččĠĠĠĠ Ġčĉ
l t
à¦¬ à¦Ĺà¦£
Ġ( !)
à¦°à¦ĵ à¦°
à¦ıà¦« à¦ıà¦®à¦¡
à¦²à¦Ł à¦¬
on es
à§§à§ª à§¬
ĠÑĢÐ¶Ð ¦
ur s
à¦¹à¦Ń à¦Ļ
Ġat tract
à¥¤* *
Ġà¦¬à¦ī à¦Ń
y g
Ġà¦¸ à¦ĩà¦¯
Ġà¦ķà¦° à¦¸à¦¹
Ġà¦ıà¦ĩ à¦®à¦¸
à¦ķà¦Ł à¦ľà¦¨
à¦¯à¦¬ à¦Ł
Ġà¦ĩà¦¨ à¦²
à¦¶à¦ķ à¦¨à¦¨
à¦°à¦² à¦¯
à¦¹à¦¸ à¦ľ
Ġt icket
Ġt erm
à¦īà¦¡ à¦ª
à§¨à§¨ à§§à§¦
Ġà¦īà§İà¦¸ à¦Ĺ
Ġd aily
à¦¿à¥¤âĢĿ âĢĺ
Ġà¦ļà¦® à¦ķà¦Ł
Ġà§®à§¬ à§¨
à§ģà¦Ĥ ,
à¦¨ à¦ħà¦¬à¦¸
à§Ł à¦ıà¦ķ
Ġà¦ıà¦ĩ à¦¤
Ġà¦Ĩà¦¦ à¦²à¦¤
Ġà¦®à¦¹ à¦²à¦Ł
à¦ħ à¦ļà¦²
Ġà¦ĸà¦¬à¦° à¦¬
à¦łà¦ķ à¦ĩ
à¦¯à¦¸ à¦®à¦¸
à§§à§¯ à§¦à§®
Ġd ish
Ġd augh
à§§à§Ń à§©à§¦
Ġn one
ac ter
Ġà§Ńà§¬ à§ª
ÑĢÐ¶Ð¾ ÑĢÐ·ÐĹ
Ġsp read
Ġjoin ed
ĠčĉĠčĠĠĠĠ ĠčĉĠčĠĠĠĠ
ččĉĉčĉĉčĉĉčččččĠĠĠĠĠčĉ ĠčĉĠčĠĠĠĠĠčĉĠčĠĠĠĠ
à§Ł à¦°à¦ĵ
Ġà¦¨ à¦¦à¦¨à¦¦
à¦¹ à¦ľà¦¨
Ġà¦ĩ à¦¸à¦¦
Ġà¦Ĩà¦° à¦¬à¦ª
Ġà¦¹à¦² à¦ĺà¦°
à¦¹à¦¤ à¦®
Ġà§® à§©à§¬
à¦°à¦ľ à§Łà¦¨
Ġà¦Ĩà¦ĩà¦ıà¦¸ à¦ĵ
Ġà§Ńà§® à§§
em y
Ġdif fer
Ġ8 0
ĠÑĢÐ¶Ð¼ ÑĢÐ·ÐĹÑĢÐ¶
anu ary
Ġpleas ure
ččĉĉčĉĉčĉĉčččččĠĠĠĠĠčĉĠčĉĠčĠĠĠĠĠčĉĠčĠĠĠĠ ĠĠčĠĠĠĠ
Ġà¦¹ à¦ª
Ġà¦Ľ à¦°à¦ĵà§Ł
à¦ĩà¦¸ à¦ļ
à§§à§« à§«
Ġà¦ıà¦¸à¦Ĩà¦ĩ à§Ł
à§¨à§Ń à§¦
à¦¾.) âĢĵ
ĠAd d
p or
à¦° à¦ł
à¦ª à¦ªà¦£
à¦°à¦£ à¦¯à¦¨
à¦Ĩ à¦ķà¦¤
Ġà¦Ĩà¦² à¦®à¦¬
Ġà¦Ĩà¦Ĺ à¦°
Ġà¦ıà¦¸ à¦ĩà¦ľ
Ġs il
or able
ĠD on
ish ing
Ġà¦ĩà¦¡ à¦ķà¦²
itt ing
Ġà¦ıà¦ķà¦Ŀ à¦²à¦ķ
Ġpoll uted
Ġà¦īà¦« à¦¶
Ġtrav el
Ġty pes
D o
Ġ _
à¦¾à¥¤ (
Ġà¦®à¦¨ à¦Ĺà¦¡
Ġà¦Ĺà¦£ à¦ķ
à¦²à¦Ł à¦²
Ġs ons
at or
à¦īà¦ª à¦Ĺ
à§§à§® à§§à§¦
... !
ĠW indows
Ġà§®à§« à§®
Ġà§Ńà§¬ à§¨
ĠRajshah i
s er
Ġà¦ħ à¦¦à¦²
à¦°à¦¤ à¦¶
à¦ĩà¦² à¦®
Ġà¦¸à¦° à¦Ľ
Ġà§® à§¨à§®
Ġà¦ħà¦ª à¦²
Ġà¦Ŀ à¦Łà¦ķ
Ġà¦Ĩà¦¹ à¦°à¦£à¦ķ
it ing
à¦ĩà¦ª à¦¡
Ġà§®à§« à§©
Ġà§Ńà§Ń à§©
art ic
ell ing
Ġpart y
Ġà¦ıà¦¤à¦¬ à§ľ
Ġsumm er
g t
m ashiul
Ġà¦¸ à¦¸à¦ª
à¦ĩ à¦¹à¦¸
Ġà¦ľ à¦ª
à¦¡ à¦ªà¦Ĺ
à§ľ à¦ļ
Ġà§® à§ªà§¨
à¦ĩà¦ī à¦ıà¦¸à¦ľ
à¦¨à¦ľà¦¨ à¦ķà¦Ń
Ġà§®à§¦ à§¯
à¦¬à¦¦à¦² à¦Ĺ
Ġà§®à§« à§¨
Ġà§¯à§¬ à§®
Ġsp end
Ġeas ily
Ġprot ect
5 2
b all
Ġ ÂłÂłÂłÂłÂłÂłÂłÂłÂł
à¦¿ âĢ¢
à¦¤ à¦¥à¦²
Ġà¦ĩ à¦¹à¦ķ
Ġà¦Ĩà¦® à¦²à¦¯
à¦ıà¦¨ à¦ĩà¦ī
à¦§à¦¨ à¦Ĺ
Ġà¦ħà¦ª à¦¦
Ġà§¯ à§¨à§®
à¦łà¦ķ à¦ª
Ġà§§à§® à§¬à§¦
ic ate
Ġth ous
Ġà¦²à¦¬à¦£ à¦¯
Ġà¦²à¦¬à¦£ à¦ļà¦°
ul y
Ġà§¬à§® à§¯
ith i
ond on
M yself
g um
i hab
m z
à¦¿ +
à¦¦ à¦īà¦¤
à¦®à¦¨ à¦°
à¦¬à¦° à¦¹
à¦®à¦ķ à¦¨
à¦ıà¦² à¦Ĩà¦°à¦¬
Ġà¦ķà¦¨ à¦ĵà§Ł
ÑĢÐ·Ð ľ
Ġm ent
Ġm ajor
Ġà§©à§« à§¦à§¦
à§¨à§© à§Ń
Ġà§§à§§à§ §à§
Ġre port
Ġà§®à§® à§«
Ġr a
V ocabulary
w b
Ġà¦ Ĥ
à¦¸ à¦®à¦¤à¦²
à¦¸ à¦ħà¦«
Ġà§¯ à§§à§©
Ġw is
Ġw ide
Ġà¦ĭà¦£ à¦®
à§§à§® à§©à§«
Ġà§®à§¦ à§¬
à¦°à¦¡ à¦ĵà§Ł
ĠC trl
à¦¾... âĢĻ
à§ĩ à§Į
Ġà¦ı à¦ļ
à¦°à¦ķ à¦Łà¦Ń
à¦ļà¦¨ à¦Ńà¦Ļ
à¦°à¦¬ à¦ļà¦¨
Ġà¦¬à¦¨ à¦ľà¦Ļ
Ġà§Ń à§¨à§¬
Ġà¦¶à¦¹à¦° à¦ĩ
à§İà¦¸à¦ķ à¦ĩ
à¦¨à§Ł à¦ľà¦¨
à§§à§Ń à§ªà§¦
Ġà§®à§¦ à§ª
Ġà§®à§« à§¬
ĠE id
Ġ2 1
ha vi
à¦ķ à¦°à¦ķà¦®
Ġà¦ª à¦ĩà§ľ
à§ĩà¥¤ [
à¦°à¦¸ à¦¬à¦ļ
à¦¾, "
Ġà¦ıà¦¸ à¦Ĩà¦°à¦ĵ
Ġà§§à§¯ à§§à§¬
Ġs old
Ġà¦ľà¦² à¦¬à¦¸à¦¨
à¦Īà¦¨ à¦īà¦¦
Ġà§¯à§¬ à§¬
Ġ----- ----------------
à¦Ĭ à¦·
à¦Ĩà¦¦à¦® à¦ľ
ĠFl ora
Ġhusb and
S ub
à¦ķ à¦¶à¦ķ
à¦¤ à¦īà¦¦
à¦ł à¦«
à¦°à¦¬ à¦ª
à¦īà¦ľ à¦®
à¦Ĩà¦ĩ à¦ıà¦²
à¦ľà§Ł à¦²
re t
à¦Ĩà¦ľ à¦ĩ
Ġà¦ªà¦¦à¦ķ à¦ľà§Ł
en e
Ġle aves
ict ure
ĠÑĢÐ·Ð ¸
ĠNob el
à¦¤ à¦¸à¦Ń
Ġà¦® à¦®à¦°
à¦ĵ à¦Ĩà¦°
à¦¡ à¦ı
Ġà¦² à¦ĸ
Ġà¦Ł à¦²à¦Łà¦²
à¦¿à¦Ĥ ?
à§¨ à§ªà§¦
à¦ıà¦® à¦ıà¦¸à¦ıà¦«
à¦Ĺà¦® à¦£
Ġà¦«à¦° à¦°
à¦ĩà¦« à¦¦
à¦°à¦ľ à¦¯
Ġd ie
is f
Ġà¦¨à¦ĵ à¦ľ
Ġà¦°à¦ĵ à¦¶à¦¨à¦ķ
Ġà§Ńà§Ń à§ª
ÑĢÐ·Ð¯ ÑĢÐµÐ´
b oard
d d
à¦² à¦°à¦ĵ
à§ĩà¥¤ âĹı
à§ľ à¦ĸà¦£
Ġà¦¡ à¦Łà¦¬
Ġà§® à§§à§Ń
à¦īà¦² à¦¸
à§¨à§¦ à§«à§«
à¦ļà§Ł à¦¹
Ġh alf
ar ies
à§§à§Ń à§«à§¦
ĠÑĢÐ¶Ð »ÑĢÐ¶
à¦®à¦°à¦£ à¦¯
Ġà§Ńà§« à§Ń
Ġe ld
Ġà§¬à§© à§©
ĠP ar
Ġr ather
Ġal ready
Ġcl ose
Ġag r
à¦°à¦¹à¦®à¦¤ à¦Ĺà¦ŀ
new s
à¦® à¦Ĩà¦ª
à¦ľ à¦īà¦ªà¦ľ
à¦ĺ à¦ª
à¦ħ à¦°à¦£
Ġà¦Ĺà¦£ à¦ħà¦¨à¦¶à¦¨
Ġà§¬à§¯ à§Ń
Ġà§®à§® à§¬
gan j
know n
% -
Ġà¦ľ à¦¤
Ġà¦ļ à¦°à¦°
Ġà¦¡ à¦°à¦¸
à¦²à¦ķ à¦£
à¦¨à¦ķ à¦¨
Ġà§® à§¨à§¯
Ġc auses
à§§à§® à§ªà§«
à§§à§ª à§©
Ġà¦ıà¦« à¦ª
à§Łà¦¤à¦¨ à¦Ł
à¦¾! âĢĿ
Ġà¦ľà¦¨à¦¬à¦² à¦¸
Ġde f
Ġread y
ÑĢÐ¶Ð§ ÑĢÐ¶
ĠMar ia
Ġsis ter
ĠPass age
6 9
b b
à¦ľ à¦ĸà¦®
à¦¥ à¦°à¦Ł
à¦¬à¦¨ à¦ĺà¦¨
Ġà¦ıà¦² à¦Ĩà¦ĩà¦¸
à¦¯à¦® à¦¬
à¦Ĩà¦ĩ à¦ĵà¦°
à¦¸à§ľà¦ķ à¦¸à¦¹
Ġth ough
ĠM en
Ġà§®à§¬ à§¯
Ġse ason
Ġen ergy
Ġgl obal
à¦¶ à¦ķà¦Ł
à¦ĵ à¦²à¦ķ
à¦ĵ à¦Ĩà¦°à¦ª
ĠâĢ ¹
à¦¬à¦¨ à¦ľ
à¦Ĩà¦ĩ à¦ıà¦®à¦ıà¦¸
Ġà§® à§ªà§Ń
à¦¨à¦¸ à¦ł
it c
Ġd ue
Ġg one
à¦²à¦ĺ à§ľ
est s
Ġà§¬à§Ń à§Ń
à¦Ľà§Ł à¦ľà¦¨à¦ķ
Ġun iversity
hr ases
à§Ģ âĢĻ-
Ġà¦ħ à¦ĩà§Ł
Ġà¦ľà¦¨ à¦ªà¦°
à¦°à¦® à¦¡
Ġà¦ıà¦¸ à¦ĵà¦ıà¦¸
à¦ķà¦¦ à¦¹
à¦®à§Ł à¦¯
à¦®à§Ł à¦ĵ
Ġà¦Ĩà¦ĩ à¦¦
re w
Ġà§®à§¦ à§Ń
ĠT e
Ġà§Ńà§¬ à§®
à¦¤à¦Ľ à¦¡
Ġr an
ÂłĠÂł Ċ
à¦¿... à¥¤âĢĻ
Ġsay ing
ocr ates
Ġdin ner
Ġagr icult
6 0
: *
v j
à¦ª à¦¬à¦¤
à¦Ľ à¦«
Ġà¦Ĩà¦¦ à¦¬
Ġà§¯ à§¨à§¯
à¦¨à¦Ĺà¦° à¦Ĺ
Ġà§§à§ª à§¨à§ª
à¦¨à¦¡ à¦°
at he
Ġf ight
à§§à§¬ à§«
à§§à§ª à§®
à§§à§ª à§¯
Ġà¦ıà¦ĩà¦ļ à¦ħ
Ġà§¬à§Ń à§¬
Ġà§®à§Ń à§¬
ĠR aina
ag ers
app s
n oon
à¦¶ à¦®à¦¸
à¦Ĺ à¦®à¦¬
à¦ī à¦łà¦¤
à¦ļà¦¨ à¦ķà¦°
Ġà¦ıà¦² à¦ı
à¦Ĩà¦ĩ à¦¸à¦ķ
on oun
Ġà§¨à§¨ à§¦à§¦
à§§à§® à§§à§«
Ġin sp
Ġà§®à§® à§§
ĠL ondon
Ġfl ood
Ġbel ieve
e in
à¦¨ à¦ıà¦®à¦¡
à¦ķ à¦ĺà¦£
à¦ĸ à¦ĺ
à§ĩà¦¾ âĢĻà¥¤
Ġà¦Ńà¦¬à¦¨ à¦ĩ
Ġf ur
à¦ķà¦¶à¦¨ à¦§à¦°
ac hes
Ġà§¯à§¯ à§©
Ġà§Ńà§® à§©
Ġà§Ńà§¯ à§¬
---- --
ĠN ational
ag ed
Ġpl ays
à¦Ĭ à¦¦
Ġcomple x
ĠÃ ·
Ġdecl ared
Ġ ÂłÂłÂłÂłÂłÂłÂł
à¦¿ "
à¦® à¦Łà¦°
Ġà¦ª à¦ªà¦²
à¦ª à¦¹à¦ª
Ġà¦¦ à¦°à¦ª
à¦« à¦¶
Ġà¦¹à¦¤ à¦¶
à¦Ĺà¦¤ à¦ĩ
à¦§à¦¨ à¦§
Ġà¦Ĺà¦£ à¦®à¦¨à¦¸
Ġt en
Ġà¦ıà¦¨ à¦Ĩà¦ĩà¦ıà¦°
Ġa str
à¦ªà§ľ à¦Ł
à¦¹à¦ķ à¦ĵ
ĠB ir
à§ĩà¦Ĥ ,
Ġà§¯à§® à§Ń
ĠF ood
ĠF ather
Ġqu ick
ĠJ anuary
ĠTh ough
arr i
Ġstate ment
On ce
moh i
Ġpoin ts
Ġbes ide
à¦¾ ",
à§ĩ ]
à¦° à¦Ĩà¦ĩà¦¨
à¦¤ à¦¹à¦²
à¦ĩ à¦¦à¦²
à¦Ĩ à¦²à¦Ł
Ġà¦ıà¦® à¦ıà¦¸à¦ıà¦«
Ġà§¯ à§©à§¬
à¦°à¦®à¦£ à¦Ĺ
à§¨à§¨ à§§à§«
à§§à§ª à§¨
à¦ķà§ľ à¦Ŀà¦ķ
Ġme as
à¦¶à¦ªà¦¥ à¦Ĺ
Ġdoes n
Ġear n
ÑĢÐ¶Ð« ÑĢÐ·Ðĳ
Ġide a
Ġcour se
Ġà¦ª à¦ªà¦¤
à¦Ĩ à¦¹à¦¬
à¦¿à¦Ĥ ),
à¦¿, âĢĻ
à§¨à§¦ à§¨à§©
à¦Ĩà¦° à¦ıà¦¨à¦¬
à¦¨à¦ľ à¦°à¦¦
an n
à§§à§« à§¨
Ġà¦īà§İà¦¸ à¦ĵ
à§§à§¬ à§¬
Ġà§¯à§¦ à§¯
à¦īà¦¥ à¦ĸ
ĠG od
Ġgr ound
à¦¤à¦ĸ à¦°à¦ļ
Ġspeak ing
à¦Ķ à¦ªà¦¨
Ġmom ent
n ic
Ġ ut
Ġ à§ĩà§ĩ
à¦¬ à¦Ĺà¦®
à¦¯ à¦ħà¦¨
Ġà¦¨ à¦īà¦¤
à¦· à¦ªà¦¦
à¦§ à¦¶à¦ķ
à¦ĵ à¦°à¦Ĺ
à¦Ń à¦²à¦Ń
Ġà¦ķà¦® à¦²à¦ª
Ġà¦¹à¦² à¦¸à¦¹
à¦¸à¦¨ à¦Ł
re g
Ġg lad
Ġà¦Ī à¦·à§İ
ĠA h
ÑĢÐ·ÐĿÑĢÐ¶Ð µ
Ġà§¬à§¯ à§§
Ġà§®à§¯ à§ª
Ġsp ace
up er
ÑĢÐ¶Ð« ÑĢÐ·ÐĹÑĢÐµÐ´
Ġexper ience
Â §
à¦¨ à¦Ĩà¦ĵà§Ł
à¦¸ à¦Ĩà¦°
Ġà¦ħ à¦ľà¦ª
Ġà¦Ĺ à¦ª
à¦ĸ à¦°à¦ķ
à¦¼ ?âĢĻ
à§ĩà¦¾ âĢĵ
à¦¬à¦² à¦¤à¦°
à¦¨à¦¬ à¦§à¦°
à¦¥à¦ķ à¦ĩ
à§§à§® à§¨à§«
Ġà¦ķà¦¬à¦° à¦Ł
ous ly
Ġtow ards
Ġ--------------------- ----------------
à§ĩ à§ģ
à¦² à¦ªà¦¦
à¦® à¦ĵà¦¯
à¦ª à¦¶à¦ķ
à¦¡ à¦ıà¦ĩà¦ļà¦¡
Ġà¦Ĩà¦® à¦²à¦¨
Ġà¦ķà¦® à¦ĵ
à¦īà¦¨ à¦¶
à¦ĩà¦ķ à¦¨
Ġà¦¨à¦® à¦ª
à§¨à§¦ à§ªà§«
à¦ıà¦ķ à¦¥
Ġà¦Ńà§Ł à¦¡à¦°à¦¹
à§§à§« à§¬
Ġm aterial
Ġà¦ıà¦¡ à¦®à¦¨
Ġg v
Ġà¦«à¦¸à¦² à¦°à¦ķ
Ġhe ld
ro om
Ġwith in
ap e
Ġj um
Ġpre par
Ġflow er
) âĢĻà¥¤
Y es
y le
à¦¤ à¦°à¦ķà¦°
à¦² à¦¶à¦¨
à¦Ń à¦²à¦¨
Ġà¦ªà¦° à¦·
Ġà¦¡ à¦Łà¦¨
à¦¹à¦¤ à¦ķ
Ġà¦Ĩà¦Ľ à¦²
Ġà¦ħà¦¬à¦¸ à¦°à¦Ń
à¦¨à¦Ł à¦¸
Ġà¦ķà§Ł à¦¬
à§§à§© à§®
Ġà§¯à§¦ à§Ń
Ġà¦ĵà¦ľà¦¨ à¦ĵ
Ġà¦¸à¦¨à¦¦ à¦¸à¦¹
Ġà§®à§Ń à§ª
Ġà§®à§¬ à§©
ĠSh ort
Ġevery thing
à§¨à§§à§¨ à§¦
Ġac ross
Ġposs ible
fort un
Ġïģ Ħ
) *
à¦¨ à¦¤à¦¨
à¦¦ à¦¤à¦ķ
à¦ĩ à¦ĺà¦°
à¦ĸ à¦²à¦ķ
Ġà¦² à¦ĩà¦Ł
Ġà¦Ĩà¦® à¦ª
à¦¬à¦° à¦Ļ
Ġà¦Ĩà¦Ĺ à¦ªà¦°
à¦¿à¦Ĥ /
à¦¦à¦ķ à¦¨
Ġà¦ĺà¦° à¦ľ
à¦ªà¦£ à¦¯
à¦¼à§Ģ )
Ġp ot
à¦¯à¦®à¦¨ à¦¸
à§§à§¬ à§§
à§§à§¬ à§©à§¦
ĠM od
Ġà§¯à§« à§¯
ĠK ishore
à¦ıà¦®à¦ıà¦² à¦ıà¦®
Ġafter noon
Ġperson al
Ġstr anger
c ast
Ġà¦ı à¦ıà¦®à¦¸
à¦¥ à¦ªà¦¨
à¦ĸ à¦²à¦¤
Ġà¦¬à¦² à¦¸
Ġà¦ıà¦ķ à¦¶à¦¤
Ġà¦ĩ à¦Ĺà¦¨
à¦°à¦ĵ à¦°à¦ĩ
à¦ļà¦² à¦ĩ
à¦Ĩà¦ĩ à¦ĵà¦¸
Ġà§¯ à§©à§¨
à¦¹à¦¨ à¦¸à¦¹
Ġà¦¸à§ľà¦ķ à¦¸
ou b
à¦¨à¦² à¦¡
ur t
Ġà¦ĸà¦² à¦ļà¦°
Ġà§Ńà§Ń à§§
Ġà§¬à§¯ à§¨
à¦ªà¦Łà¦ª à¦¸à¦¹
Ġà§¯à§Ń à§Ń
Åĵ à¦®
res h
à¦Ŀà¦¬ à§Łà¦¸
ash id
ĠÑĢÐ¶Ð§ ÑĢÐ¶
ĠÑĢÐ¶ÐķÑĢÐ¶Ð¸ÑĢÐ·ÐĹ ÑĢÐ¶Ð¥
s et
w h
à¦° à¦īà¦ªà¦¦
à¦ĸ à¦®à¦¨
à¦Ĩ à¦ªà¦ķ
à¦²à§Ł à¦Ľ
à¦¸à¦¬ à¦¦
à§« à§«à§¦
Ġà¦¸à¦¹ à¦ľà¦¸
Ġà¦ľà¦® à¦ľ
Ġi r
à¦°à¦¸à¦¨ à¦¸à¦¹
à¦ĩà¦Ń à¦²
à§§à§© à§¯
Ġii à¦Ĺ
Ġform al
à§¨à§§à§ª à§«
Ġdevelop ing
ĊÂłĊÂłĊÂłĊÂłĊÂłĊÂłĊÂłĊÂłĊÂłĊÂłĊÂłĊÂłĊÂłĊÂłĊÂłĊÂł ĊÂłĊÂłĊÂłĊÂłĊÂłĊÂłĊÂłĊÂłĊÂłĊÂłĊÂłĊÂłĊÂłĊÂłĊÂłĊÂł
Ġà¦¸à§İà¦¸ à¦Ļ
à¦¨ à¦ļà¦Ł
à¦² à¦ªà¦ķ
Ġà¦Ĩà¦¸ à¦¸
Ġà¦ıà¦° à¦ļ
Ġà§¯ à§©à§ª
Ġà¦ħà¦ªà¦° à¦ª
à§§à§¯ à§¦à§Ń
ĊÂł ĊĊĊ
à¦¬à§İ à¦¸à¦²
ip er
ru it
ĠInd irect
mb ol
Ġless on
Ø §
à¦Ľ à¦¸
à¦Łà¦¨ à¦Ĺ
à¦Ĺà¦° à¦Ĺ
Ġà§® à§©à§§
Ġà§¯ à§§à§Ń
à¦¹à¦¬ à¦¶à¦¤
Ġà§§à§ª à§ªà§¦
Ġà§¨à§ª à§¦à§¦
Ġà¦¬à¦ĩ à¦ĸ
it her
à§§à§Ń à§¨à§¦
Ġn oun
am in
Ġst ore
Ġà§¬à§Ń à§¯
Ġà§®à§¬ à§ª
Ġle isure
ÂłĠÂł ĊĊĊ
Ġab s
ĠCh ina
F T
m ission
à¦¬ à¦¹à¦¸
Ġà¦¬ à¦¸à¦¦
Ġà¦ª à¦¯à¦¨
Ġà¦ħà¦Ń à¦¦
à¦¿à¦Ĥ âĢĻ,
à¦ĺ à¦ĩ
à¦¸à¦¬ à¦Ł
à¦¿, "
à§© à§¬à§¦
à¦¹à¦¸ à¦ĵ
Ġà¦Ŀ à¦®
Ġà¦Ĩà¦Ł à¦¦
à§§à§¬ à§®
Ġà¦¸à¦« à¦°à¦ĵ
ver t
Ġà¦ľà¦¨à¦Ĺ à¦¨à¦ķ
Ġà§Ńà§Ń à§¯
Ġal most
Ġà§¯à§Ń à§§
ĠK ing
Ġproper ly
g h
p re
à¦ķ à¦¬à¦¨
Ġà¦ı à¦ıà¦²
à¦°à¦¤ à¦Ń
à¦ŀ à¦¸à¦¹
à¦¥à¦ķ à¦ĵ
à¦¯à¦ª à¦¦à¦ķ
Ġà¦ıà¦ıà¦« à¦ı
ÂłÂłÂłÂłÂłÂłÂłÂłÂłÂłÂłÂłÂłÂłÂłÂł ÂłÂłÂłÂłÂłÂłÂłÂł
Ġà§®à§® à§©
art yr
ĠïĤ¾ .
Ġshe l
à¦°à¦Ĩ à¦īà¦²
Ġres ources
à¦¹à¦²à¦¬ à¦¶à¦¤
Ġsit uation
23 4
Ġdanger ous
Ġest abl
M r
à¦Ł à¦®à¦°
à¦£ à¦²
Ġà¦ĩ à¦ľà¦®
à¦Łà¦ķ à¦ª
à¦¸à¦¨ à¦¸à¦ļ
Ġà§§à§¯ à§¦à§§
à¦¹à¦¨ à¦ĩ
Ġà§¯à§¦ à§§
iv al
Ġà§Ńà§« à§©
à¦Ĺà¦¸ à¦ĩ
Ġst one
Ġà§¯à§« à§§
Ġgr ad
Ġbuild ings
ĠComp etency
artic le
g ress
Æ Ĵ
à¦¨ à¦ıà¦²
à¦¸ à¦īà¦¤
à¦Ĺ à§Łà¦¨
à¦ĩ à¦Ĩà¦®
Ġà§ ľ
Ġà¦Ĺ à§ľà¦ķ
à¦°à¦® à¦¹à¦²
Ġà¦¹à¦² à¦¸
à¦®à¦¤ à¦Ĺ
Ġà§§à§¦ à§®à§¦
Ġà§¯ à§§à§ª
à¦ıà¦ĩ à¦ª
à¦Ĺà¦² à¦¸à¦¹
à§§à§Ń à§ªà§«
à¦Ī à¦°
à¦®à¦£ à¦¦
âĢĻ, âĢĺ
Ġà§¬à§« à§©
im ple
Ġà§¯à§Ń à§ª
Ġschool s
à§¨à§§à§ª à§¦
ĠWor ld
200 5
Ġmedic ine
l ative
à¦ľ à¦¬à¦²
Ġà¦¨ à¦²à¦¤
à¦ī à¦¬à¦¨
Ġà¦ĩ à¦ķà¦¸
Ġà¦§ à¦ª
à¦¦à¦° à¦¨
à¦Ĩà¦ĩ à¦Ĩà¦ĩà¦Ł
à§ĩà¥¤âĢĻ âĢĶ
à§¨à§¦ à§¨à§ª
à§Łà¦® à¦ĵ
à¦ıà¦² à¦ĵà¦¸
Ġà§Ńà§« à§¬
Ġà§¯à§Ń à§®
à¦¾' ,
ib ility
ÑĢÐ·ÐĹÑĢÐ¶Ð ¶
ust om
igh ters
Ġstr ange
ĠBengal i
Ġbeh ind
ĠMore over
3 8
d e
Ġ âĶ¤
à¦² à¦Ĺà¦®
à¦² à¦Ĺà¦²
à¦« à§Łà¦ľ
Ġà§® à§©à§Ń
Ġà¦Ĳ à¦ķà¦¤
à¦Łà¦² à¦ĵ
à¦¸à§ľà¦ķ à¦ķ
à¦ªà§ľ à¦¸à¦¹
Ġà¦Ĩà¦ļà¦°à¦£ à¦ĩ
à¦²à¦¥ à¦Ĺà¦¤
Ġà§¯à§Ń à§©
Ġle ast
Ġde v
ple x
Ġà¦ļà§ľà¦ķ à¦Ĺ
a ur
r im
y out
à¦® à¦¹à¦¨
à¦¯ à¦£
Ġà¦Ĩ à¦īà¦¸
à¦Ĺ à¦ªà¦°
à¦ĩ à¦®à¦¦
à¦· à¦¹à§Ł
Ġà¦ľ à¦Ń
à¦ĸ à¦®à§Ł
à¦¼ à¦ģ
à¦ī à¦¬à¦¸
à¦®à¦¨ à¦¬
Ġà¦ĵà¦ĩ à¦Ĺ
Ġà¦¸à¦¹ à§Łà¦¤
à¦¬à¦² à¦¡
à¦ħ à¦¦à¦ķ
à¦¦à¦¸ à¦ķ
Ġà§¯ à§¨à§¨
Ġà§¯ à§©à§§
ÑĢÐ·Ð »
Ġà¦¸à¦®à¦Ŀ à¦¦
ĠB ithi
ÑĢÐ·ÐĿÑĢÐ¶Ð ª
Ġà§Ńà§® à§ª
ab d
Ġà§Ńà§¯ à§§
à¦®à¦Ń à¦¦
ÂłĠÂł ĊĊĊĊ
Ġsp ring
Ġà¦®à¦°à¦£ à¦ĺ
ĠSh ihab
Ġpre p
ÑĢÐ¶Ð§ ÑĢÐ·ÐĳÑĢÐ¶
Ġref ers
inst ein
Ġunivers ities
t on
Ġ à¤
à¦² à¦¡à¦°
à¦¶ à¦ĺ
à§ĩà¥¤ ##
âĢĻ (
à¦ķà¦° à¦ĸ
à¦·à¦ķ à¦īà¦ĩà¦²à¦¸
Ġà¦¸à¦¨ à¦¦à¦ķ
à¦¸à¦¨ à¦¨
à¦¸à¦¦ à¦Ĺ
Ġà§® à§§à§¬
à¦Ĩà¦° à¦ıà¦ĩà¦ļà¦ıà¦¨
à¦ªà¦Ł à¦Ł
Ġd epend
ail a
Ã¸ à¦ī
Ġj ar
à¦ıà¦«à¦ıà¦² à¦ıà¦²à¦ıà¦«
Ġbl ack
? )
à¦° à¦Ĩà¦ķ
à¦Ł à¦Ńà¦°
à¦£ à¦Ľ
Ġà¦Ł à¦°à¦ķ
à¦¦à¦ķ à¦¤
Ġà§® à§¨à§¬
Ġà¦Ĩà¦ª à¦¦à¦ķ
à¦®à¦ļ à§ľ
Ġw b
ÑĢÐ·Ð ŀ
iv ate
ĠB ashir
Ġà¦¨à§ľ à¦ļà§ľ
Ġà§¯à§Ń à§¨
Ġhapp ened
Ġà¦ľà¦¹à¦° à¦²
Ġwatch ing
par ative
Ġflo ors
Ġsac r
3 5
p ect
x iv
à¦¨ à¦¹à¦²
Ġà¦¤ à¦Ľ
à§ª à§¨à§¦
à¦¯à¦® à¦ľ
à¦ĩà¦² à¦°à¦ķ
Ġà¦ıà¦¸ à¦ĩà¦īà¦Ń
Ġà¦Ĩà¦ķ à¦Ľ
Ġà¦¬à§ľ à¦ļ
Ġà¦īà¦² à¦Ńà¦¸
Ġà¦®à¦ľ à¦¦
à¦¨à¦ĩ à¦īà¦°
ac ked
Ġbe havi
ill iant
Ġà§¯à§¬ à§§
Ġà§¯à§¬ à§¯
Ġas k
Ġte mper
Ġbr illiant
Ġconsider ed
S A
à¦ª à¦¬à¦°
à¦¥ à¦²à¦¬
à¦ĸ à¦°à¦¤
Ġà¦ī à¦ĩà¦¸
Ġà¦« à¦°à¦¦
à¦Ĩ à¦¹à¦°
à¦¨à¦¬ à¦Ĺ
Ġà§¯ à§©à§Ń
âĸ º
âĶĲ ,
Ġà¦Łà¦® à¦¸à¦¨
ĠC a
ĠR oad
arr ied
Ġdec ided
Ġ20 20
Ġsuccess ful
Ġbecom es
c k
à¦ī à¦ĩà¦Ł
à¦¤à¦° à¦¸à¦®
Ġà¦ıà¦¸à¦¬ à¦ĵ
à¦Ĩà¦ľ à¦®à¦²
à§§à§« à§Ń
à§įâĢĮ âĢĵ
à¦°à¦£à§Łà¦¨ à¦¸à¦¹
Ġà§®à§ª à§¯
à¦¬à¦°à¦ķ à¦¤
ĠDec ember
à¦Ł à¦Łà¦²
Ġà¦ı à¦ĵà§Ł
Ġà¦ĩ à¦Ĺà¦°
Ġà¦¸à¦®à§Ł à¦ª
à¦·à¦£ à¦¹
à¦°à¦§ à¦°à¦¸à¦¹
à¦īà¦² à¦¸à¦¹
à¦īà¦Ł à¦¦
à§ģà¥¤ âĢľ
Ġh ands
à¦¶à¦¸ à¦¦à¦¸
à¦ĸà¦¬à¦° à¦ª
ĠA lexander
Ġà§Ńà§« à§¯
Ġà¦Ĩà¦ķà¦¬à¦° à¦¶
ak aria
à¦¸à¦¦à¦° à¦ª
ain t
ÑĢÐ·ÐĽ ÑĢÐ¶Ð·
ĠÑĢÐ¶Ðķ ÑĢÐ¶Ð¼ÑĢÐ¶
à¦«à¦ľ à¦ĸ
Ġ197 1
Ġwonder ful
! (
Ġ ..
Ġà¦¹ à¦ĩà¦¯
à¦£ à¦¦à¦£
à¦« à¦¨à¦ķ
Ġà¦ħà¦ª à¦¦à¦ĸà¦²
âĢĶ *
âĢĶ .
Ġà¦Ĩà¦ĩ à¦ıà¦«
à¦ļà¦¬ à¦Ľà¦°
Ġà¦§à¦¨ à¦ª
ĠT ext
à§¨à§® à§¦
Ġth row
ĠP lease
Ġj oy
Ġà¦Ĩà¦ľà¦®à¦² à¦ķ
ĠÑĢÐ¶Ð¼ ÑĢÐ·ÐĿÑĢÐ¶Ð¿ÑĢÐ¶
Ġtell s
à¦ĸà¦²à¦¨ à¦ľà¦¨
Ġpur pose
Ġclim b
6 6
à¦¨ à¦ħà¦°
à¦ĩ à¦«à¦°
Ġà¦ĩ à¦¹à¦¤
à¦ľà¦¨ à¦¸à¦®
Ġà¦ıà¦ĩ à¦¹
à¦ĩà¦² à¦Łà¦°
à§® à§«à§¦
à¦®à¦¦ à¦¹
à¦¿âĢĻ !
à¦ıà¦ĩà¦ļ à¦Ĩà¦°à¦ª
à§¨à§¨ à§©à§¦
ĠT est
à¦ħà¦ª à¦¬
Ġà§Ńà§ª à§©
à¦īà§İà¦¸à¦¬ à¦®
âĢº à§ĩ
ĠCl ub
âĺ Ģ
mz akaria
y a
à¦ĩ à¦®à¦¬
à¦¡ à¦Ĩà¦ª
à¦¿à¥¤ -
à¦ķà¦° à¦®
à¦ħ à¦ķà¦²
à¦Ĩà¦ĩ à¦ĩ
Ġà¦¬à§ľ à¦Ł
Ġà¦ĩà¦ī à¦«
à¦¥à¦¨ à¦ĩ
Ġp or
am s
Ġà§¯à§¯ à§®
à¦¿âĢĶ âĢĺ
Ġà§Ńà§¬ à§¬
ate ful
Ġad vis
à¦¿?âĢĻ âĢĺ
Ġread s
Ġhapp en
Ġcult ural
afi q
l bd
à¦· à¦°à¦¸
à¦§ à¦ªà¦²
Ġà¦ıà¦ķ à¦«
à¦°à¦£ à§Łà¦£
à¦ªà¦° à¦¨
à¦ªà¦ķ à¦¢
à¦°à¦¹ à¦ĵà§Ł
à¦ĩà¦Ł à¦¸à¦ķ
Ġà¦ıà¦¨ à¦ıà¦¸à¦ĩà¦ī
à¦īà¦Ł à¦°à¦¦
à¦ªà¦£ à¦¤
ĠA B
ĠA g
à¦Ĺà¦¡ à¦«
Ġà§®à§¯ à§Ń
ital ization
Ġcour t
3 2
à§ģ âĢĿ
à¦ī à¦ĵà§Ł
Ġà¦ĩ à¦·
à¦®à¦² à¦ª
à¦īà¦² à¦¸à¦®
à§¨à§¦ à§§
in ary
Ġd iet
ĠA cc
ÑĢÐ·ÐĿÑĢÐ¶Ð ³
ĠD is
Ġout side
ie ved
Ġob ject
Ġdep art
Ġach ieve
P E
h aw
à¦° à¦Ĳà¦ķ
à¦® à¦²à¦¨
à¦® à¦Ĺà¦¨
Ġà¦¸ Ã¸
Ġà¦Ń à¦ľà¦¨à¦ª
Ġà¦ĩ à§Łà¦¤
Ġà¦®à¦¨ à¦ĸ
à¦°à¦¬ à§Łà¦¸
Ġà¦¶à¦¤ à¦Ĺ
Ġà§® à§¨à§©
Ġà¦Ĩà¦ĩ à¦ıà¦®à¦¡
ĠĠ ĊĊĊĊ
Ġà¦ļà¦¨ à¦ª
à§§à§« à§©à§¦
à§§à§Ń à§«à§«
Ġà§Ńà§Ń à§®
Ġà§¯à§¬ à§¨
à¦ıà¦Ĩà¦° à¦Ĩà¦ĩ
Ġen g
Ġcle ar
Ġrece ive
Ġfac ilities
n o
à¦ª à¦¸à¦®à§Ł
Ġà¦Ĩ à¦¥à¦²
à¦· à¦¸à¦®
Ġà¦¤ à¦ķà¦¦
à§ľ à¦ķà¦Ł
Ġà¦Ł à¦¸à¦Ł
à¦¤à¦° à¦ªà¦°
à§İ à¦¶à¦ķ
à¦²à§Ł à¦ª
Ġà¦Ĩà¦ĩ à¦ĩà¦īà¦Ł
à¦ªà¦Ł à¦ªà¦Ĺ
à§§à§¬ à§ªà§«
à¦Īà¦¦ à¦Ĺ
Ġà§®à§ª à§ª
ĠHe alth
Ġà§¯à§® à§©
ĠG ive
sp ace
à§¨à§§à§« à§«
Ġreg ard
Ġdise ases
A D
à§ĩ ïģ¬
à¦ķ à¦®à¦¬
à¦² Ãĳ
à¦¥ à¦°à¦¶
à§Ĥ à¦¿
Âł ĠÂłĠÂłĠÂłĠÂł
à¦ıà¦ĩ à¦¸à¦¬
à§§à§¯ à§¦à§©
Ġà¦ĭà¦£ à¦Ł
à¦¶à¦° à§İ
à§§à§¬ à§¯
Ġwor ked
Ġal low
Ġà§¯à§® à§®
Ġlov ing
Ġav oid
8 0
h h
Ġ ĊÂł
Ġ âĻ¦
à§ ¤
à§Ł à¦ĺà¦£
à¦¸ à¦°à¦¨
Ġà¦ı à¦ĵà¦ļ
Ġà¦ķà¦° à¦ķ
Ġà¦ĵ à¦²à¦¨
à¦¬à¦ķ à¦®
à¦Ĩà¦ĩ à¦ĩà¦īà¦Ł
Ġà§® à§§à§®
à§ĩ? âĢĺ
à¦²à¦° à¦Ļ
à§§à§« à§¯
Ġà¦īà§ľ à¦²
à§§à§Ń à§®
Ġà§Ńà§¦ à§¬
à¦¶à§Ł à¦Ł
Ġà§¬à§¦à§¦ à§¦
ell ig
ĠJ un
Ġà¦Ĩà¦ĩà¦ıà¦¸à¦Ĩà¦ĩ à¦ıà¦²
Ġlook s
Ġhol id
B ut
Ġ Ã¸
à¦ķ à¦ħà¦¨
à¦¤ à¦²à¦¤
à¦² à¦Ĺà¦£
à¦ı à¦Ĩà¦ĩà¦ľ
à¦ī à¦ıà¦ª
à¦Ĩ à¦¯à¦¹
Ġà¦ķà¦® à¦²à¦ķ
à¦°à¦ª à¦¸
Ġt ail
à¦¥à¦² à¦¥
Ġà¦ľà¦² à¦ļà¦°
à¦¦à¦°à¦¬à¦¨ à¦¸à¦¹
ĠB C
Ġà¦ķà§ľ à¦ĩà¦¤à¦²
ÑĢÐ¶Ð¸ ÑĢÐ·ÐĲ
Ġà§®à§¯ à§®
Ġcontinu ous
i ans
p os
Ġà¦¬ à¦īà¦¦
à¥¤ {
à¦ĵ à¦ķà¦²
à¦°à¦¤ à¦Ĺ
Ġà¦ľà¦¨ à¦ĵ
à¦ĩà¦² à¦ªà¦¤
Ġà¦īà¦¤ à¦²
Ġt echnology
Ġà¦Ĩà¦ĩ à¦Ĩà¦ĩà¦ľ
Ġà¦Ĩà¦Ł à¦ľà¦¨à¦ĩ
re m
à§§à§® à§«à§¬
Ġind ivid
itt ed
con t
Ġfeel ing
à¦¤ à¦ħà¦¨
à¦¸ à¦Ĭà¦¦
Ġà¦ķà¦° à¦°
à¦« à¦¯
Ġà¦² à¦ĵ
Ġà¦ĺ à¦°à¦ĩ
Ġà¦Ĩà¦® à¦Ĺà¦°
à¦Ĩ à¦²à¦Ń
ÂłÂł ĊÂł
à¦īà¦ľ à¦°
Ġà¦ªà¦¦ à¦¦à¦²à¦¨
Ġà§Ń à§ªà§®
Ġà¦¬à§ľ à¦¤
à¦¨à¦° à¦Ĺ
Ġc ry
à¦ľà¦ª à¦¦à¦ķ
Ġd ream
à¦®à¦¶ à¦¹à¦°
Ġà§¯à§¯ à§¬
if y
à¦¸à¦ªà¦¨ à¦¡
à¦¸à¦¬à¦¸ à¦®à§Ł
Ġbab y
Ġ ]
Ġà¦ī à¦ĩà¦¡
Ġà¦Ľ à¦ķà¦Ł
à§« à§¯à§¦
à¦īà¦° à¦¡
Ġà¦¨à¦¬ à¦®à¦¬
ĠÂł ĊÂłĊ
à¦īà¦ª à¦¸à¦°
à§§à§¬ à§«à§¦
à¦ħà¦ª à¦ķà¦°
Ġà§¯à§¯ à§ª
ren t
Ġactiv ity
m it
à§Ł à¦¢
Ġà¦ĵ à¦Łà¦®
à¦¬à¦° à¦¬à¦°
Ġà¦Ĩà¦° à¦¹
Ġà¦ıà¦¸ à¦®à¦¯
Ġà§® à§©à§®
Ġà§¯ à§ªà§§
Ġà§§à§¯ à§¦à§¯
Ġà¦ĩà¦ī à¦®
à¦ľà¦² à¦¦à¦¸
à¦®à¦ļ à¦ŀ
à¦ľà¦ķ à¦ĵ
ar n
Ġà¦ıà¦¡ à¦Ĺ
Ġk ey
à¦ľà¦ķà¦° à¦Ľ
Ġà¦ľà¦¨à¦®à¦¤ à¦ķ
Ġsu re
Ġpr imary
à¦Ĩà¦ĩà¦ĩà¦ī à¦¡
ÑĢÐ¶Ð¸ÑĢÐ·ÐĿÑĢÐ¶Ð´ ÑĢÐ·Ðĳ
S een
n y
à¦ĩ à¦¬à¦²
à¦ļ à¦¬à¦ķ
à¦¼ à¦ĥ
à¦ī à¦°à¦¶
à¦¸à¦¹ à¦¨
Ġà¦¨à§Ł à¦¦
à¦ĩà¦¸ à¦¡
Ġw el
à¦¬à¦Ľà¦° à¦ľ
à¦¿? :
Ġe l
Ġà§¬à§« à§¯
ĠM in
ÂłÂłÂłÂłÂłÂłÂłÂłÂłÂłÂłÂłÂłÂłÂłÂł ÂłÂłÂłÂłÂłÂłÂł
Ġà§®à§Ń à§¯
Ġà§®à§¬ à§¬
Ġà§¯à§® à§¯
Ġà¦¸à§İ à¦ķà¦°
à¦ĩà¦²à¦«à¦²à¦ķ à¦ĵ
ous es
Ġimp rove
à§¨à§§à§¨ à§«
Ġ9 0
anc es
Ġsever al
à¦° à¦Ĩà¦²à¦®
à¦² à¦Ĩà¦ľ
à¦Ł à¦ªà¦Ł
Ġà¦° à¦¬à¦ķ
à¦°à¦ķ à¦Ĺà¦£
Ġà¦ľà¦¨ à¦īà¦¦
à¦¦à¦¨ à¦¯
Ġà¦ıà¦¸ à¦ıà¦¸à¦¡
à¦¨à¦ķ à¦Ń
Ġà¦ħà¦ªà¦° à¦ľà¦¨à¦ķ
ĠĠ ĊĊĊĊĊ
Ġà¦Ĩà¦ª à¦¸à¦ķ
à§§à§¯ à§¦à§¨
à¦¯à§Ł à¦Ł
Ġo pp
à§§à§Ń à§Ń
à¦¦à¦°à¦¬à¦¨ à¦¬
ac ed
à¦ıà¦®à¦ıà¦¸ à¦¡
à¦īà¦Łà¦° à¦°
à¦¬à§Łà¦¸ à¦Ń
Ġar my
Ġph one
ecial ly
int lbd
. '
u le
à¦° à¦ıà¦ĩà¦¡
Ġà¦ķ à¦®à¦¨à¦¸
à¦ľ à¦®à¦¤
Ġà¦ļ à¦ķà¦¸
à¦¡ à¦¬à¦ķ
Ġà¦¸à¦® à¦ľ
à¦²à§Ł à¦Ń
à¦ıà¦¸ à¦ıà¦¨à¦ª
Ġà§¯ à§¨à§Ń
Ġm atch
Ġd ialogue
iv il
ĠS ec
ÂłÂłÂłÂłÂłÂłÂłÂłÂłÂłÂłÂłÂłÂłÂłÂł ÂłÂłÂłÂłÂłÂł
ĠE instein
ÑĢÐ·ÐĹÑĢÐ¶Ð £
ĠCh ild
Ġà¦¬à¦Ľà¦°à¦¬ à§Łà¦¸
Ġcare ful
On e
ept ember
Ġunt il
9 4
à¦¨ à¦ľà¦®
à¦¤ à¦ĸà¦¤
à¦§ à¦°à¦¦
à¦°à¦¬ à¦ĩ
Ġà¦®à¦¤ à¦¦
Ġà§¯ à§§à§¬
Ġà§¯ à§¨à§ª
à¦īà¦² à¦Ń
Ġà¦®à¦° à¦ľ
à¦¨à§Ł à¦ĩ
Ġà¦°à¦ķà¦® à¦«
à¦®à¦ľ à¦¯
à§§à§Ń à§¬
à¦ķà¦¶à¦¨ à¦ķ
Ġsu pp
ell er
Ġà¦ľà¦Ĺà§İ à¦ľ
ĠSh a
Ġgiv ing
ĠÑĢÐ¶Ð¾ÑĢÐ¶Ð·ÑĢÐ·ÐĿÑĢÐ¶Ð¿ ÑĢÐ·ÐĹ
Â ®
à¦¸ à¦¬à¦°
à¦ľ à¦¬à¦ķ
à¦ľ à§Łà¦®
Ġà¦ľ à¦«à¦°
à¦¥ à¦£
à¦¼ âĢĻ,
à¦ī à¦Ńà¦¯
à¦¯à¦ķ à¦¨
Ġà§§à§¯ à§¦à§©
à¦¦à¦² à¦¸à¦¹
à¦ĩà¦ľ à¦Ł
Ġà¦°à¦ķà¦® à¦ĵ
Ġà¦īà¦ĩà¦² à¦«
Ġà¦¸à¦«à¦Ł à¦ıà¦ķ
Ġk new
ĠL ib
Ġse ven
Ġvill agers
Ġboy s
ÑĢÐ·Ðĵ ÑĢÐ¶
b v
b ish
u et
à¦¨ à¦ĸà¦°
à¦¤ à¦ıà¦ĩ
à¦Ĩ à¦¨à¦ľ
à¦°à¦¥à¦® à¦¬à¦°
à¦ĩà¦² à¦¦
à¦ĩà¦² à¦ĩ
à§ģà¦ģ à¦ģ
à§§à§¯ à§¦à§¯
Ġo per
à§Łà¦£ à¦¹
ĠÑĢÐ¶Ð »
ĠT oday
ÑĢÐ·ÐĹ ÑĢÐ¶Ð´ÑĢÐ·ÐĿÑĢÐ¶
ÑĢÐ¶Ð´ ÑĢÐ·ÐĿÑĢÐ¶Ð¼
ĠIt s
Ġà¦°à¦¥ à¦ĸ
duc ed
ĠRah man
Ġpartic ular
Ġpolit ical
i res
l ook
à¦° à¦ıà¦¶
à¦ľ à¦ľà§Ł
à¦Ĺ à¦°à¦¸
Ġà¦¶ à¦°à¦ĵ
à¦ł à¦ĸ
Ġà¦Ĩà¦² à¦®à¦¨à¦Ĺà¦°
Ġà¦Ĩà¦¨ à¦°
Ġà¦Ĺà¦£ à¦ªà¦¦à¦¤
Ġà¦Ĩà¦¸à¦¨ à¦¸à¦¹
à§§à§¯ à§¦à§§
om en
à¦ıà¦®à¦¨ à¦ĵ
ĊÂłĊÂł ĊÂłĊ
Ġà§¯à§« à§®
Ġà§¯à§¬ à§ª
Ġwe ak
Ġà¦°à¦£ à¦§
Ġcle ver
Ġdes crib
Ġsk y
Ġval u
Ġav ail
jun iv
x iii
Ġ ïĢŃ
à§ģ (
Ġà¦¸ à¦ĵà¦¯
à¦ĸ à¦ĵà§Ł
Ġà¦Ł à¦ķà¦Ł
à¦ŀ à¦ļ
à¦®à¦ķ à¦ķ
Ġà¦¦à¦®à¦¨ à¦®
Ġà¦ıà¦¸à¦Ĩà¦ĩ à¦¬
à¦ıà¦¤ à¦Ĺ
ĠS ocrates
ĠA p
ut rit
ol k
ĠC r
à¦Ĩà§Ł à¦¶
à¥¤# #
The y
Ġcol our
ĠQ u
Ġà¦¥à¦° à¦¥à¦°
Ġwrit ten
Ġvi ol
Ġgrou ps
Ġocc as
à¦° à¦Ĩà¦ĩ
à¦¨ à¦ļà¦¨
à¦¤ à¦ªà¦²
à¦² à¦Ĩà¦°
à¦® à¦ķà¦²
à¦ª à¦®à¦£
à¦ľ à§Łà¦¤
à¦ľ à¦ľà¦Ł
à¦ĩ à¦¶à¦Ł
Ġà¦ķà¦° à¦®à¦ļ
Ġà¦² à¦¬à¦¸
à¦®à¦¨ à¦ļ
à¦¶à¦¨ à¦ĵà§Ł
à¦¦à¦° à¦ĸ
à¦ħ à¦°à¦¬
à¦ħ à¦²à¦ķ
à¦īà¦ľ à¦¡
à§İà¦¸ à¦ļ
à¦¸à¦° à¦¯
Ġà¦Ĺà§ľ à¦Ł
à§Łà¦® à¦°à¦ķ
Ġà§§à§® à§®à§«
Ġà¦Ńà§Ł à¦ĩ
à¦¯à§Ł à¦¸à¦¹
à§§à§« à§®
à§§à§Ń à§©à§«
is es
st ant
Ġà§¯à§« à§©
Ġà§®à§¯ à§§
à¦īà¦ªà¦ķ à¦®
Ġà¦ĩà¦¡ à¦Łà¦ķ
Ġà¦ĸà§ľ à¦ĸà§ľ
Ġde g
ĠAb out
Ġdut y
Ġwait ing
Ġbal anced
Ġtom orrow
à¦ĩ à¦ıà¦¬
à¦¥ à¦°à¦ĸ
Ġà¦Ĺ à¦²à¦¬
à¦¼à§ĩ )
à¦¼à¦¾ âĢĻà¥¤
Ġà¦ıà¦¸ à¦®
à¦¹à¦° à¦²
à¦¯à¦ķà¦° à¦ĵ
à¦ıà¦ĩà¦ļ à¦Ĩà¦ĩà¦Ń
à¦ªà§ľ à¦Ĺ
à¦¬à¦ľà¦¨ à¦¸
à§¨à§¨ à§«
à§§à§¬ à§Ń
à§§à§ª à§©à§¦
à§§à§Ń à§§
à¦Īà¦¦ à¦¯
Ġà§¯à§¦ à§®
à¦¬à¦°à¦£ à¦ĵ
ĠW riting
id ence
ver s
Ġfor ward
ÑĢÐ¶Ð´ ÑĢÐ·ÐĽ
Ġà¦¹à¦ľà¦® à¦¶à¦ķ
à¦ĩà¦īà¦ıà¦¸à¦ı à¦Ĩà¦ĩà¦¡
3 1
` âĢ¡
Ã ¦
à¦¾ ïģ®
à¦ķ à¦ĩà¦¨
à¦ľ à§Łà¦°
à¦¶ à¦²à§Ł
à¦£ à¦¤à¦°
Ġà¦ļ à¦®à¦¨
Ġà¦ļ à§ľà¦¬
à§ľ à¦ĺ
Ġà¦ĩ à¦®à¦¬
Ġ( )
Ġà¦ıà¦ĩ à¦īà¦¡à¦¬
Ġà¦Ĩà¦¸ à¦°à¦Ĺ
à¦¸à¦® à¦£
à¦¾âĢĻ ;
Ġs orry
Ġw est
Ġd ear
à¦ķà¦ª à§Ł
Ġà§¯à§® à§§
Ġqu ite
Ġpl ant
ÑĢÐ¶Ð¼ ÑĢÐ¶ÐĴ
Ġà¦Ĩà¦ĩà¦ıà¦¸à¦Ĩà¦ĩ à¦ıà¦¸
Ġgrow th
Ġfire f
Ġpiec es
Ġvirt ue
Ġegg s
7 8
p hrases
à¦¬ à¦ĺà¦°
Ġà¦¬ à¦Ĺà¦²à¦¦
Ġà¦¸ à¦Ł
Ġà¦® à¦Ĺà§ľ
Ġà¦¤ à¦®à¦¦
Ġà¦Ĺ à¦ľà¦¨à¦¬
à¦ĸ à¦Ńà¦°
à¦« à¦Łà¦¨
Ġà¦« à¦²à¦¤
Ġà¦Ĩà¦® à¦ĸ
à¦¤à¦° à§Ł
à¦Łà¦ķ à¦¸à¦¹
Ġà¦ıà¦¸ à¦ıà¦¸à¦ıà¦²
à¦¨à¦ķ à¦¬
Ġt al
Ġà¦¸à¦¦à¦° à¦¥
Ġs orrow
à¦ľà¦¬ à¦§
Ġà¦Ĩà¦ļ à¦°
Ġl ie
ĠC ent
ĠP res
ĠP ART
Ġà¦ħà¦¹ à¦Ļ
ort s
ĠÑĢÐ¶ÐŁ ÑĢÐ¶Ð¼ÑĢÐ¶ÐĴ
Ġsy mbol
Ġkill ed
i ation
u v
à¦¶ à¦¬à¦¨à¦®
à¦¼ à§Ī
Ġà¦ªà¦° à¦¹
à¦ŀ à¦ľà¦¨
à¦¦à¦ķ à¦Ĺ
à¦¯à¦¨ à¦¨
à¦·à¦¤ à¦Ł
à¦ľà¦® à¦£
ab in
ĠF ar
Ġpass ed
à¦Łà¦Ĩà¦ª à¦Ĺ
à¦īà¦Ńà§Ł à¦ªà¦ķ
hh intlbd
s y
à¦Ĺ à¦ĸ
à¦ĩ à¦¸à¦¦
à¦¥ à¦²à¦¨
à¦Ĩ à¦¬à¦¶
à¦ķà¦° à¦ĩ
à¦²à¦¨ à¦¯
à¦¬à¦² à¦Ń
à¦Ŀ à¦²à¦ķ
à¦ķà¦¤ à¦¸à¦¹
à¦®à¦¦ à¦²
Ġà¦Ĺà¦£ à¦ļ
Ġà§® à§¨à§§
Ġà§® à§©à§©
Ġà§¯ à§ªà§¬
à¦Ĺà¦łà¦¨ à¦®
à¦°à¦Ĺ à¦Ł
Ġà¦Ĩà¦Ł à¦®
Ġà¦ıà¦¦ à¦Ĺ
Ġc ave
à§§à§® à§«à§Ń
ent h
ĠM us
à¦ıà¦¡ à¦ĵà§Ł
ĠR i
Ġà¦Ķ à¦·
ÑĢÐ¶Ðĳ ÑĢÐ¶
I C
d y
k b
à¦¸ à¦¸à¦¨
à¦ª à¦¤à¦°
Ġà¦ī à¦ĩà¦Ń
Ġà§¯ à§ªà§®
à¦¸à¦° à¦Ĺ
Ġà¦Ĩà¦ĩ à§ľ
Ġw ish
à¦¤à¦°à¦£ à¦¬
Ġf at
Ġp en
Ġp osition
Ġre asons
ÑĢÐ¶Ð¸ÑĢÐ·ÐĿÑĢÐ¶Ð ´ÑĢÐ¶
à§¨à§§à§© à§«
Ġatt ention
Ġnum bers
Ġà¦Ńà¦²à¦« à¦¸à¦¬
ĠKishore ganj
à¦¨ à¦®à¦¸
à¦¯ à¦Ńà¦¬à¦¨
Ġà¦ª à¦ªà¦¸
Ġà¦° à¦¡à¦¬
à¦ĸ à¦¸à¦¡
à¦Ĩ à¦¹à¦²
à¦°à¦¸ à¦¸
Ġà¦īà¦ªà¦ľ à¦²
à¦¯à¦® à§Łà¦¤
Ġà¦ªà¦¥ à¦ªà¦°
Ġà¦Ĩà¦¹à¦¤ à¦¹à§Ł
à¦¤à¦² à¦¬à¦¨
à¦ıà¦« à¦ıà¦®
Ġà§§à§® à§®à§¦
à§§à§¯ à§¦à§¬
à¦ľà¦¸ à¦¦à¦°
à¦ªà¦¥ à¦¯
or der
à§§à§¬ à§¨
Ġà¦ķà¦²à¦ķ à¦²
Ġà¦ĵà¦ª à¦°à¦¤à¦²
Ġà§®à§« à§ª
Ġà§¬à§¯ à§©
Ġà§¯à§¬ à§©
Ġà§®à§¯ à§¬
ĠN ame
pr il
ĠJ am
Ġ------- -
Ġmention ed
à¦² à¦ıà¦¨
à¦¸ à¦¨à¦¤
Ġà¦ľ à¦²à¦¨
Ġà¦Ĺ à¦ľà¦°
Ġà¦®à¦¨ à¦®à¦°
Ġà§¨à§¦ à§¨à§¬
Ġà¦ıà¦¸ à¦ķà¦°
à¦¨à¦ķ à¦¥
ÑĢÐ¶Ð °
Ġc aught
à¦ıà¦¸à¦Ĩà¦ĩ à¦ıà¦®
ĠB es
Ġà§¯à§® à§¨
à¦²à¦Łà¦¨ à¦ķ
Ġà§¯à§ª à§¯
Ġpro gress
all s
Ġà¦®à¦¦à¦¨ à¦Ĺà¦ŀ
Ġcy cl
Ġshel ter
m l
à¦ľ à§Łà¦Ĺ
à¦¼ ...
Ġà¦ĸ à¦°à¦¬
à¦Ĩ à¦ªà¦°
à¦Ĩ à¦²à¦Ĺ
à¦¿à¦Ĥ à¥¤âĢĻ
à¦ĺ à¦Łà¦¤
Ġà¦ħà¦¤ à¦ªà¦°
à¦°à¦¨ à¦ĩ
he ad
Ġ: -
à¦Ĺà¦¬ à¦ŀ
à§§à§® à§¯
Ġan t
à§§à§¬ à§¨à§«
ĠĊ ĠĊ
à¦®à¦¡ à¦Ĺ
ĠE ur
os que
ish akh
Ġse arch
ĠShe ikh
à¦ĩà¦¸à¦ķ à¦¨
Ġadd ress
ÑĢÐ¶Ð¸ÑĢÐ·ÐĿÑĢÐ¶Ð´ ÑĢÐ·ÐĿÑĢÐ¶
Ġfav our
à¦§ à¦°à¦ª
Ġà¦Ĺ à¦¨à¦Ĺà¦¨
à¦« à¦¡
Ġà¦§ à¦²à¦ĩ
à¦ĩà¦ķ à¦¸à¦¹
Ġà¦ĭ à¦ľ
à§§à§® à§§à§®
Ġà¦ªà¦Ł à¦ļ
à§©à§® à§¦
qu are
Ġex ist
à¦·à¦°à¦£ à¦ľà¦¨
. âĢĺ
I N
P r
à¦¯ à¦°à¦¶
à¦ª à¦Ńà¦°
Ġà¦¨ à¦²à¦¦
à¦§ à¦ļ
Ġà¦ĩ à¦ķà¦²
à¦¶à¦¨ à¦¸à¦®
à¦°à¦¹ à¦¨à¦ķ
Ġà¦ħà¦¬à¦¸ à¦ķ
à¦ļà¦² à¦¸à¦®
Ġà¦ıà¦¨ à¦Ĩà¦ĩ
à¦²à¦¸ à¦ĵ
à¦ĩà¦« à¦Łà¦ķ
à¦Łà¦® à¦Ł
à§§à§® à§Ń
à¦ĵà¦ĩ à¦¸à¦¬
Ġà¦īà¦ĩà¦¨ à¦¸à¦¨
ch ange
Ġà§Ńà§¯ à§ª
Ġr ace
Ġne g
ĠL ima
ÑĢÐ¶Ð¦ ÑĢÐ¶
Ġim med
was if
) =
à§Ł iii
à¦Ľ à¦ªà¦Ĺ
Ġà¦¨ à¦°à¦ªà¦¶
Ġà¦ĵ à¦ıà¦®à¦Ĩà¦°
à¦¡ à¦ķà¦®
Ġà¦¬à¦° à¦·
à¦¹à¦¸ à¦Ł
Ġà¦¬à¦¹ à¦°à¦ª
Ġà¦Ĳ à¦¦
à¦®à¦£ à¦Ĺ
Ġà¦Ĩà¦ĸ à¦ĸ
ap s
Ġà§®à§ª à§§
Ġgreat ly
Ġà§§à§®à§¯ à§®
à§¨à§§à§¦ à§«
à¦¨à¦Ĩ à¦¨à¦®
à¦¨ à¦°à¦¦
à¦¨ à¦¨à¦¬
à¦ķ à¦¨à¦°
à¦¤ à¦ĺà¦°
Ġà¦ī à¦Ľ
âĢ İ
à¦ī à¦ļà¦°
Ġà¦ıà¦² à¦ıà¦®à¦ľ
à¦°à¦§ à¦¨
à¦¬à¦¬ à¦²à§Ł
à¦Ŀ à¦Ĺà§ľ
Ġm v
Ġm artyr
à¦¹à¦°à¦£ à¦Ł
Ġà¦ıà¦ĩà¦ļ à¦ıà¦¸
à¦¸à¦ĵ à¦®
Ġà¦¶à¦ĵà¦ķà¦¤ à¦ķ
Ġà¦ķà§ľ à¦ĩ
ÑĢÐ¶Ð§ ÑĢÐ·ÐĿÑĢÐ¶
à§¨à§§à§§à§ «
3 6
à¦ľ à¦ħà¦¨
Ġà¦¨ à¦«
Ġà¦¦ à¦ªà¦¦à¦ª
Ġà¦ıà¦ķ à¦¶à¦Ł
à¦®à¦¨ à¦ĵ
à¦¬à¦° à¦ľ
à¦®à¦° à¦Ĺ
Ġà¦¶à¦¤ à¦¦à¦²
à§¦à§¦ à§§
Ġà¦Ĩà¦¤ Åĵ
à¦īà¦² à¦Ł
à¦¨à¦® à¦¹
Ġà¦ªà§Ł à¦ľà¦¨
à¦¾à¥¤âĢĻ âĢĻ
à¦Īà¦¦ à¦¸à¦¹
Ġà¦īà¦Ńà§Ł à¦ª
à¦ħà¦§ à¦¸
Ġth in
Ġsu c
Ġsu gg
Ġab ility
Ġse at
ph one
Ġhonest y
Ġpasseng ers
Ġenter ed
- âĢĻ
3 9
à¦¨ à¦Ĩà¦¸
à§Ł à¦ıà¦¬
Ġà¦¬ à¦īà¦Ł
à¦ĵ à¦ıà¦®
Ġà¦ĵ à¦ľà¦°
à¦Ļ à¦ķ
à¦¨à¦ķ à¦°à¦£
Ġi gn
à¦ıà¦« à¦ıà¦°
à¦ľà§Ł à¦ĩ
à¦ĩà¦« à¦¬
Ġb it
à¦¹à¦°à¦£ à¦¸à¦¹
à§§à§¬ à§¨à§¦
à¦¸à¦« à§ľ
Ġe ff
ac ks
ĠG o
ĠL e
ĠïĤ¾ ïĢł
Ġà¦Ŀà¦ķ à¦®à¦ķ
ÑĢÐ¶Ðº ÑĢÐ·ÐĿÑĢÐ¶
ĠâĢĮ âĢĮâĢĺ
Ġcons cious
Ġpartic ip
à¦Ł à¦¹à¦²
Ġà¦¹ à¦°à¦¨
à¦ļ à¦¤à¦®
à¦¥ à¦°à¦Ĺ
à¦ı à§ľ
à¦ı à¦ĩà¦°
à¦¼à¦¾ !
à¦¦à¦¨ à¦¨
Ġt all
à¦ħà¦¨ à¦Ń
re c
on ds
Ġc al
à§§à§© à§©à§¦
?âĢĻ âĢĶ
Ġwe ather
os ion
à¦ıà¦ıà¦ĩà¦ļ à¦ª
Ġprogramm e
Ġrespons ible
Ġchar acter
Ġmark et
4 5
? ?
x ii
à¦¿ à§ĥ
à¦® à¦«à¦¸
Ġà¦¹ à¦¬à¦¸
à¦Ń à¦¨à¦ķ
Ġà¦ĵ à¦®à¦ª
Ġà¦¬à¦² à¦¶
à¦ŀ à¦ĵ
à¦¬à¦² à¦¯
à¦¨à¦¬ à¦¢
à§ľà¦ķ à¦ľ
Ġà¦Ĩà¦ĩ à¦Ĩà¦°à¦ľ
à¦ķà¦¸ à¦Ł
Ġà¦ĩà¦¸ à¦«
Ġà¦²à§ľ à¦²
à§§à§« à§ªà§¦
Ġof fer
ac he
oun ds
à¦Ĩà¦Ł à¦ľà¦¨à¦ķ
Ġj ud
à¦ıà¦®à¦ıà¦« à¦ıà¦¸
ob er
ren ch
Ġsomet imes
Ġint ellig
R ight
l ing
à¦¤ à¦ªà¦¦
à¦ī à¦¬à¦¸à¦¹
Ġà¦ĺ à¦¨à¦ķ
Ġà¦Ĩà¦® à¦Ł
à¦ļà¦¨ à¦ªà¦¦
Ġà¦Ĺà¦¤ à¦¦
à¦ĺ à¦°à¦¬
à¦¦à¦ª à§ľ
ÑĢÐ¶Ð »ÑĢÐ¶
Ġp ond
à§§à§® à§«à§ª
Ġd om
is ing
Ġà¦ļà¦®à¦ķ à¦ĩ
à§©à§© à§Ń
Ġà§¯à§Ń à§¬
Ġwh ite
Â¡ ,
ĠSt art
Ġbus y
Ġtrans port
Ġà¦Ŀà¦® à¦Ŀà¦®
i ately
à¦° iii
Ġà¦ı à¦°à¦®
à¦Ĺ à¦ľà§Ł
à¦ł à¦¤à¦²
à¦¾à¦ģ :
à¦°à¦ķ à¦ĩ
Âł ĠÂłĠÂłĠÂłĠÂłĠÂłĠÂłĠÂłĠÂł
à¦¼à¦¾ ):
Ġà¦ıà¦¸ à¦ıà¦¨à¦ª
à¦¸à¦¨ à¦¯à¦¨
Ġà§® à§§à§¯
à¦¶à¦® à§Łà¦¨
à¦ĩà¦« à¦Ĺ
Ġm ist
Ġà§¯à§¦ à§¬
Ġà¦īà¦ĩà¦² à¦®
ain ed
Ġsu per
Ġj am
oy al
az id
ĠSet tings
à¦¦à¦ļ à§Łà¦¨
Ġmagic ian
uper lative
Ġindivid ual
d h
j ob
à¦¿ ",
à¦¨ à¦°à§Ł
à§Ł à¦¬à¦ķ
Ġà¦¦ à¦°à¦ĵ
à¦¹ à¦¨à¦Ł
Ġà¦¶ à¦ł
à¦£ à¦Ĩà¦¦
à¦¡ à¦²à¦Ł
à§Į à¥¤
à¦ĩà¦¨ à¦ĸ
à¦¯à¦ķ à¦°à¦¤
à¦°à¦¹ à¦¸à¦¹
à¦¸à¦¨ à¦®
à¦«à¦² à¦¸
à¦Ĺà¦£ à¦¯
à¦¤à¦² à¦ĵ
Ġc aus
Ġb orrow
Ġm ix
Ġh ouses
Ġà¦ĺà¦¨ à¦ļ
à¦§à¦ķ à¦¬à¦²
à¦¡à¦¸ à¦ĵ
ĠA c
âĢĭ à¦¾
ĠP a
Ġ2 6
ĠZ v
Ġroad s
- (
g er
à¦° à¦Ĩà¦¤
Ġà¦® à¦īà¦°
à¦· à¦°à¦¸à¦¹
à¦ĸ à§Ł
Ġà¦ļ à¦°à¦¸à¦®
Ġà¦Ĩà¦² à¦ĸ
à¦ĺ à¦®à¦²
à§© à§©à§¦
Ġà¦®à¦¹ à¦¸à§ľà¦ķ
Ġà¦¸à¦° à¦¯
à¦°à¦ļ ÃĲ
Ġà§§à§¯ à§¦à§ª
Ġa im
à¦¨à¦Ĺà¦° à¦ª
à¦²à¦® à¦¡
Ġw arm
Ġà¦ľà¦² à¦Ľ
à§ĩâĢĻ !
ou l
à§§à§¨ à§§à§¨
ĠS eptember
à§¨à§¬ à§¦
ur ity
Ġà§¯à§® à§¬
ial ly
)âĢĶ (
ĠSub stitution
Ġelect ronic
) ...
h ot
i us
j b
Ù Ħ
Ġ ....
à¦« à§ľ
à¦¬à¦¬ à¦§
à¦¤à¦® à¦¯
à¦®à¦¸ à¦ĵ
à¦Ĩà¦ĩ à¦¸à¦¹
à¦¨à§Łà¦¨ à¦Ł
à¦ĩà¦® à¦Ĺ
à§§à§¯ à§«
à§§à§¯ à§¦à§ª
Ġs itting
à¦īà¦ª à¦®à¦¨
à§§à§® à§®
à§§à§ª à§ªà§¦
à¦Ńà§Ł à¦Ļ
ad i
Ġà§®à§« à§§
ĠR es
Ġ2 4
Ġà¦¬à¦¹à¦° à¦Ł
Ġaw ard
Ġlead er
ÑĢÐ·ÐĿÑĢÐ¶Ð¥ ÑĢÐ¶
Ġarr ived
% )à¥¤
Ġà¦Ĩ à¦Łà¦°
Ġà¦Ĩ à¦«à¦²
Ġà¦® à¦ĩà§Ł
à¦ĸ à¦Ńà¦Ļ
à§ĩà¦¾ ?âĢĻ
Ġà¦ĸ à¦¤à¦¨
Ġà¦Ĩà¦® à¦Ŀ
à¦ķà¦° à¦¸à¦¹
à¦°à¦¸ à¦¦
à¦°à¦² à¦¦
à¦īà¦² à¦ĵ
à¦ıà¦« à¦ıà¦¨
à§§à§« à§«à§¦
Ġb d
Ġp icture
Ġh ill
Ġh old
à§§à§© à§ªà§¦
ĠT hank
à¦ıà¦¸à¦ıà¦® à¦ıà¦°
if ied
qu ence
ack ets
Ġeduc ational
Ġevery body
Ġexp ens
Ġcr ied
à¦ıà¦Ĩà¦ĩ à¦Ĩà¦ĩà¦¬
ÑĢÐ¶Ð¶ÑĢÐ·ÐĿÑĢÐ¶Ð ·
f ar
à¦² à¦¶à¦ķ
à¦¬ à¦Ńà¦°
à¦¡ à¦¥
Ġà¦¡ à¦¨à¦ķ
Ġà¦¹à¦² à¦¬
à¦ĩà¦¸ à¦ĵà§Ł
à¦ķà¦Ń à¦¬à¦¨
à¦°à¦®à¦£ à¦¸
à§§à§® à§«à§®
il ar
Ġre ason
ak mzakaria
Ġv it
Ġour selves
ĠL aila
à¦ĩà¦ĩà¦ī à¦ıà¦¸
ÑĢÐ·ÐĽ ÑĢÐ¶Ðª
ĠĊĊ ĠĊ
à¦¥à¦ķà¦ķ à¦°à¦£
!! !
Ġaff irmative
Ġsuc ceed
à¦¨ à¦ĩà¦²
à¦ķ à¦īà¦ľ
à¦¤ à¦ıà¦ķ
Ġà¦ı à¦ıà¦®à¦ıà¦²à¦¸
Ġà¦ľ à¦ĸ
à¦Ń à¦²à¦ª
Ġà¦¬à¦² à¦¯
à§¦ à§§à§¦
à¦¶à¦¨ à¦ķà¦ķ
Ġà§¨à§¦ à§©à§«
ou ch
à§§à§¨ à§©à§¦
ed ia
à¦Ī à§Ł
Ġà¦ıà¦« à¦Ĩà¦ĩà¦¸
Ġà¦ıà¦¡ à¦¹à¦ķ
à¦®à¦ĺ à¦Łà¦ķ
am i
ÑĢÐ·ÐĿÑĢÐ¶Ð ¸
Ġch all
Ġde ep
Ġid le
Ġrel ation
ĠBe gum
Ġmem orable
Ġz oo
Comp etency
, /
à¦¬ à¦īà¦¤
à¦¦ à§Łà¦Ĺ
Ġà¦¹ à¦Łà¦¬
à¦§ à¦£
Ġà¦Ĺ à¦¹à¦°
à¦¨à¦ķ à§Ł
à¦ķà¦¬ à¦ĩ
Ġà¦ħà¦ķ à¦¶à¦¨
Ġn ations
ĠA ct
à¦Ĺà¦¸ à¦®à¦¤
qu ayum
à¦Ĩà¦Ł à¦ĺà¦°
à§ģà¦Ĥ -
ÑĢÐ¶Ð¾ ÑĢÐ·ÐĹÑĢÐ¶
ell ite
od e
à¦ķà¦²à¦¨ à¦Ł
Ġtw enty
Ġexp ect
Ġrun ning
Ġsk ill
Ġindustr ious
Ġsens ible
S T
r as
à§į à¦¿
à¦ī à¦ĩà¦ľ
Ġà¦ĺ à¦·à¦¤
Âł ĠĠÂłĠ
à§İ à¦ļ
à§© à§§à§¦
Ġà¦ĩà¦ī à¦ıà¦¸à¦ľ
Ġà¦ªà¦¥ à¦ļà¦²à¦¤
à¦¬à¦¶ à¦Ļ
à¦¥à¦ķ à¦¸à¦¹
à§Łà¦£ à¦ķ
Ġf a
à§§à§¬ à§ªà§¦
à¦¨à¦¸à¦¹ à¦ķ
Ġà¦¹à¦¯à¦°à¦¤ à¦ª
ĠE ducation
Ġqu al
à¦ıà¦¨à¦ıà¦¸ à¦ĩà¦ī
Ġpr onoun
Com parative
Ġfiel ds
Ġgirl s
Ġcompet ition
Ġprogramm es
Ġvalu able
4 2
: -
C h
Ġ à§ģ
à¦° à¦ħà¦ªà¦°
à¦® à¦Ńà¦°
Ġà¦ķ à¦¸à¦ķ
Ġà¦¶ à¦·
à¦°à¦ķ à¦ļà¦ķ
Ġà¦ħà¦¨ à¦¶à¦¨à¦¸
à¦·à¦£ à¦¨
à¦°à¦¹ à¦¨à¦¯
à¦¬à¦² à¦°
à¦°à§Ł à¦ĵ
à¦°à¦¨ à¦¥
Ġà¦ıà¦¨ à¦ıà¦ķ
à¦ķà¦¨ à¦ª
)- -----
an th
à§§à§Ń à§¨à§«
Ġg oo
ĠS outh
à¦¸à¦« à¦²à¦¤
à¦¯à§İ à¦ĩ
à¦°Ã ĳ
Ġà¦īà¦Ń à§Łà¦¸
ĠBangladesh i
Ġclass es
Ġbel ong
Ġà¦Ĩà¦ĩà¦ıà¦® à¦ĵà¦°
Ġtrain ing
esp ecially
Ġlim it
) ïĤ¾
I D
T o
à¦° à¦ħà¦Ĺ
Ġà¦ħ à¦¹à¦°
à¦ī à¦Łà¦Ĺ
Ġà¦Ĩà¦° à¦Ĺ
Ġà¦ıà¦ķà¦ĩ à¦¸à¦®à§Ł
à¦ªà¦£ à¦¬
Ġs inc
Ġh air
à¦Ĩà¦¨ à¦«
à§§à§Ń à§§à§¦
id ge
Ġre d
Ġà¦ļà§ľ à¦²
Ġst ep
Ġqu ality
em ember
Ġen s
Ġà¦Ĩà¦²à¦¬à¦¦à¦° à¦°
Ġhelp ed
arr ot
Ġatt ent
Z v
g es
Ġà¦¬ à¦ķà¦¤
à§ĩà¦¾ ;
à¦¤à¦° à¦Ĩà¦¹à¦¤
Ġà¦Ĩà¦² à¦ĵà§Ł
à¦·à§Ł à¦¸
Ġà§§à§¦ à§§à§§
Ġà§¯ à§©à§¯
Ġà§§à§¯ à§¦à§¨
à¦ªà¦¦ à¦¬à¦ŀ
à¦²à¦Ĺ à¦¸
à¦¿à¥¤âĢĻ âĢĻ
à¦·à§Łà¦ķ à¦ıà¦ķà¦Ł
à§¨à§¨ à§ª
à§¨à§¨ à§®
à§§à§¬ à§§à§¦
à§§à§ª à§¨à§¦
Ġin form
ol ution
ÑĢÐ¶Ð¸ ÑĢÐµÐ´
Ġà¦īà¦ªà¦ķà¦°à¦£ à¦¸à¦¹
Ġà§®à§¯ à§©
à¦ĭà¦£ à¦ĸ
ĠO f
Ġsc ient
uff ixes
Ġthous and
Ġà¦¬ à¦¤à¦¸
à¦Ł à¦ıà¦²
à¦Ł à¦īà¦¤
à¦ĩ à¦Ĺà¦²
Ġà¦ļ à¦ķà¦ķ
Ġà¦Ń à¦Ĺà¦¤
Ġà¦Ĩà¦® à¦ķ
à¦ŀ à¦Ĺà¦£
Ġà¦īà¦ª à¦ķà¦°
à¦¦à¦ķ à¦¶
à¦°à¦§ à¦°à¦ķ
Ġt ast
à§¨à§¦ à§¨à§¬
à¦°à¦®à¦£ à¦¸à¦¹
Ġf ro
ap an
Ġr ats
Ġme at
ĠG over
so ft
Ġà¦Ĩà¦ķà¦®à¦² à¦ķ
Ġind irect
ĠZ oh
ĠUn ited
Ġquick ly
l ined
à§Ł à¦ıà¦ĩ
Ġà¦ķ à¦ĸ
à¦¸ à¦°à¦ĵ
à¦Ł à¦Ĩà¦¬
à¦ĩ à¦ħ
à¦¡ à¦ıà¦ķ
à¦¸à¦ķ à¦°à¦£
Ġà¦¸à¦¦à¦° à¦¦à¦«à¦¤à¦°
ÂłÂłÂłÂł Ġ
à¦Ĺà¦¨ à¦¸à¦¹
à§¨à§¨ à§ªà§¦
ap ur
ĠR abi
Ġbu ilt
Ġsumm ary
Ġfoot ball
à§ĩ ÂĿ
à¦° à¦Ĩà¦¹à¦®
à§ģ ?âĢĻ
à¦¶ à¦Ĺà¦®
à¦¹ à¦¦à¦¹
à¦§ à¦ľà§Ł
Ġà¦Ĩà¦° à¦ıà¦®
à¦Łà¦¨ à¦Ĺà¦°
à¦ªà¦¨ à¦¬
à¦²à¦ķ à¦¹
Ġà¦Ĩà§Ł à¦¬à¦°
Ġà¦ķà§Ł à§ľ
à¦²à¦¸ à§ľà¦ķà¦Ł
Ġà¦Ĳ à¦¸à¦¬
Ġc m
Ġd irty
Ġà¦ıà¦¸à¦Ĩà¦ĩ à¦¸à¦¹
iv ely
à¦ĸà¦¬à¦° à¦ĩ
et h
us ed
Ġv ict
ĠN ot
and ela
ĠÑĢÐ¶Ð¥ ÑĢÐ¶ÐµÑĢÐ¶
Ġbl ue
ĠÑĢÐ¶Ð§ ÑĢÐ¶Ð³
Ġac cept
Ġhigh ly
Ġincre ase
yout ube
ĠEur ope
l i
à¦ķ à¦¬à¦¸
à¦¦ à¦Ĺà¦£
à¦ĵ à¦ĩà¦¸
Ġà¦¸à¦® à§Łà¦¨
Ġà¦Ĩà¦® à¦¬à§Ł
à¦Ĩ à§Łà¦¤à¦¨
à§ĩ, âĢĺ
à¦īà¦ľ à¦īà¦ĩà¦ķ
Ġà§§à§¯ à§¦à§Ń
à¦Łà¦° à¦ĩ
à¦ıà¦ĩ à¦®
à¦«à¦² à¦Ĺ
à§§à§® à§«
à§§à§® à§ªà§®
à§¨à§¨ à§¨à§¦
le y
ÑĢÐ¶Ð¥ ÑĢÐ·ÐĿÑĢÐ¶Ð´
Åĵ à¦ļ
Ġà¦¨à¦ĸ à¦¦à¦¨
cl ock
ĠCl ass
Tr ans
n t
Â ĩ
à¦° à¦īà¦ļ
à¦¼à§ĩ âĢĶ
à¦Ĩ à¦ªà¦Ł
à¦ĸà¦¨ à¦ķ
à¦ķà¦Ł à¦Ĺ
Ġà¦ħà¦¬à¦¸ à¦¨
ĠâĢľ (
à¦ıà¦ĩ à¦ıà¦°
à¦ķà¦® à¦°à¦¦
à¦ıà¦ķ à¦§à¦°à¦¨
Ġà¦ķà¦ĸà¦¨ à¦ĵà¦ĩ
Ġc ase
Ġf ought
à§ĩà¥¤" '
Ġl ab
Ġà¦ĩà¦Ń à¦²
à¦¸à¦« à¦Łà¦ķ
Ġà§Ńà§¯ à§Ń
um b
ĠÂłĠÂłĠÂłĠÂł Ġ
ĠK i
Ġbrother s
stru ction
p d
à¦¨ à¦īà¦ĩà¦ķ
à¦¶ à¦²à¦¤
à¦§ à¦ľà¦¨
à¦Ń à¦ľà¦¨
Ġà¦ļ à¦ķà¦¦
à§ľ à¦£
Ġà¦Ń à¦²à¦Ń
à¦ľà¦¨ à¦ªà¦¦
à§Ń à§«à§¦
Ġà¦ĵà¦ªà¦° à¦Ł
Ġà¦ıà¦® à¦ıà¦ķ
à§Łà¦® à¦®à¦¤
à¦¥à¦ķ à¦Ĺ
Ġà¦¸à¦¹à¦ľ à¦¤à¦®
à¦ķà¦°à¦£ à¦ĩ
Ġà¦¬à¦ĩ à¦ł
à§§à§® à§¨à§ª
ïģ ±
ĠP or
ĠÂ ·
ĠâķĽ ïĢł
Ġinv ol
uh in
Ġgroc er
n ight
à¦° à¦Łà¦¨à¦ķ
à¦¨ à¦ıà¦ķà¦Ł
à¦¸ à¦·
Ġà¦® à¦²à¦Ĺ
à¦ļ à¦°à¦Ńà¦¦
Ġà¦¶ à¦¬à¦°
Ġà¦ªà¦° à¦¥
à¦ªà¦¤ à¦²
à¦ħ à¦¬à¦¨
Ġà¦ĩà¦¨ à¦ķà¦°
à¦¨à¦¬ à¦£
Ġs quare
Ġà§¨à§® à§¦à§¦
ar c
le w
Ġà¦ıà¦« à¦ľ
op h
à¦Ĺà¦°à¦£ à¦®à¦ŀ
à¦ļà¦¸ à¦ľ
Ġal ong
ĠN et
Ġpiec e
ĠBay azid
Ġà¦ıà¦ıà¦² à¦Ĩà¦°à¦¡
m in
Â ¾
à¦² à§İà¦¸
à¦® à¦Ĩà¦«à¦°
à¦¯ à¦ªà¦¥
à¦ĩ à¦ĺà¦£
à¦ļ à¦¥
à¦ĸ à¦Ĺà¦¹
à§Łà¦¨ à¦°à¦¤
à¦ĩà¦¨ à¦®à¦¸
Ġà¦¹à¦² à¦¤
à¦°à¦Ń à¦¬à¦¨
Ġà¦¸à¦ļ à¦ķ
à§¨à§¦ à§¨
à§§à§¬ à§«à§«
à§§à§ª à§«à§¦
à§§à§Ń à§«à§Ń
ĠS uddenly
ad ays
Ġ= >
if ication
Ġme al
Ġà¦°à¦¤ Åĵ
ÑĢÐ·ÐĹÑĢÐ¶Ð ¯ÑĢÐ¶
ĠÑĢÐ¶Ðĸ ÑĢÐ¶ÐĹ
Ġinvent ed
. ïģ¬
b n
w i
Ġ especially
à¦° à¦īà¦ľ
à¦® à¦°à¦¬
à§ģ !âĢĻ
à¦Ł à¦¹à§Ł
Ġà¦® à¦°à¦«
à¦ļ à¦®à¦¤
à¦ĵ à¦ĺà¦°
Ġà¦¹à§Ł à¦Ĺ
Ġà¦² à¦¹
à¦ı à¦Ńà¦°
à¦²à¦¤ à¦Ĺà¦ŀ
à¦°à¦ĵ à¦¨
Ġà¦¬à§ľ à¦¸
at ic
Ġin c
Ġà¦¦à¦¶à¦ķ à¦Ĺ
ĠA pril
ir a
ÑĢÐ·ÐĲ ÑĢÐ¶Ð¼
ĠÑĢÐ¶Ð¶ ÑĢÐ·Ðĳ
Ġkeep s
gg le
Ġrequest ed
ĠHa que
A t
n d
w g
Ã º
à¦¨ à¦¶à¦¤
à§Ł à¦¶à¦ª
à¦¶ à¦°à¦¹
Ġà¦ı à¦Ĩà¦°à¦ıà¦®
Ġà¦¦ ÃĲ
Ġà¦¤ à¦ĵà¦«
à¦Ń à¦°à¦£
à¦ı à¦ľà¦¬
Ġà¦Ĩà¦Ĺ à¦°à¦¦
à¦ıà¦¨ à¦ĵà¦¸
à¦Ĩà¦ĩ à¦ĵà§Ł
ÑĢÐ¶Ð ®
à¦ıà¦« à¦ıà¦Ł
Ġf if
à¦¬à¦ľà¦¨ à¦ĵ
it ation
ĠH asan
ir it
ĠF rench
à¦Ĳ à¦²
à§ĩ... âĢĻà¥¤
Ġà¦¹à¦ĩà¦ļ à¦ĩà§Ł
Ġ4 0
Ġexc iting
n ers
à§ľ à¦ķà¦¦
Ġà¦¹à§Ł à¦ĵ
Ġà¦ıà¦° à¦ª
à¦ķà¦¤ à¦Ĺ
Ġà¦¬à§ľ à¦¦à¦²
à§ĭà¥¤ ïģ®
à¦Ĺà¦® à¦ŀ
à¦¨à¦Ĺà¦° à¦¹
Ġà¦¶à¦¹ à¦°à¦ĵ
Ġc ivil
à¦ıà¦ĩà¦ļ à¦ĵ
Ġm ang
à¦¾? âĢĶ
ĠC hange
Ġr id
ĠE ven
ĠâĢį âĢľ
Ġpr ize
Ġde fe
Ġshow ing
Ġdut ies
Ġavail able
à¦² à¦¸à¦¦
à¦² à¦Ĩà¦¨
Ġà¦ķ à¦ĵà§Ł
Ġà¦¸ à¦²à¦Ń
à¦¦ à¦ĩà§Ł
à¦¼ à¦¿)
à¦ļà¦¨ à¦ľà¦Ļ
à¦¦à¦¨ à¦ľà¦Ĺà¦¤
Ġà¦¸à¦¹ à¦Ĺ
à¦Ŀ à¦ª
à§Łà¦ķ à¦¸
à¦°à¦Ń à¦¬
à¦¨à§Ł à¦ªà¦¤
Ġs ection
Ġc ow
Ġà¦¸à¦¹à¦ľ à¦ĩ
à§§à§« à§¨à§¦
or th
à§¨à§¨ à§©à§«
à¦ķà¦¶à¦¨ à¦ĵ
Ġqu ar
à¦¨à¦¸à¦¨ à¦ª
ĠïĤ ®
Ġà§¦à§§à§Ń à§§à§¨
Ġtele cast
Ġill iter
Question s
Ex clamatory
ĠTan in
à¦¸ à¦Ĩà¦²
Ġà¦¸ à¦¶à¦¬
à¦ľ à¦¸à¦¨
Ġà¦ı à¦°à¦¬
à¦¡ à¦ĸ
Ġà¦ī à¦ĩà¦Łà¦¸
à¦ł à¦Ľ
à¦Łà¦ķ à¦²à¦¶
à¦®à§Ł à¦¬
à¦ļà§Ł à¦§
ar im
à¦¦à§Ł à¦Ł
Ġà¦Ĩà¦ĩà¦ıà¦¸ à¦ıà¦¸
à¦ķà¦Ĩà¦ª à¦ļ
Ġst yle
Ġwas h
ÂłÂłÂłÂłÂłÂłÂłÂłÂłÂłÂłÂłÂłÂłÂłÂł ÂłÂłÂłÂłÂłÂłÂłÂłÂłÂłÂłÂłÂłÂłÂł
ĠD e
ĠD uring
ïĤ ®
Ġevery one
Ġà¦ķà¦¤à¦ķ à¦Ĺ
air s
Ġà¦Ĩà¦ĩà¦ı à¦ıà¦ıà¦«
Ġstre et
o z
à¦¾ ..
à¦ĩ à¦ł
Ġà¦ķà¦° à¦ĵ
Ġà¦ĩ à¦¤à¦¨
Ġà¦¡ à¦ķà¦°
à¦¤à¦° à¦ľ
Ġà¦ıà¦² à¦ıà¦²à¦ıà¦®
à¦·à§Ł à¦ķà¦¸
à¦ķà¦Ł à¦ĩ
à§Ń à§©à§Ń
Ġà¦¬à§ľ à¦ĩà¦¤à¦²
Ġà¦ĩà¦ī à¦ıà¦¸à¦¡
à¦ıà¦« à¦ıà¦ķ
Ġà¦ıà¦« à¦Ĩà¦°à¦¸
ĠW ar
ĠB ased
Ġon es
Ġà¦°à¦¤à¦¨ à¦¦
à§¦à§¦à§¦ à§§
ĠO ct
Ġsa fe
ist ic
Ġà¦°à¦ľ à¦¤à¦ķ
Ġfol k
ĠÂ Ń
ÑĢÐ·ÐĲ ÑĢÐ¶Ð´ÑĢÐ¶
Ġro ot
à¦ıà¦ķà¦ķ à¦¥
à§¨à§¨à§¦ à§«
Ġ22 21
Ġcompan ies
Ġmess age
Ġdestro y
à¦ıà¦«à¦ıà¦²à¦ıà¦²à¦ıà¦« à¦ĩà¦ı
à¦ķ à¦īà¦ªà¦ķà¦°à¦£
à¦² à¦ľà¦¬
Ġà¦« à¦°à¦Ł
à¦ļà¦ķ à¦ļà¦ķ
Ġs al
Ġf ear
à¦īà¦ª à¦Ń
à§§à§® à§¨à§¨
à§§à§® à§¦à§«
à§§à§¬ à§©
... âĢĺ
ÑĢÐ·ÐĹ ÑĢÐ¶Ð¿ÑĢÐ¶
ĠS und
Ġà¦®à§İà¦¸ à¦ľ
à¦¯à¦Łà¦ķ à¦¸à¦¹
à¦°à¦¥ à¦Ł
ĠU s
Ġx ii
Ġpre vent
Ġrec ent
Ġintro duce
Ġwal ked
ĠChild ren
. -
i u
Â ¿
Ġà¦ķ à¦ī
Ġà¦Ĩ à¦īà¦¡
à¦¶ à¦ħà¦¨
Ġà¦¹ à¦°à¦ª
à¦· à¦°à¦Ĺ
Ġà¦ħ à¦²à¦®
à¦ľà¦¨ à¦¹
à¦°à¦® à¦īà¦ĩà¦ļ
Ġà¦¬à¦° à¦¨
à¦¯à¦® à¦ª
Ġà¦Ŀ à¦°à¦¬
Ġt ong
he st
à¦ķà¦¸ à¦ĵ
à¦Łà¦¸ à¦¸à¦¹
es c
à¦¦à¦¶ à¦¤à¦®
ur g
ĠG ap
Ġple ased
Ġpray er
Ġhung ry
Ġholid ay
4 9
h old
Ã ·
à¦¨ à¦¹à¦¤
à§Ł à¦²à¦¸
à¦ľ à¦¬à¦°à¦¦à¦¸
à¦¶ à¦·
Ġà¦ı à¦ıà¦®à¦ıà¦¸
à¦Ĺ à¦īà¦¤
Ġà¦¦ à¦¹à¦°à¦®
Ġà¦ķà¦° à¦ļ
Ġà¦ħ à¦ĩ
Ġà¦ĵ à¦®à¦¨
Ġà¦Ľ à¦Łà¦ķ
Ġà¦ĩ à¦Ĩà¦ĩà¦ı
à¦¿à¥¤ à¥¤
Ġà¦¡ à¦ľ
à¦Ĩà¦ĩ à¦ıà¦²à¦ĵà¦°
à¦ĩà¦° à¦¯
Ġà¦ĩà¦ī à¦ıà¦¸à¦¸
à¦¨à¦¦ à¦¶
Ġà¦Ĩà¦¸à¦¨ à¦Ń
Ġà¦ĵà¦ł à¦¤
à¦ıà¦² à¦ļ
Ġà¦ķà¦¤ à¦¶à¦¤
à¦ĩà¦¦ à¦Ĺ
om b
à¦Ĺà¦ł à¦ķà¦°
à¦ħà¦¸ à§İ
à§¨à§¬ à§©
Ġà¦īà¦ĩ à¦²à¦ķ
ĠM art
Ġà¦īà¦Ń à§Łà¦¦
Ġcl auses
ew rite
Ġar range
Ġ----- ----
ĠÑĢÐ¶Ð¼ ÑĢÐ·ÐĿÑĢÐ¶Ð¿ÑĢÐ¶Ð¼ÑĢÐ¶
Ġà¦ļà¦°à¦£ à¦¦
Ġmeans a
Ġà§¯à§«à§« à§«à§¯
Ġfin ished
ÑĢÐ·Ðĵ ÑĢÐ¶Ð´
à¦Ķ à¦·à¦§
Ġhab its
Ġdise ase
Ġastr olog
l ight
w ord
à¦¶ à§Łà¦ĵ
Ġà¦¨ à¦°à¦¦
à¦ĩ à¦°à¦ķ
à¦ĩ à¦ıà¦²
à¦ĩ à¦Ĩà¦ĩà¦ı
à¦« à¦¨à¦¦
Ġà¦§ à¦¨à¦¤
à¦Ĩ à¦®à¦¬
à¦ĩà§Ł à¦°
er b
Ġ: (
Ġà¦ªà¦¦à¦ķ à¦¸à¦¹
Ġf all
à§§à§® à§§
à§¨à§¨ à§«à§¦
Ġth irst
à¦ıà¦®à¦ĩà¦ī à¦ı
Ġsp eed
Ġcl ub
ĠÑĢÐ¶Ðº ÑĢÐ·ÐĳÑĢÐ¶
Ġx i
à¦¶à¦§ à¦°à¦¦
ri end
Ġswe ets
Ġjob s
ÑĢÐ·Ðĺ ÑĢÐ¶
Ġinstitution s
arri age
S uperlative
r up
à¦¾ âĢı
Ġà¦ı à¦°à¦¸à¦Ļ
Ġà¦¨ à¦²à¦ĸ
à¦Ĺ à¦ľà¦¨à¦ķà¦Ń
à¦ĵ à¦ıà¦²
Ġà¦ļ à§ľà¦Ľ
Ġà¦ī à¦¨à¦ķ
à¦°à¦¤ à¦Ł
à¦¬à¦¨ à¦²à¦¤
à§¨ à§§à§§
à¦¸à¦¬ à¦ª
à¦°à¦¶ à¦¹
à¦¤à¦¨ à¦ª
à¦¨à¦¨ à¦¸
à¦ªà¦¦ à¦ļ
à¦ľà§Ł à¦¯
Ġà¦ľà¦² à¦¹à¦¸
Ġà¦īà¦ªà¦ķ à¦¥
à§¨à§ª à§ª
ic an
Ġà¦ĩà¦īà¦ıà¦¨à¦ĵ à¦¦
ĠM or
ĠP ol
and a
à¦¾âĢĭ à¦¿
Ġkeep ing
Ġide al
Ġprodu ce
Ġdep ends
Ġopportun ity
icro soft
ĠBes ides
s erv
w ad
Ġà¦¹ à¦ľà¦¬
Ġà¦ı à¦Ĩà¦ĩà¦ĩà¦īà¦¬
à¦¥ à¦¬à¦¦
à¦¬à¦¨ à¦ļà¦°
à¦¹à¦® à¦¦
à¦¦à¦ķ à¦®à¦¨
à¦¹à¦¤ à¦²
Ġà¦ıà¦¸ à¦ıà¦²à¦Ĩà¦°
Ġà¦¨à§Ł à¦¡
Ġà¦ıà¦¨ à¦ıà¦ĩà¦ļ
à¦°à¦ĩ à¦¸à¦²
Ġà§§à§ª à§¨à§§
à¦¨à¦¡ à¦²
al ace
à§¨à§© à§ª
à¦ľà¦Ń à¦¬à¦¨
à§Ģ? âĢĿ
Ġre fer
ĠM andela
Ġlik ed
Ġbr ings
à§¨à§§à§§à§ ¨
cr ip
far uk
A ctive
à¦¨ à¦¨à¦Ł
à¦Ĺ à¦ľà¦ª
Ġà¦¤ à¦ªà¦¤
à¦ļ à¦¶à¦¤
Ġà¦Ĺ à¦²à¦¨
à¦¼ à§ģ,
à¦« à¦°à¦ª
Ġà¦ĩ à¦¦à¦°
Ġà¦ıà¦ĩ à¦ī
à§¨ à§§à§Ń
à¦¯à¦ķ à¦Ń
à¦ĩà¦Ł à¦ĩ
à¦Ĩà¦ĩ à¦Ĩà¦ĩ
Ġà¦«à¦² à¦ľ
à§ĩà¥¤âĢĻ -
à§¨à§¦ à§«
Ġa unt
Ġà¦ĭà¦£ à¦ĩ
Ġà§¨à§¬ à§¦à§¦
à§§à§« à§ªà§«
à§§à§« à§«à§«
Ġd ata
ic ed
ac les
à¦¯à¦Łà¦¨ à¦¬
Ġà¦Ĺà¦® à¦ĸ
ĠP o
Ġà§®à§Ń à§§
Ġqu iet
vi ew
Ġclass room
Ġmain tain
à¦° à¦°à¦¹
à¦¦ à¦Ĩà¦²
à¦Ł à¦¶à¦¨
à¦ļ à¦¦à¦ª
Ġà¦° à¦ĩ
Ġà¦Ĺ à¦¡à¦¸
Ġà¦¬à¦² à¦®
Ġà¦Ľ à¦®à¦Ľà¦®
à¦Ĩ à¦®à¦¸
à¦°à¦¸ à¦¨à¦¸
à¦ĩà¦¨ à¦¨
à¦īà¦¨ à¦¹à¦²
à¦¦à¦ķ à¦ĩ
à¦Łà¦Ĺ à§ľ
à¦°à§Ł à¦¸à¦¹
Ġà¦Ĺà¦£ à¦ķà¦ª
à¦ıà¦® à¦ıà¦¨à¦ª
Ġà§¨à§Ń à§¦à§¦
à§§à§® à§§à§¨
Ġm ult
Ġm obile
Ġl oss
Ġà¦Ĩà¦ĩà¦ıà¦¸ à¦ıà¦²
ĠA pp
ĠH SC
à¦ıà¦®à¦Ĩà¦ĩ à¦ıà¦¸
à§©à§© à§©
à§©à§Ń à§©
Ġtr ying
Ġam ount
az rul
ĠEngl and
à§¨à§§à§§à§ ª
ĠZ n
Ġins ect
Ġharm ful
arb ans
Ġstru ggle
e al
p han
à§ĩ |
à§ĩ "à¥¤
à¦® à¦°à¦®
à§ģ à§ĥ
à¦Ł à¦¦à¦²
Ġà¦¨ à¦¬à¦ª
Ġà¦¨ à¦«à¦¸
à§¦ à§¬à§¦
Ġà¦ĺ à¦°à¦¹
Ġà¦®à¦¨ à¦¬
à¦°à¦¸ à¦®à¦¸
Ġà¦ĵà¦ĩ à¦ª
Ġà¦ħà¦° à¦¨
à¦ĩà¦ī à¦Ĩà¦ĩà¦ĩà¦ī
à¦ľà¦ķ à¦°à¦¤
à¦¬à§Ł à¦Ł
Ġà¦ĩà¦Ł à¦ĸ
Ġbe gg
ab ility
Ġà¦¨à¦ĸ à¦¦à¦°
Ġsat isf
Ġadv ice
ĠSent ence
Ġdeg ree
y n
Ġ %
à¦¤ à¦Ĺà¦ŀ
Ġà¦Ĩ à¦īà¦¬
Ġà¦® à¦Īà¦¦
Ġà¦ĺ à¦°à¦¸
à¦Ĩ à¦¨à¦¬
à§¬ à§§à§¦
Ġà¦¬à¦ķ à¦¬à¦ķ
Ġà¦¬à§ľ à¦Ľà§ľ
Ġà¦ķà¦¨ à¦ķà¦¦
à¦ªà¦¸ à¦Ĺ
à¦ªà¦¸ à¦Ļ
Ġf resh
Ġb as
à¦ļà¦ľà¦¨ à¦¸à¦¹
Ġà¦²à¦¬à¦£ à¦ª
ve y
ĠD NA
os h
ĠU nseen
?âĢĿ âĢľ
Ġenjoy ed
Ġoffic ial
Ġincl ud
à§ĩÂĿ à§Ĺ
à¦¨ iii
à¦ķ à¦¸à¦¨à¦ķ
Ġà¦¬ à§Łà¦ķ
à¦¶ à¦ĺà¦°
à¦· à¦¤à¦¨
Ġà¦ļ à¦ķà¦®
à¦¡ à¦®à¦¨
à§ĩà¦¾ ),
à¦¾à¥¤ âĢ¢
Ġà¦Ĩà¦° à¦ıà¦¨à¦ı
à¦°à¦® à¦¦
à¦ļà¦¨ à¦¶
à¦ªà¦¨ à¦¸à¦°à¦¦
à¦Ĺà¦° à¦°
à¦®à¦¸ à¦ĵà§Ł
à¦¬à¦ķ à¦Ĺ
à¦¹à¦¨ à¦Ĺà¦°
ÂłÂłÂłÂł ÂłĠ
à¦Ĺà¦² à¦°
Ġà¦ħà¦² à¦ĵà§Ł
Ġà¦Ĩà¦°à¦¬ à¦ĵ
à§§à§© à§¨à§¦
Ġg reed
Ġà¦Ĺà¦¨ à¦¤à¦¨
Ġhe admaster
az i
Ġpower ful
Ġfail ed
Ġagricult ural
hot mail
, (
f rom
w ik
à¦¿ ïģ¬
à¦² à¦£
Ġà¦ķ à¦¨à¦®
à¦¦ à¦¡
Ġà¦ª à¦²à¦¸
Ġà¦® à¦®à¦¸
Ġà¦Ĺ à¦°à¦¹
à¦ı à¦¸à¦¨
à¦°à¦ķ à¦ľà§Łà¦¨
à¦¬à¦¨ à¦¢
à¦°à¦¸ à§ľà¦ķ
à¦ĩà¦² à¦Ĩà¦īà¦Ł
à¦¹à¦° à¦¨
à¦¶à¦Ĺ à¦¡
à¦²à¦Ĺ à¦ª
à¦¬à¦¹à¦¨ à¦ķà¦°
Ġb an
à¦īà¦ª à¦¬
Ġp ositive
ed s
à¦¬à¦Ľà¦° à¦ĸ
Ġy et
ain s
Ġex cl
Ġor phan
à¦ıà¦ı à¦ıà¦®
k ind
m ar
w ell
à¦° à¦ľà¦°
à¦® à¦¬à¦¸
à¦® à¦¦à¦¨à¦Ĺà¦°
à¦¸ à¦¸à¦°
à¦ĩ à¦ıà¦ķ
Ġà¦° à¦¡à¦¨
Ġà¦ī à¦ĩà¦¶
Ġà¦Ł à¦¬à¦Ĺ
à§İ à¦¦
à¦²à§Ł à¦¥
à¦¤à¦® à¦®
Ġà¦Ĩà¦ĩ à¦ıà¦ĩà¦ļà¦ıà¦¸
à¦ıà¦² à¦ıà¦°
à§§à§¯ à§ª
Ġf isher
à§§à§® à§©à§¨
Ġm aster
it or
Ġin j
Ġà¦Ĭ à¦§
à§¨à§Ń à§«
Ġbe ings
à¦°Ã¦ à¦¤à¦ĩ
ĠF r
Ġcomp ound
à¦¸à¦«à¦° à¦°à¦¤
Ġrep ly
Ġequ ally
Ġwis dom
9 0
à¦¾ }
à¦¯ à¦·
à¦ª à¦¥à¦ķ
à¦§ à¦°à¦²
à§ľ à¦ĩà¦ª
Ġà¦ıà¦ķ à¦®à¦¨
à¦¿à¥¤ (
Ġà¦īà¦ª à¦īà¦ª
à§Łà¦¨ à¦®
à§© à§ªà§¦
Ġà¦ħà¦¬ à¦¯
à¦Ĺà¦° à¦ĵ
Ġà¦¤à¦¬ à¦²à¦Ľà§ľ
Ġà¦ıà¦¸ à¦ıà¦Ł
à§¬ à§®à§¦
à¦ªà¦¦ à¦¸à¦¹
à¦ķà¦¸ à¦¸à¦¹
Ġà¦Ĺà¦łà¦¨ à¦ķà¦°
re et
Ġc ustom
Ġb ask
à¦īà¦ª à¦¸à¦¹à¦ķ
Ġà¦ħà¦Ł à¦¬
Ġh ar
à§§à§¬ à§©à§«
Ġl amp
Ġà¦ıà¦ıà¦« à¦¡
Ġà¦ķà¦¬à¦° à¦Ĺ
Ġcon c
ip al
Ġà¦ķà¦¦à¦® à¦°à¦¸
Ġrem ov
Ġresult s
Ġorgan iz
! *
Â ¶
Ã ¨
à¦Ń à¦£
à¦£ à¦¢
Ġà¦Ń à¦¤
à§¦ à§§à§®
Ġà¦ĩ à¦«à¦°
Ġà¦Ł à¦ªà¦ļ
à¦Ĩ à¦ķà¦²
à§İ à¦¤
à¦¨à¦¬ à¦ķà¦£
Ġà¦ıà¦® à¦ıà¦¸à¦ıà¦¸
Ġà¦ªà¦¥ à¦¹
Ġà¦Ĩà¦Ł à¦¸à¦ķ
à¥¤" '
ĠB abul
if ice
à¦¿' ,
ÑĢÐ¶Ð¼ ÑĢÐ·ÐĹÑĢÐ¶
ÑĢÐ·ÐĿÑĢÐ¶Ð¿ ÑĢÐ·ÐĽÑĢÐ¶Ð§
Ġà§§à§®à§® à§¬
à¦īà§İ à¦ªà¦²
Ġcre ate
à¦¸ à¦²à¦ķ
à¦ª à¦Ľà§ľ
à¦ĩ à¦ĵà¦¤
à¦ĩ à¦ħà¦ķ
à¦§ à¦ľà¦¨à¦ķ
Ġà¦ľ à¦¶à¦¨
à¦ĵ à¦ĺ
à¦£ à¦Ĩà¦«
Ġà¦ĩ à¦¹à¦²
à¦¬à¦° à¦ĵà§Ł
à¦ıà¦¨ à¦ıà¦ķ
Ġà¦ıà¦¨ à¦ıà¦¬
Ġà¦¦à¦° à¦¦à¦°
à§Łà¦® à¦¸à¦¹
Ġà¦Ĺà¦łà¦¨ à¦Ĺà¦¤
à¦ıà¦² à¦ĩ
Ġs ect
à¦¯à§Ł à¦ĩ
à§§à§ª à§¨à§«
à§¨à§© à§¯
Ġl ad
à¦ıà¦¸à¦ĩ à¦ı
ak a
ail way
Ġas ks
Ġà§®à§© à§¯
à¦¨à¦ķà¦° à¦Ľ
ÑĢÐ·ÐĹÑĢÐ¶Ð ¦ÑĢÐ¶
à¦¿... âĢĻ
Ġà¦®à¦°à¦£ à¦ªà¦£
Ġlov ed
Ġche m
fr ica
S ima
W here
à§ĩ #
à§ĩ ....
Ġà¦ĵ à¦°à¦²
Ġà¦Ń Ã¸
à¦ł à¦ĺ
à¦ı à¦Ĩà¦°à¦¸
à¦¹à¦® à¦ŀ
Ġà¦ħà¦° à¦ļ
Ġà¦ħà¦¸ à¦¬à¦°
he la
à¦īà¦Ł à¦¸à¦¹
Ġà¦ľà§Ł à¦§à¦°
à¦¨à¦® à¦ŀ
Ġw ild
à§§à§« à§§à§¦
Ġb v
Ġp ure
à§§à§® à§©à§ª
Ġh or
Ġà¦Ĩà¦¬à¦¹ à¦Ł
ïĤ «
ÑĢÐ¶Ð¾ ÑĢÐ¶Ð¿ÑĢÐ¶
ĠOn ly
ens ion
Ġbox es
Ġrespect fully
Ġeconom ic
Ġhig her
, ,
à¦¨ à¦§à¦°à¦¨
à¦¸ à¦¹à¦®
à¦¦ à¦²à¦¬
Ġà¦¤ à¦¹à¦¨
à¦Ń à¦Łà¦Ń
à¦¼ à¦¾à¦ģ
Ġà¦ī à¦°à¦¸
Ġà¦¹à§Ł à¦ĩà¦¨
à¦« à¦²à¦¤à¦²
à§Łà¦¨ à¦¨
Ġà¦ħà¦Ń à¦¬
à¦°à¦¬ à¦ĵ
à¦ķà¦Ł à¦®
Ġà¦®à¦¤ à¦ĵ
Ġà¦Ĺà¦£ à¦¸à¦Ļ
à¥¤âĢĻ -
Ġà¦ĸà¦¬à¦° à¦°
Ġh y
à§§à§Ń à§«à§¯
Ġà¦ĩà¦Ń à¦¨
ĠS ol
el low
ÑĢÐ·ÐĿÑĢÐ¶Ð ®
ang al
ĠÑĢÐ¶Ðĸ ÑĢÐ¶Ð§
vi ous
ĠJ ess
az y
Ġà¦ħà¦¹à¦°à¦¹ à¦ĩ
Ġdel ight
Ġindepend ent
ĠCor rect
Ġbask et
) âĢĵ
c ed
e at
t uhin
Ġ à¥¤âĢĻ
à§į à§ĩ
Ġà¦¦ à¦§
Ġà¦ī à¦²à¦¨
Ġà¦Ĩà¦² à¦ķà¦°
à¦²à¦¨ à¦¦
à§¯ à§¬à§¦
ĠâĢľ âĢĺ
Ġa ffect
à¦¤à¦°à¦£ à¦ĵ
à¦ľà¦¬ à¦ĵ
à§§à§« à§§à§«
à¦¾) ;
à§§à§® à§ªà§¨
à§§à§® à§©à§§
Ġà¦ĺà¦¨ à¦¶
à§§à§Ń à§ª
à¦¤à¦¸ à¦ŀ
ud tuhin
ĠWh ile
Ġx iii
ĠâķĽ .(
Ġinv ention
Ġà¦ľà¦¬à¦°à¦¦ à¦ĸà¦²à¦ķ
Ġop in
Ġcent ury
ĠCap italization
ĠMus lim
3 7
b ang
h appy
à¦° à¦ľà¦²
à¦° à¦ıà¦Ł
à¦¦ à§Łà¦¸
à¦Ł à¦īà¦ªà¦ķà¦°à¦£
Ġà¦¬à¦² à¦¬à¦¤
à¦¬à¦° à¦¶
à¦Ĩ à¦°à¦¸à¦¹
à¦ĺ à¦¬à¦ª
à¦ĩà¦ķ à¦ĵ
Ġt iger
Ġà¦Ľà§Ł à¦«
Ġà¦Ĳ à¦¨
à¦ľà§Ł à¦ĵ
à§§à§¯ à§¨
à¦°à¦ľà¦¨ à¦¸
Ġc ous
à§¨à§¨ à§Ń
ar u
à¦ıà¦¸à¦Ĩà¦ĩ à¦¡
Ġà¦¸à¦« à¦²à¦ķ
el ess
ut ers
un der
Ġk m
Ġfollow ed
ĠJ apan
Ġ201 6
Ġsis ters
St ud
Ġbegin ning
ÑĢÐ·ÐĽÑĢÐ¶Ðª ÑĢÐ¶Ð¸ÑĢÐ¶
à§ĩ [
à¦¤ à¦¸à¦°à¦ķ
à¦² à¦¸à¦¬
Ġà¦ķ à¦ľà¦¨à¦ĩ
Ġà¦¨ à¦²à¦Ł
à¦£ à¦¸à¦ļ
à¦ı à¦ıà¦¸à¦ıà¦®
Ġà¦¬à§ľ à¦ĺ
à¦¿) ;
à§§à§¯ à§¬
à¦ĩà¦¤ à¦ª
Ġà¦¬à§Ł à¦¸à¦ķ
Ġà¦īà¦¡ à¦ĵà§Ł
Ġà¦¸à¦² à¦¸à¦¬
ab ly
Ġany body
Ġ201 5
Ġà¦¹à¦°à¦Ĺ à¦Ļ
Ġimmed iately
A T
P re
à¦ķ à¦ĩà¦²
à¦¤ à¦ªà¦Ł
à¦² à¦¹à¦°
à¦¸ à¦Ĩà¦ªà¦°
à¦¯ à¦¸à¦°à¦ķ
à¦Ń à¦¸à¦¨
à¦¡ à¦ħ
à¦ī à¦²à¦¬
à¦ıà¦¨ à¦ıà¦ĩà¦ļ
Ġà¦Ĩà¦Ľ à¦¦à¦Ĺà¦ŀ
Ġà¦Ĺà¦£ à¦ķà¦®
à¦¼à¥¤ âĢĿ
Ġà¦²à¦ķ à¦¹
Ġa ut
Ġà¦Ĺà¦łà¦¨ à¦ª
Ġà¦ķà¦¨ à¦Ńà§Ł
Ġc up
à§§à§® à§¨
à§¨à§¨ à§¯
Ġd ate
el lect
Ġà§®à§« à§¯
Ġà¦¤à¦¨ à§Łà¦ķ
Ġà¦¹à¦ľà¦°à¦¤ à¦īà¦²
Ġà¦ħà¦¬à¦¤à¦°à¦£ à¦ķ
Ġà¦Ĩà§ľà¦¤ à¦Ĺ
Ġevery where
Ġinterest ed
Ġstand ing
Ġteach ing
Ġpreposition s
att le
ĠAh med
7 1
d ed
à¦° à¦ħà¦¬
à¦ķ à¦īà¦¨
à§Ł à¦°à¦¸
Ġà¦Ĩ à¦Łà¦Ĺ
Ġà¦ı à¦°à¦¸
Ġà¦° à¦ĩà¦¬
Ġà¦ĵ à¦¥
Ġà¦ªà¦° à¦ļà¦°
Ġà¦Ń à¦°à¦²
Ġà¦Ľ à¦¦à¦°
Ġà¦ĩ à¦²à¦¤
Ġà¦ĸ à¦¸à¦²
Ġà¦Ĩà¦Ĺ à¦°à¦ª
Ġà¦ĵà¦ĩ à¦ıà¦²
à¦¯à¦® à¦¸
Ġà¦ħà¦ª à¦ĺ
Ġà¦«à¦² à¦¸à¦¹
Ġà¦Ĩà¦¤ à¦¶
à§¨à§¦ à§©à§©
Ġà¦Ĩà¦ĩ à¦ıà¦¬
à¦ªà¦£ à¦ķà¦°
à¦¨à¦¡ à¦¨
Ġc age
Ġf ighters
à§§à§® à§§à§ª
à§§à§® à§¨à§®
it iz
à§¨à§© à§«à§¦
à§¨à§© à§ªà§¦
Ġà¦²à¦¬à¦£ à¦¸à¦¹
Ġcom fort
ore d
ĠG l
Ġhow ever
haj j
D on
d le
m il
p en
Ġà¦ķ à¦ķà¦ķ
à¦¹ à¦¤à¦¬
à¦§ à¦°à¦ķ
Ġà¦² à¦°à¦Ĺ
à¦ī à¦Ľà¦ķ
à¦ľà¦¨ à¦¬à¦°
à¦ĺ à¦¬à¦¨
Ġà¦ıà¦¸ à¦ĵà¦ª
Ġà¦Ľà§Ł à¦ĺà¦°
à¦ĩà¦« à¦¬à§Ł
âĢĺ âĢĺ
à¦¬à¦¹ à¦¦
Ġm iss
à§§à§Ń à§§à§«
Ġà¦Ĩà¦®à¦¨ à¦ĸ
un c
à¦¶à¦¦ à¦¹
Ġbe ach
Ġanswer ing
à¦ķà¦¬à¦° à¦¸
ĠÑĢÐ¶ÐŁ ÑĢÐ¶Ð¯ÑĢÐ¶
Ġ4 5
ress ion
à¦¶à¦®à¦¤ à¦īà¦²
duc ing
à§§à§¨à§© à§ªà§«
o e
Ġ ĊĊĊĊ
à§Ł à¦¸à¦®à§Ł
à¦® à¦¶à¦¤
à§ĩà¦¾ !âĢĻ
à¦¾à¥¤ à¥¤
Ġà¦ķà¦¥ à¦ª
Ġà§¨à§¦ à§¨à§Ń
à¦¤à¦¬ à¦¹
à¦ħ à¦Ĺà¦£à¦¤
à¦Ĩà¦ĩ à¦ĵà¦Ł
Ġà¦ıà¦® à¦ıà¦®à¦¸
âĢĶ à¥¤
à§©à§¦ à§¨
à¦¨à¦ĩ à¦īà¦¨
à¦īà¦ª à¦¶
Ġp arrot
Ġd ry
Ġà¦¦à¦¶à¦ķ à¦ľ
Ġà§ªà§« à§¦à§¦
à§¨à§ª à§®
à§ĢâĢĻ âĢĶ
ec e
à¦¬à¦ķà¦¦ à¦²
ĠR ep
Ġrel ated
Ġlearn t
Ġsat ellite
employ ment
athe mat
d en
à§Ł à¦Ĩà¦¸
à¦ļ à¦®à¦§
à¦ļ à¦¶à¦¬
à¦¥ à¦§
à¦ĵ à¦°à¦¸
à¦Ĩ à¦īà¦²
à¦¤à¦¬ à¦ľ
à¦ıà¦¨ à¦ĵà§Ł
à¦Ŀ à¦¸
Ġà§§à§¨ à§§à§«
à¦¹à¦² à¦Ł
Ġà¦īà§İà¦¸à¦¬ à¦ĩ
en ic
à¦¨à¦ĵ à¦¨
à¦¬à¦¤à¦¨ à¦¦
à§§à§¬ à§§à§¬
à§§à§© à§«à§¦
Ġl ands
il a
à¦®à¦°à¦¤ à¦°
ĠH all
ĠM as
Ġsp ot
Ġà¦īà¦¸ à¦ĸ
ell o
Ġstart s
ĠPr ize
Ġ14 4
ÑĢÐ·ÐĿÑĢÐ¶Ðª ÑĢÐ¶
ĠOct ober
" -
M an
] à¥¤
Ġ ÂłÂłÂłÂłÂłÂłÂłÂłÂłÂł
à¦¨ à¦ħà¦¸
à¦¤ à¦·
à¦² à¦Ĩà¦²
à¦¸ à¦¤à¦®
à¦¹ à¦¸à¦®
Ġà¦¤ à¦¹à¦¸
Ġà¦ªà¦° à¦®à¦¯
à¦ł à¦ł
à¦ł à¦Ńà¦°
Ġà¦Ł à¦«
à¦ķà¦° à¦°
Ġà¦ıà¦ĸà¦¨ à¦¤
à¦§à¦¨ à¦ªà¦¤
à¦łà¦ķ à¦¶
Ġà§§à§® à§¬à§§
à¦ĩà¦¡ à¦¶
Ġà¦ªà¦¦à¦ķ à¦ĵ
ÑĢÐ·Ð ¹
Ġb ar
à§§à§Ń à§©
Ġà¦Ĩà¦ļà¦°à¦£ à¦Ł
Ġl ose
am ination
Ġst ood
Ġà¦ĵà¦® à¦°à¦ª
ÑĢÐ¶Ð´ ÑĢÐ·ÐĿÑĢÐ¶Ð´ÑĢÐ¶
Ġcomp any
Ġà¦ĺà¦· à¦²
Ġà¦¸à¦°à¦« à¦Ń
Ġbig gest
NA PE
Ġexpress ion
Ġord inary
Ġprepar ation
Ġrelation ship
O C
v c
} ,
à¦¬ à¦ĸà¦¤
Ġà¦¬ à¦ĸà¦°
à¦¦ à¦°à¦¤à¦®
Ġà¦Ĩ à¦ªà¦Ł
Ġà¦¹à§Ł à¦¬
Ġà¦Ń à¦°à¦ķ
à§ĩà¦¾ ...
à¦¬à¦° à¦¥
Ġà¦Ĩà¦° à¦Ĺà¦¨
à¦ļà¦¨ à¦¨
à¦ĩà¦² à¦§à¦°
à¦ħ à¦ªà¦Ł
à¦ħ à¦¬à¦¤
Ġà¦ħà¦ª à¦ľ
à¦¨à§Łà¦¨ à¦¸
à¦«à¦° à¦Ĺà¦ŀ
Ġà¦ľà§Ł à¦¬à¦ŀ
Ġà¦īà§İà¦¸à¦¬ à¦ĵ
à¦ľà¦¤ à¦ª
à§§à§« à§¨à§«
à§§à§® à§ªà§§
ar row
Ġà¦ķà¦· à¦²
Ġà¦ıà¦« à¦Ń
Ġn utrit
à¦¦à§Ł à¦¹
à¦Łà¦ĸ à§ľ
ap ers
Ġà¦°à¦ĵà¦¶à¦¨ à¦ªà¦¨
Ġr ural
ell a
ÑĢÐ·ÐĲ ÑĢÐ¶Ð¿ÑĢÐ¶
ĠÑĢÐ¶Ðķ ÑĢÐ¶Ð¸ÑĢÐ·ÐĳÑĢÐ¶
sh ar
Ġcommun ity
Ġgener al
aim ed
à¦² à¦ĸà¦¨
à¦² à¦¢
à¦¬ à¦ĩà¦²
à¦Ł à¦¬à¦ĩ
à¦¶ à¦Ńà¦Ļ
à§ĩà¥¤ {
Ġà¦ļ à¦ĸ
Ġà¦Ĩà¦° à¦ıà¦«
Ġà¦¬à¦° à¦Ļ
à¦ıà¦¸ à¦ĩà¦ľ
à¦°à¦¨ à§Ł
Ġà¦¹à¦ķ à¦¸
Ġa x
à¦ĵà¦¤ à¦¥
ĠS e
ĠA frica
ur ning
Ġà¦¨à¦ķà¦² à¦®
ĠF irst
Ġno ise
ĠIn f
Ġà§§à§®à§® à§¯
Ġpol ice
ĠSund arbans
i j
r an
Ù İ
à¦¾ à§Ģ
à¦¬ à¦īà¦¨
à¦ĩ à¦§
Ġà¦° à¦ļà¦¯
Ġà¦ĵ à¦²à¦«
à¦¡ à§Ł
Ġà¦² à¦²à¦¨
Ġà¦ĩ à¦Łà¦Ĺ
Ġà¦§ à§ľ
à¦ıà¦¨ à¦Ĺ
à¦·à¦¦ à¦ĩ
Ġà¦Ĩà¦ĩ à¦ıà¦®à¦ĵ
à¦Ĺà¦² à¦ĩ
à¦°à¦ľ à¦Ĺà§İ
Ġc ord
Ġm ail
à§§à§Ń à§¦à§«
Ġg ather
ic ious
à¦®à¦ĵ à¦ķ
ĠC H
à§ĭ? âĢĿ
Ġno vel
Ġcon n
Ġapp ear
stit ute
Ġass et
Ġsleep ing
Ġpat riot
ĠPor us
E n
à¦ķ à¦ķà¦¬
à¦¤ à¦ªà¦£
à¦² à¦ıà¦¬
à¦® à¦ĩà§Ł
Ġà¦ķ à¦ĩà¦¬
Ġà¦ª à§Łà¦Ĺ
Ġà¦ķà¦° à¦«
à¦¥ à¦¨à¦Ł
Ġà¦¶ à¦ªà¦Ĺ
à¦°à¦¤ Åĵ
Ġà¦ĸ à¦²à¦¸
à§Ĥ à§į
à¦¬à¦¸ à¦²
à§İ à¦®à¦¨
à¦ªà¦ķ à¦°à¦£
à¦°à¦¹ à¦Ńà¦°
Ġà¦Ĩà¦ĩà¦¨ à¦Ńà¦Ļ
Ġà¦Ĩà¦°à¦ĵ à¦ľ
Ġà¦¶à¦¤ à¦ķà¦Ł
Ġà¦Ĩà¦ķ à¦ķ
à¦Ĩà¦ĩ à¦Ńà¦°
Ġà¦Ĺà¦£ à¦ªà¦¦à¦¯
Ġà¦Ĩà¦ĩ à¦¸à¦¬
à¦°à¦Ľ à¦¬
à¦ªà¦£ à¦ĵ
Ġà¦ĭà¦£ à¦¨
an i
à¦¶à¦¤ à¦ķà¦°
à¦īà¦¸ à¦¸à¦¹
à¦²à¦ľ à§Łà¦¨
Ġl ies
à§įâĢĮ à¥¤
ĠS uffixes
à§©à§¨ à§¬
ir us
ill a
ĠHe ad
Ġte am
Ġse em
ĠJ uly
à§¨à§§à§ª à§Ń
ung le
Ġstop ped
rid ay
Ġer osion
Ġbless ed
ĠStud ents
Ġadvis ed
t ake
à¦¯ à¦īà¦ªà¦¦
Ġà¦ª à§Łà¦¦
à¦ľ à¦£
à¦ľ à¦°à¦ķ
Ġà¦¤ à¦Ł
à¦ł à¦ĸà¦¡
à§ĩà¦¾ âĢĻ,
Ġà¦ĵà¦ĩ à¦®
à¦°à¦¦ à¦Ł
Ġà¦Ĩà¦¹à¦¤ à¦¹à¦¨
Ġà¦Ĩà¦ª à¦ĵà§Ł
er able
ĊĊĊĊ ĊĊ
Ġs now
Ġà¦ĩà¦² à¦¶
Ġd am
Ġl a
il s
ĠS oc
à¦Ĺà¦ĵ à¦¹à¦°
à§ªà§® à§¦
Ġcan c
Ġun c
ĠÑĢÐ¶ÐŁ ÑĢÐ¶Ð¦ÑĢÐ¶Ð¸
Ġgreat er
) '
9 5
E S
b ased
à¦¿ #
à¦¨ à¦²à¦Ľ
à¦¤ à¦ı
à¦¤ à¦¸à¦¬
à¦¤ à§İà¦ªà¦°
à¦Ł à¦¸à¦Ń
à¦ª à¦Łà¦¨à¦ķ
Ġà¦ĩ à¦®à¦²
Ġà¦Ĩà§Ł à¦°à¦¨à¦®
à¦Ĩà¦ĩ à¦Ĩà¦ĩà¦ľ
Ġà¦ıà¦® à¦ĵà§Ł
à§¨à§¦ à§©
à§¨à§¦ à§¬
à¦ķà¦¨ à¦ĵ
Ġà¦¬à§Łà¦¸ à¦ľà¦¨
Ġà¦Ĩà¦Ł à¦°à¦¶
Ġà¦ıà¦ª à¦¸
à¦ĩà¦« à¦ĵ
Ġw he
Ġw ake
à¦¨à¦¡ à¦¸
à§§à§¨ à§«à§¦
à¦¹à¦°à¦£ à¦ĩ
Ġl ater
Ġis n
âĸĳ ,
ĠA C
Ġfor g
ĠR oyal
à¦²à¦¨à¦°à¦¤ à¦¦
Ġno body
ĠÑĢÐ¶Ð¥ ÑĢÐ·ÐĹÑĢÐ¶Ð
Ġà¦Ĩà¦²à¦¬à¦¦à¦° à¦¦
og r
à¦²à¦¬à¦° à¦·
ĠÑĢÐ¶Ð§ ÑĢÐ·ÐĿÑĢÐ¶
Ġim m
ĠIntern et
Ġter r
Ġeld er
p o
à¦¤ à¦¬à¦°à¦¦
à¦ĵ à¦§
à¦Ń à¦Ń
Ġà¦² à¦Łà¦ķ
à¦ī à¦ıà¦²à¦ı
à¦Ĩ à¦Łà¦ª
à¦īà¦¨ à¦ª
à¦¯à¦ķ à¦£
à¦ªà¦¦ à¦Ń
Ġà¦ıà¦¨ à¦ıà¦ĩà¦ļà¦ıà¦¸
à¦¥à¦² à¦¸à¦¹
à¦ľà§Ł à¦²à¦²
Ġà§§à§® à§¬à§¬
in ite
Ġà§¨à§© à§¦à§¦
Ġà¦īà¦ªà¦¦ à¦«à¦¤à¦°
à§§à§® à§¬
à§§à§® à§¦à§¬
à¦ħà¦Ń à§Ł
Ġà¦Ĺà¦¡ à¦ľ
Ġà§®à§¯ à§¨à§¦
Ġnot es
Ġà¦ıà¦ķà¦ª à¦¶à¦²
ĠL ife
Ġthan ked
agh aru
à¦Ńà¦Łà¦Ń à¦Ł
b ps
à¦° à¦Ĩà¦ĵà§Ł
à¦ķ à¦ªà¦¤
à¦² à¦īà¦ªà¦ķà¦°à¦£
Ġà¦ķ à¦ĩà¦¨
à¦§ à¦¬à¦°
Ġà¦ī à¦ĩà¦Ł
à¦¦à¦° à¦ĩ
Ġà¦¸à¦¹ à¦īà¦ª
à¦¨à¦¤ à¦ĵ
à¦ĩà¦² à¦Ń
à¦ħ à¦ĺ
Ġà¦ħà¦¸ à¦«à¦²
Ġà¦¨à§Ł à¦ľà¦¨à¦ĩ
à¦®à¦¦ à¦£
à¦¨à¦ķ à¦Ĩà¦īà¦Ł
Ġà¦ł à¦Ĺ
à§¨à§¦ à§«à§¨
à¦²à¦¸ à¦«
à§§à§® à§®à§¯
Ġh und
Ġà¦ıà¦¡ à¦īà¦ĩà¦¨
ĠS tr
ĠB ank
.) âĢĵ
Ġà¦Ľà¦¨ à¦ĸ
ĠG ener
ĠÑĢÐ¶Ð¶ ÑĢÐ·ÐĳÑĢÐ¶
Ġfe et
Ġ---- (
Ġsn ake
ĠSm ith
Ġ------------------------------------- ------
m other
m ber
Ġà¦¸ à¦ĵ
Ġà¦¸ à¦Ĺà¦°
à¦ª à¦®à¦¤
Ġà¦ı à¦¡à¦¬
à¦Ĺ à¦¹à¦¸
à¦Ĺ à¦Ĺà¦łà¦¨
Ġà¦¦ à¦¹à¦²
à¦¡ à¦¨à¦ķ
à§ľ à¦¶à¦¤
à§ľ à¦ĺà¦£
Ġà¦ĸ ÃĲ
Ġà¦¸à¦¬ à¦§à¦°à¦£
à¦¨à¦¤ à¦ľ
Ġà¦ıà¦¸ à¦ıà¦®à¦ı
à¦°à¦ĵ à¦¨à¦ķ
à¦®à¦ļ à¦¡
Ġs ize
à¦īà¦ª à¦§
à§§à§® à§¨à§§
à§§à§© à§ªà§«
ut ird
ĠW est
à¦¹à¦Ń à¦¸
ang ed
Ġk ept
à¦¤à¦¹ à¦ļ
ĠK iv
ra id
majumder ali
utird ine
U se
c y
à¦¬ à¦¤à¦°
Ġà¦¬ à¦°à¦£à¦ķ
Ġà¦Ĺ à¦īà¦Ľà¦ķ
Ġà¦¹à§Ł à¦¸
à¦°à¦¤ à¦ļ
Ġà¦ĩ à¦¸à¦¨
à¦ŀ à¦ĩ
Ġà¦Ĩà¦¨ à¦¦
à¦°à¦¦ à¦£
ĊĊ ÂłĊĊÂłĊ
à¦¯à¦° à¦ļà¦¨
à¦°à¦Ĺ à¦¨
Ġà¦ĩà§Ł à¦Ł
re st
Ġs ight
Ġb omb
Ġà¦Ĩà¦ļà¦°à¦£ à¦Ĺ
ĠA y
Ġà¦¦à¦¶ à¦ľà¦¨à¦ķ
à¦ķà¦ľ à¦®à¦ķà¦Ń
Ġà¦Łà¦¹à¦² à¦¦
ap es
tr ol
Ġqu ayum
ore ss
Ġà¦ħà¦°à¦£ à¦ĸ
Ġpre fixes
à¦¦à¦ĸ à¦²à¦ķ
à§¨à§§à§§à§ ¬
Ġauth oress
yg i
5 4
? '
b el
² ÑĢÐ¶
Ġ )à¥¤
à¦¤ à¦¹à¦¸
à¦² à¦Ĩà¦¹à¦®
à¦¬ à¦¬à¦¨
à¦¸ à¦Ĺà¦¤
Ġà¦ª à¦ĵà§Ł
à¦ľ à¦Ĺà¦¦
Ġà¦¹ à¦ķà¦¬
à¦Ĺ à¦Ĩà¦²
Ġà¦ĵ à¦ļà¦®
Ġà¦¯ à§ľà¦¯à¦¨
Ġà¦ıà¦ķ à¦°à¦ª
Ġà¦ħà¦¨ à¦¬
à¦®à¦¨ à¦Ĺ
à¦¤à¦° à¦¬à¦¨
Ġà¦¦à¦² à¦¦à¦²
à¦¸à¦¹ à¦¶
Ġà¦ħà¦¬à¦¸ à¦°à¦ľ
Ġà¦ıà¦® à¦ıà¦®à¦ıà¦¸
à¦¦à¦² à¦®
Ġà¦ıà¦¨ à¦ıà¦«à¦¸
Ġa f
à¦°à¦®à¦£ à¦ľà¦¨
Ġc ru
Ġà¦ķà¦¤ à¦¤à¦®
Ġb ag
à§§à§¨ à§¦à§Ń
à§§à§® à§«à§¯
à§¨à§© à§©
Ġà¦«à¦¸à¦² à¦ĵ
ad emy
id ae
Ġà§§à§®à§¯ à§Ń
ove mber
à§¨à§§à§¨ à§©
Ġlong er
ph p
** *
Ġà¦Ĩà§ľà§İ à¦¦
Ġintellig ent
Ġexpens ive
f ather
à¦° à¦°à¦¨
à§Ł à¦ĩà¦¨
Ġà¦ķ à¦¤à¦°
Ġà¦ª à¦¹à¦°
à¦Ĺ à¦²à¦¤à¦²
à¦ĩ à¦¬à¦¸
à¦§ à¦¥
à¦Ĩ à¦¶à¦«
à¦¦à¦¨ à¦¤à¦¤
Ġà¦¦à¦² à¦¸
Ġà¦ıà¦Ł à¦²
à¦¹à¦¸ à¦ĩ
)- ----
à§§à§® à§ªà§Ń
à§§à§® à§©à§¬
à¦Ĩà¦¨ à¦ª
à¦īà¦¸ à¦ĵ
à¦Łà¦¬ à¦Ĺ
à¦¯à¦°à¦¤ à¦ļ
à¦īà¦¶à¦¨ à¦ķ
à¦¤à¦°à¦ķ à¦°à¦£
Ġst at
Ġst ands
ĠP aper
Ġà¦¦à¦«à¦¤à¦° à¦Ĺ
Ġyour self
ÑĢÐ¶Ð¬ ÑĢÐ·ÐĹÑĢÐ¶
à§¨à§§à§¦ à§¯
Ġ12 0
à¦īà§İ à¦°
Ġdisc uss
Ġdaugh ter
Ġoccas ion
6 4
c od
f ect
k er
u ated
v ing
à¦¿ âĢİ
à¦ĩ à¦·
à¦· à¦°à¦Ł
à¦¥ à¦ĩà¦¸
Ġà§ Ŀ
Ġà¦ĵ à¦ĩà¦¨
à¦¡ à¦¸à¦¨à¦ķ
Ġà¦ī à¦ĩà¦°
à¦ı à¦¹
à¦¹à¦¤ à¦¦à¦°
à¦°à¦ª à¦ļ
à¦®à¦¬ à¦ķ
Ġà¦Ĺà¦£ à¦ªà¦¤
Ġà¦¦à¦° à¦¬à¦¸
à§¨à§¦ à§ªà§ª
ÑĢÐ¶Ð ±
à§§à§« à§©à§«
à¦¬à¦ľà¦¨ à¦Ĺ
à¦¬à¦ľà¦¨ à¦®à¦¤
à§§à§® à§§à§§
is a
à¦¬à¦¦à¦² à¦ķà¦°
Ġà¦īà¦ĩà¦² à¦¶
à¦¬à¦°à¦¤ à¦®
um ber
ÑĢÐ¶Ð¾ ÑĢÐ¶Ð¸
ĠO K
ÑĢÐ·Ðĳ ÑĢÐ¶Ð¼ÑĢÐ¶
oth ing
Ġà¦ıà¦ıà¦ĩà¦ļ à¦ıà¦«
ple ting
ÑĢÐ¶Ð¸ÑĢÐ·ÐĿÑĢÐ¶Ð ·
arr ation
Ġatt end
Ġint ellect
iction ary
h u
h ave
à§Ł à¦Ĩà¦®
Ġà¦¨ à¦°à¦¨
à¦Ĺ à¦²à¦¯
Ġà¦¦ à¦¹
Ġà¦ħ à¦¶à¦°
Ġà¦Ĺ à¦°à¦¬
à¦¡ à¦¹à¦°
Ġà¦¸à¦® à¦¹
ĠâĢĺ âĢĮ
Ġà¦Ĩà¦¸ à¦°à¦ķ
Ġà¦¬à¦° à¦«à¦ķ
à¦ķà¦² à¦¬à¦¨
à¦¸à¦ķ à¦¸
Ġà§Ń à§¦à§¦à§¦
Ġà¦ıà¦® à¦Ĩà¦°à¦¡
Ġà¦īà¦ł à¦¬à¦¸
Ġt ouch
âĢĮ à¦¾
er g
à¦¾) âĢĻ
à§§à§® à§©à§Ń
à§©à§¯ à§¦
Ġsp irit
ell ed
Ġpr ice
Ġyoung er
struct ions
wad udtuhin
? âĢĻ,
D haka
à¦® à¦ľà¦²
à¦Ł à¦°à¦®
Ġà¦ı à¦Ĩà¦ĩà¦ĩà¦īà¦¡
à¦· à¦°à¦¬
à¦¡ à¦ªà¦¦
Ġà¦ĩ à¦°à¦¬
à¦²à§Ł à¦°
à¦·à¦£ à¦¯
à¦·à§Ł à¦°
à¦ıà¦¸ à¦ıà¦¸à¦ıà¦«
Ġà¦Ĩà¦ķ à¦ļ
à¦«à¦² à¦¦à¦£
Ġà§§à§® à§¯à§¬
à¦°à¦¸à¦¨ à¦ĵ
à¦¨à¦ĵ à¦°
à¦Łà¦® à¦¹
à¦ľà¦ª à¦¡
à§§à§® à§§à§©
à§§à§® à§ªà§¯
Ġà¦ıà¦« à¦ıà¦¸
à¦°à¦¦à¦² à¦¸à¦¹
à¦¿. à¦¿
ĠS SC
à¦¬à¦Ń à¦Ļ
ĠM ah
ĠâĢĻ -
à¦ıà¦ķà¦¦ à¦®à¦ĩ
à§¬à§ª à§«à§¦
Ġsome one
Ġad jective
Ġ----- .
Ġcol le
ïģľ ïĢł
Ġins ide
Ġmag az
Ġmove ment
Ġbehavi our
c ut
Ġ ÂłÂłÂłÂłÂłÂłÂłÂłÂłÂłÂłÂłÂłÂłÂłÂłÂłÂłÂłÂłÂłÂłÂłÂłÂłÂłÂłÂłÂłÂłÂłÂł
à¦® à¦®à¦£
à¦Ł à¦ĺà§ľ
Ġà¦ĵ à¦¬à¦²
Ġà¦ī à¦²à§Ł
à¦°à¦¸ à¦°à¦¤
à¦°à¦¸ à¦®à¦¨
Ġà¦¸à¦®à§Ł à¦¦
à¦¹à¦¤ à¦¸
Ġà¦¬à¦° à¦ŀ
à¦¤à¦¨ à¦¯
à¦ıà¦¸ à¦ıà¦Ł
à§Łà¦ķ à¦¸à¦°à¦ķ
Ġà¦ĩà¦ī à¦Ĩà¦°à¦ıà¦²
à¦·à¦¤ à¦²
à§¨à§¦ à§¨à§Ń
ÑĢÐ¶Ð °ÑĢÐ¶
Ġà¦Ĩà¦Ł à¦ĸ
Ġw oke
à¦¯à§Ł à¦¯
à§§à§® à§«à§§
à§¨à§« à§¬
ĠT ense
Ġà¦«à¦¸à¦² à¦¡
ad io
à¦¯à¦Łà¦¨ à¦¸
im al
ĠM em
ĠN ext
Ġà¦¸à¦®à¦¤à¦² à¦Ń
ĠÂ ´
ÑĢÐ·Ð¯ ÑĢÐ·ÐĹÑĢÐ¶
Ġear ning
à§¨à§§à§¨ à§®
à§¨à§§à§¨ à§¬
à¦ĸà¦¨à¦¨ à¦¯à¦¨
Ġunder lined
à§įà§į à§ĩ
rid oy
Ġfiref ighter
Ġfavour ite
ĠGover nment
g ed
à¦¤ à¦¹à¦¨
à¦¯ à¦ıà¦ķà¦Ł
Ġà¦ľ à¦£
à¦¾à¦ģ )
à¦·à¦£ à¦°à¦¤
à¦Ĩà¦ĩ à¦ıà¦ĩà¦ļ
à¦ķà¦¬ à¦¦à¦²
à¦§à¦¨ à¦Ĺà¦°
Ġà¦ıà¦¨ à¦Ĩà¦ĩà¦¸
à§¨à§¦ à§©à§Ń
à¦²à¦Ł à¦ª
à¦®à¦§ à¦°
Ġw atc
à§§à§® à§ªà§ª
à¦®à¦¹ à¦°à¦®
Ġd ro
Ġà¦ıà¦« à¦ıà¦®à¦¸
à¦Ĩà¦ª à¦¡
ĠT ake
ic y
Ġà¦Ĩà¦ķà¦¬à¦° à¦īà¦¦
id s
ir c
ak un
tr y
à§ªà§¯ à§©
oth akun
Ġinter net
ĠV erb
Ġhouse w
à§¨à§§à§§à§ ®
olog ical
k ey
à¦¨ C
à¦¸ à¦°à¦¸à¦¹
à¦ª à¦ĭà¦£
Ġà¦Ĩ à¦ĵà¦¨
Ġà¦ħ à¦®à¦¸
à¦¥ à¦¬à¦°
à¦ĸ à¦ļà¦°
à¦¡ à¦Ĺà¦¤
Ġà¦ıà¦ķ à¦¶à¦¨
à¦ĩà¦¨ à¦¤
à¦Łà¦¨ à¦ª
à¦ıà¦¨ à¦ıà¦®
à¦ħ à¦²à¦¸
Ġà¦ĵà¦ªà¦° à¦ĵà§Ł
à¦Ĩà¦ĩ à¦ıà¦¸à¦¸
Ġt ill
à§¨à§¦ à§¨à§®
Ġi ce
à¦¨à¦® à¦Ĺ
à§©à§¦ à§ª
à¦ĩà¦¡ à¦¸à¦¹
à¦°à¦¸à¦¨ à¦ķà¦²
à¦ľà¦¬ à¦Ł
à¦ķà¦°à¦£ à¦ª
à¦¨à¦Ń à¦ķ
à§§à§ª à§§à§¦
à§§à§© à§¨à§«
à§ĩ! âĢĺ
ac ity
el ve
à¦¨à¦¶à¦¨ à¦Ł
oun g
à¦¯à§Łà¦¨ à¦ķ
Ġx iv
à¦ıà¦¨à¦ıà¦« à¦ķ
à§¨à§§à§© à§®
Ġfriends hip
19 50
Ġreal ize
Ġcertain ly
Ġtour ist
ruit ment
0 3
A BC
à¦² à¦Ĺà¦¤
Ġà¦® à¦ĩà¦²
Ġà¦Ĺ à¦®à¦¬
Ġà¦Ĺ à¦¨à¦®
à¦¡ à¦ľà¦¨
à¦ī à¦ĩà¦¸
à¦°à¦ķ à¦¤
Ġà¦Ĩà¦² à¦Ĩà¦®
à§İ à¦°
à¦ıà¦¸ à¦ĩà¦ķ
à¦ķà¦¬ à¦ľ
à¦ıà¦ĩ à¦ĸ
à¦°à¦ĩ à¦ĸ
à§¨à§¦ à§©à§¨
Ġà¦Ĩà¦ĩ à¦ıà¦¸à¦¸
à¦²à¦® à¦¹
Ġà§§à§® à§Ńà§¦
à§§à§¯ à§©
à¦ĩà¦ľ à¦ĸ
à¦Łà¦¬à¦² à¦¸
er a
à¦¨à§Ł à¦£
à¦¦à¦¶ à¦¬
Ġà¦Ĩà¦ļ à¦°à¦¨
à§§à§® à§§à§¬
à¦Ī à¦Ĺà¦²
Ġà¦ıà¦ıà¦« à¦ıà¦°
ĠW ell
Ġre write
à¦ĭ à¦¦
ĠF ore
ÑĢÐ·Ðĳ ÑĢÐ¶Ð¸
ind er
à¦·à¦ľà¦¨ à¦ķà¦Ń
à¦Ĺà¦²à¦® à¦¹à¦²
Ġreturn ed
Ġà¦¹à¦°à¦Ĺ à¦ľ
Ġastrolog er
B D
E very
à¦¤ à¦²à¦¨
à¦¬ à¦Ĩà¦²
à¦ĩ à¦Ĩà¦ĩ
à¦· à¦°à¦¯
Ġà¦ħ à¦īà¦°
Ġà¦° à¦²
Ġà¦ļ à¦®à¦¸
à¦ģ à¥¤
Ġà¦ĩ à¦ıà¦®à¦Ĩà¦ĩ
à¦¦à¦° à¦¥
Ġà¦ĵà¦ĩ à¦ķ
à¦¤à¦¨ à¦°
à¦·à¦ķ à¦Ĺ
Ġà¦Ĺà¦£ à¦Ĩà¦ľ
Ġà¦§à¦°à¦¨ à¦ĩ
à§¨à§¦ à§«à§®
à¦¾âĢĻ âĢĻ
Ġà¦Īà¦¦ à¦Ĺà§ľ
à§§à§® à§©à§©
à¦Ĩà¦¨ à¦ļ
il es
ÑĢÐ·ÐĹ ÑĢÐ¶Ð´
Ġà¦¦à¦¶ à¦®à¦¬
Ġà¦°à¦¡ à¦¸à¦¹
ah med
à¦ıà¦«à¦Ĩà¦ĩ à¦Ĩà¦°
à§¨à§§à§© à§ª
Ġhard ly
čĉĉ ĉĉĉĉ
Ġsport ing
Ġforest s
ÑĢÐ·ÐĿÑĢÐ¶Ð¾ ÑĢÐ¶
ĠNob ody
Ġment al
E R
h ic
Ġ enc
à§ĩ ïģ®
à¦¨ à¦ľà§Ł
à§Ł à§Ł
à§Ł à¦¦à¦²
Ġà¦ķ à¦§
Ġà¦¨ à¦ĸà¦°
à¦Ĺ à¦¸à¦Ń
à¦§ à¦²à¦ĺ
Ġà¦ī à¦ľà¦®
à¦ªà¦° à¦®à¦¬
à¦Ĩ à¦¶à¦ķ
à¦ıà¦¸ à¦ıà¦®à¦¸
à¦®à¦¦ à¦¬
à§ľà¦ķ à¦°à¦£
à¦¹à¦² à¦ª
Ġà¦ħà¦² à¦¡
à¦°à¦ľ à¦¦
Ġà¦ĭ à¦¨
à¦¯à§Ł à¦¬
Ġc itiz
Ġà¦¸à¦« à¦°à¦ĩ
à§ľà¦¬ à§ľ
Ġth inking
ĠM ia
Ġr ub
ĠN ovember
th ough
te en
educ ation
à§¨à§§à§© à§¬
Ġdr inking
Ġvis ited
Ġhuman ity
Ġserv ice
Ġwr ong
ĊĊĊĊĊĊĊĊ ĊĊĊĊĊĊĊĊ
Ġdro pp
p ly
u x
Ġ q
à¦² à¦¬à¦¸
à¦¯ à¦¤à¦¬
à¦ĩ à¦Ĩà¦ĩà¦ĩà¦ī
à¦ļ à¦°à¦¬
Ġà¦ĩ à¦ĩà¦ĩ
Ġà¦Ĩà¦° à¦ıà¦¸à¦ª
Ġà¦ıà¦ĩ à¦°à¦ķà¦®
Ġà¦Ĩà¦¸ à¦Ĺ
à¦¦à¦¨ à¦ľ
Ġà¦ķà¦² à¦ª
Ġà¦ªà¦¦ à¦²
à¦Ĩà¦ĩ à¦ıà¦«à¦ª
à¦ĩà¦¬ à¦¹
à¦ķà¦¨ à¦¡
Ġà§§à§® à§¯à§¯
à¦°à¦° à¦ŀ
Ġc er
ĠÂł ĊÂł
Ġf ul
à§§à§® à§¨à§©
à§§à§© à§«à§«
Ġà¦ıà¦« à¦Ĩà¦°à¦ıà¦®
à¦ĸà¦¬à¦° à¦ĵ
ĠS un
ĠB o
st u
à§ĭà¥¤âĢĻ âĢĺ
Ġch oice
Ġj ungle
sh i
ĠÑĢÐ¶Ð¼ ÑĢÐ¶Ð«ÑĢÐ¶
à§¨à§§à§© à§©
à§¨à§§à§« à§¬
Ġà¦Ĩà¦ĩà¦ıà¦® à¦ĵà¦¤
Ġdist ance
ĠSw ed
k y
à¦¾ =
à¦ķ à¦ªà¦²
à§Ł à¦ľà§ľ
à¦® à¦¦à¦¨à¦ª
à¦¸ à¦īà¦ªà¦ķà¦°à¦£
Ġà¦Ĩ à¦ĵà¦¡
à¦Ľ à§Łà¦¬
Ġà¦¨ à¦ķà¦°
Ġà¦¨ à¦²à¦ľ
à¦§ à¦ķà¦¦
Ġà¦² à¦ĩà¦¯
à¦ī à¦ī
Ġà¦ıà¦ĩ à¦ļà¦ķ
à¦°à¦® à¦Ļ
Ġà¦ķà¦® à¦ķ
à¦°à¦¦ à¦ª
à¦¶à¦ķ à¦¹
à¦Ĩà¦ĩ à¦Ĩà¦°à¦ľ
à¦ĩà¦¸ à¦¸à¦¹
à¦«à¦² à¦Ń
Ġà¦Ĩà¦ĩ à¦ıà¦ĩà¦ļà¦Ł
à¦®à¦ļ à¦®
à¦ªà¦£ à¦¸à¦¹
à§§à§® à§¦à§ª
à§§à§ª à§ªà§«
à§¨à§ª à§Ń
ent le
à¦¿! âĢĿ
Ġà¦ļà§ľ à¦¥
Ġà¦ĩà¦īà¦ıà¦¸ à¦ıà¦¸à¦¡
ĠF low
ĠF riday
ĠK h
ÑĢÐ¶Ð¬ ÑĢÐ·ÐĿÑĢÐ¶Ð®
elf are
à§¨à§§à§¨ à§¨
à§¨à§§à§§à§ ¯
Ġhon our
Ġsubject s
Ġty pe
icks haw
Ġïĥ Ĳ
Ġcontrib ution
Ġsacr ifice
ĠRi ah
8 4
y ond
Ġà¦¬ à¦īà¦°
à¦ĩ à¦ıà¦°
à¦¾à¦ģ à¦ģ
à¦°à¦¸ à¦¬à¦ľà¦¨
Ġà¦¸à¦Ń à¦ªà¦¤
à¦°à¦¹ à¦ķà¦°
à¦ħ à¦ľà¦¯
à¦°à¦¨ à¦¸
Ġt aught
Ġà¦Ĩà¦ĩ à¦ıà¦ĩà¦ıà¦°
à¦ĩà¦ī à¦Ĩà¦ĩà¦Ł
an ic
à§§à§Ń à§¯
à§¨à§® à§®
à¦¦à§Ł à¦ĵ
Ġà¦¦à¦¶ à¦¤à¦²
à¦¯à¦ľ à¦Ĺà¦¤
Ġbe yond
ig ital
Ġà¦ĩà¦ĩà¦ī à¦ķ
Ġà¦ħà¦®à¦° à¦ĸ
ah id
Ġse lect
Ġj ack
à¦¡à¦²à¦¸ à¦¬à¦°
Ġdest ru
Ġà¦ıà¦ıà¦¨ à¦ıà¦®
ĠFar abi
Ġaf raid
b ank
c m
d ing
à¦¸ à¦ļà¦²
à¦¦ à¦¯à¦ľ
à¦ľ à¦°à¦ª
à¦ŀ à¦¸
à¦¼à¦¾ ),
à¦Łà¦¨ à¦ĩ
à¦¦à¦ķ à¦¸à¦®
Ġà¦¬à¦° à¦ĩà§Ł
à¦ĩà¦ķ à¦°à¦£
à¦ħ à¦¬à¦²
à¦°à§Ł à¦¬
Ġà¦ħà¦ª à§Ł
à¦¹à¦¨ à¦ĵà§Ł
Ġà¦ıà¦¨ à¦ľà§Ł
à¦¦à¦¶ à¦ĩ
à§§à§® à§§à§Ń
à§§à§¬ à§§à§«
à§§à§¬ à§¦à§«
à§§à§Ń à§«à§¬
Ġà¦Ĩà¦ķà¦° à¦®
à§Ŀ à¦¸
à¦Ĩà¦ĩà¦ıà¦¸ à¦ıà¦²
ĠR ashid
ĠK v
Ġpo em
ĠTh ose
Ġà¦ıà¦ıà¦¸ à¦Ĩà¦ĩà¦ķ
Ġphys ically
ĠÑĢÐ¶ÐĻ ÑĢÐ¶ÐºÑĢÐ¶
Ġplan e
ĠIsl and
Ġgener ation
Ġà¦ıà¦ıà¦¨ à¦Ĩà¦ĩà¦ķ
Ġeffect s
ĠSub ject
Ġsail or
Ġslow ly
Ġ à¥¤âĢľ
à¦® à¦«à¦²
à¦¦ à¦ĩà¦²
à¦¹ à§ľ
Ġà¦¤ à¦²à¦¸
Ġà¦ļ à¦ĩ
Ġà¦ĩ à¦ĸà¦²
à¦°à¦ķ à¦¶
à¦¤à¦° à¦Ĺà§ľ
à¦¶à¦¨ à¦¡
Ġà¦¦à¦² à¦ľ
à¦ħ à¦®à¦¨
Ġà¦ķà¦² à¦®à¦Ł
à¦ıà¦® à¦Ĩà¦°à¦Ł
à¦Ĩà¦° à¦ıà¦¸à¦ª
à¦Ĺà¦² à¦ĸ
à§ĩ- âĢĺ
à¦ªà§ľ à¦¬
à§¨à§© à§©à§¦
à§¨à§© à§§à§¦
à¦¬à¦Ľà¦° à¦Ł
à¦¯à¦Ĺ à¦Ĺà¦¨
ÂłÂłÂłÂłÂłÂłÂłÂłÂłÂłÂłÂłÂłÂłÂłÂł ÂłÂłÂłÂłÂłÂłÂłÂłÂł
ĠP ers
Ġ2 8
Ġch oose
Ġà¦Ĩà¦²à¦« à¦¨à¦¸
à§ĩ' ,
ult s
Ġbr ight
Ġsentences à¦ª
Ġdis l
à§¨à§§à§ª à§©
Ġaw are
ĠSumm ary
Ġmartyr s
) +
H O
R e
à¦ķ à¦ħà¦ªà¦°
à¦® à¦ļà¦ķ
à¦¯ à¦¬à¦²
Ġà¦¹ à¦¡
Ġà¦ĩ à¦¹à¦ľ
Ġà¦®à¦¨ à¦Ń
à¦¸à¦¨ à¦ķà¦°
Ġà¦Ĩà¦¶ à¦ĸ
à¦°à¦ļ à¦¤
à§¨à§¦ à§©à§ª
à¦ľà¦® à¦ľà¦®
Ġà¦¨à¦Ĺà¦° à¦¦
à¦ľà¦² à¦¸à¦¹
à¦ªà¦Ł à¦ĵ
à¦¹à¦ķ à¦ª
à¦¶à¦¤ à¦¤à¦®
Ġà¦¸à¦«à¦² à¦ĩ
âĢį )
ĠT er
il ing
ĠS ir
ch ol
à¦®à¦īà¦¦ à¦¦
Ġdo g
Ġat m
ip e
ine er
Ġev il
ÑĢÐ¶Ðª ÑĢÐ¶Ð¸
à§¨à§§à§ª à§¬
Ġpoll ute
Ġpasseng er
ĠAmer ican
Ġrecogn ition
m n
à¦¯ à¦ľà¦Ł
à§Ģ *
à¦¶ à¦ªà¦Ł
à¦Ĺ à¦¸à¦ļ
Ġà¦ħ à¦ªà¦¨
à¦¥ à¦¹à§Ł
à¦¾à¥¤ âĹı
à¦¤à¦° à¦¶
à¦¤à¦¨ à¦ķà¦°
à¦¦à¦¸ à¦Ń
Ġà¦Ĩà¦ķ à¦¨à¦ķ
à§ĭà¥¤ '
à§¨à§¦ à§¯
à¦°à¦ªà¦° à¦°
à§§à§® à§¨à§¬
à§¨à§¨ à§¨à§«
à¦¬à¦¤à¦¨ à¦ķà¦°
ĠS rim
ĠA D
ĠA BC
à§«à§« à§«à§«
à¦¯à§İ à¦ĵ
ig an
Ġwor ry
Ġch ann
ah a
du ct
à§¨à§§à§« à§¨
Ġnec k
Ġrel atives
Ġ201 4
ÑĢÐ¶Ð£ ÑĢÐ¶Ð¿ÑĢÐ¶
Ġprof ession
r ied
w c
Ġà¦¬ à¦ĩà¦¨
à§ĭ (
Ġà¦ĩ à¦ıà¦®à¦Ń
à¦Ĩ à¦¸à¦¸
à¦¤à¦° à¦°
à¦ķà¦² à¦¸à¦¨
Ġà¦ĩà¦¨ à¦·
Ġà§§à§¨ à§«à§¦
Ġà¦¸à§ľà¦ķ à¦®à¦¨
à¦ıà¦ĩ à¦īà¦¡à¦¬
à§ĩ? -
à¦ĩà¦ľ à¦īà¦¦
à§§à§® à§©à§¯
à§§à§® à§ªà§¬
à§¨à§¨ à§ªà§«
à¦®à¦°à¦£ à¦¶à¦ķ
à¦¿à¦ĥ ,
à¦īà¦ĩ à§İà¦ľ
ĠH igh
ain ing
Ġà§¯à§ª à§©
ĠIn formation
Ġcl ue
Ġde al
Ġà¦Ĺà¦¦ à¦Ĺà¦¦
here nt
à§¨à§§à§¨ à§¯
à§¨à§§à§ª à§ª
af iz
Ġoffic er
ÑĢÐ¶Ð¾ÑĢÐ·ÐĿÑĢÐ¶Ðº ÑĢÐ·ÐĿÑĢÐ¶
Sp eech
4 4
H ave
n ony
à¦¸ à¦ĵà¦¦
Ġà¦® à¦Ĺà¦°
à¦ľ à¦īà¦¤
Ġà¦¨ à¦°à¦ª
Ġà¦Ĺ à¦¬à¦°
Ġà¦ĩ à¦ľà¦°
à¦¤à¦° à¦§
à¦°à¦¬ à¦Ł
à¦ħ à¦¥
à¦®à¦¸ à¦®à¦ªà¦°
à¦Łà¦Ĺ à¦£à¦¨
à¦°à¦¨ à§Łà¦¨
à¦ıà¦® à¦Ĩà¦°à¦¸
à§¨à§¦ à§®
à§¨à§¦ à§ªà§®
re es
à¦¸à¦Ł à¦²
à¦Łà¦² à¦°à§Ł
à¦²à¦Ń à¦Ń
à¦ªà§ľ à¦²
à§§à§® à§©
à§§à§® à§©à§®
à§§à§® à§¨à§¯
à¦®à¦£ à¦¡
Ġà¦¬à§Ł à§ľ
à¦¦à¦¬ à¦°à¦ķ
ul ated
ĠN one
à§¨à§§à§ª à§¨
Ġsm oking
Ġà¦°à¦ĩà¦¸ à¦īà¦¦
epend ence
Ġass ist
Ġcour age
Sub ject
8 7
f ace
à¦¨ à¦¹à¦¸
Ġà¦Ĩ à¦ĵ
à¦ľ à¦²à¦¤
à§ĩà¥¤ âĸł
Ġà¦ļ à¦¤à¦°
à§ľ à¦²à¦ķ
à§ľ à¦¸à¦ĵà§Ł
à¦°à¦ķ à¦Ńà¦°
Ġà¦ĺ à¦°à¦ķà¦¨
Ġà¦§ à¦¡
Ġà¦ıà¦² à¦ıà¦¸à¦¡
à¦·à§Ł à¦ª
Ġà¦ıà¦¸ à¦ĵ
à¦ļà¦² à¦ª
à¦ıà¦® à¦¸à¦¹
à¦ĩà¦¸ à¦ĵ
à§¨à§¦ à§«à§§
Ġà¦Ĩà¦ĩ à¦ľà¦²
Ġp yramid
it i
Ġin st
Ġd rop
Ġn v
ĠS ave
à¦®à¦Ľ à¦¡
ct ure
Ġsh ar
ĠD id
Ġà¦ıà¦ĵ à¦ľà¦¬
Ġà¦Ĩà¦ĩà¦ıà¦ıà¦¨à¦ıà¦¸ à¦ķ
à§¨à§§à§¨ à§ª
à§¨à§§à§© à§§
à§¨à§§à§¦ à§®
à¦§à¦¡ à¦ľà¦¨
ĠCor r
ĠNas reen
Ġatm osp
A s
E SC
G O
l ive
à¦° à¦Ĩà¦Łà¦ķ
à¦¤ à¦Ŀà¦°
à§Ł à¦¦à¦ķ
à¦® à¦Ĩà¦ľ
Ġà¦¸ à¦ĵà¦®
à¦ª à¦īà¦¤
Ġà¦ı à¦Ĩà¦ĩà¦¬
à¦Ĺ à¦¹à¦¨
à¦ĵ à¦°à¦Ł
Ġà¦Ń à¦¦à¦¨
Ġà¦Ń à¦ĩà¦°
Ġà¦ıà¦ķ à¦¸à¦¨
à§ĥ à§į
à¦Ŀ à¦¦
à§¨à§¦ à§¨à§¯
à§¨à§¦ à§«à§¬
Ġc abin
à§§à§® à§¦à§®
à§§à§® à§«à§©
Ġà¦Ĩà¦¬à¦¹ à¦ĵà§Ł
Ġà¦Ī à¦ª
à¦ľà¦¦ à¦°à¦¬
am a
ir ing
Ġà¦¸à¦«à¦Ł à¦¬
à¦ĩà¦ĵ à¦°à¦ª
à¦ĭà¦£ à¦ªà¦¤
ĠÑĢÐ¶Ð¸ ÑĢÐ·ÐĹÑĢÐ¶ÐĹ
Ġbr ackets
à¦īà¦ªà¦° à¦¨
à§¨à§§à§ª à§®
Ġfe ver
à§¨à§§à§¦ à§Ń
à§¨à§§à§§à§ ©
Ġcar b
Ġexc ited
ĠAnd y
Ġtong ue
à§į âĢļ
à¦¨ à¦Ĩà¦¹à¦®à¦¦
à¦¬ à§ľà¦¬
à¦® à¦¦à¦¸
à¦¦ à¦īà¦ľ
à¦ª à¦īà¦Ł
Ġà¦® à¦²à¦¯
à¦¶ à¦¸à¦ļ
à¦¹ à¦§à¦¨
Ġà¦¤ à¦®à¦¬
Ġà¦Ń à¦²à¦ķ
à¦¬à¦° à¦ªà¦°
Ġà¦Ĩà¦° à¦ıà¦¨à¦¬
à¦Ĩ à¦¨à¦ķ
à¦ķà¦° à¦¹à¦®
à¦°à¦¸ à¦²
à¦²à¦¬ à¦ĩ
à¦ĩà¦Ł à¦ĵà¦¯
Ġà¦īà¦² à¦ĩà§Ł
Ġà¦ıà¦¨ à¦ıà¦Ń
à¦īà¦¦ à§Łà¦¨
à§¨à§¦ à§ªà§¬
à¦ķà¦¸ à¦ł
à¦ķà¦¸ à¦Ļ
à§§à§® à§¯à§¯
Ġà¦Ĩà¦īà¦Ł à¦ĵ
Ġl ow
Ġl ake
Ġg ift
à¦Ĩà¦ĩà¦¨ à¦¸
ĠS er
ec ess
ĠB ur
ÂłÂłÂłÂłÂłÂłÂłÂłÂłÂłÂłÂłÂłÂłÂłÂł ÂłÂłÂłÂłÂłÂłÂłÂłÂłÂłÂłÂłÂł
ĠÑĢÐ¶Ð¥ ÑĢÐ·ÐĲ
Ġse vent
ip s
Ġfi res
à¦Ĩà¦ĩà¦ıà¦« à¦ĩ
Ġincre ased
à§Ł à¦Ĩà¦Ĺ
Ġà¦® à¦¦à¦¤
à¦ľ à¦Ńà¦°
à¦Ľ à¦¹
Ġà¦¤ à¦ķà¦¤à¦ķ
Ġà¦ĵ à¦ķà¦°
Ġà¦ĵ à¦īà¦¨
Ġà¦Ń à¦¡
à§¦ à§§à§¦à§¦
à¦¾à¦ģ âĢĻà¥¤
Ġà¦§ à¦°à¦®
à¦¿à¦Ĥ ;
à¦°à¦¬ à¦ľà¦¨à¦ķ
à¦¦à¦¨ à¦°à¦¤
à¦ıà¦¨ à¦ıà¦¸à¦ľ
à¦Ĺà¦¤ à¦ĵ
Ġà¦ıà¦¸ à¦ĩà¦ĵ
Ġà¦ħà¦¸ à¦®à¦¤à¦²
à¦īà¦² à¦°
à§ģà¥¤ "
Ġà§¦ à§§à§©
à§§à§Ń à§§à§¨
ĠÑĢÐ¶Ð ĺ
Ġl i
ĠS al
ĠA bd
Ġà¦īà¦ĩ à¦ł
ĠĊ ĠĊĠ
Ġwor th
Ġà¦ľà¦¨à¦¬à¦² à¦ĵ
ÑĢÐ¶Ð¾ ÑĢÐ·ÐĲ
à§ĭâĢĶ âĢĺ
âĢ¦ à¥¤
Ġro se
Ġsc r
Ġfl u
ĠPro per
Ġà¦®à¦¤à¦² à¦¬à¦¬
Ġstate ments
Ġele ments
Ġgrad ually
Ġatmosp here
r al
r ise
à¦¨ à¦Ĩà¦®à¦°
à¦ķ à¦Ŀ
à¦² à¦ħà¦¨
à¦¸ à¦īà¦²
à¦ľ à¦·
à¦Ĺ à¦ľà¦¬
à¦ĩ à¦ıà¦ĩ
Ġà¦° à¦¨à¦¦
à¦ĸ à¦¸à¦°
Ġà¦ļ à¦ļ
à¦ı à¦°à¦¬
à¦ı à¦ıà¦¬
à¦ı à¦ıà¦¸à¦ıà¦«
à¦ī à¦²à¦¤
Ġà¦ĺ à¦°à¦ļ
Ġà¦Ĩà¦¸ à¦ķà¦°
à¦°à¦¸ à¦¬à¦¸
à¦ıà¦¨ à¦ĩ
Ġà¦Ĩà¦ľ à¦«
à¦ħ à¦¸à¦¦
à¦¸à¦ķ à¦ĵ
à¦¿) '
à¦¸à¦° à¦ľà¦®
Ġà¦¸à¦¦à¦° à¦¦
à§¨à§¦ à§Ń
Ġà§§à§® à§«à§¦
Ġà§§à§® à§Ńà§¨
er ce
à§©à§¦ à§Ń
an j
Ġb ott
à§§à§® à§¯à§¦
Ġto t
Ġà¦ıà¦ĩà¦ļ à¦ıà¦®à¦Ń
am un
à¦°Ã ¿
Ġme als
ĠO pen
ĠÂłĠÂłĠÂłĠÂł ĠÂłĠÂł
em ies
à§¨à§§à§© à§¨
Ġking dom
Ġve hic
inc ipal
ÑĢÐ¶Ð¶ÑĢÐ·ÐĿÑĢÐ¶Ð ·ÑĢÐ¶
Ġtreat ed
ÑĢÐ·ÐĿÑĢÐ¶Ð¬ ÑĢÐ¶
ras hed
) âĢĻ-
M S
b oy
c are
g ar
l oad
à¦° à¦ıà¦ľ
à¦¿ ..
à¦¯ à¦§à¦°
à¥ ¥
à¦¶ à¦ĺà¦Łà¦¨
à¦ĩ à¦Ĩà¦¤
à¦¹ à¦ĺà§ľ
à¦§ à¦·
Ġà¦¶ à¦Łà¦¸
Ġà¦ıà¦ķ à¦¶à¦°
à¦ŀ à¦¹
Ġà¦§ à¦īà¦°
à¦¹à¦¤ à¦ĵ
à§© à§¨à§§
à¦Ĩà¦ĩ à¦ıà¦ķ
Ġà¦Ĩà¦¹à¦¤ à¦ķ
à¦®à§Ł à¦¸à¦¹
à¦ļà§Ł à¦¸à¦¹
à¦ĩà¦¡ à¦ķà¦²
à§§à§¨ à§ªà§«
à§§à§® à§ª
à§§à§® à§ªà§©
à§§à§Ń à§ªà§®
Ġà¦ıà¦« à¦ıà¦¸à¦¬
ĠâĢĶ -
Ġn orm
com m
ÂłÂłÂłÂłÂłÂłÂłÂłÂłÂłÂłÂłÂłÂłÂłÂł ÂłÂłÂłÂłÂłÂłÂłÂłÂłÂł
ess or
Ġsp ec
âķĿ ,
Ġcomp uters
Ġad vert
Ġdr aw
à§¨à§§à§¦ à§¬
ĠZ ahir
Ġlar gest
Å¡ Ãį
Ġhig hest
Ġcaus ed
Ġchall eng
à¦¨ à¦¦à¦°
à¦¨ à¦°à¦¸à¦¹
Ġà¦¨ à§ľà¦²
à¦ĩ à¦ľà¦²
Ġà¦Ĺ à¦ĺ
Ġà¦ĵ à¦Ĩà¦°
à¦¼ !âĢĻ
à¦¬à¦¨ à¦°
à§Łà¦¨ à¦ķà¦°
à¦°à¦¬ à¦®à¦¯
Ġà¦ĵà¦ĩ à¦°
à¦¸à¦¦ à¦²
à¦ĩà¦° à¦Ļ
à¦°à¦« à¦Łà¦ķ
à¦ķà¦¨ à¦Ĺ
à¦ıà¦² à¦ıà¦¸à¦¡
Ġà¦ªà¦¤ à¦ªà¦¤
à¦ªà¦² à¦ĵ
Ġb reat
à§¨à§¨ à§¬
à§¨à§¨ à§§à§©
à§ĩ) à¥¤âĢĻ
ĠR ang
ag ar
Ġsp ons
Ġà¦īà¦ĩà¦¥ à¦¡
ÑĢÐ¶Ðº ÑĢÐ·ÐĴÑĢÐ¶
ress ed
ĠÑĢÐ¶Ðķ ÑĢÐ¶Ð½ÑĢÐ¶
à¦£à¦ļ à¦ŀ
Ġcomple ted
Ġà¦ĸà§Ł à¦¬à¦°
wor ld
ex p
ÑĢÐ¶ÐªÑĢÐ·ÐĿÑĢÐ¶Ð« ÑĢÐ·ÐĹ
b agharu
s a
Ġ ÂłÂłÂłÂłÂłÂłÂłÂłÂłÂłÂłÂłÂłÂł
à¦¨ à¦¬à¦¸à¦¤
Ġà¦¸ à¦°à¦ª
à¦ĩ à¦ļà¦°
Ġà¦ī à¦°à¦«
Ġà¦ĩ à¦¤à¦°
à¦Ĩ à¦ĵà¦²
Ġà¦ķà¦® à¦®
à¦Łà¦¨ à¦¬
à¦¦à¦ķ à¦ľ
Ġà¦ħà¦¬ à¦¦à¦®
à¦¬à¦¬ à¦¤
Ġà¦ıà¦¸ à¦ĩà¦ī
à¦ħ à¦§à¦°
à§Ģà¥¤ *
à¦Ĩà¦ĩ à¦ıà¦«à¦Ĩà¦ĩà¦¸
à¦īà¦Ł à¦Ł
à§¨à§¦ à§ª
Ġà¦ħà¦Ĺ à¦¸
Ġà§§à§® à§«à§®
à¦Ĺà¦¨ à¦ĵ
Ġo x
it ude
ĠÑĢÐ¶Ð ²ÑĢÐ¶
Ġl ay
Ġà§©à§¬ à§¦à§¦
Ġg entle
ĠS hak
ĠS ince
ĠN azrul
Ġnot iced
Ġwh om
ĠG re
ĠL ast
ĠK amal
gl ish
Ġknow ing
Ġso il
Ġ201 3
Ġacc ount
Ġdifficult y
ĠWith out
Ġloc ality
ÑĢÐ¶Ð¾ÑĢÐ·ÐĿÑĢÐ¶Ðº ÑĢÐ¶
Ġrelig ious
Ġorganiz ations
ygi ene
L T
L et
k h
Â ³
à¦° à¦ħà¦«
à¦¿ âĢº
à¦¬ à§Łà¦®
Ġà¦Ĩ à¦¶à¦¨
Ġà¦ľà¦¨ à¦¦à¦°à¦¦
Ġ( (
à¦¬à¦° www
à§ĩ, âĢľ
à¦ªà¦ķ à¦¨à¦Ĺà¦°
Ġà¦ĵà¦ĩ à¦ĺà¦Łà¦¨
à¦¸à¦¨ à¦¶
Ġà¦ıà¦ª à¦¸à¦¨
Ġà¦¨à¦¬ à¦°à¦¤
in ction
Ġà¦¨à¦ľà¦° à¦¬à¦¨
à§§à§¨ à§ªà§¦
à§¨à§¨ à§¨à§¨
à§§à§¬ à§¨à§ª
à§§à§Ń à§«à§®
à¦Ĺà¦ľ à¦ĵ
Ġsh out
ÑĢÐ¶Ð´ ÑĢÐ·ÐĿÑĢÐ¶Ð¿ÑĢÐ¶
à§¬à§¬ à§ª
az rat
Â¯ âĢĻ
Ġlead s
Ġmer ch
Ġdem ocr
ÂłÂłÂłÂłÂłÂłÂłÂłÂłÂłÂłÂłÂłÂłÂłÂłÂłÂłÂłÂłÂłÂłÂłÂłÂłÂłÂłÂłÂłÂłÂłÂłÂłÂłÂłÂłÂłÂłÂłÂłÂłÂłÂłÂłÂłÂłÂłÂłÂłÂłÂłÂłÂłÂłÂłÂłÂłÂłÂłÂłÂłÂłÂłÂłÂłÂłÂłÂłÂłÂłÂłÂłÂłÂłÂłÂłÂłÂłÂłÂłÂłÂłÂłÂłÂłÂłÂłÂłÂłÂłÂłÂłÂłÂłÂłÂłÂłÂłÂłÂłÂłÂłÂłÂłÂłÂłÂłÂłÂłÂłÂłÂłÂłÂłÂłÂłÂłÂłÂłÂłÂłÂłÂłÂłÂłÂłÂłÂł ÂłÂłÂłÂłÂłÂłÂłÂłÂłÂłÂłÂłÂłÂłÂłÂłÂłÂłÂłÂłÂłÂłÂłÂłÂłÂłÂłÂłÂłÂłÂłÂłÂłÂłÂłÂłÂłÂłÂłÂłÂłÂłÂłÂłÂłÂłÂłÂłÂłÂłÂłÂłÂłÂłÂłÂłÂłÂłÂłÂłÂłÂłÂłÂłÂłÂłÂłÂłÂłÂłÂłÂłÂłÂłÂłÂłÂłÂłÂłÂłÂłÂłÂłÂłÂłÂłÂłÂłÂłÂłÂłÂłÂłÂłÂłÂłÂłÂłÂłÂłÂłÂłÂłÂłÂłÂłÂłÂłÂłÂłÂłÂłÂłÂłÂłÂłÂłÂłÂłÂłÂłÂłÂłÂłÂłÂłÂłÂł
Ġrelig ion
Ġdish onest
à¦ıà¦ıà¦¸à¦ıà¦® à¦ĩà¦ī
v B
à¦¶ à¦¸à¦°à¦ķ
à¦ĩ à¦ļà¦Ł
Ġà¦Ĺ à¦ĵà¦¹
à¦ł à¦¦à¦¶
Ġà¦Ĩà¦® à¦ĵ
Ġà¦¸à¦¬ à¦¥
à§¬ à§¯à§¦
Ġà¦Ĩà¦ķ à¦¶
Ġà¦ł à¦ķà¦Ľ
à¦°à¦ĩ à¦¬
à¦Ĺà¦£ à¦Ĺ
à¦ıà¦« à¦¡à¦¬
à¦ıà¦« à¦ıà¦¸à¦ı
er o
à¦°à¦®à¦£ à¦°
à¦Łà¦¸ à¦ķà¦°
es e
Ġà¦ľà¦² à¦ªà¦°
à§§à§® à§¨à§Ń
à§§à§® à§¦à§§
à§¨à§¨ à§©
à§¨à§¨ à§§à§ª
à§§à§Ń à§ªà§ª
Ġà¦Ŀà§ľ à¦Ŀ
est ic
ab out
ace ae
ĠâĢĭ à¦¿
Ġà¦¶à¦¶ à¦§à¦°
Ġgr ass
ÑĢÐ·Ð¯ ÑĢÐ·ÐĹÑĢÐ¶Ð«ÑĢÐ·ÐĹÑĢÐµÐ´
à§¨à§§à§¦ à§ª
oss ain
Ġà¦°à¦ĩà¦Ľ à¦īà¦²
à§§à§§à§© à§¦
Ġign or
i est
à¦° à¦ıà¦¸
à¦¤ à¦ħà¦Ń
à§Ł à¦°à§Ł
à¦® ÃĲà¦²
Ġà¦Ĩ à¦īà§ľ
Ġà¦¦ à¦¶à¦Ĺ
Ġà¦ļ à¦¤à¦²
à¦°à¦£ à¦¬à¦ķ
à¦ľà¦¨ à¦ľ
à¦Ĩ à¦°à¦«
à§İ à¦Ł
à¦²à¦ķ à¦¶
Ġà¦ıà¦² à¦ıà¦²à¦¸
à¦ħ à¦«à¦¸
à§¯ à§«à§¦
he l
à¦°à¦ĩ à¦®
à§¨à§¦ à§ªà§Ń
à§¨à§¦ à§«à§Ń
à§İà¦ķ à¦®
er ous
Ġf ir
Ġà¦Ĩà¦īà¦Ł à¦ĩ
à¦Łà¦Ľ à¦¡
Ġk g
Ġk n
Ã¸ à¦ª
Ġad huna
ĠâĢł `
à§¨à§§à§§à§ §
Ġmon ke
Ġshow s
Ġstudy ing
Ġmeas ures
Ġmonke ys
E F
T amal
j oin
o om
p ol
r ound
u z
w j
à§į ^
à¦² à¦¬à¦¸à¦¹
à¦® à¦Ĩà¦®
Ġà¦® à¦ĵà¦¶
à¦« à¦ľà¦°
Ġà¦ĩ à¦ıà¦¨à¦Ł
Ġà¦Ĩà¦® à¦¸à¦¤
à¦ĺ à¦ªà¦¥
à¦ıà¦¨ à¦ıà¦¬
Ġà¦Ĩà¦¦ à¦¬à¦ķ
à¦·à¦ķ à¦®à¦¨
à¦°à¦¨ à¦ľ
Ġà¦Ľà§Ł à¦Ĺ
ÑĢÐ¶Ð »
Ġà§§à§ª à§¨à§Ń
à¦ıà¦ĩà¦ļ à¦Ĩà¦°à¦¸
à§§à§§ à§¦à§¨
à§§à§Ń à§¨
à§¨à§© à§¬
Ġl oud
à¦ķà¦ĩ à¦īà¦¨
Ġà¦Łà¦¹à¦² à¦ĵ
Ġr ate
ĠO ther
Ġno se
ist en
ĠK ey
Ġgr ateful
Ġsome body
Ġact ion
à§¨à§§à§§à§ Ń
Ġpres crib
à¦¶à¦¶ à¦°à¦«
Ġsur v
ific ant
ĠEx amination
Ġsing le
Ġremain s
Ġpain ting
ĠÑĢÐ¶Ð¶ÑĢÐ·ÐĹÑĢÐ¶Ð ¦ÑĢÐ¶
ĠSumm ar
Ġallow ed
ĠZoh a
Ġdefe ated
Ġgreed y
ESC O
5 9
d pe
g m
w abd
à¦° à¦ĸà¦²
à¦¤ à¦ħà¦¬à¦¸
à¦¯ à¦§à¦¨
à¦ľ à¦¬à¦°
à¦ľ à¦°à¦Ł
à¦ı à¦°à¦®
à¦ı à¦ľà¦²
à¦ı à¦ıà¦¨à¦ıà¦¨
à¦¬à¦¸ à¦ĵ
Ġà¦Ĩà¦¸ à¦ľ
Ġà¦®à¦¨ à¦¦
à¦°à¦¬ à¦Ļ
Ġà¦¸à¦¹ à¦²
à¦¯à¦¬ à¦¯
Ġà¦ĸà¦¬à¦° à¦¸à¦¨
à§ĩà§Ĺ ,
à¦®à§Ł à¦ĩ
à¦²à¦® à¦§
à¦²à¦ª à¦¥à¦ķ
Ġà¦¨à¦Ń à¦ľ
à¦ªà¦¥ à¦¶
Ġà§¨à§¨ à§¨à§§
à¦¬à¦ľà¦¨ à¦¶
à§§à§® à§«à§¨
à¦¬à§Ł à¦ķà¦Ł
it es
Ġh oney
à§¨à§« à§Ń
... !âĢĻ
Ġà¦Ĭ à¦¨
à¦¿. -
à¦°à¦¬à¦¨ à¦¤
ĠH ridoy
à¦ķà¦Ĩà¦ª à¦¸à¦¹
ĠP ied
ap no
à¦°Ã¦ à¦¤à¦Ĺà¦¤
Ġv ital
ĠF acebook
Ġqu een
ĠL ong
Ġpr ison
act ion
Ġà§§à§®à§® à§ª
Ġchild hood
à§¨à§¨à§¦ à§¬
Ġprov ides
Ġless ons
Ġcook ing
Ġorphan age
Ġforg ot
k i
à¦° à¦Ĩà¦°à¦ĵ
à§Ł à¦Ļ
à¦Ł à¦¸à¦°
à¦ª à¦¸à¦Ń
Ġà¦ĵ à¦²à¦¸
Ġà¦Ĩà¦Ĺ à¦¤à¦°
à§« à§©à§¦
à¦°à¦¹ à¦¨à¦¨
Ġà¦Ĺà¦£ à¦¶à¦¤
à¦Ńà¦¬ à¦¦à¦¹
Ġà¦Ľà§Ł à¦ľ
Ġw arming
à¦Ĺà¦ķ à¦°à¦¤
à§¨à§¨ à§§à§§
Ġà¦ıà¦ĩà¦ļ à¦¸
Ġà¦¦à¦¶à¦ķ à¦¬
à¦Ĩà¦ĩà¦¨ à¦ª
ad huna
am el
Ġà¦īà¦ªà¦ķà¦°à¦£ à¦ĵ
à§©à§¬ à§«
ang ing
ĠF e
Ġcan d
ag ing
Ġag reed
à§¨à§§à§¨ à§Ń
Ġdist urb
à¦¨à¦¸à¦ª à¦Ł
Ġfur ther
Ġcer em
0 9
F rom
a res
j i
Ġ ................
à¦¶ à¦Ńà¦°
à¦Ľ à¦Ńà¦°
Ġà¦¨ à¦¦à¦ķ
Ġà¦¹à§Ł à¦ª
à¦ı à¦ıà¦¸à¦Ł
à¦ı à¦ıà¦®à¦ıà¦²à¦¸
Ġà¦ıà¦ĩ à¦ĺà¦Łà¦¨
à¦ĺ à¦ł
Ġà¦Ĩà¦¨ à¦ħà¦«
à¦·à¦£ à¦¯à¦¨
à¦ĩà¦² à¦¹
Ġà¦Ĩà¦ķ à¦·
à¦®à¦¦ à¦Ĩà¦²
à¦¬à¦ķ à¦Ń
Ġà¦Ĺà¦£ à¦¤à¦¦à¦¨
Ġà¦ĩà¦ī à¦¥
he lp
Ġà¦ıà¦¨ à¦²
Ġà¦Ĩà¦ĩ à¦¡à¦¬
à¦¬à¦¤ à¦¸à¦®
à¦°à¦ľ à¦Ļ
âķ ¬
Ġà¦¤à¦¤ à¦ĸ
à¦ķà¦¶à¦¨ à¦Ĺ
à¦¿à¦ĥ ),
à¦®à¦ĺà¦Ł à¦¸à¦¹
ĠB oth
st ore
ĠC ont
Ġun fortun
Ġor ig
Ġ3 2
à§¨à§§à§« à§Ń
à§¨à§§à§¦ à§©
Ġtell ing
Wh o
Ġ------- .
Ġmem ber
Ġfun ction
Ġsell er
Ġqual ities
Ġlab our
m ah
s oc
à¦ķ à¦ªà¦¦
à¦® à¦ħ
à¦¯ à¦°à¦ķ
à§ĭ âĢĺ
à¦ľ à¦¸à¦ļ
Ġà¦ı à¦ıà¦¨à¦ľ
Ġà¦ı à¦ıà¦¸à¦ıà¦«
à¦¹ à¦Łà¦²
Ġà¦ľà¦¨ à¦¨à¦¨
à§İ à¦ªà¦²
à¦ıà¦¨ à¦ıà¦²
Ġà¦®à¦¹ à¦¨à¦Ĺà¦°
à¦¯à¦¬ à¦ĩà¦Ĺ
à¦īà¦ľ à¦²
Ġà¦ĩà¦ī à¦¯
à¦¨à¦¸ à¦ļ
à¦łà¦ķ à¦¸à¦¹
à§¨à§¦ à§ªà§©
à§ĩà¦ģ à¦¾
ÑĢÐ¶Ð ¨
Ġà¦ļà¦° à¦ªà¦ķ
Ġw id
à§¨à§¨ à§«à§«
al y
as ant
le ar
Ġà¦Ĺà¦ł à¦¨à¦¤
Ġn on
ĠT it
Ġl uck
Ġl azy
Ġà¦«à¦¸à¦² à¦ĩ
ĠH ello
à¦¨à¦¶à¦¨ à¦¸à¦¹
à¦°à¦¥ à¦ª
ig r
à¦Ĩà¦ķ à¦®à¦²
ĠP yramid
à¦°Ã¦ à¦¤à¦¤à¦®
ĠÂłĠÂłĠÂłĠÂł ĠÂłĠ
em ale
Ġ19 52
Ġvill ages
Ġplay ed
à§¨à§¨à§¦ à§©
Ġmor al
wor ds
Ġthought s
T hank
W rite
o ff
à¦ķ à¦Ĩà¦°
à¦ĩ à¦¶à¦¨
Ġà¦ļ à¦°à¦¯
à¦¡ à¦¨à¦¬
Ġà¦Ń à§ľ
Ġà¦« à¦ķà¦²
à¦Ĩ à¦īà§Ł
à¦°à¦¸ à¦Ĺ
à§¨ à§§à§¯
Ġà¦¸à¦¹ à¦ħà¦Ń
Ġà¦ıà¦¸ à¦ıà¦¸à¦ª
à¦¸à¦° à¦ĺà¦°
à§¨à§¦ à§©à§¯
à¦ķà¦¸ à¦Ĺ
à¦ıà¦² à¦Ĩà¦°à¦¸
à¦¾à¥¤âĢĻ âĢĶ
Ġà¦¸à¦«à¦° à¦Ĺ
à¦ıà¦ĩà¦ļ à¦ıà¦®
à¦īà¦ª à¦ª
Ġà¦°à¦Ļ à§Ł
à¦¨à¦ľà¦Ł à¦¸à¦¹
à¦¿? âĢĶ
Ġà¦®à¦¹à¦² à¦ĵ
à§Ŀ à¦¬
ĠM al
Ġr ickshaw
Ġà¦ĩà¦īà¦ıà¦¸ à¦ıà¦°
ĠD es
à¦Ĺà¦łà¦ķ à¦ķ
ore e
ib ur
Ġ5 8
Ġen emies
ĠCom mon
ĠÂ¯ à¦¿
à¦¯à§Łà¦¸ à¦Ļ
Ġlib eration
Ġposs ess
Ġflo or
Ġmountain s
Ġchem ical
ĠSrim angal
à¦° à¦Ĩà¦ľ
à¦¨ à¦¬à¦¸à¦¨
à¦ķ à¦·à¦£
à¦² à¦·
Ġà¦Ĩ à¦¤à¦ķ
Ġà¦¹ à¦Łà¦Ľ
à¦Ĺ à¦ĺ
à¦§ à¦ļà¦¨
à¦¥ à¦Ĺà¦¤
à¦ĵ à¦²à¦¨
Ġà¦° à¦®à¦¯
Ġà¦§à¦° à¦ĸ
Ġà¦Ĩà¦¨ à¦Ń
à¦Łà¦ķ à¦²à¦Ł
Ġà¦ıà¦² à¦ıà¦ĩà¦ļ
à¦¦à¦ķ à¦°à¦£
à¦¹à¦¤ à¦¤
à§© à§¨à§©
à¦ħ à¦°à¦ķ
à¦īà¦ľ à¦ĵ
Ġà¦Ĩà¦²à¦® à¦ĸ
à¦Ĺà¦£ à¦°
Ġà¦ªà¦² à¦ĵà§Ł
ĊĊĊ ĠĊ
Ġp alace
Ġà¦¶à¦ªà¦¥ à¦ĵ
Ġà¦ĩà¦īà¦ıà¦¨à¦ĵ à¦¸à¦¹
ĠC u
Ġà¦ķà¦¦ à¦®à¦¬
Ġà¦°à¦ĵ à¦¶
um ents
end er
Ġun f
Ġmy self
fer ence
Ġ7 0
à§¨à§§à§« à§§
anc ial
Ġcap s
Ġgrow ing
Ġair port
ĠUN ESCO
ĠTe acher
Ġcivil ization
. "
4 1
? *
P O
c ient
d et
k en
k eep
à§Ł à¦Ĩà¦¨
Ġà¦ķ à¦¤à¦²
à¦¯ à§Łà¦Ĺ
à¦Ł à¦īà¦ĩà¦ķ
Ġà¦Ĩ à¦ªà¦°
Ġà¦® à¦°à¦£à¦ķ
à¦ĩ à¦°à¦ļà¦°
à¦¬à¦¨ à¦°à¦¤
Ġà¦¹à¦² à¦ĵ
à¦¦à¦¨ à¦¨à¦Ĺà¦°
à¦ıà¦¨ à¦ıà¦¤
Ġà¦¬à¦¸ à¦Ĺ
à§ĭà¥¤ ïģ¬
Ġà¦Ĺà¦łà¦¨ à¦ĵ
à¦°à¦®à¦£ à¦¤
re qu
à¦ĵà¦¸ à¦ł
Ġà¦Ĩà¦§ à¦®à¦°
à§ģà¥¤ âĢĺ
Ġd ictionary
à¦ķà¦¶à¦¨ à¦¸à¦¹
à¦°à¦°à¦« à¦¹
Ġà¦Ī à¦¸à¦®
Ġth irty
am ins
Ġre ward
ak sha
ĠM ina
Ġle g
Ġà¦ľà¦Ĺ à§İà¦ª
Ġex change
ob ash
à¦§à¦ľ à¦Ĺà¦¤
Ġà¦ıà¦«à¦ı à¦ĵà¦°
Ġover come
ĠÑĢÐ¶Ð¬ ÑĢÐ·ÐĲÑĢÐ¶Ð¼
Ġmain ly
Ġcur ious
Ġprot est
Ġmil es
Ġfamil iar
Ġpleas ant
Ġclim ate
Ġà¦ıà¦®à¦Ĩà¦ĩà¦ıà¦¸ à¦Ł
Ġmid dle
ser ve
ĠMart in
7 9
G ap
i el
i ers
m o
à¦° à¦Ĺà¦łà¦¨
à¦¬ à¦°à¦ķà¦²
à¦¯ à¦Ĩà¦®
à¦Ľ à¦¶
[...]
