{"<s>":0,"<pad>":1,"</s>":2,"<unk>":3,"<mask>":4,"!":5,"\"":6,"#":7,"$":8,"%":9,"&":10,"'":11,"(":12,")":13,"*":14,"+":15,",":16,"-":17,".":18,"/":19,"0":20,"1":21,"2":22,"3":23,"4":24,"5":25,"6":26,"7":27,"8":28,"9":29,":":30,";":31,"<":32,"=":33,">":34,"?":35,"@":36,"A":37,"B":38,"C":39,"D":40,"E":41,"F":42,"G":43,"H":44,"I":45,"J":46,"K":47,"L":48,"M":49,"N":50,"O":51,"P":52,"Q":53,"R":54,"S":55,"T":56,"U":57,"V":58,"W":59,"X":60,"Y":61,"Z":62,"[":63,"\\":64,"]":65,"^":66,"_":67,"`":68,"a":69,"b":70,"c":71,"d":72,"e":73,"f":74,"g":75,"h":76,"i":77,"j":78,"k":79,"l":80,"m":81,"n":82,"o":83,"p":84,"q":85,"r":86,"s":87,"t":88,"u":89,"v":90,"w":91,"x":92,"y":93,"z":94,"{":95,"|":96,"}":97,"~":98,"¡":99,"¢":100,"£":101,"¤":102,"¥":103,"¦":104,"§":105,"¨":106,"©":107,"ª":108,"«":109,"¬":110,"®":111,"¯":112,"°":113,"±":114,"²":115,"³":116,"´":117,"µ":118,"¶":119,"·":120,"¸":121,"¹":122,"º":123,"»":124,"¼":125,"½":126,"¾":127,"¿":128,"À":129,"Á":130,"Â":131,"Ã":132,"Ä":133,"Å":134,"Æ":135,"Ç":136,"È":137,"É":138,"Ê":139,"Ë":140,"Ì":141,"Í":142,"Î":143,"Ï":144,"Ð":145,"Ñ":146,"Ò":147,"Ó":148,"Ô":149,"Õ":150,"Ö":151,"×":152,"Ø":153,"Ù":154,"Ú":155,"Û":156,"Ü":157,"Ý":158,"Þ":159,"ß":160,"à":161,"á":162,"â":163,"ã":164,"ä":165,"å":166,"æ":167,"ç":168,"è":169,"é":170,"ê":171,"ë":172,"ì":173,"í":174,"î":175,"ï":176,"ð":177,"ñ":178,"ò":179,"ó":180,"ô":181,"õ":182,"ö":183,"÷":184,"ø":185,"ù":186,"ú":187,"û":188,"ü":189,"ý":190,"þ":191,"ÿ":192,"Ā":193,"ā":194,"Ă":195,"ă":196,"Ą":197,"ą":198,"Ć":199,"ć":200,"Ĉ":201,"ĉ":202,"Ċ":203,"ċ":204,"Č":205,"č":206,"Ď":207,"ď":208,"Đ":209,"đ":210,"Ē":211,"ē":212,"Ĕ":213,"ĕ":214,"Ė":215,"ė":216,"Ę":217,"ę":218,"Ě":219,"ě":220,"Ĝ":221,"ĝ":222,"Ğ":223,"ğ":224,"Ġ":225,"ġ":226,"Ģ":227,"ģ":228,"Ĥ":229,"ĥ":230,"Ħ":231,"ħ":232,"Ĩ":233,"ĩ":234,"Ī":235,"ī":236,"Ĭ":237,"ĭ":238,"Į":239,"į":240,"İ":241,"ı":242,"Ĳ":243,"ĳ":244,"Ĵ":245,"ĵ":246,"Ķ":247,"ķ":248,"ĸ":249,"Ĺ":250,"ĺ":251,"Ļ":252,"ļ":253,"Ľ":254,"ľ":255,"Ŀ":256,"ŀ":257,"Ł":258,"ł":259,"Ń":260,"à¦":261,"à§":262,"Ġà¦":263,"à¦¾":264,"à§ĩ":265,"à¦°":266,"à§į":267,"à¦¿":268,"à¦¨":269,"à¦ķ":270,"à¦¤":271,"à¦²":272,"à¦¬":273,"à§Ł":274,"à¦®":275,"à§ģ":276,"Ġà¦ķ":277,"à¦¸":278,"Ġà¦¬":279,"Ġà¦¸":280,"à¦¯":281,"à¦¦":282,"à¥":283,"à¥¤":284,"Ġà¦ª":285,"à¦Ł":286,"à§ĭ":287,"à¦ª":288,"à§Ģ":289,"Ġà¦Ĩ":290,"Ġà¦®":291,"à¦ľ":292,"à¦¶":293,"Ġà¦¹":294,"Ġà¦ı":295,"à¦Ľ":296,"Ġà¦¨":297,"à¦Ĺ":298,"à¦ĩ":299,"Ġà¦¦":300,"à¦·":301,"Ġà¦ķà¦°":302,"à¦¹":303,"Ġà¦¤":304,"à¦§":305,"Ġà¦ľ":306,"à¦ļ":307,"Ġà¦ħ":308,"à¦Ĥ":309,"à¦¥":310,"à¦ĵ":311,"Ġà¦°":312,"Ġà¦¶":313,"à¦Ń":314,"à¦£":315,"Ġà§":316,"Ġà¦Ĺ":317,"à§ĩà¥¤":318,"à¦ĸ":319,"Ġà¦ĵ":320,"Ġà¦ļ":321,"à¦¡":322,"Ġà¦¯":323,"à¦¼":324,"à§ľ":325,"Ġà¦ī":326,"âĢ":327,"Ġà¦ªà¦°":328,"Ġà¦¹à§Ł":329,"Ġà¦Ń":330,"Ġà¦¥":331,"Ġà¦¬à¦²":332,"à¦ģ":333,"Ġà¦ıà¦ķ":334,"à¦«":335,"Ġà¦¸à¦®":336,"Ġà¦²":337,"Ġà¦Ľ":338,"à¦ł":339,"à¦Ļ":340,"à¦°à¦¤":341,"à¦ı":342,"à§¦":343,"à¦ī":344,"à§ĩà¦¾":345,"Ġà¦ĩ":346,"Ġà¦ĸ":347,"Ġà¦«":348,"à¦ĵà§Ł":349,"à¦¾à¦ģ":350,"à§ĥ":351,"Ġà¦Ł":352,"à¦°à¦ķ":353,"à§Ĥ":354,"Ġà¦ħà¦¨":355,"à¦¾à¦Ĥ":356,"§à§":357,"Ġà¦ľà¦¨":358,"à¦°à¦£":359,"à¦¾à¥¤":360,"à¦ľà¦¨":361,"Ġà¦ĺ":362,"Ġà¦Ĩà¦®":363,"à¦¿à¥¤":364,"à¦®à¦¨":365,"ĠâĢ":366,"à¦ŀ":367,"Ġ(":368,"à¦¬à¦°":369,"Ġà¦Ĩà¦°":370,"Ġà¦¡":371,"à¦ªà¦°":372,"âĢĻ":373,"Ġà¦§":374,"Ġà§¨":375,"à¦¼à§ĩ":376,"Ġà¦ıà¦ĩ":377,"à¦Ĩ":378,"ĠâĢĺ":379,"Âł":380,"Ġà¦īà¦ª":381,"Ġà§§à§":382,"à¦¤à¦°":383,"Ġà¦Ĩà¦²":384,"à¦ķà¦°":385,"à§ĩ,":386,"à¦¬à¦¸":387,"Ġà¦¹à¦¬":388,"à¦ªà¦¤":389,"Ġà¦ıà¦ķà¦Ł":390,"Ġà¦ıà¦¬":391,"à¦¶à¦¨":392,"à¦°à¦®":393,"à§Ī":394,"à¦¼à¦¾":395,"à¦¬à¦¨":396,"Ġà¦Ĩà¦¸":397,"à§Łà¦¨":398,"Ġà¦Ĩà¦Ĺ":399,"à§Į":400,"Ġà¦Ĩà¦¬":401,"Ġà¦ħà¦Ń":402,"Ġà¦®à¦¨":403,"Ġà¦¸à¦Ļ":404,"Ġà¦ķà¦®":405,"à¦ĸà¦¨":406,"à¦°à¦¸":407,"à¦ļà¦¨":408,"Ġà¦Ĺà¦¤":409,"à¦ĩà¦¨":410,"à§İ":411,"à¦Łà¦¨":412,"Ġà¦®à¦§":413,"à¦¿à¦Ĥ":414,"Ġà¦ķà¦°à¦¤":415,"à¦²à¦¨":416,"à§¨":417,"à¦¾,":418,"à¦ĺ":419,"Ġà¦īà¦¦":420,"à¦°à¦¬":421,"à¦®à¦²":422,"Ġà¦¹à¦²":423,"à¦¹à¦®":424,"à¦ªà¦¨":425,"à¦²à¦ķ":426,"Ġà¦¸à¦¬":427,"Ġà¦¸à¦®à§Ł":428,"à¦¦à¦¨":429,"Ġà¦¦à¦²":430,"à¦Ľà¦°":431,"Ġà¦ıà¦°":432,"Ġà¦§à¦°":433,"à¦¥à¦®":434,"à¦²à¦¤":435,"à¦²à§Ł":436,"Ġà¦¸à¦°à¦ķ":437,"Ġà¦Ĩà¦¨":438,"à§§à§":439,"à¦¦à¦°":440,"à¦¸à¦¬":441,"Ġà¦ķà¦¥":442,"à¦·à¦£":443,"Ġà¦¬à¦Ľà¦°":444,"à§«":445,"à¦Łà¦ķ":446,"Ġà¦ıà¦²":447,"à¦īà¦¨":448,"Ġà¦¹à¦¤":449,"à¦¸à¦²":450,"à¦¦à¦ķ":451,"à¦°à¦§":452,"à¦ªà¦ķ":453,"Ġà¦¢":454,"Ġà§§":455,"à¦°à¦¥à¦®":456,"à¦·à§Ł":457,"Ġà§¨à§¦":458,"Ġà§©":459,"Ġà¦ļà¦²":460,"à¦°à¦¶":461,"à¦¯à¦ķ":462,"Ġà¦ĺà¦Łà¦¨":463,"à¦¤à¦¬":464,"Ġà¦ĵà¦ĩ":465,"à¦¹à¦¤":466,"Ġà¦īà¦ªà¦ľ":467,"à¦¿,":468,"Ġà¦¹à¦ļ":469,"à¦¯à¦¬à¦¸":470,"à§©":471,"Ġà¦¸à¦¹":472,"Ġà¦ħà¦¬":473,"à¦ıà¦¨":474,"Ġà¦¸à¦Ń":475,"Ġà¦¬à¦°":476,"Ġà¦Ĩà¦Ľ":477,"à¦¤à¦¨":478,"Ġà¦¬à¦¨":479,"à¦¸à¦¹":480,"Ġà¦ıà¦ĸà¦¨":481,"à¦¬à¦¬":482,"à¦Ĺà¦°":483,"Ġà¦Ĩà¦¦":484,"Ġà¦ħà¦°":485,"à§§":486,"à§ª":487,"Ġà¦®à¦¹":488,"Ġà¦ªà§ľ":489,"Ġà¦ķà¦°à¦Ľ":490,"à¦Ĺà¦¤":491,"à¦°à¦¹":492,"à¦¨à¦¤":493,"Ġà¦ħà¦§":494,"Ġà¦¹à¦¯":495,"à¦¯à¦®":496,"à¦°à¦¦":497,"Ġà¦ĩà¦¸à¦²":498,"à¦ĩà¦ķ":499,"Ġà¦¤à¦¬":500,"à¦¯à¦¨":501,"à¦®à¦¤":502,"à¦¬à¦²":503,"à¦®à¦ķà¦°":504,"à¦ķà¦²":505,"à¦ĩà¦²":506,"Ġà¦Ĩà¦ľ":507,"à¦¾-":508,"Ġà¦ıà¦¸":509,"à¦ķà¦Ł":510,"Ġà§«":511,"à¦·à¦ķ":512,"à¦¯à¦¬":513,"à¦ħ":514,"à¦¦à¦¸":515,"à¦°à¦ª":516,"Ġà¦®à¦¤":517,"Ġà¦¸à¦°":518,"Ġà¦ħà¦¸":519,"Ġà¦°à¦¹à¦®":520,"Ġà§ª":521,"Ġà¦¸à¦¨":522,"Ġà¦°à§Ł":523,"à¦®à¦°":524,"ĊĊ":525,"à¦¸à¦ª":526,"à§Ń":527,"à¦¸à¦¨":528,"Ġà¦Ĺà¦¤à¦ķ":529,"à§®":530,"à§¬":531,"Ġà¦Ĩà¦ĩà¦¨":532,"Ġà¦ħà¦¬à¦¸":533,"Ġà¦¸à¦¦à¦¸":534,"Ġà¦Ĩà¦®à¦°":535,"à¦²à¦¬":536,"à¦¤à¦®":537,"Ġà¦ĩà¦¨":538,"Ġà§§à§¦":539,"Ġà¦¹à¦ĵà§Ł":540,"à§¯":541,"Ġà¦ķà¦²":542,"à¦ıà¦¨à¦ª":543,"à¦ıà¦¸":544,"Ġà¦Ĩà¦¶":545,"à¦Ŀ":546,"Ġà¦ĵà§Ł":547,"Ġà¦Ĩà¦°à¦ĵ":548,"Ġà¦ıà¦Ł":549,"à¦¸à¦ķ":550,"à¦®à¦ķ":551,"à¦®à¦¸":552,"à¦¨à¦Ł":553,"Ġà¦ĩà¦īà¦¨":554,"Ġà¦¸à¦ķ":555,"ÂłÂł":556,"à¦¶à¦ķ":557,"Ġà¦ıà¦¤":558,"à¦¸à¦®":559,"à¦ĵà¦¯":560,"Ġà¦¨à§Ł":561,"à¦īà¦ľ":562,"à¦Ĺà¦ŀ":563,"à¦°à¦ĵ":564,"Ġà¦¨à¦¤":565,"à¦¨à¦¬":566,"à¦ķà¦¤":567,"à¦¨à¦¨":568,"à¦¹à¦°":569,"Ġà¦ķà¦°à¦¬":570,"à¦ķà¦¦":571,"Ġà§¬":572,"à§ĭ.":573,"à¦ļà¦²":574,"Ġà¦¶à¦¤":575,"à¦®à¦¬":576,"Ġà¦Ĩà¦ķ":577,"Ġà¦Ĩà§Ł":578,"Ġà¦ıà¦®à¦¨":579,"Ġà¦ķà§Ł":580,"Ġà¦ħà¦¤":581,"à¦ĩà¦Ł":582,"à¦®à¦¦":583,"Ġà¦ĵà¦ªà¦°":584,"à¦¨à¦ķ":585,"à¦¨à¦®à¦¨":586,"Ġà¦īà¦¤":587,"Ġà¦Ĩà¦ĵà§Ł":588,"à¦¬à¦ķ":589,"à¦Łà¦Ĺ":590,"à§Ģà¥¤":591,"à¦°à§Ł":592,"ÑĢ":593,"ÑĢÐ":594,"à¦łà¦¨":595,"Ġà¦īà¦¨":596,"Ġà¦ªà¦¦":597,"à§Ģ,":598,"à¦¸à¦¦":599,"à¦°à¦ļ":600,"Ġà¦¤à¦¥":601,"à¦Ĩà¦ĩ":602,"Ġà§Ń":603,"à¦°à¦²":604,"à¦ķà¦¬":605,"Ġà¦¬à¦ķ":606,"à¦§à¦¨":607,"à¦¹à¦¸":608,"Ġà¦Ĺà¦£":609,"à¦°à¦¨":610,"Ġà¦°à¦ķ":611,"Ġà¦ªà¦ķ":612,"Ġà¦¬à§ľ":613,"à¦¿)":614,"Ġà§®":615,"Ġà¦ĺà¦Ł":616,"Ġà¦ł":617,"âĢĿ":618,"Ġà¦Ľà¦¬":619,"Ġà¦ıà¦¸à¦¬":620,"Ġà§¨à§¦à§§à§":621,"à¦¼à¦¿":622,"Ġà¦Ĩà¦¹à¦®":623,"à¦ĩà§Ł":624,"à§ģà¦ģ":625,"Ġà¦ıà¦®":626,"à§İà¦¸":627,"à¦ıà¦°":628,"Ġà¦ħà¦ª":629,"Ġà¦Ĩà¦¬à¦¦":630,"à§¦à§¦":631,"à§ľà¦ķ":632,"Ġà¦Ŀ":633,"Ġà¦¬à¦¸":634,"Ġà¦ıà¦ķà¦ľà¦¨":635,"Ġà¦īà¦ªà¦¸":636,"à¦¯à¦¬à¦¹":637,"Ġà¦īà¦ļ":638,"Ġà§¯":639,"Ġà¦«à¦²":640,"à¦¼à¥¤":641,"à¦ĸà¦¤":642,"Ġà¦¡à¦Łà¦ķ":643,"à¦¨à§Łà¦¨":644,"Ġà¦ķà¦°à¦²":645,"à¦ĩà¦°":646,"à¦¤à¦ķ":647,"Ġà¦īà¦ł":648,"Ġà¦ľà¦®":649,"à¦ıà¦®":650,"à¦ķà¦ľà¦¨":651,"Ġà§§à§¯":652,"à¥¤âĢĻ":653,"à¦§à¦¬":654,"à§Łà¦ķ":655,"ÑĢÐ¶":656,"à¦·à¦¦":657,"à¦¸à¦°":658,"Ġà¦¹à¦ķ":659,"à¦°à¦Ł":660,"à¦°à¦Ń":661,"à¦°à¦¹à¦£":662,"à¦¦à¦²":663,"Ġà¦īà¦²":664,"à¦¿-":665,"Ġà¦ĩà¦¤":666,"Ġà¦Ĩà¦²à¦®":667,"Ġà¦Ĩà¦¤":668,"Ġà¦ļà¦Ł":669,"à§Łà¦°":670,"Ġà¦§à¦°à¦¨":671,"à¦ĩà¦¸":672,"à¦¹à¦¨":673,"Ġà§§à§¨":674,"Ġà¦ĩà¦ī":675,"à§ĭà¥¤":676,"ĠâĢľ":677,"âĢĶ":678,"à¦ĸà¦²":679,"Ġà¦ĸà¦¬à¦°":680,"à¦¬à¦ª":681,"Ġà¦Ĩà¦ªà¦¨":682,"Ġà¦Ĩà¦Łà¦ķ":683,"Ġà¦¶à¦°":684,"à¦¨à¦¸":685,"Ġà¦¤à¦ĸà¦¨":686,"Ġà¦ıà¦ķà¦ĩ":687,"Ġt":688,"Ġà¦ħà¦ªà¦°":689,"à§Łà¦¸":690,"Ġà¦¹à¦¨":691,"à¦¥à¦¨":692,"à§Łà¦¤":693,"Ġà¦²à¦ķ":694,"à¦Ĺà¦łà¦¨":695,"à¦Łà¦°":696,"à¦Ĺà¦²à¦¬":697,"Ġà¦¸à¦¦à¦°":698,"à¦·à¦¤":699,"Ġà¦¯à¦¦":700,"Ġà¦¤à¦¦à¦¨":701,"Ġà¦¶à¦¹à¦°":702,"Ġà¦¹à§Łà¦¨":703,"Ġà§§à§§":704,"Ġà¦¨à¦®":705,"à¦·à§Łà¦Ł":706,"Ġà¦Ńà¦°":707,"à§Ĺ":708,"Ġà¦¶à¦¨":709,"Ġà¦ªà¦¥":710,"à§ĩà§Ĺ":711,"à¦łà¦ķ":712,"à¦ªà¦¦":713,"he":714,"Ġà¦ıà¦¨":715,"à¦°à¦«":716,"à¦°à¦¯":717,"Ġà¦ıà¦Ĺ":718,"à¦·à¦®à¦¤":719,"Ġà¦¦à¦ķ":720,"Ġà§§à§«":721,"à¦Ĩà¦®":722,"à¦¹à¦²":723,"Ġà¦¸à§ľà¦ķ":724,"à¦ıà¦ĩ":725,"Ġà¦īà§İ":726,"à§Łà¦¦":727,"Ġà¦ıà¦°à¦ªà¦°":728,"à¦°à¦ĩ":729,"à¦īà¦¦":730,"à¦īà¦²":731,"Ġà¦¡à¦Łà¦ķà¦®":732,"à¦¸à¦Ń":733,")à¥¤":734,"Ġà¦Ĩà¦¹":735,"Ġà¦®à¦Ļ":736,"Ġà¦Ĩà¦¹à¦¤":737,"à§ĩà¥¤âĢĻ":738,"à¦«à¦°":739,"à¦īà¦Ł":740,"à¦¯à¦¦":741,"à¦¯à¦°":742,"Ġà¦¸à¦ļ":743,"à¦¯à¦¤":744,"à¦°à¦ķà¦²":745,"Ġà¦¦à¦°":746,"à¦ľà¦§":747,"à¦Ńà¦¬":748,"Ġà¦ľà§Ł":749,"Ġà¦ķà¦¬":750,"Ġà¦¸à¦®à¦¸":751,"à¦«à¦²":752,"Ġà¦ļà¦²à¦Ľ":753,"à¦ķà¦Ń":754,"à¦Ĺà¦£":755,"à¦®à§Ł":756,"Ġà¦īà¦ĩà¦ķ":757,"Ġà¦ľà¦°":758,"Ġà¦ľà¦¬":759,"à¦Ĺà¦®":760,"à¦ļà¦Ł":761,"à§¨à§¦":762,"à¦Ľà¦¨":763,"à¦Ĩà¦°":764,"à¦¥à¦²":765,"à¦¨à¦¦":766,"âĢĮ":767,"Ġi":768,"à¦¦à¦ª":769,"Ġà¦¨à¦¦":770,"à¦ľà¦°":771,"Ġa":772,"à¦¤à¦¤":773,"Ġà§¨à§¦à§¦":774,"à¦ľà¦¨à¦ķ":775,"à¦ĺà¦°":776,"à¦¹à¦¬":777,"Ġà¦Ĩà¦¸à¦¨":778,"à¦¨à¦°":779,"Ġà¦¬à¦²à¦Ľ":780,"Ġà¦Ĺà§ľ":781,"à¦¢":782,"Ġà¦Ĩà¦ĩ":783,"Ġà¦ıà¦ĸ":784,"Īà¦¦":785,"à§ĩà¦ģ":786,"),":787,"à¦¨à¦Ĺà¦°":788,"Ġà¦ĺà¦°":789,"ÂłÂłÂłÂł":790,"Ġà¦¸à¦¤":791,"à§Łà¦®":792,"Ġà¦¬à¦¹":793,"Ġà¦Ńà¦¬à¦¨":794,"Ġà§©à§¦":795,"Ġà¦Ľà§Ł":796,"à¦°à¦Ĺ":797,"Ġà¦ħà¦«":798,"à¦ĩà¦¬":799,"à¦¨à¦®":800,"Ġà¦ħà¦¬à¦¶":801,"à¦²à¦®":802,"à¦ķà¦¨":803,"Ġà¦¸à¦®à¦°":804,"à¦°à¦ªà¦¤":805,"à¦²à¦¸":806,"à¦ľà¦®":807,"Ġà¦¸à¦¬à¦ļ":808,"à¦ķà¦ķ":809,"ÑĢÐ¶Ð":810,"à¦¶à¦®":811,"à§Łà¦Ĺ":812,"Ġà¦ħà¦ķ":813,"à¦¤à¦²":814,"Ġà¦¬à§Łà¦¸":815,"Ġà¦¨à¦Ĺà¦°":816,"Ġà¦¶à¦¹":817,"à¦ĺà¦Łà¦¨":818,"à¦ĥ":819,"Ġà¦«à¦°":820,"Ġà¦¸à¦¹à¦¯":821,"à¦¸à¦ļ":822,"à¦¶à¦Ł":823,"à¦¬à¦¶":824,"à¦ļà¦ķ":825,"à¦²à¦¯":826,"à¦¶à¦²":827,"Ġà¦ħà¦Ĺ":828,"à¦Ĺà¦²":829,"Ġà§§à§ª":830,"Ġà¦Ĩà¦«":831,"Ġà¦Ĩà¦Ł":832,"Ġà¦ĵà¦ł":833,"à¦ķà¦¶":834,"à¦ķà¦¸":835,"Ġà§¨à§«":836,"à¦ıà¦«":837,"à¦¸à¦°à¦ķ":838,"à§İà¦ķ":839,"Ġà¦Ĺà¦²":840,"Ġà¦®à¦°":841,"Ġà¦Ĳ":842,"Ġà¦ªà¦¡":843,"à¦ħà¦¨":844,"Ġà¦¸à¦ª":845,"à¦«à¦¤":846,"Ġà¦¬à¦Ļ":847,"Ġà¦¯à¦ĸà¦¨":848,"Ġà¦ĺà¦£":849,"Ġà¦¤à¦°":850,"Ġà¦¸à¦¹à¦ķ":851,"Ġà¦ľà§ľ":852,"à¦īà¦°":853,"à¦¬à¦¦":854,"Ġà§§à§©":855,"à¦°à¦ĸ":856,"à¦ľà§Ł":857,"Ġà¦¬à¦²à¦²":858,"Ġà¦Ĩà¦¸à¦Ľ":859,"à¦ĩà¦®":860,"ĠĠ":861,"Ġà§§à§¬":862,"à§ĩ?":863,"à¦ļà§Ł":864,"Ġà§§à§®":865,"à¦ľà¦²":866,"à¦Ĺà¦¬à¦¨":867,"Ġà¦¬à¦²à¦¤":868,"à¦¯à¦¸":869,"à¦°à¦Ľ":870,"à¦ªà¦Ł":871,"Ġà¦Ĺà¦¬":872,"Ġà¦ªà¦²":873,"à¦ķà¦®":874,"Ġà¦Ĺà¦łà¦¨":875,"à¦¾âĢĻ":876,"à§ĭà¦ģ":877,"Ġà¦¸à¦®à¦¯":878,"à§İà¦¸à¦ķ":879,"Ġà¦Ĩà¦ª":880,"Ġà¦¦à¦¶à¦®":881,"à¦¶à¦Ĺ":882,"Ġà¦®à¦ľ":883,"à¦¤à¦Ł":884,"Ġà¦ķà¦ķ":885,"à¦ıà¦²":886,"à¦ıà¦ķ":887,"Ġà¦ĩà§Ł":888,"âĢľ":889,"Ġà¦¶à¦ķ":890,"Ġà¦ľà¦Ļ":891,"à¦ľà¦¶":892,"Ġà¦ķà¦ĸà¦¨":893,"à¦¬à¦¤":894,"Ġà¦Ĩà¦ĩà¦¨à¦ľ":895,"Ġthe":896,"à¦¥à¦¬":897,"Ġà¦ıà¦ª":898,"Ġà¦Īà¦¦":899,"à¦ĩà¦ī":900,"à§§à§¯":901,"Ġà¦ªà¦£":902,"à¦ĩà¦ľ":903,"à¦²à¦Ł":904,"à¦Łà¦¬à¦²":905,"er":906,"à¦¿âĢĻ":907,"..":908,"Ġà¦ľà¦¨à¦Ĺà¦£":909,"à¦°à¦°":910,"à¦®à¦ļ":911,"à¦²à¦ª":912,"Ġà§«à§¦":913,"âĢĮà§į":914,"Ġà¦ĵà¦¸":915,"Ġà¦ļà¦°":916,"à¦®à¦ª":917,"Ġà¦¨à¦¬":918,"Ġà¦Ĺà¦°":919,"à¦ĩà¦«":920,"à¦²à¦Ĺ":921,"Ġà¦ıà¦¦":922,"Ġà¦ªà¦¤":923,"à¦¨à¦ľ":924,"à¦®à¦§":925,"à§ĭ,":926,"Ġà¦¨à¦Ń":927,"Ġà§¨à§ª":928,"à¥¤âĢĿ":929,"Ġà¦ħà¦²":930,"âĢĺ":931,"Ġà¦ªà¦¶":932,"Ġà¦°à¦¬":933,"Ġà¦ķà¦ł":934,"Ġà§§à§Ń":935,"à¦¨à¦Ĺ":936,"à¦°à¦ľ":937,"à¦¥à¦ķ":938,"à¦ªà¦£":939,"à¦ľà¦¸":940,"à§©à§¦":941,"Ġà¦¡à¦²":942,"âĢĵ":943,"à¦ĩà¦¡":944,"à§Įà¦ģ":945,"à¦¯à¦ĩ":946,"Ġà¦®à¦ŀ":947,"à¦°à¦®à¦£":948,"Ġà¦ĵà¦Ń":949,"à§§à§¦":950,"Ġà¦ķà¦°à¦ª":951,"à¦¿à¥¤âĢĻ":952,"re":953,"ĊĊĊĊ":954,"à¦¬à¦¹à¦¨":955,"à§ĩ-":956,"à¦·à§Łà¦ķ":957,"à¦¨à§Ł":958,"Ġà¦°à¦ķà¦®":959,"à¦§à¦¤":960,"Ġs":961,"Ġà¦Ńà§Ł":962,"Ġà¦ĭ":963,"à¦²à¦¦":964,"Ġà¦ªà§Ł":965,"Ġà¦ħà¦ŀ":966,"à¦¼,":967,"Ġà¦ļà¦²à¦¤":968,"in":969,"à§ĩà¥¤âĢĿ":970,"à¦Ĺà¦¨":971,"Ġw":972,"Ġ:":973,"Ġà¦®à¦¸":974,"on":975,"à¦ĵà¦²":976,"Ġà¦īà¦ªà¦²à¦ķ":977,"à¦ªà¦¥":978,"à¦Ĩà¦ľ":979,"Ġà¦¨à¦ľà¦°":980,"Ġà¦¯à¦¥":981,"à¦·à¦¯":982,"Ġà¦Ĩà¦Ĺà¦¸":983,"à¦¯à§Ł":984,"à¦¯à¦ķà¦°":985,"à¦¤à¦¦":986,"à¦¼à§ĭ":987,"Ġà§¨à§¨":988,"Ġà¦īà§İà¦ª":989,")-":990,"à¦¬à¦¹":991,"ĊĊĊ":992,"à¦°à¦¸à¦Ļ":993,"à¦·à¦®":994,"Ġà¦īà§İà¦¸à¦¬":995,"à¦Ńà¦°":996,"à¦ĵà¦¸":997,"Ġà¦ªà¦¦à¦ķ":998,"Ġà¦ĭà¦£":999,"à¦ŀà¦ª":1000,"à§ģ,":1001,"âĢĻà¥¤":1002,"à¦°à¦ľà¦¨":1003,"à¦ĵà¦¤":1004,"à¦¨à¦¬à¦¨":1005,"Ġ\"":1006,"à¦¾à¥¤âĢĻ":1007,"Ġà¦ķà¦¨":1008,"Ġà¦ľà¦¨à¦ª":1009,"Ġà¦Ĩà¦§":1010,"Ġà¦¡à¦Łà¦ķà¦®à¦ķ":1011,"à¦Ĺà¦¤à¦ķ":1012,"à¦ªà¦¸":1013,"Ġà§ªà§¦":1014,"à¦°à¦ªà¦°":1015,"Ġà¦¸à¦«à¦°":1016,"à¦ľà¦ķ":1017,"à¦ıà¦¦":1018,"Ġà¦Ĩà¦¸à¦²":1019,"à¦¿/":1020,"à¦ªà¦²":1021,"Ġà¦¦à¦ĸà¦²":1022,"à¦°à¦¦à¦°":1023,"Ġà¦¦à¦«":1024,"Ġà¦ĩà¦¸":1025,"à¦£à¦¤":1026,"à¦ĩà¦¤":1027,"Ġà¦¬à¦¦à¦²":1028,"Ġà¦Ľà§ľ":1029,"Ġà¦¬à¦¡":1030,"Ġà¦ļà¦²à¦ļ":1031,"Ġà¦ļà¦¤":1032,"à¦°à¦¸à¦¨":1033,"à¦¦à¦£":1034,"à¦¸à¦Ł":1035,"à¦¤à¦°à¦£":1036,"Ġà¦ĩà¦īà¦°":1037,"Ġà¦ĩà¦²":1038,"à¦Łà¦¸":1039,"Ġà§¨à§§":1040,"es":1041,"à¦¨à¦¡":1042,"à¦¸à¦¤":1043,"à¦¯à¦ª":1044,"Ġà§¨à§©":1045,"à¦°à¦¸à¦Ń":1046,"à¦ľà¦¤":1047,"à¦īà¦ķ":1048,"à¦¶à¦°":1049,"Ġo":1050,"an":1051,"à¦²à¦°":1052,"at":1053,"Ġà¦Ĩà¦¸à¦¤":1054,"à¦«à¦Ł":1055,"à¦ľà¦¬":1056,"à¦Ĩà¦®à¦°":1057,"Ġà¦¸à¦®à¦¨":1058,"en":1059,"à§Ģ-":1060,"à¦ĸà¦°":1061,"à¦®à¦Ĺ":1062,"Ġà¦Ĳà¦ķ":1063,"Ġà§¨à§¬":1064,"Ġà¦ıà¦Ń":1065,"à¦¾.":1066,"Ġà§¨à§Ń":1067,"à¦¬à¦ĩ":1068,"à¦¦à¦¶":1069,"Ġc":1070,"Ġà¦ħà¦Ļ":1071,"Ġà§¨à§®":1072,"Ġà¦Ĩà¦¹à¦®à¦¦":1073,"Ġà¦¹à§Łà¦¤":1074,"ĠÂł":1075,"Ġà¦²à§ľ":1076,"à¦¨à¦ĵ":1077,"à¦¦à¦®":1078,"à§Łà¦£":1079,"Ġà¦ķà¦¤":1080,"Ġf":1081,"Ġà¦¸à¦¹à¦ľ":1082,"Ġà¦ĸà¦°à¦ļ":1083,"·Ð":1084,"ÑĢÐ·Ð":1085,"Ġà¦®à¦¡":1086,"à¦Łà¦®":1087,"à¦¯à¦¤à¦®":1088,"à¦ľà¦ª":1089,"Ġà¦¦à¦°à¦ķ":1090,"Ġà¦ľà¦¨à¦ķ":1091,"à¦¤à¦Ń":1092,"à§ģà¥¤":1093,"Ġà¦Ĩà¦¸à¦¬":1094,"Ġà¦ĩà¦°":1095,"Ġà¦ľà¦²":1096,"à¦Łà¦²":1097,"Ġà¦¤à¦²":1098,"Ġà¦ļà¦¨":1099,"Ġà¦Ĩà¦¨à¦¨":1100,"à¦¡à¦¨":1101,"Ġà¦Ĺà¦£à¦®":1102,"à¦¯à¦¥":1103,"à¦ķà¦°à¦£":1104,"à¦ıà¦¸à¦¸":1105,"Ġà¦¬à¦ĩ":1106,"à¦²à¦Ń":1107,"à§§à§«":1108,"Ġà¦ıà¦¶":1109,"à§ĩâĢĻ":1110,"à¦ĵà¦¨":1111,"Ġà¦ªà¦°à¦¬à¦°":1112,"Ġà§¦":1113,"à¦¹à¦ľ":1114,"à¦īà¦¡":1115,"à¦¼à§Ģ":1116,"Ġà¦¦à¦²à¦Ł":1117,"à¦¸à§ľà¦ķ":1118,"Ġà¦ĵà¦¬":1119,"Ġà¦·":1120,"Ġb":1121,"Ġà¦īà¦ªà¦¦":1122,"ĊÂł":1123,"Ġà¦Ńà¦¬":1124,"Ġà¦ĩà¦¨à¦¸":1125,"âķ":1126,"ou":1127,"à¦ĩà¦¦":1128,"à§ľà¦¤":1129,"Ġà¦ªà¦°à¦°":1130,"à¦¨à¦ĩ":1131,"à¦²à¦¶":1132,"à¦²à¦Ľ":1133,"à¦īà¦¤":1134,"à¦ľà¦Ł":1135,"Ġà¦°à¦¶":1136,"à¦ıà¦ĩà¦ļ":1137,"à¦Ĺà¦¬":1138,"Ġà¦Ĩà¦ļ":1139,"à¦°à¦®à¦¨":1140,"Ġà¦Ĩà¦°à¦¬":1141,"à¦¨à¦¹":1142,"à§·":1143,"Ġà¦ħà¦ľ":1144,"Ġà¦¶à¦«":1145,"or":1146,"à¦ĸà¦Ľ":1147,"à¦ĩà¦Ń":1148,"Ġà¦ļà¦ķ":1149,"Ġà¦ĩà¦®":1150,"Ġà¦¯à¦¤":1151,"à¦¤à¦¦à¦¨":1152,"à¦ļà¦°":1153,"à¦¶à¦¬":1154,"à¦£à¦¬":1155,"à¦¡à¦²":1156,"à¦¥à¦ļ":1157,"Ġà¦Ĩà¦¶à¦Ļ":1158,"Ġà¦ħà¦¬à¦°":1159,"à¦°à¦¸à¦¹":1160,"Ġà¦¤à¦¤":1161,"Ġà¦®à¦¸à¦ľ":1162,"Ġà§¨à§¯":1163,"Ġà¦ıà¦ľ":1164,"à§«à§¦":1165,"à¦¨à¦Ń":1166,"à¦ªà§ľ":1167,"Ġà¦Ĩà¦ĺ":1168,"Ġà¦¶à¦¬":1169,"à¦Łà¦¸à¦®":1170,"Ġà¦¨à¦¨":1171,"à§§à§¨":1172,"à¦¾)":1173,"à¦²à¦Ļ":1174,"à¦¬à¦ľà¦¨":1175,"à¦īà¦ª":1176,"Ġà¦Ĩà¦®à¦¦":1177,"à¦Ĩà¦Ĺ":1178,"Ġà¦Ĩà¦ĵà¦¤":1179,"Ġà¦ħà¦Ł":1180,"Ġà¦¸à¦°à¦¬à¦°":1181,"à¦§à¦°":1182,"à¦¹à¦ķ":1183,"à¦Łà¦°à¦¸":1184,"Ġà¦ĵà¦¯":1185,"à¦¨à¦ľà¦¨":1186,"Ġ-":1187,"à¦Ĺà¦ķ":1188,"Ġà¦ªà¦ŀ":1189,"Ġp":1190,"à§§à§®":1191,"à¦¯à¦®à¦¨":1192,"Ġà¦¹à¦ĵà¦¯":1193,"Ġm":1194,"à¦ĺà¦¦":1195,"à¦¹à¦°à¦£":1196,"Ġà¦ħà¦¥à¦ļ":1197,"à¦ĵà¦°":1198,"Ġà¦°à¦«":1199,"à§¨à§¨":1200,"à¦ŀà¦¤":1201,"Ġà¦¸à¦¡":1202,"Ġà¦Ĺà¦Ń":1203,"à¦¬à§Ł":1204,"à¦®à¦¹":1205,"Ġà¦ıà¦Ľ":1206,"ed":1207,"om":1208,"Ġà¦¸à¦ŀ":1209,"Ġà¦¸à¦ł":1210,"à¦Łà¦ª":1211,"Ġà¦°à¦¯":1212,"à¦ķà¦Ľ":1213,"it":1214,"à¦·à¦°":1215,"ĠĠĠĠ":1216,"à¦Łà¦¤":1217,"Ġà§§à§¦à§¦":1218,"Ġà§§à§¯à§¯":1219,"à¦ĩà¦ª":1220,"Ġh":1221,"à¦ĸà¦¬":1222,"Ġ'":1223,"Ġà¦¨à¦¯":1224,"Ġà¦¸à¦¤à¦°":1225,"Ġà¦ªà¦°à¦ĵ":1226,"à¦·à¦ľ":1227,"Ġà¦¹à¦¸":1228,"Ġà¦ķà¦®à¦ª":1229,"à§Łà¦£à¦Ĺà¦ŀ":1230,"Ġà¦¬à¦Ĺ":1231,"à¦Ĩà¦¨":1232,"à¦¬à¦§":1233,"Ġà¦ĸà¦¨":1234,"à¦¤à¦«":1235,"ing":1236,"Ġà¦°à¦ª":1237,"à¦Ĺà¦¦":1238,"Ġà¦®à§Ł":1239,"à¦®à¦¨à¦¸":1240,"à¦ļà¦¬":1241,"à§ģà¦ĥ":1242,"à¦¬à¦¤à¦¨":1243,"à¦¨à¦¬à¦¬à¦¨":1244,"à¦¶à¦¤":1245,"Ġà¦ĩà¦īà¦ª":1246,"à¦®à¦ľ":1247,"Ġà¦īà§İà¦¸":1248,"ar":1249,"à¦²à¦²":1250,"à¦īà¦¸":1251,"Ġà¦ĩà¦ŀ":1252,"à¦¥à¦Ĺ":1253,"Ġan":1254,"Ġà§¬à§¦":1255,"Ġà¦¯à¦¨":1256,"à§¨à§«":1257,"à¦¡à¦¬":1258,"à¦¸à¦Ļ":1259,"à§ģ-":1260,"Ġà¦īà¦ªà¦°":1261,"Ġà¦ľà¦¨à¦¸":1262,"Ġà¦Ĺà¦£à¦¤à¦¨":1263,"Ġà¦Ĩà§ľ":1264,"à§§à§§":1265,"à§§à§¬":1266,"Ġà¦ĩà¦ļ":1267,"Ġto":1268,"Ġà¦ªà¦Ľà¦¨":1269,"Ġà¦ıà¦®à¦¨à¦ķ":1270,"à§§à§ª":1271,"Ġà¦ħà¦¨à¦²":1272,"Ġà¦Ĩà¦¯":1273,"à¦ıà¦¬":1274,"à¦ļà¦®":1275,"Ġà¦Ĩà¦¶à¦°":1276,"Ġà¦ıà¦ĩà¦ļ":1277,"Ġà¦ĵà¦°":1278,"ÂłÂłÂłÂłÂłÂłÂłÂł":1279,"à¦ĺà¦¨":1280,"Ġin":1281,"à¦ıà¦¸à¦Ĩà¦ĩ":1282,"à¦¨à¦¸à¦¹":1283,"Ġà¦¦à¦®à¦¨":1284,"à§ĩà¦¾à¦ģ":1285,"à¦ĵà¦ĩ":1286,"ii":1287,"Ġà¦īà§ľ":1288,"à¦·à¦ķà¦¦":1289,"Ġà§©à§§":1290,"Ġà¦ķà¦·":1291,"à¦Ĩà¦²":1292,"Ġà¦ĵà¦°à¦«":1293,"Ġà¦¦à¦ª":1294,"Ġd":1295,"Ġà¦ĺà¦¨":1296,"al":1297,"Ġof":1298,"Ġà¦Ĩà¦Łà¦Ł":1299,"Ġà¦ħà¦®":1300,"Ġà¦§à¦¨":1301,"à§§à§Ń":1302,"Ġà¦ķà¦¯":1303,"à¦Ĺà§ľ":1304,"Ġà¦¹à¦ł":1305,"à¦§à¦ķ":1306,"à¦ħà¦Ń":1307,"à¦¨à¦ª":1308,"Ġà¦ĵà¦·":1309,"à§ĩà¦¾.":1310,"ĠÑĢÐ¶Ð":1311,"Ġà¦ĩà¦ķà¦¬":1312,"Ġà§©à§«":1313,"Ġà¦Ĩà¦ļà¦°à¦£":1314,"à¦¥à¦¬à¦Ľà¦°":1315,"à¦°à¦Ĺà¦¤":1316,"as":1317,"Ġà¦«à¦ĸà¦°":1318,"Ġà¦Ĩà¦²à¦®à¦Ĺ":1319,"à§¨à§§":1320,"à¦¾:":1321,"Ġà§¨à§¦à§§à§ª":1322,"Ġà¦ıà¦ķà¦®":1323,"à¦Ĺà¦ľ":1324,"Ġà¦īà¦ªà¦ªà¦°":1325,"Ġà¦Ĩà¦®à¦²":1326,"à§©à§«":1327,"à¦Ī":1328,"à§§à§©":1329,"à¦¨à¦¯":1330,"Ġà¦Ĩà¦ĩà¦¸":1331,"Ġà¦Ĩà¦ľà¦ķ":1332,"Ġà¦Ĩà¦¨à¦¤":1333,"à¦ķà¦Ĺ":1334,"is":1335,"à¦Łà¦Ł":1336,"à¦Ńà§Ł":1337,"à¦¡à¦¸":1338,"Ġà§§à§¯à§Ń":1339,"à¦Īà¦¦":1340,"Ġà¦¦à¦²à¦ķ":1341,"à¦ķà¦¶à¦¨":1342,"à¦ıà¦Ł":1343,"Ġà¦ķà¦²à¦ķ":1344,"Ġà¦ļà¦²à¦¬":1345,"à¦°à¦Ĺà¦ŀ":1346,"à¦®à¦Ļ":1347,"à¦²à¦ľ":1348,"Ġà¦īà¦ªà¦ķ":1349,"Ġà¦ıà¦ķà¦¦":1350,"...":1351,"Ġà¦¸à¦ķà¦²":1352,"Ġà¦¬à¦¸à¦¬":1353,"Ġà¦Ĳà¦¤":1354,"à¦¥à¦¤":1355,"à¦¯à¦¬à¦§":1356,"Ġà§¨à§¦à§§à§«":1357,"à§ªà§¦":1358,"à¦®à¦¶":1359,"à¦¥à¦®à¦¨":1360,"à¦¸à¦®à§Ł":1361,"à§ĩ!":1362,"Ġà¦¹à¦°à¦¤":1363,"Ġà¦«à¦ľà¦²":1364,"Ġà¦Ĩà¦¶à¦ª":1365,"à¦°à¦§à¦°":1366,"Ġà¦¹à¦ľ":1367,"le":1368,"à¦²à¦«":1369,"Ġà¦¸à¦«à¦²":1370,"à¦ķà¦ļ":1371,"Ġà¦ıà¦ķà¦¬":1372,"à¦Ŀà¦¤":1373,"à¦ĸà¦ķ":1374,"à¦®à¦°à¦£":1375,"Ġà¦ĩà¦®à¦°":1376,"à¦¨à¦ļ":1377,"Ġà¦Ĩà¦ĩà¦¨à¦¶":1378,"à¦ĩà¦Ľ":1379,"Ġà¦ıà¦®à¦ª":1380,"à¦Ĺà¦ªà¦¤":1381,"Ġà¦ªà§ľà¦¤":1382,"à¦ªà¦·":1383,"Ġà¦ħà¦¥à¦¬":1384,"Ġà¦¨à¦°":1385,"Ġà¦Ľà§Łà¦Ł":1386,"à¦¥à¦°":1387,"Ġà¦ıà¦«":1388,"Ġà¦®à§Łà¦¨":1389,"à¦ıà¦¨à¦ĵ":1390,"à¦Łà¦«":1391,"à§ĩâĢĶ":1392,"à¦¾?":1393,"à§Łà¦¤à¦¨":1394,"à§¨à§¦à§¦":1395,"Ġà¦°à¦¸":1396,"à¦¤à¦ª":1397,"Ġà¦¸à¦¹à¦¸à¦Ń":1398,"à¦¦à¦¦":1399,"Ġà§Ńà§¦":1400,"Ġà¦¦à¦¶à¦ķ":1401,"Ġà¦ķà¦¨à¦¸":1402,"Ġà¦ĵà¦ª":1403,"à§¨à§©":1404,"Ġà¦ıà¦°à¦¶":1405,"à¦Łà¦¬":1406,"à¦¶à¦«":1407,"Ġà¦Ĭ":1408,"à¦¹à¦«":1409,"Ġà¦®à¦£":1410,"à¦ħà¦°":1411,"à¦¬à¦Ľà¦°":1412,"Ġà§¨à§¦à§§à§©":1413,"Ġà¦¯à¦¶":1414,"à§ªà§«":1415,"Ġà¦¬à¦²à¦¬":1416,"à§ľà¦Ľ":1417,"Ġà¦°à¦¹":1418,"à¦īà¦¬":1419,"Ġà§®à§¦":1420,"Ġà¦īà¦ľ":1421,"Ġà¦Ĩà¦ķà¦°":1422,"Ġà¦ıà¦°à¦ĩ":1423,"Ġà¦ķà¦£":1424,"Ġà§¨à§¦à§§à§¬":1425,"Ġà¦¨à¦·":1426,"ion":1427,"à¦Ĺà¦Ĺ":1428,"Ġà¦ļà¦°à¦®":1429,"Ġà¦ıà¦¡":1430,"Ġà¦¸à¦¬à¦ķ":1431,"Ġà¦ıà¦ķà¦¸à¦Ļ":1432,"ĠâĢĶ":1433,"Ġà¦Łà¦¨":1434,"Ġà¦°à¦Ļ":1435,"Ġà¦Ĩà¦ĵà¦¯":1436,"Ġà§©à§¨":1437,"à¦¨à¦ľà¦Ł":1438,"à¦ıà¦¸à¦¬":1439,"à¦Ĩà¦ª":1440,"Ġà¦Ĩà¦ŀ":1441,"à¦Ńà¦ķ":1442,"à¥¤âĢľ":1443,"Ġà¦¸à¦«":1444,"Ġà¦ľà¦Ł":1445,"Ġà¦ĩà¦¸à¦°":1446,"à¦¨à¦²":1447,"Ġà¦ªà¦°à¦ªà¦°":1448,"âĢį":1449,"à¦Ļà¦ļ":1450,"à¦Ĩà¦¬":1451,"Ġà¦Ĺà¦ł":1452,"Ġà¦Ĭà¦°":1453,"âĸ":1454,"Ġà¦ıà¦ķà¦ªà¦°":1455,"Ġà¦ħà¦ªà¦¹à¦°à¦£":1456,"à¦°à¦¦à¦²":1457,"à¦ķà¦ª":1458,"âķĽ":1459,"Ġà¦Ĩà¦«à¦Ĺ":1460,"--":1461,"Ġà¦ľà¦¹":1462,"Ġà¦Ĩà¦īà¦Ł":1463,"à¦ıà¦ķà¦Ł":1464,"Ġn":1465,"Ġand":1466,"à¦Ĺà¦ł":1467,"Ġà¦īà¦Ńà§Ł":1468,"Ġà§ªà§«":1469,"à¦īà¦ªà¦ľ":1470,"à¦ıà¦®à¦¨":1471,"à¦·à¦¦à¦°":1472,"à§ģâĢĻ":1473,"Ġà¦²à¦¨":1474,"à¦¸à¦¸":1475,"à¦¡à¦ķ":1476,"ĠT":1477,"âĢĻ-":1478,"à§ĭ-":1479,"à§ĩà¥¤\"":1480,"âĢįà§į":1481,"à¦¬à¦ľ":1482,"Ġà§«à§¦à§¦":1483,"Ġà¦Ĩà¦¹à¦¸":1484,"Ġl":1485,"à¦®à¦ĺ":1486,"à¦®à¦£":1487,"Ġà¦ªà¦¦à¦¤":1488,"Ġà¦ĩà¦Ł":1489,"à¦ľà¦Ĺ":1490,"Ġà¦ķà¦¤à¦Ł":1491,"à§ĩà¦¾à¥¤":1492,"Ġà¦¨à§Łà¦Ł":1493,"Ġà¦ħà¦¶":1494,"à¦²à¦ĵà§Ł":1495,"Ġà¦ıà§Ł":1496,"Ġà¦īà¦łà¦¤":1497,"Ġà¦ħà¦¬à¦¦":1498,"il":1499,"à¦Ĩà¦¦":1500,"Ġà¦ľà¦ľ":1501,"âĢĻ,":1502,"à¦ªà¦®":1503,"à¦£à¦®":1504,"Ġà¦Ĺà¦¡":1505,"à¦¡à¦Ń":1506,"à¦¬à¦Ł":1507,"à¦°à¦¥à¦®à¦¬":1508,"Ġà¦¨à¦ľ":1509,"à§İà¦ª":1510,"Ġà¦¹à¦°":1511,"à¦ıà¦¸à¦ª":1512,"Ġà§©à§¬":1513,"Ġà¦ĩà¦¬":1514,"Ġà¦®à§Łà¦®à¦¨à¦¸":1515,"à§¨à§ª":1516,"à¦ħà¦§":1517,"à¦¬à¦£":1518,"Ġà¦ªà¦°à¦ĩ":1519,"à¦¿?":1520,"à¦ĸà¦ª":1521,"à§įâĢĮ":1522,"Ġà¦Ĩà¦¬à¦¹":1523,"Ġà§¯à§¦":1524,"Ġà¦Ĩà¦ĸ":1525,"Ġà¦ıà¦¸à¦Ĩà¦ĩ":1526,"Ġà¦Ĺà¦°à¦®":1527,"à¦ªà¦ļ":1528,"à¦ļà¦¤":1529,"Ġà¦ıà¦ĸà¦¨à¦ĵ":1530,"Ġà¦ªà§ľà¦²":1531,"à¦¨à§Łà¦¨à¦ªà¦¤":1532,"Ġà¦Ĩà¦®à¦¨":1533,"à¦¬à¦°à¦£":1534,"à§Łà¦¬":1535,"Ġà¦Ĩà¦¦à¦°":1536,"Ġà§¨à§¦à§§à§¨":1537,"Ġg":1538,"à§ĩà§Ĺà¦ģ":1539,"Ġis":1540,"Ġà¦Ĩà¦¤à¦Ļ":1541,"à¦Ĺà¦Ľ":1542,"Ġà¦¬à§Ł":1543,"Ġà¦ªà¦Ł":1544,"Ġà§©à§©":1545,"à¦°à¦°à¦«":1546,"à¦¬à¦Ĺà¦ŀ":1547,"Ġà¦ĩà¦ľ":1548,"Ġà¦ĩà¦«à¦¤":1549,"à¦¾!":1550,"Ġà¦¬à¦ľ":1551,"à¦ĩà¦¯":1552,"ic":1553,"à¦®à¦Ł":1554,"Ġà¦ıà¦ıà¦«":1555,"à¦°à¦ªà¦ķ":1556,"Ġà¦Ĩà¦¸à¦°":1557,"à¦¯à¦ĵ":1558,"à¦¸à¦®à¦°":1559,"Ġà¦¦à¦²à¦Ĺ":1560,"à¦¿à¥¤âĢĿ":1561,"à¦«à¦¨":1562,"à¦ľà¦Ĺà¦ŀ":1563,"Ġà¥¤":1564,"Ġà¦®à¦¹à¦²":1565,"à¦°à¦¬à¦°":1566,"à¦ļà¦ľà¦¨":1567,"ent":1568,"à¦¬à¦¦à¦²":1569,"Ġà¦Ĺà¦£à¦¤":1570,"à¦£à¦ķ":1571,"Ġà¦²à¦Ļ":1572,"à¥¤\"":1573,"Ġà¦ıà¦ķà¦ķ":1574,"Ġà¦ıà¦ķà¦°":1575,"Ġà¦ħà¦¬à¦ķ":1576,"iv":1577,"Ġà§§à§¯à§®":1578,"Ġà§§à§§à§":1579,"à¦¬à¦®":1580,"à¦ıà¦Ľ":1581,"Ġà¦ªà§ľà¦Ľ":1582,"à§ľà¦¬":1583,"Ġà¦Ĺà¦¨":1584,"à¦¬à¦Ĺ":1585,"à¦¿à¦ĥ":1586,"Ġà¦ĵà¦¸à¦®":1587,"à¦¤à¦ľ":1588,"Ġà¦®à¦¶":1589,"à¦®à§ľ":1590,"à§¨à§®":1591,"Ġà§©à§Ń":1592,"Ġà§©à§ª":1593,"à¦¶à¦ª":1594,"à¦ĩà¦Ĺ":1595,"Ġà¦īà¦ªà¦¹":1596,"Ġà¦®à¦®à¦¤":1597,"Ġà¦¦à¦°à¦ľ":1598,"à¦§à¦Ń":1599,"à¦®à¦Ĺà¦ŀ":1600,"à¦ıà¦¤":1601,"Ġà§¨à§¦à§§à§§":1602,"à¦ıà¦°à¦ªà¦°":1603,"Ġà¦ļà¦²à¦®":1604,"Ġà¦Ĩà¦¡":1605,"Ġà¦¶à¦°à¦£":1606,"à¦ľà¦Ń":1607,"Ġà§ªà§®":1608,"Ġà§©à§®":1609,"à¦¾à¥¤âĢĿ":1610,"à¦¿.":1611,"Ġà¦«à¦°à¦®":1612,"Ġà¦ıà§ľ":1613,"ot":1614,"Ġà§¨à§¦à§§à§Ń":1615,"Ġà¦¸à¦®à¦Ŀ":1616,"Ġà¦ħà¦¬à¦¹":1617,"Ġà¦§à¦°à¦¤":1618,"à¦Ĩà¦ĩà¦¨":1619,"âĸĳ":1620,"Ġà¦ªà¦°à¦¦":1621,"à¦¶à¦¸":1622,"Ġà¦¦à¦®":1623,"Ġà¦ķà¦¬à¦°":1624,"à¦Ĩà¦ĵà§Ł":1625,"Ġà¦ķà¦ª":1626,"à¦ĸà¦¬à¦°":1627,"Ġà¦«à¦¸à¦²":1628,"à§İà¦ªà¦°à¦¤":1629,"Ġà¦ĵà¦ľà¦¨":1630,"à§Ģ?":1631,"ĠI":1632,"ÑĢÐ·ÐĹ":1633,"Ġà¦ªà§ľà¦¬":1634,"Ġà§©à§¦à§¦":1635,"à¦¦à§Ł":1636,"à¦®à¦°à¦¤":1637,"à¦®à¦¹à¦¤":1638,"Ġà¦Ńà¦ķ":1639,"à¦¨à¦¶":1640,"Ġà§¨à§¦à§§à§¦":1641,"Ġà¦ĩà¦īà¦¸":1642,"à¦ħà¦¸":1643,"Ġà¦¹à§Łà¦°":1644,"à¦¼à§ĩà¥¤":1645,"Ġà¦ľà¦¡":1646,"Ġà¦ľà¦¨à¦¤":1647,"à¦Ĩà¦ªà¦¨":1648,"Ġà¦Ī":1649,"à¦¯à¦Ł":1650,"Ġà¦ķà¦®à¦²":1651,"à¦īà¦®":1652,"à¦¥à¦ķà¦¦":1653,"à¦ıà¦ĸà¦¨":1654,"Ġà¦Ŀà§ľ":1655,"Ġà¦¦à¦£":1656,"Ġà¦Ĩà¦Ļ":1657,"Ġà¦¨à¦ķà¦¶":1658,"Ġà¦ĩà¦Ń":1659,"à¦Łà¦¦":1660,"à¦Ľà§ľ":1661,"à§ĩ)":1662,"à¦Ĩà¦¸":1663,"Ġà¦²à¦ŀ":1664,"à¦®à¦¬à¦Ļ":1665,"Ġà¦®à¦¤à¦¬":1666,"à¦¿à¦ģ":1667,"à§Ĥà¦ģ":1668,"à¦ĵà¦¦":1669,"Ġà¦²à¦¤":1670,"à¦¾âĢĶ":1671,"ĠS":1672,"Ġà¦ķà¦Ł":1673,"à¦¶à¦ĩ":1674,"Ġà¦¸à¦¨à¦¦":1675,"Ġà¦¤à¦¹à¦¬":1676,"à¦¸à¦²à¦®":1677,"à¦«à¦¸":1678,"à¦¸à¦¡":1679,"à¦ıà¦®à¦ª":1680,"à§ľà¦¯à¦¨":1681,"Ġà¦ĵà¦¦":1682,"Ġà¦¶à¦Ł":1683,"Ġà¦ıà¦ıà¦«à¦ª":1684,"Ġà¦¸à¦¦":1685,"à¦īà¦ĩà§Ł":1686,"à§Łà¦Ń":1687,"à¦°à¦¡":1688,"à¦¦à¦°à¦¬à¦¨":1689,"Ġà¦¶à¦Ļ":1690,"Ġà¦īà¦ªà¦¯":1691,"oo":1692,"ad":1693,"à¦¿)à¥¤":1694,"à¦¦à¦¬":1695,"à¦īà¦ĩà§Łà¦°":1696,"et":1697,"à¦²à¦¨à¦ķ":1698,"à¦Ĩà¦ĩà¦¡":1699,"ow":1700,"à¦¿:":1701,"à¦ªà¦¶":1702,"à¦®à¦£à¦¬":1703,"à¦¸à¦«":1704,"à¦°à¦ķà¦®":1705,"à¦īà§Ł":1706,"à¦Ĺà¦Ł":1707,"à§ĢâĢĻ":1708,"Ġà¦¤à§İà¦ªà¦°à¦¤":1709,"Ġà¦Ĩà¦ĩà¦ıà¦¸":1710,"à¦ıà¦¨à¦ľ":1711,"à¦²à¦¸à¦¹":1712,"à¦£à¦¨":1713,"Ġà§ªà§¨":1714,"Ġà¦Ľà¦¯":1715,"ïģ":1716,"Ġà¦®à§İà¦¸":1717,"ĠA":1718,"à¦ķà¦ĩ":1719,"Ġà¦·à§ľà¦¯à¦¨":1720,"à¦°à¦«à¦°à¦®":1721,"à¦¡à¦®":1722,"Ġà¦§à¦¸":1723,"à¦¤à¦ĩ":1724,"à§Łà¦ĩ":1725,"Ġà¦¸à¦¬à¦ľ":1726,"Ġà¦¦à¦¶":1727,"Ġà¦Ľà¦ķ":1728,"Ġà¦ľà¦¯":1729,"Ġà§©à§¯":1730,"Ġà¦ıà¦®à¦¨à¦Ł":1731,"ĠThe":1732,"à¦¸à¦°à¦£":1733,"à¦¨à¦¬à¦¤":1734,"à¦°à¦£à¦¤":1735,"Ġà§«à§«":1736,"Ġà¦ľà¦¸":1737,"à¦¤à¦¶":1738,"Ġà¦ķà¦®à¦ªà¦ķ":1739,"Ġii":1740,"Ġà¦ĵà¦®à¦°":1741,"Ġth":1742,"à¦Ĩà¦ĩà¦¸":1743,"Ġà¦īà¦łà¦²":1744,"Ġà§¨à§¦à§¦à§¯":1745,"ÂłĊĊĊĊ":1746,"Ġà¦ľà§Łà¦¨":1747,"à§Ŀ":1748,"à§ĩ;":1749,"à¦®à¦¯":1750,"Ġà¦¸à¦®à¦¬":1751,"à¦°à¦ķà¦°":1752,"à¦ħà¦¬":1753,"Ġà¦¬à¦¸à¦¤":1754,"à¦ĩà¦¨à¦¬":1755,"à¦Ļà¦¨":1756,"à¦Ĩà¦°à¦¸":1757,"Ġà§¨à§¦à§¦à§®":1758,"Ġà¦īà¦ªà¦¨":1759,"à§©à§¨":1760,"à¦²à¦ĵ":1761,"Ġà§¨à§¦à§§à§®":1762,"ĠĠĠĠĠĠĠĠ":1763,"Ġà¦ªà¦°à¦ªà¦°à¦ĩ":1764,"à¦¤à¦¨à¦¤":1765,"Ġà¦°à¦®à¦ľ":1766,"à¦ıà¦¸à¦ĩ":1767,"à¦ĩà¦īà¦ıà¦¨à¦ĵ":1768,"Ġà¦²à¦¬à¦£":1769,"Ġà§Ńà§«":1770,"à¦ķà¦¯":1771,"Ġe":1772,"Ġà¦¨à¦ĵ":1773,"à¦¶à¦ķà¦¤":1774,"Ġà¦Ĩà¦ªà¦¤":1775,"à¦ıà¦®à¦ĩ":1776,"à¦¬à¦ļ":1777,"Ġà¦¤à§İà¦ķ":1778,"à§¨à§¬":1779,"Ġà¦ıà¦ķà¦¦à¦²":1780,"à¦Ĺà¦¸":1781,"Ġà¦ħà¦ªà¦¸":1782,"Ġà¦ħà¦¦":1783,"à¦Łà¦ĵà§Ł":1784,"à¦°à¦¬à¦¨":1785,"à¦ľà¦¦":1786,"à¦īà¦ļ":1787,"à§ľà¦¨":1788,"à¦¹à§Ł":1789,"à¦£à¦¦":1790,"à¦ĩà¦īà¦ª":1791,"Ġà¦ħà¦¸à¦®":1792,"à¦ķà§Ł":1793,"Ġà¦¶à¦ªà¦¥":1794,"Ġhe":1795,"ac":1796,"Ġà¦®à¦°à¦¦":1797,"Ġà¦ħà¦¸à¦¹":1798,"Ġà¦¸à¦ľ":1799,"à¦¬à¦Ļ":1800,"à¦®à¦Ľ":1801,"à¦²à¦®à¦¨":1802,"Ġà¦¨à¦¥":1803,"à¦ĩà¦®à¦¸":1804,"Ġà¦Ĩà¦ĸà¦¤":1805,"à¦°à¦ĵà§Ł":1806,"à¦¯à¦¶":1807,"à§¬à§¦":1808,"à¦£à¦«":1809,"Ġà§ªà§ª":1810,"à¦ķà¦ľà¦¨à¦ķ":1811,"Ġà¦ħà¦¬à¦¸à¦°":1812,"Ġà§ªà§©":1813,"à¦²à¦Ĺà¦ŀ":1814,"à§Łà¦ĵ":1815,"ay":1816,"à¦¼à¦¾,":1817,"à¦¯à¦Ĺ":1818,"Ġà¦ªà¦¬":1819,"à¦°à¦ªà¦°à¦ĵ":1820,"Ġà¦Ĺà¦Ńà¦°":1821,"à¦¨à¦ľà¦¨à¦ķ":1822,"Ġà¦Ĩà¦¨à¦¸":1823,"Ġà¦¬à¦Ł":1824,"us":1825,"Ġà§ªà§Ń":1826,"Ġà¦ıà¦ķà¦¸à¦®à§Ł":1827,"Ġà¦ĸà¦¤":1828,"Ġà¦Ĩà¦ĩà¦ª":1829,"à¦®à¦ĺà¦Ł":1830,"à¦ļà¦¨à¦ķ":1831,"am":1832,"Ġà¦²à¦®":1833,"à¦¼à§ģ":1834,"à¦Ĩà¦°à¦ĵ":1835,"à§«à§«":1836,"à¦īà¦ĩ":1837,"à§ĩà¥¤âĢľ":1838,"à¦°à¦¹à¦£à¦¯":1839,"à¦²à¦ĺ":1840,"à¦¯à¦Łà¦¨":1841,"Ġà§ªà§¯":1842,"à¦ªà¦ķà¦²":1843,"à¦Ńà¦¬à¦¨":1844,"Ġà¦¬à¦°à¦ĸ":1845,"el":1846,"ÑĢÐ·ÐĿ":1847,"Ġiii":1848,"à§¨à§Ń":1849,"Ġà¦®à¦²":1850,"à¦Ĺà¦łà¦¨à¦Ł":1851,"à¦Ĺà¦ª":1852,"à¦¯à¦°à¦¤":1853,"Ġà§«à§Ń":1854,"Ġà¦¬à¦¯":1855,"à¦¹à¦¬à¦§":1856,"à¦Ĺà¦ĩ":1857,"Ġà§¬à§«":1858,"à§ĩà¦¾,":1859,"à¦īà¦¶à¦¨":1860,"Ġà¦ĩà¦ķ":1861,"ut":1862,"à¦¦à¦Ĺ":1863,"Ġà§ªà§¬":1864,"Ġà¦°à§Łà¦Ł":1865,"Ġà¦ĩà¦Ļ":1866,"ĠH":1867,"à¦¯à¦Ń":1868,"à¦¿!":1869,"Ġà¦¸à¦®à§Łà¦ĩ":1870,"à§ľà¦¦":1871,"Ġà¦«à¦ķ":1872,"ec":1873,"à¦¶à¦ĵ":1874,"à¦°à¦ļà¦°":1875,"Ġà¦¬à¦ĩà§Ł":1876,"à¦¾âĢĵ":1877,"à¦ĵà¦Ń":1878,"Ġà¦¦à¦¤":1879,"à¦Ĩà¦īà¦Ł":1880,"Ġà¦īà¦ĩà¦²":1881,"ÂłĊĊĊ":1882,"à¦²à¦ĸ":1883,"Ġà¦Ĩà¦ķà¦¬à¦°":1884,"à¦®à¦ĵ":1885,"à¦¬à¦Ń":1886,"à¦°à¦£à§Łà¦¨":1887,"à¦¯à§İ":1888,"à¦²à¦ĩ":1889,"à§ĭ:":1890,"Ġà¦ħà¦¨à¦¨":1891,"ur":1892,"im":1893,"ĠW":1894,"Ġà¦¬à¦¦à¦°":1895,"Ġà¦ħà¦¬à¦¨":1896,"à¦Ľà¦¬":1897,"à¦Īà¦¨":1898,"à¦ıà¦¸à¦ıà¦«":1899,"à¦¯à¦ľ":1900,"à¦¥à¦Ń":1901,"Ġy":1902,"Ġà§«à§ª":1903,"à¦Ńà¦¬à¦¤":1904,"Ġà¦¦à¦°à¦ªà¦¤":1905,"Ġà¦īà¦°":1906,"Ġà¦¤à¦ĸà¦¨à¦ĩ":1907,"Ġà¦ªà¦°à¦®":1908,"id":1909,"Ġà§ªà§§":1910,"à¦ĸà¦¯":1911,"Ġre":1912,"Ġà¦¬à¦¦":1913,"ĠÂłĠÂł":1914,"Ġà¦ıà¦¸à¦®à§Ł":1915,"à¦£à¦Ń":1916,"à¦ķà§ľ":1917,"Ġà¦ļà§ľ":1918,"Ġà¦īà¦łà¦Ľ":1919,"ÂłÂłÂł":1920,"âĶ":1921,"à¦¸à¦ĵ":1922,"Ġà¦°à¦¨":1923,"à¦Ĩà¦°à¦Ł":1924,"à¦¦à¦¨à¦ķ":1925,"à¦ĩà¦ķà¦®":1926,"Ġà¦«à¦Łà¦ķ":1927,"Ġà¦ħà¦·":1928,"à¦¶à¦ķà¦¦":1929,"à¦ĩà¦¶":1930,"à¦¤à¦ľà¦¨":1931,"Ġà¦¸à¦ĩ":1932,"à§ĩ/":1933,"ir":1934,"à¦Ĺà¦ľà¦ªà¦¤":1935,"Ġà¦Ĩà¦ľà¦®":1936,"Ġà¦¨à¦Ĺà¦¦":1937,"à¦²à¦ļ":1938,"à¦¨à¦Ľ":1939,"à¦¿à¦Ĥ,":1940,"à¦ħà¦ª":1941,"ĠB":1942,"âĶĲ":1943,"à¦Ĺà¦ĵ":1944,"à¦¶à¦¨à¦ķ":1945,"Ġà¦ķà¦²à¦®":1946,"à¦¦à¦Ł":1947,"à¦ĩà¦¦à¦¹":1948,"Ġà¦ıà¦ķà¦ľà¦¨à¦ķ":1949,"à¦¬à§ľ":1950,"Ġà¦¬à¦¹à¦¨":1951,"à¦¯à¦Łà¦ķ":1952,"à¦¯à¦¬à¦¦":1953,"à¦¸à§ľ":1954,"à¦ªà¦¡":1955,"Ġà§«à§¬":1956,"Ġà¦·à¦·":1957,"ol":1958,"Ġà¦°à¦ĵà¦¨":1959,"à¦¹à¦Ń":1960,"Ġà§ªà§¦à§¦":1961,"Ġà¦¶à¦¤à¦ķ":1962,"Ġà§¬à§ª":1963,"à¦¡à¦Ł":1964,"à¦¬à¦Ľ":1965,"à¦¨à¦¶à¦¨":1966,"à¦°à¦¨à¦Ĺà¦°":1967,"à§ľà¦²":1968,"à¦²à¦°à¦ķ":1969,"Ġà¦ĩà¦īà¦ıà¦¨à¦ĵ":1970,"à¦ľà¦īà¦¦":1971,"?âĢĻ":1972,"Ġà¦¬à¦ŀ":1973,"à¦ļà¦¯":1974,"à¦·à¦¸":1975,"Ġà¦¸à¦°à¦¦":1976,"Ġà¦¸à¦«à¦Ł":1977,"Ġà¦ĸà¦²":1978,"ak":1979,"Ġà¦°à¦¹à¦¸":1980,"Ġà¦ľà¦²à¦¬":1981,"ver":1982,"Ġà¦¤à¦«à¦¸":1983,"à¦ľà¦¨à¦¶":1984,"à¦Īà¦®":1985,"Ġà¦ľà¦¨à¦Ĺ":1986,"à¦¨à¦ªà¦¤":1987,"à¦¯à¦«":1988,"à¦·à¦ķà¦°":1989,"à¦°à¦¬à¦£à¦¤":1990,"à¦²à¦¹":1991,"à¦Łà¦Ľ":1992,"à¦ªà¦Ĺ":1993,"à¦²à¦¥":1994,"à¦¾;":1995,"à¦°à§Łà¦Ł":1996,"Ġà¦īà¦ªà¦Ń":1997,"com":1998,"à¦ıà¦ķà¦ĩ":1999,"Ġà¦¸à¦¶à¦¸":2000,"à¦¤à¦°à¦ķ":2001,"ul":2002,"à¦ĩà¦¨à¦¸":2003,"Ġà¦ıà¦¸à¦ıà¦¸à¦¸":2004,"Ġà§«à§¨":2005,"ïģ¬":2006,"à¦°à¦ļà¦£":2007,"Ġà¦ıà¦ľà¦¨":2008,"à¦¦à¦ªà¦¤":2009,"à¦ľà¦¨à¦ĩ":2010,"Ġà¦īà¦ĩ":2011,"à¦¨à¦¤à¦®":2012,"Ġà¦Ĺà¦£à¦¸":2013,"Ġà¦ªà¦°à¦¶":2014,"Ġà¦Ńà¦Ļ":2015,"Ġà§«à§®":2016,"à¦°à¦¬à¦²":2017,"Ġà¦®à¦¨à¦¸":2018,"Ġà¦ıà¦ĸà¦¨à¦ĩ":2019,"Ġà¦ĩà¦¸à¦®":2020,"est":2021,"Ġà¦¶à¦ĵ":2022,"à¦¤à¦Ĺ":2023,"čč":2024,"à¦¦à¦«":2025,"Ġà¦ļà¦®à¦ķ":2026,"à¦¶à§Ł":2027,"Ġà¦Ľà¦¡":2028,"Ġà¦ľà¦¨à¦¸à¦Ń":2029,"Ġà¦«à¦Ł":2030,"Ġà¦ĺà¦Łà¦Ľ":2031,"ro":2032,"à¦°à¦¥":2033,"à¦¬à¦¯":2034,"Ġà¦¨à¦¬à¦®":2035,"Ġà¦®à¦¨à¦ľ":2036,"Ġà¦ªà§Łà¦¸":2037,"à¦Ĺà¦¡":2038,"à¦¤à¦¬à¦¤":2039,"Ġà§¨à§¦à§¦à§Ń":2040,"à¦ħà¦¬à¦¶":2041,"à§Łà¦¨à¦¸":2042,"Ġà¦¹à¦¨à¦¨":2043,"Ġà¦Ĺà¦£à¦ª":2044,"à¦ĩà¦ĵà§Ł":2045,"Ġà¦Īà¦¶":2046,"à¦·à§Łà¦Ĺ":2047,"à§©à§®":2048,"à¦¬à§Łà¦ķ":2049,"à¦¦à¦¤":2050,"Ġà¦ıà¦¤à¦Ł":2051,"à¦ļà§Łà¦¤":2052,"ww":2053,"à¦¿à¦Ĥà¥¤":2054,"Ġà¦ħà¦¬à¦¨à¦¤":2055,"à¦¹à¦¤à¦¦":2056,"Ġà¦Łà¦®":2057,"à¦¸à¦Ńà¦¬à¦¨":2058,"Ġà¦Ĩà¦ĩà¦¨à¦Ĺà¦¤":2059,"à¦¡à¦«":2060,"à¦ķà¦¥":2061,"Ġà¦¶à¦ĵà¦ķà¦¤":2062,"Ġà¦Ĩà¦ĩà¦¡":2063,"Ġà¦ªà¦¨":2064,"Ġà¦®à¦¦":2065,"Ġà§¨à§¦à§§à§¯":2066,"à¦¡à¦ª":2067,"Ġà¦¨à§ľ":2068,"à¦®à¦®":2069,"Ġà¦¯à¦¤à¦Ł":2070,"Ġà¦īà¦łà¦¬":2071,"Ġà¦ķà§ľ":2072,"à¦ķà¦¸à¦¹":2073,"Ġyou":2074,"à¦¡à¦°":2075,"Ġà§§à§«à§¦":2076,"à¦®à¦ŀ":2077,"à§Łà¦²":2078,"her":2079,"Ġà¦ķà¦ķà¦Ł":2080,"Ġà¦¤à¦¦":2081,"à¦ħà¦¤":2082,"à¦®à¦¦à¦ª":2083,"à¦¶à¦ĸ":2084,"à¦ľà¦¯":2085,"à¦Ŀà§ľ":2086,"Ġà¦«à¦¤":2087,"à¦ıà¦®à¦¬":2088,"Ġà¦¨à¦ľà¦°à¦¦":2089,"Ġà¦ļà¦®":2090,"à¦®à¦¸à¦¹":2091,"à¦Ĩà¦ĩà¦ª":2092,"à¦ķà¦ľ":2093,"à§ĩ.":2094,"à¦ľà¦Ľ":2095,"à¦ĸà¦®":2096,"à¦Ĩà¦ĩà¦ľ":2097,"Ġà¦²à¦ľ":2098,"à¦¦à¦īà¦²":2099,"Ġà¦«à¦°à¦¹":2100,"à¦ķà¦Ĩà¦ª":2101,"st":2102,"Ġà¦ľà¦¨à¦Ĺà¦£à¦ķ":2103,"Ġà¦¨à¦Ĺ":2104,"un":2105,"Ġfor":2106,"à¦·à¦Ń":2107,"à¦¶à¦¦":2108,"ĠM":2109,"ÑĢÐ·ÐĿÑĢÐ¶Ð":2110,"Ġà¦ĸà¦¨à¦¨":2111,"à¦Łà¦ķà¦Ł":2112,"Ġà§«à§¯":2113,"Ġà¦Ľà§Łà¦ľà¦¨":2114,"Ġà§Ńà§¨":2115,"Ġà¦Ńà¦Ł":2116,"ĊÂłĊÂł":2117,"Ġà¦īà¦ĩà¦¨":2118,"Ġà¦«à§Ł":2119,"Ġà¦Ĩà¦¬à¦°":2120,"Ġà§«à§©":2121,"Ġà§«à§§":2122,"Ġà¦īà¦¡":2123,".)":2124,"Ġst":2125,"ly":2126,"à¦¹à¦ķà¦°":2127,"à¦ļà§Łà¦ªà¦¤":2128,"à¦ĩà¦ļ":2129,"Ġà§§à§¯à§¬":2130,"Ġà¦Ĩà¦«à¦°":2131,"à¦¦à¦¨à¦Ł":2132,"à¦°à¦Ĩà¦¨":2133,"à¦ļà¦²à¦¤":2134,"Ġà¦Ĺà¦£à¦¹à¦¤":2135,"Ġà¦Ĺà¦ľ":2136,"Ġà§¬à§Ń":2137,"Ġà¦ķà¦°à¦£":2138,"à¦¬à¦¬à¦°":2139,"à¦¬à¦¸à¦®":2140,"à¦ķà¦Ĺà¦ŀ":2141,"à¦Ĩà¦ĩà§Ł":2142,"Ġà¦°à¦ļà¦¨":2143,"à¦īà¦¥":2144,"à¦¬à¦¦à¦¨":2145,"Ġà¦¨à¦°à¦¸":2146,"à¦¦à¦«à¦¤à¦°":2147,"à¦¸à¦¦à¦°":2148,"Ġà¦ħà¦¬à¦²à¦®":2149,"à¦¤à¦ķà¦°à¦£":2150,"à¦ĩà¦¹":2151,"Ġà¦ķà§Łà¦²":2152,"à¦¸à¦¹à¦ķ":2153,"à§Łà¦¹":2154,"Ġà¦ķà¦¨à¦«":2155,"Ġà¦¸à¦®à§Łà¦Ł":2156,"Ġà¦¯à¦®":2157,"à¥¤âĢĺ":2158,"Ġà¦Ĩà¦ľà¦¹":2159,"ation":2160,"Ġà¦Łà¦Ļ":2161,"à¦īà§ľ":2162,"à§ĭâĢĻ":2163,"Ġà¦ķà¦¨à¦Ł":2164,"à¦£à¦ª":2165,"à¦¸à¦Ĺ":2166,"à¦®à¦¸à¦®à¦°":2167,"à¦ıà¦®à¦Ĩà¦ĩ":2168,"à¦¦à¦°à¦¬":2169,"à¦ħà¦ªà¦°":2170,"Ġà¦ıà¦ķà¦¥":2171,"à¦¨à¦¸à¦®":2172,"à§Ģ)":2173,"à¦ķà¦ĵ":2174,"Ġà¦Ŀà¦°":2175,"Ġare":2176,"Ġà¦ĺà¦Łà¦²":2177,"à¦ĵà¦¬":2178,"ĠC":2179,"Ġà¦ħà¦ļ":2180,"à§¨à§¯":2181,"à¦·à¦ķà¦ķ":2182,"à¦¬à¦ľà¦¨à¦¦":2183,"à¦°à¦¹à¦£à¦ķ":2184,"Ġà§¯à§¯":2185,"Ġà¦ĸà¦¸à§ľ":2186,"Ġà§¬à§®":2187,"Ġà§¬à§¬":2188,"à§§à§¯à§¯":2189,"ÂłĊ":2190,"à¦·à¦ª":2191,"à¦ļà§Łà¦ĩ":2192,"Ġà¦ªà¦¥à¦ļ":2193,"à¦°à¦¸à¦°":2194,"à¦ªà¦¬":2195,"à¦·à¦Ł":2196,"à¦¤à¦¸":2197,"à¦Ľà¦¤":2198,"à¦Ĩà¦ĩà¦¬":2199,"ge":2200,"Ġà¦Ĺà¦®":2201,"à¦Ĩà¦¶":2202,"âĢĭ":2203,"Ġà¦ħà¦¯":2204,"à¦ĩà¦²à¦Ł":2205,"Ġon":2206,"ve":2207,"à¦¬à¦ªà¦¨":2208,"à¦¯à¦¯":2209,"Ġà¦®à§Łà¦²":2210,"à¦¬à¦²à¦¤":2211,"Ġà§®à§«":2212,"à¦¬à¦ķà¦ķ":2213,"ter":2214,"Ġà¦Ĩà¦ĩà§Ł":2215,"Ġbe":2216,"Ġà§¨à§«à§¦":2217,"Ġà§¨à§¦à§¦à§¬":2218,"Ġà¦Ńà¦¬à¦¨à¦Ł":2219,"Ġà¦ĵà¦ķ":2220,"Ġà¦īà¦¦à¦¯":2221,"à¦«à¦ķ":2222,"à¦§à¦°à¦¨":2223,"à¦°à¦ļà¦²":2224,"Ġà¦ħà¦²à¦°":2225,"Ġwas":2226,"Ġà¦®à¦Īà¦¨":2227,"Ġà¦¸à¦®à¦¤":2228,"à¦°à¦¤à¦²":2229,"à¦§à¦ķà¦¤":2230,"ÑĢÐ¶Ð¸":2231,"Ġà¦ľà¦ĸà¦®":2232,"à¦ıà¦¨à¦¸":2233,"à¦¤à¦¥":2234,"à¦¬à¦¨à¦¯":2235,"Ġà¦¸à§ľ":2236,"à¦ŀà¦°":2237,"à¦ıà¦¸à¦ĩà¦¤":2238,"à¦ıà¦®à¦ıà¦¸":2239,"ith":2240,"Ġà§Ńà§§":2241,"Ġà§§à§¯à§Ńà§§":2242,"à¦Łà¦ĵ":2243,"à¦¬à¦ĵ":2244,"à¦ķà¦¸à¦Ń":2245,"Ġà¦¨à¦ĵà¦Ĺ":2246,"à¦Ĺà¦¤à¦Ń":2247,"Ġà¦ķà¦¦":2248,"Ġà¦°à¦ĵ":2249,"à¦ķà¦®à¦¤":2250,"ns":2251,"à¦¿âĢĶ":2252,"Ġà¦Łà¦¹à¦²":2253,"ld":2254,"Ġ1":2255,"Ġà§Ńà§®":2256,"à¦Ńà¦¨":2257,"Ġà¦¸à¦°à¦ŀ":2258,"Ġà¦ħà¦¡":2259,"Ġà¦¶à¦¯":2260,"Ġà¦¸à¦¹à¦ķà¦°":2261,"à¦¸à¦¨à¦ķ":2262,"à¦ĩà¦Łà¦¸":2263,"Ġà¦ħà¦¬à¦®":2264,"Ġà¦ķà¦®à¦¬":2265,"Ġà¦ķà¦ļ":2266,"à§¦à§«":2267,"Ġà§Ńà§Ń":2268,"à¦°à¦ľà¦¨à¦ķ":2269,"Ġà¦®à§Łà¦¦":2270,"op":2271,"Ġà¦¸à¦«à¦Łà¦ĵà§Ł":2272,"à§İà¦ªà¦°":2273,"à¦ıà¦®à¦¸":2274,"à¦¯à¦®à¦¤":2275,"Ġà§¬à§©":2276,"ÂłÂłÂłÂłÂłÂłÂłÂłÂłÂłÂłÂłÂłÂłÂłÂł":2277,"Ġà¦ıà¦ķà¦ĩà¦Ń":2278,"wer":2279,"à¦¹à¦ķà¦¦":2280,"Ġà¦¬à¦°à¦Ĺ":2281,"Ġà§¬à§¦à§¦":2282,"à¦¼à¦¾à¥¤":2283,"Ġà¦ķà¦«":2284,"à¦¤à¦ĵ":2285,"à¦²à¦ªà¦®":2286,"à¦ļà§ľ":2287,"à¦¾âĢĻà¥¤":2288,"à¦ľà¦ĵ":2289,"Ġà¦Ĩà¦ķà¦¤":2290,"Ġà¦®à¦¹à¦¸":2291,"à¦¬à¦ķà¦¦":2292,"à¦¬à¦°à¦¦":2293,"à¦ªà¦ª":2294,"Ġà§¬à§¯":2295,"Ġà¦ķà¦¬à¦°à¦¸":2296,"Ġà¦īà¦ªà¦ķà¦®":2297,"à¦¸à¦«à¦Ł":2298,"à¦°à¦¹à¦°":2299,"Ġà¦ĩà¦¯":2300,"à¦¾)à¥¤":2301,"ig":2302,"Ġà¦²à¦°":2303,"à¦ĩà¦¸à¦¬":2304,"Ġà¦īà¦Ĺ":2305,"Ġà¦¸à¦¬à¦ĩ":2306,"à¦ĺà¦Ł":2307,"à¦²à¦ķà¦ķ":2308,"Ġà¦ĩà¦¨à¦ķ":2309,"à¦Łà¦Ń":2310,"à§ªà§¨":2311,"Ġà¦īà¦ªà¦ķà¦°à¦£":2312,"à§ĩ:":2313,"à¦Ĩà¦ķ":2314,"à§ªà§®":2315,"à¦¶à¦ľ":2316,"Ġà¦°à¦¹à¦®à¦¤":2317,"à¦ĩà¦īà¦°":2318,"Ġà¦¸à¦²":2319,"à¦ıà¦¸à¦ıà¦®":2320,"à¦ļà¦¶":2321,"à¦Ĩà¦¤":2322,"Ġà§¯à§«":2323,"Ġà¦īà¦ķ":2324,"Ġà¦Ĩà¦ĩà¦«":2325,"Ġà§¬à§¨":2326,"à¦ľà¦īà¦ķ":2327,"à¦ĩà¦īà¦¨":2328,"Ġà§Ńà§©":2329,"à¦ĩà¦¸à¦²":2330,"Ġà¦ĵà¦²":2331,"ab":2332,"Ġà¦¬à¦£":2333,"à¦ıà¦¸à¦ľ":2334,"à¦ªà¦¯":2335,"Ġfr":2336,"à§§à§¯à§Ń":2337,"Ġà¦ªà¦¤à¦¨":2338,"Ġà§¨à§¦à§¦à§§":2339,"à¦®à¦¤à¦²":2340,"à¦¶à¦¸à¦¹":2341,"à¦Ĩà§Ł":2342,"Ġà¦¤à¦¨":2343,"Ġà¦®à¦¯":2344,"à¦¶à¦¹à¦°":2345,"à§İà¦¸à¦ķà¦¦":2346,"Ġà¦Ĩà¦ľà¦ĵ":2347,"Ġà¦ĩà¦īà¦Ł":2348,"Ġà¦¶à¦¤à¦Ń":2349,"Ġà¦¨à¦ĵà§Ł":2350,"Ġà¦ıà¦ķà¦¤":2351,"Ġà¦ĺà¦Łà¦¤":2352,"Ġà¦ĩà¦¦":2353,"à¦¾à¦ģ,":2354,"ĠĊ":2355,"ĠP":2356,"à¦ıà¦¡":2357,"Ġà¦Ĩà¦²à¦¤":2358,"Ġà¦ıà¦¨à¦¡":2359,"Ġà¦®à¦«":2360,"ive":2361,"à¦¥à¦ª":2362,"à¦¦à¦ķà¦¦":2363,"à¦®à§Łà¦®à¦¨à¦¸":2364,"Ġà¦ªà¦¦à¦ª":2365,"à¦Ĺà¦°à¦£":2366,"à¦Ĩà¦ĩà¦¡à¦¬":2367,"à¦ıà¦ķà¦ľà¦¨":2368,"Ġà§Ńà§¬":2369,"Ġwith":2370,"Ġà¦ķà¦¬à¦²":2371,"à¦¬à¦°à¦¤":2372,"à§ªà§Ń":2373,"Ġà¦¬à¦ĩà¦Ł":2374,"Ġà¦²à¦¡":2375,"Ġà¦¸à§ľà¦ķà¦Ł":2376,"à¦Ľà¦²":2377,"à¦°à¦ķà¦¦":2378,"à¦¬à¦²à¦®":2379,"Ġà§§à§¯à§«":2380,"Ġà¦¸à¦®à§Łà¦¸":2381,"à¦Ĺà¦łà¦¨à¦Ĺ":2382,"à¦ķà¦¸à¦ĩ":2383,"à¦²à¦¤à¦²":2384,"à§ĭà¦ĥ":2385,"Ġà¦ħà¦ªà¦¬":2386,"Ġà¦ıà¦«à¦¬":2387,"Ġ=":2388,"Ġà¦¹à¦ľà¦°à¦¤":2389,"à¦²à¦¡":2390,"ĠÑĢÐ¶":2391,"Ġà¦®à¦ĩà¦¨":2392,"à§©à§©":2393,"Ġà¦¨à¦ķ":2394,"Ġà¦®à¦ĵà¦¦":2395,"à¦®à¦¡":2396,"Ġà¦Ĩà¦Ń":2397,"à§ģ'":2398,"à¦Ńà¦Ļ":2399,"à¦Łà¦ĸ":2400,"Ġà¦ıà¦¨à¦ľ":2401,"à¦¾.)":2402,"à¦ıà¦ª":2403,"à¦°à¦®à¦§":2404,"Ġà¦ħà¦ªà¦®":2405,"Ġà¦Ĩà¦Łà¦ľà¦¨":2406,"ch":2407,"à¦°à¦ŀ":2408,"Ġà¦ªà¦°à¦¸":2409,"à¦ªà¦ľ":2410,"Ġà¦¶à¦ª":2411,"à¦²à¦ķà¦¦":2412,"à¦²à¦ªà¦¥":2413,"Ġà§¬à§§":2414,"Ġwor":2415,"Ġà¦¬à¦¶":2416,"Ġà§®à§Ń":2417,"Ġà¦ıà¦ķà¦®à¦¤":2418,"à¦¤à¦ļ":2419,"à¦ķà¦«":2420,"Ġà¦ħà¦¹":2421,"ap":2422,"Ġà§§à§¨à§¦":2423,"Ġà¦¸à¦«à¦²à¦¤":2424,"à¦Łà¦¹":2425,"if":2426,"Ġit":2427,".(":2428,"Ġà§®à§¦à§¦":2429,"Ġà§®à§®":2430,"à¦ľà¦¹":2431,"ĠâĢĻ":2432,"ct":2433,"à¦¤à¦Ľ":2434,"Ġà¦°à¦¤à¦¨":2435,"à¦łà¦¤":2436,"à¦°à¦£à¦ķ":2437,"Ġà§Ńà§ª":2438,"Ġà¦«à§Łà¦¸":2439,"qu":2440,"à¦¯à¦¸à¦ļ":2441,"Ġà¦ľà¦Ĺà¦¤":2442,"Ġà§¨à§¦à§¦à§«":2443,"à¦§à¦®":2444,"Ġà¦Ńà¦°à¦¸":2445,"à§©à§¬":2446,"Ġà¦ıà¦ĩà¦ļà¦ıà¦¸à¦¸":2447,"ill":2448,"Ġà¦°à¦®à¦¨":2449,"Ġà§®à§¬":2450,"Ġà§Ńà§¯":2451,"à¦ħà¦ķ":2452,"à¦ıà¦®à¦¡":2453,"Ġà¦¦à¦Ĺ":2454,"à§ĩà¦Ĥ":2455,"Ġà¦Ĩà¦¹à¦¬":2456,"Ġà¦īà¦®":2457,"Ġà¦īà¦ªà¦®à¦¹":2458,"à¦¶à¦¹":2459,"Ġà¦ĩà¦īà¦ķ":2460,"à¦·à¦ĩ":2461,"Ġà¦°à¦ĵà¦¶à¦¨":2462,"à¦°à¦¤à¦ķ":2463,"Ġà¦Ńà¦¯":2464,"à¦ĩà¦ĵ":2465,"Ġà¦ĺà¦°à¦¬":2466,"à§¦à§¦à§¦":2467,"à¦Ĩà¦¹à¦¤":2468,"Ġà¦¨à¦ĩ":2469,"à¦Ĩà¦°à¦¬":2470,"Ġà¦ĩà¦¨à¦«":2471,"à§ľà¦Ł":2472,"se":2473,"à¦¿'":2474,"Ġà¦Ĺà¦¤à¦¬":2475,"à¦łà¦¦":2476,"Ġà§¯à§¬":2477,"Ġà§¨à§¦à§¦à§ª":2478,"à§©à§ª":2479,"à§©à§Ń":2480,"à¦Łà¦¸à¦¹":2481,"Ġà¦¬à¦ĩà¦®":2482,"!âĢĻ":2483,"à§Łà¦ª":2484,"à¦ıà¦¸à¦¡":2485,"à¦łà¦ª":2486,"ce":2487,"à¦·à¦ķà¦¤":2488,"Ġà¦Ľà¦¤":2489,"à¦Łà¦«à¦°":2490,"à¦ļà¦¸":2491,"Ġà¦ıà¦¨à¦¬":2492,"à¦ĵà¦®":2493,"à¦ıà¦®à¦ıà¦ĩà¦ļ":2494,"Ġà¦Ĩà¦«à¦¸":2495,"à¦ªà¦°à¦¬à¦°":2496,"Ġà¦ħà¦ļà¦²":2497,"Ġà¦°à¦®":2498,"à¦Ĺà¦«":2499,"Ġà¦Ľà¦¨":2500,"à¦¿à¥¤\"":2501,"à¦ļà¦Ĺà§ľ":2502,"à¦ıà¦¨à¦ı":2503,"à§ĭ?":2504,"Ġà¦¸à¦¬à¦Ĺ":2505,"à¦ĺà¦®":2506,"Ġà¦°à¦ŀ":2507,"Ġà¦¢à¦²":2508,"Ġà¦¨à¦ķà¦²":2509,"à¦£à¦¹":2510,"à§İà¦¸à¦¬":2511,"à¦ªà¦Łà¦ª":2512,"à§©à§§":2513,"Ġà¦Łà¦¸":2514,"à¦¿),":2515,"Ans":2516,"Ġà¦ķà¦®à¦¤":2517,"Ġà¦ĩà¦Łà¦Ń":2518,"Ġà¦Ĩà¦¹à¦¤à¦¦":2519,"Ġà§®à§ª":2520,"à¦¦à¦¸à¦¹":2521,"Ġà¦ıà¦ķà¦¦à¦®":2522,"ĠHe":2523,"à¦¯à¦®à¦ķ":2524,"à§Ģ:":2525,"à¦¸à¦ĵà§Ł":2526,"Ġà¦ļà¦®à§İà¦ķ":2527,"Ġà¦¨à¦¬à¦¨":2528,"Ġà¦ħà¦¬à¦¸à¦°à¦ª":2529,"Ġà¦ľà§Łà¦ª":2530,"à¦¯à¦ļ":2531,"à¦°à¦ĺ":2532,"ail":2533,"ĊÂłĊ":2534,"Ġà¦¨à¦¬à¦ľ":2535,"à§¨à§¦à§§à§«":2536,"à§¨à§¦à§§à§ª":2537,"Ġà¦ĩà¦¶à¦¤":2538,"Ġr":2539,"à§Łà¦¤à¦ª":2540,"à¦ľà¦ªà¦¥":2541,"à¦¦à¦ĵ":2542,"Ġà¦ĵà¦®":2543,"Ġà¦Ĩà¦ĩà¦¨à¦®à¦¨":2544,"à¦ĵà¦ķ":2545,"Ġal":2546,"ht":2547,"à¦¯à¦¸à¦¹":2548,"à¦§à¦¶à¦¤":2549,"oun":2550,"Ġà¦ıà¦®à¦¨à¦ĩ":2551,"à¦ıà¦ľ":2552,"à¦ĭ":2553,"Ġà¦ĵà¦ĸ":2554,"à¦Ŀà¦ĸ":2555,"à¦§à¦¸":2556,"à¦ľà¦Ļ":2557,"à¦°Ã":2558,"à¦®à¦īà¦¦":2559,"Ġà§¯à§Ń":2560,"Ġà¦®à¦®":2561,"ang":2562,"à¦ĵà¦ª":2563,"Ġà§®à§¯":2564,"à¦ªà¦Ĺà¦ŀ":2565,"âķķ":2566,"à¦ķà¦¡":2567,"à¦ıà¦ĸ":2568,"Ġà¦ªà¦¯":2569,"Ġà¦Ĩà¦ļà¦°à¦£à¦¬":2570,"à¦¯à¦ľà¦¨":2571,"à¦ıà¦®à¦ĩà¦ı":2572,"Ġhis":2573,"Ġà¦ĩà¦ľà¦¤":2574,"Ġà§Ńà§¦à§¦":2575,"à¦°à¦īà¦¦":2576,"Ġà¦ĩà¦īà¦ıà¦¸":2577,"à¦°à¦£à¦¬":2578,"iii":2579,"à¦ĸà¦£":2580,"Ġà¦¬à¦¸à¦¨":2581,"Ġk":2582,"Ġà¦ľà¦Ĺà¦¨":2583,"Ġà¦ħà¦¸à¦¨":2584,"à¦ĩà¦¸à¦Ļ":2585,"à§Łà¦¦à¦ª":2586,"Ġà§¯à§®":2587,"Ġà¦ĩà¦īà¦ıà¦¨":2588,"Ġà¦Ĩà¦®à¦ľ":2589,"ers":2590,"à§Łà¦Ł":2591,"Ġà¦ıà¦®à¦¬":2592,"Ġà¦¤à¦®":2593,"Ġà¦ĸà¦¸à¦°":2594,"à¦°Ã¦":2595,"Ġà¦Ĺà¦£à¦¶":2596,"Ġà¦ªà¦Ļ":2597,"Ġà¦¹à¦ĩ":2598,"Ġv":2599,"à¦ħà¦¬à¦°":2600,"à¦īà¦«":2601,"à§ĭà¦Ĥ":2602,"Ġà¦Ĩà¦ĩà¦Ł":2603,"Ġà¦ĵà¦Ł":2604,"à¦ĵà¦Ł":2605,"ds":2606,"à¦ļà¦¤à¦²":2607,"Ġà¦Ĩà§Łà¦ķà¦°":2608,"Ġà¦ľà¦¨à¦¬à¦²":2609,"à§¨à§¦à§§à§¬":2610,"à¦Ĩà¦ĩà¦ıà¦¸":2611,"à¦Ĩà¦Łà¦ķ":2612,"Ġas":2613,"Ġà¦ĩà§Łà¦°":2614,"à¦¹à¦¤à¦°":2615,"à¦¾à¥¤\"":2616,"Ġà¦°à¦£à¦¬":2617,"Ġà¦ıà¦°à¦ªà¦°à¦ĩ":2618,"à¦¸à¦¯":2619,"à¦¶à¦¯":2620,"à¦Ńà¦¸":2621,"Ġà¦¨à§Łà¦¨":2622,"à¦Ĩà¦«":2623,"----":2624,"Ġà¦Ĺà¦£à¦Ńà¦¬à¦¨":2625,"à¦°à¦²à¦¬":2626,"à¦ĩà¦ľà¦¨":2627,"à¦²à§Łà¦Ĺ":2628,"Ġà¦¦à¦«à¦¤à¦°":2629,"Ġà¦īà¦¸à¦ķ":2630,"à¦¶à¦¨à¦¸":2631,"à¦Ĩà¦¬à¦¦":2632,"à¦¸à¦¸à¦¹":2633,"Ġcom":2634,"Ġà¦Ĩà¦ķà¦¸":2635,"ĠF":2636,"Ġà¦ķà¦¸":2637,"à¦²à¦ķà¦Ń":2638,"ĠĠĠĠĠĠĠĠĠĠĠĠĠĠĠĠ":2639,"Ġà¦¸à¦¹à¦ª":2640,"ĠN":2641,"à¦ľà¦ķà¦°":2642,"Ġà¦ıà¦ķà¦§à¦°à¦¨":2643,"à¦«à¦²à¦ķ":2644,"Â¤":2645,"Ġà§®à§¨":2646,"ĠR":2647,"à¦²à§Łà¦Ł":2648,"um":2649,"Ġà¦ĩà¦ĩà¦ī":2650,"Ġà¦Ĩà¦«à¦ľ":2651,"à¦¿;":2652,"Ġà¦¸à¦¹à¦¸":2653,"à¦Łà¦®à¦¸":2654,"Ġà¦ıà¦°à¦ªà¦°à¦ĵ":2655,"Ġnot":2656,"ain":2657,"à¦ļà¦Ĺ":2658,"à¦·à¦Ĺ":2659,"à¦¹à§İ":2660,"Ġà¦Ķ":2661,"Ġà¦ĸà¦£":2662,"à¦Łà¦ĩ":2663,"à¦®à¦ªà¦°":2664,"à¦¦à¦¹":2665,"à¦¿âĢĻà¥¤":2666,"à¦ļà¦°à¦£":2667,"à§Ńà§¦":2668,"Ġà¦¦à¦²à¦ĩ":2669,"à¦°à¦Ļ":2670,"Ġà¦Ĩà¦ĩà¦¨à¦Ł":2671,"Ġà¦®à¦¸à¦²":2672,"à¦ĸà¦ľà¦¨à¦ķ":2673,"Ġthat":2674,"à¦Łà¦ľ":2675,"Ġdo":2676,"Ġà¦ªà¦ľ":2677,"Ġà¦¬à¦Ľà¦°à¦ĩ":2678,"à§¬à§«":2679,"âĢļ":2680,"à¦²à¦§à¦¨":2681,"ÑĢÐ¶Ð¥":2682,"Ġà¦ķà¦ĸà¦¨à¦ĵ":2683,"à¦ĵà§ľ":2684,"à¦¨à¦«":2685,"Ġà¦°à¦¡":2686,"à¦¦à¦Ĺà¦ŀ":2687,"Ġà¦ĩà¦¨à¦ľ":2688,"à§§à§§à§":2689,"Ġà¦¸à¦¬à¦¸":2690,"à¦¬à¦¤à¦²":2691,"à§¨à§¦à§§à§©":2692,"Ġà¦ıà¦®à¦¡":2693,"Ġà¦¸à¦ĸ":2694,"à¦ļà¦ª":2695,"th":2696,"Ġà¦§à¦°à¦²":2697,"à¦¡à¦Ĺ":2698,"Ġà§®à§§":2699,"à§İà¦¸à¦ķà¦°":2700,"Ġà¦¹à¦Ł":2701,"Ġà§¨à§¦à§¦à§©":2702,"à¦Ńà¦°à¦¶":2703,"Ġà§¨à§¦à§¦à§¦":2704,"Ġà¦¨à¦Ĺà¦°à¦¬":2705,"à¦¬à¦°à¦ĩ":2706,"à¦ļà¦ľà¦¨à¦ķ":2707,"à¦®à¦Ń":2708,"à¦°à¦¬à¦¤":2709,"Ġsh":2710,"Ġà¦ħà¦²à¦Ĩà¦īà¦Ł":2711,"à¦ıà¦®à¦ı":2712,"ess":2713,"Ġà¦Ĩà¦īà§Ł":2714,"à¦²à§Łà¦ķ":2715,"à¦¤à¦¬à¦°":2716,"Ġà¦°à¦īà¦«":2717,"Ġà§®à§©":2718,"à¦°à§Łà¦ķ":2719,"ave":2720,"à¦¼-":2721,"à§ªà§§":2722,"Ġà¦īà§İà¦ķ":2723,"à¦ĵà¦ľ":2724,"à¦¹à¦īà¦¦":2725,"Ġà¦ĩà¦®à¦¨":2726,"Ġà§§à§¯à§¯à§¬":2727,"Ġà§¨à§¦à§¨à§¦":2728,"à¦¨à§Łà¦¶":2729,"Ġà¦ļà¦²à¦²":2730,"Ġà¦°à¦«à¦¤":2731,"à¦¿à¥¤âĢľ":2732,"ĠD":2733,"à§ĩâĢĻà¥¤":2734,"Ġà¦¹à¦¯à¦°à¦¤":2735,"à¦ķà¦ł":2736,"à¦®à¦ĩ":2737,"à¦·à¦¬":2738,"Ġà¦Ĩà¦ĩà¦ľ":2739,"à¦¾),":2740,"Ġà¦Ĺà¦£à¦¨":2741,"Ġà¦ĩà¦¨à¦ļ":2742,"Ġà¦¬à¦ĸ":2743,"Ġà¦¸à§İ":2744,"à¦Ĩà¦ľà¦ķ":2745,"Ġà¦ıà¦²à¦ľ":2746,"à¦®à¦ªà¦¨":2747,"Ġà¦ĩà¦ª":2748,"Ġà¦¹à¦ľà¦¯":2749,"Ġà¦īà¦ĩà¦®":2750,"Ġà¦Ńà¦¦":2751,"Ġat":2752,"ass":2753,"Ġà¦ıà¦ķà¦¨":2754,"Ġà¦®à¦¹à§ľ":2755,"Ġà¦ĸà¦°":2756,"Ġà¦ķà¦¨à¦Ń":2757,"Ġà¦§à¦°à¦£":2758,"à¦¨à¦ĸ":2759,"à¦ıà¦¸à¦ĩà¦°":2760,"Ġà¦¸à¦¸":2761,"Ġà¦¸à¦¬à¦¸à¦®à§Ł":2762,"à¦ķà¦¬à¦²":2763,"Ġà¦¸à¦ļà¦²":2764,"à¦Ľà¦ª":2765,"Answer":2766,"Ġà¦ħà¦¨à¦¶à¦¨":2767,"à¦°à¦¶à¦¸":2768,"Ġà§¯à§¨":2769,"à¦ĩà¦ªà¦°":2770,"à§§à§¯à§®":2771,"tr":2772,"ood":2773,"à¦¥à¦²à¦¬à¦¨":2774,"à¦Ľà¦Ĺ":2775,"Ġà¦¡à¦ķ":2776,"à¦ĭà¦£":2777,"à¦¯à¦¹":2778,"Ġà¦²à¦¸":2779,"âĸĵ":2780,"à¦²à¦¤à¦¦":2781,"Ġà¦Łà¦ķ":2782,"Ġà¦Ĩà¦Ĺà¦®à¦¨":2783,"Ġà¦Īà¦¦à¦Ĺ":2784,"à¦¥à¦¦":2785,"ĠE":2786,"Ġà¦¦à¦°à¦¬":2787,"à¦²à¦¤à¦ª":2788,"à¦¬à¦ŀ":2789,"à¦ľà¦ĵà§Ł":2790,"Ġà¦Ĩà¦ķà¦¨":2791,"Ġà¦®à¦ķ":2792,"à§İà¦«à¦°":2793,"à¦¤à¦¤à¦®":2794,"very":2795,"Ġà¦¤à¦°à¦«":2796,"à¦Ĳ":2797,"à¦°à¦¸à¦¬":2798,"Ġme":2799,"à§ĭà¥¤âĢĻ":2800,"à¦¾âĢĻ,":2801,"Ġà¦īà¦ĸ":2802,"ud":2803,"à§ľà¦ªà¦¤":2804,"à¦Ĺà¦łà¦ķ":2805,"Ġà¦¸à¦¬à¦¶":2806,"Ġà¦ĺà¦Łà¦¬":2807,"à¦ıà¦¶":2808,"Ġà¦ħà¦®à¦°":2809,"Ġà¦ļà¦ķà¦°":2810,"Ġà¦ĵà¦¨":2811,"ÑĢÐ¶Ð´":2812,"Ġà¦¸à¦«à¦°à¦ķ":2813,"à¦²à¦Łà¦¨":2814,"à¦¬à¦¸à¦Ł":2815,"à¦¸à¦ĩ":2816,"Ġà¦Ĺà§ľà¦¤":2817,"à¦Ĩà¦Ł":2818,"à¦ªà¦ŀ":2819,"à¦Ĺà¦Ļ":2820,"à§ĩ?âĢĻ":2821,"Ġà¦Ĩà¦°à¦®":2822,"à¦Ĩà¦°à¦ª":2823,"ĠWh":2824,"à¦ªà¦ĵ":2825,"âĢ¢":2826,"à¥¤*":2827,"à¦ľà¦ĸà¦¬à¦°":2828,"Ġà¦īà¦ªà¦¸à¦°":2829,"Ġà¦ĩà¦¨à¦Ń":2830,"à¦¿à¦Ĥ-":2831,"Ġà§¨à§¦à§¦à§¨":2832,"Ġà¦Ĺà¦£à¦ľ":2833,"Ġà¦ıà¦¸à¦ıà¦®":2834,"Ġà¦ıà¦ķà¦¯":2835,"Ġà¦¯à¦¤à¦ĩ":2836,"Ġà¦ľà¦¨à¦¨":2837,"Ġà¦¬à¦ļ":2838,"Ġ+":2839,"Ġà¦¬à¦ķà¦°":2840,"Ġà¦ªà¦ª":2841,"Ġwe":2842,"Ġà¦ĩà¦¨à¦¡":2843,"à§©à§¯":2844,"à¦ŀà¦¦":2845,"Ġfrom":2846,"age":2847,"à¦ķà¦·":2848,"bd":2849,"Ġqu":2850,"Ġà¦Ĩà¦°à¦ľ":2851,"Ġà¦¤à§İà¦ªà¦°":2852,"Ġà§¯à§§":2853,"Ġà¦Ĺà¦Ļ":2854,"à¦¤à¦°à¦ª":2855,"à§Łà¦¨à¦¶":2856,"Ġà¦ĸà¦¬à¦°à¦Ł":2857,"à¦ıà¦¨à¦¬":2858,"Ġà¦Ĳà¦¶":2859,"Ġwh":2860,"à¦ıà¦Ĩà¦°":2861,"Ġà¦Łà¦ª":2862,"Ġà¦¬à¦²à¦Ł":2863,"à¦ªà¦£à¦¨":2864,"à¦¨à¦°à¦¤":2865,"Ġ2":2866,"Ġà¦Ĩà¦²à¦®à¦ķ":2867,"ort":2868,"Ġà¦īà¦ªà¦²à¦¬":2869,"à¦ıà¦¸à¦Ł":2870,"à¦¤à¦ĸà¦¨":2871,"ake":2872,"Ġà¦Ĺà¦£à¦ªà¦°":2873,"à¦¾à¥¤âĢľ":2874,"à¦Ĺà¦¸à¦¹":2875,"Ġà¦«à¦²à¦¨":2876,"à¦ħà¦«":2877,"à§ĩà¥¤âĢĺ":2878,"Ġà¦¬à¦¹à¦¨à¦ķ":2879,"Ġà¦ħà¦¬à¦¤à¦°à¦£":2880,"à¦¥à¦¸":2881,"à¦«à¦²à¦¨":2882,"à¦®à¦¨à¦Ł":2883,"à¦·à¦¨":2884,"à§¨à§¦à§§à§¨":2885,"à¦Ĺà¦®à¦¨":2886,"à¦¥à¦ķà¦°":2887,"Ġà¦īà¦·":2888,"ould":2889,"ore":2890,"à¦Ľà§Ł":2891,"à§ªà§¬":2892,"Ġà¦®à¦°à¦¹":2893,"Ġà¦Ĩà¦¨à¦¬":2894,"Ġà¦¨à¦¬à¦¬à¦°":2895,"Ġus":2896,"Ġà¦ķà¦Ļ":2897,"à¦·à¦ĵ":2898,"art":2899,"ant":2900,"Ġà¦²à¦ķà¦¡":2901,"Ġà¦ıà¦®à¦¦":2902,"à¦°à¦¬à¦£":2903,"à¦łà¦¬":2904,"Ġà¦ļà¦ķà¦¬":2905,"à¦ķà¦²à¦®":2906,"Ġà¦Ŀà¦Ĺà§ľ":2907,"à¦ļà¦²à¦ķ":2908,"Ġà¦ıà¦¸à¦ª":2909,"à¦ľà¦ķà¦²":2910,"Ġà§¯à§©":2911,"à¦¬à¦¸à¦¹":2912,"à§«à§¨":2913,"à¦ĩà¦ĵà¦Ń":2914,"Ġà¦¬à¦°à¦£":2915,"ies":2916,"Ġà¦ıà¦ıà¦¸à¦Ĩà¦ĩ":2917,"à¦ļà¦¦":2918,"Ġà¦ķà¦®à¦¨":2919,"Ġà¦ĩà¦®à¦¤":2920,"à¦¬à¦¡":2921,"Ġà¦¦à¦ĸà¦²à¦¦":2922,"à¦ıà¦¨à¦¡":2923,"Ġà¦¬à¦ľà¦²":2924,"Ġà¦Ĩà¦²à¦¬":2925,"Ġà§¯à§ª":2926,"Ġà¦¡à¦¬":2927,"Ġà¦¶à¦¤à¦ķà¦°":2928,"à¦¬à¦°à¦ķ":2929,"à¦¡à¦ĵ":2930,"à¦°à¦ªà¦¨":2931,"Ġne":2932,"Ġà¦¸à¦īà¦¦":2933,"à¦¯à¦ľà¦¨à¦ķ":2934,"à§¦à§¯":2935,"Ġà¦ľà¦¨à¦ªà¦¥":2936,"Ġà¦ķà¦®à¦Ľ":2937,"Ġà¦¨à§Łà¦ľà¦¨":2938,"Ġà¦Ĺà¦£à¦«":2939,"à¦ķà¦¸à¦¨":2940,"mail":2941,"à¦ıà¦¨à¦ıà¦¸":2942,"à¦Łà¦ļ":2943,"à¦£à¦Ĺà¦ŀ":2944,"Ġà¦īà¦ªà¦¬":2945,"à§İà¦«":2946,"à¦²à¦¤à¦ķ":2947,"Ġà¦¤à¦²à¦¬":2948,"à§ģà¦Ĥ":2949,"à¦ĩà¦¨à¦ķ":2950,"Ġ,":2951,"Ġà¦Ĩà¦ĩà¦Ń":2952,"Ġà¦¹à¦ķà¦ķ":2953,"à¦Ľà¦¡":2954,"ÑĢÐ·ÐĹÑĢÐ¶":2955,"à¦¨à¦Łà¦¨":2956,"ĠIt":2957,"Ġ#":2958,"à¦ħà¦¬à¦¸":2959,"Ġà¦Ĩà¦²à¦¹":2960,"....":2961,"à¦ľà¦ĩ":2962,"ook":2963,"Ġà¦¬à¦¬":2964,"à¦®à¦ĸ":2965,"čččč":2966,"Ġà¦ħà¦ªà¦ª":2967,"Ġà¦īà¦ªà¦¸à¦¹à¦ķ":2968,"à¦°à¦¦à¦ķ":2969,"estion":2970,"à¦ģà¦¾":2971,"à¦°à¦¸à¦®":2972,"à¦Ĺà¦®à¦ķ":2973,"à¦ıà¦®à¦ĩà¦ī":2974,"Ġà¦¹à¦²à¦«à¦¨":2975,"à¦ĵà¦Ĺ":2976,"à¦§à¦Ł":2977,"Ġte":2978,"Ġà¦¸à¦®à¦®":2979,"à¦¹à¦ª":2980,"Ġà¦ĩà¦¬à¦¨":2981,"à¦Ńà¦²":2982,"os":2983,"Ġle":2984,"Ġà¦ľà¦¨à¦®à¦¤":2985,"ÂłĠÂł":2986,"Ġà¦ħà¦ªà¦¹":2987,"à§ªà§¯":2988,"à¦¨à¦¸à¦¨":2989,"à¦ķà¦¤à¦°":2990,"à¦®à¦¨à¦Ĺà¦°":2991,"à§ĩ...":2992,"à¦¸à¦¦à¦¸":2993,"à¦¶à¦Ń":2994,"Ġà¦¤à¦¤à¦ķ":2995,"Ġà¦¸à¦®à§Łà¦ķ":2996,"à¦¸à¦ªà¦¤":2997,"à¦ıà¦¸à¦ķ":2998,"à§¨à§¦à§§à§§":2999,"out":3000,"à¦ıà¦®à¦ĩà¦ıà¦°":3001,"à¦Ĩà¦²à¦®":3002,"Ġà¦ķà¦°à¦¦":3003,"à¦ıà¦Ĺ":3004,"Ġà¦¦à¦¸":3005,"ome":3006,"Ġà¦°à¦¦":3007,"à¦Ĩà¦ĩà¦Ł":3008,"à¦¦à¦°à¦Ĺà¦ŀ":3009,"à¦¬à¦¨à¦ķ":3010,"à¦¬à¦ľà¦¨à¦°":3011,"à¦ıà¦¨à¦ıà¦¨":3012,"à¦¸à¦īà¦¦":3013,"âĢĻâĢĶ":3014,"Ġà¦¬à¦¸à¦²":3015,"à¦°à¦°à¦®":3016,"à¦¨à¦¸à¦Ń":3017,"à¦ľà¦¸à¦¹":3018,"à¦¤à¦°à¦«":3019,"Ġà¦ĵà¦¹":3020,"Ġà¦īà¦¬":3021,"our":3022,"à¦ıà¦Ń":3023,"Ġà¦ħà¦ªà¦¹à¦°à¦£à¦ķ":3024,"à¦ªà§Ł":3025,"Ġà¦°à¦ĩà¦²":3026,"à§¨à§¦à§§à§Ń":3027,"à§ªà§ª":3028,"à¦¤à¦Ĺà¦¤":3029,"Ġby":3030,"Ġà¦¸à¦®à§Łà¦®à¦¤":3031,"Ġà¦ıà¦°à¦ķà¦®":3032,"à¦¯à¦ªà¦¦":3033,"ïĤ":3034,"Ġà¦°à¦£":3035,"Ġà¦ľà¦¨à¦¸à¦¨":3036,"Ġcan":3037,",âĢľ":3038,"à¦²à¦¨à¦°à¦¤":3039,"à¦ĩà¦īà¦ľ":3040,"à§¦à§Ń":3041,"Ġman":3042,"à¦ıà¦¸à¦®à§Ł":3043,"¼ÑĢÐ¶":3044,"à§ľà¦¶":3045,"Ġà¦Ĺà¦łà¦¨à¦¤à¦¨":3046,"Ġà¦ĩà¦¶":3047,"Ġà¦īà¦Ń":3048,"à¦°à¦¸à¦ļ":3049,"Ġà¦ªà¦°à¦¨":3050,"Ġà¦ļà¦²à¦¨":3051,"Ġà¦¡à¦¨":3052,"ÑĢÐ¶Ð¾":3053,"Ġà§¨à§¦à§¨à§§":3054,"à¦¤à¦°à¦Ł":3055,"à§ªà§©":3056,"à¦¦à¦ķà¦ķ":3057,"Ġà¦®à¦ķà¦¬":3058,"à¦Ĥ-":3059,"à¦¿âĢĵ":3060,"à¦īà¦¦à¦ķ":3061,"à§ģ)":3062,"à¦ħà¦Ĺ":3063,"à¦ıà¦®à¦ıà¦¸à¦¬":3064,"ÂłĠ":3065,"Ġsu":3066,"ĠO":3067,"Ġour":3068,"Ġà¦ĭà¦¤":3069,"Ġà¦°à¦¤":3070,"à¦ªà¦ķà¦Ń":3071,"à¦ıà¦¸à¦ıà¦¸":3072,"Ġà¦«à¦¨":3073,"Ġà¦Ĩà¦¸à¦®":3074,"à¦ıà¦¸à¦ĩà¦¸":3075,"Ġà¦ıà¦°à¦¦":3076,"à¦®à¦¸à¦¨":3077,"à¦¯à¦®à¦Ĺ":3078,"Ġhave":3079,"ate":3080,"à¦īà¦ªà¦ķ":3081,"Ġà¦¤à¦ªà¦¨":3082,"à§¨à§¦à§§à§¦":3083,"à¦īà¦ľà¦Ł":3084,"*,":3085,"à¦£à¦¸":3086,"Ġà¦ıà¦ķà¦¶":3087,"à¦Ĩà¦¸à¦²":3088,"Ġà¦¬à¦°à¦«":3089,"Ġà¦ľà¦Ĺ":3090,"à¦¨à¦®à¦ľ":3091,"à¦Łà¦®à¦¹à¦²":3092,"à¦¯à¦ķà¦²":3093,"and":3094,"à¦īà¦ĩà¦ķ":3095,"à¦ĩà¦Łà¦Ł":3096,"à¦·à¦£à¦ķ":3097,"Ġà§¯à§¦à§¦":3098,"Ãĳ":3099,"à¦¾'":3100,"à¦ķà¦¹":3101,"rit":3102,"à¦®à¦«":3103,"à¦¼à§Ģ,":3104,"à¦ķà¦§":3105,"à¦¤à¦ķà¦°":3106,"à§®à§¦":3107,"à¦¨à¦Ńà¦°":3108,"Ġà¦¸à¦¤à¦¤":3109,"à¦¦à¦¨à¦¶":3110,"à¦¯à¦Łà¦ķà¦¦":3111,"à¦ĩà¦¨à¦«":3112,"à¦ĩà¦²à¦«à¦²à¦ķ":3113,"à¦ĸà¦¸":3114,"à¦ıà¦²à¦ķ":3115,"à§ĭâĢĶ":3116,"à¦£à¦Ĺà¦¤":3117,"ect":3118,"à¦¦à¦¨à¦ªà¦¤":3119,"à§Łà¦ķà¦°à¦£":3120,"à¦Ĩà¦°à¦ı":3121,"Ġà¦¶à¦ļ":3122,"à¦ĺà¦£":3123,"à§¨à§¦à§¦à§¯":3124,"ÂłÂłÂłÂłÂłÂłÂł":3125,"à¦ıà¦ĩà¦ļà¦ı":3126,"Ġno":3127,"Åĵ":3128,"à¦ªà¦²à¦¸":3129,"à¦¯à¦¥à¦Ń":3130,"eop":3131,"Ġà¦²à¦Ń":3132,"low":3133,"Ġà¦ĩà¦¹":3134,"Ġà¦Ńà¦²":3135,"Ġà¦ªà¦°à¦¤":3136,"à¦£à§Ł":3137,"Ġà¦ħà¦ªà¦°à¦¦":3138,"ĊĠ":3139,"ity":3140,"à¦ľà§ľ":3141,"Ġà§§à§¯à§¯à§§":3142,"à¦Ĩà¦«à¦Ĺ":3143,"à¦ĸà¦Ń":3144,"Ġà§§à§§à§¦":3145,"ish":3146,"eople":3147,"Ġà¦ıà¦®à¦¨à¦Ń":3148,"Ġà¦ľà¦¨à¦¶à¦ķ":3149,"à§¯à§¦":3150,"à¦¹à¦°à¦¤":3151,"Ġà¦ªà¦ļ":3152,"à¥¤âĢĿâĢľ":3153,"¿ÑĢÐ¶":3154,"Ġà¦Ĩà¦¨à¦Ľ":3155,"Ġà§§à§¬à§ª":3156,"à¦¼à¦¾-":3157,"Ġà¦ıà¦ĸà¦¨à¦ķ":3158,"à¦īà¦Łà¦°":3159,"Ġex":3160,"Ġà§§à§©à§¦":3161,"ĊĊÂłĊ":3162,"à§Ńà§«":3163,"à¦Ľà¦Ł":3164,"à¦¥à¦°à¦ĺ":3165,"ÑĢÐ·Ðĳ":3166,"à¦ªà¦¨à¦Ĺà¦°":3167,"Ġà¦ĩà¦¡":3168,"Ġà¦ħà§Ł":3169,"):":3170,"res":3171,"à¦·à¦Ļ":3172,"à¦¥à¦ªà¦¤":3173,"à§Į-":3174,"à§Łà¦¦à¦°":3175,"à¦¬à¦°à¦Ĺ":3176,"ĠÑĢÐ¶Ð¥":3177,"Ġà¦¸à¦®à¦Ĺ":3178,"Ġà¦¦à§Ł":3179,"Ġà§§à§®à§¦":3180,"à¦¸à¦ķà¦·":3181,"Ġà¦¸à¦¦à¦°à¦ĺ":3182,"Ġà§§à§ªà§ª":3183,"Ġà¦Ĩà¦¨à¦²":3184,"Ġà¦¤à¦¤à¦Ł":3185,"à¦Łà¦¨à¦®":3186,"à¦łà¦¶":3187,"Ġà¦¤à¦°à¦²":3188,"à¦¶à¦ªà¦¥":3189,"âĢ¡":3190,"Ġà¦¨à¦²à¦ķ":3191,"ÂłÂłÂłÂłÂł":3192,"à¦¨à¦ĵà§Ł":3193,"Ġà¦¹à¦ľà¦®":3194,"Ġà§§à§¯à§¯à§¯":3195,"ag":3196,"à¦°à¦·":3197,"à§ľà¦®":3198,"Ġab":3199,"à¦¹à¦¯":3200,"à§¨à§¦à§§à§®":3201,"Ġà¦¸à¦®à§Łà¦ĵ":3202,"Ġà¦¡à¦Ł":3203,"Ġà¦ķà¦Ń":3204,"à¦¹à¦¦":3205,"à¦ķà¦Łà¦²":3206,"à§ĭ)":3207,"à¦¸à¦°à¦¤":3208,"Ġquestion":3209,"Ġà¦¨à¦°à¦®":3210,"ĠIn":3211,"à¦¡à¦¶":3212,"Ġà§§à§¯à§¯à§¦":3213,"Ġsp":3214,"ĠâĢį":3215,"Ġch":3216,"à¦ĸà¦Ł":3217,"à¦¤à¦£":3218,"ĠÂłĠÂłĠÂłĠÂł":3219,"à¦§à¦¦":3220,"à¦®à¦ķà¦°à¦£":3221,"Ġà¦īà¦¸":3222,"Ġpro":3223,"ell":3224,"à§«à§®":3225,"à¦¸à¦®à¦¯":3226,"à§Łà¦®à¦¨":3227,"à¦ľà¦¨à¦¦":3228,"Ġà¦ľà§Łà¦¦":3229,"ous":3230,"à¦¬à¦¨à¦®":3231,"Ġà¦¬à¦ī":3232,"à¦¶à¦²à¦Ĺà¦¤":3233,"à¦ıà¦ıà¦«":3234,"Ġà§§à§¯à§¯à§®":3235,"Ġà¦ľà¦¨à¦¸à¦®":3236,"Ġà¦Ĩà¦«à¦¤":3237,"Ġà¦ıà¦ķà¦ª":3238,"Ġà¦Ĺà¦£à¦Ń":3239,"Ġà¦Ĩà¦®à¦¤à¦²":3240,"à§¦à§®":3241,"à¦¯à¦¬à¦°":3242,"Ġà¦ĵà¦ªà¦°à¦ĩ":3243,"Ġà¦ıà¦¹à¦¸":3244,"à¦¸à¦ľ":3245,"à¦¼à§į":3246,"à§«à§Ń":3247,"ah":3248,"Ġà¦ıà¦ķà¦¤à¦°à¦«":3249,"Ġà¦¸à¦®à¦ķ":3250,"are":3251,"à¦ļà¦ķà¦°":3252,"Ġà¦ķà¦¨à¦ľ":3253,"Ġà¦Ĩà§Łà¦¤à¦¨":3254,"à¦¼?":3255,"Ġà¦¶à¦¹à¦°à¦Ł":3256,"Ġà¦²à¦Ł":3257,"Ġà¦ıà¦ĸà¦¤":3258,"à¦ĩà¦ĸ":3259,"à¦ħà¦²":3260,"à§ĭ!":3261,"à¦ıà¦ķà¦¦":3262,"ment":3263,"à¦¨à§Łà¦¨à¦¶":3264,"à¦¯à¦ªà¦£":3265,"Ġà§§à§ªà§¦":3266,"à¦ĩà¦²à¦¸":3267,"Ġà¦ħà¦ªà¦ķà¦°":3268,"à¦ªà¦°à¦°":3269,"Ġà¦ĩà¦°à¦«":3270,"Ġà¦ªà§Łà¦²":3271,"ïģ®":3272,"Ġà§©à§«à§¦":3273,"ace":3274,"à¦¨à¦¬à¦¸à¦®":3275,"ĠG":3276,"à¦§à¦¶":3277,"Ġà¦Ĩà¦¸à¦ķ":3278,"ame":3279,"Ġà¦¬à¦¹à¦°":3280,"Ġcon":3281,"Ġà¦®à¦ľà¦²":3282,"à¦łà¦®":3283,"Ġà¦Ĺà§Ł":3284,"à¦ķà¦Łà¦¤à¦®":3285,"Ġà¦Ńà§Łà¦Ń":3286,"end":3287,"//":3288,"à¦ıà¦ĩà¦ļà¦¡":3289,"Ð´":3290,"Ġà¦Ĺà¦²à¦«":3291,"à¦¸à¦¬à¦ľ":3292,"à¦Ĩà¦°à¦ıà¦®":3293,"à¦¼à¥¤âĢĻ":3294,"à¦¦à¦ķà¦¬":3295,"ÑĢÐµ":3296,"www":3297,"ÑĢÐµÐ´":3298,"à¦°à¦£à¦Ł":3299,"à¦Ĩà¦¬à¦°":3300,"à¦Ĩà¦°à¦¡":3301,"Ġà¦¸à¦°à¦¬":3302,"Ġà¦«à§Łà¦ľ":3303,"à¦¯à§Łà¦¨":3304,"Ġà¦¬à¦°à¦ķ":3305,"à¦¤à¦¸à¦¹":3306,"à¦ıà¦¸à¦ĩà¦ıà¦ķ":3307,"à¦ķà¦²à¦ķ":3308,"Ġà¦¶à¦ĸ":3309,"à§«à§¬":3310,"Ġà¦Ĺà§Łà¦¨":3311,"ep":3312,"Ġà¦ıà¦®à¦¸":3313,"Ġun":3314,"Ġor":3315,"tp":3316,"à¦Ńà¦ľà¦¨à¦ķ":3317,"Ġà§§à§¯à§Ńà§«":3318,"à¦¸à¦¬à¦ķ":3319,"à¦¤à¦¬à¦ķ":3320,"Ġà¦¨à¦ĵà¦¶":3321,"up":3322,"od":3323,"Ã¸":3324,"à¦°à¦¥à¦®à¦¤":3325,"://":3326,"em":3327,"Ġà¦°à¦ļ":3328,"Ġà¦ĺà§ľ":3329,"âķ£":3330,"Ġà¦¶à¦¸":3331,"à¦ıà¦ıà¦²":3332,"à¦°à¦®à¦ľ":3333,"Ġpl":3334,"Ġà¦Ĩà¦ĩà¦²":3335,"à§ĩâĢĻ,":3336,"ÑĢÐ·ÐĿÑĢÐ¶":3337,"à§¨à§¦à§¦à§®":3338,"gmail":3339,"Ġà¦ıà¦¸à¦ıà¦®à¦ıà¦¸":3340,"Ġpeople":3341,"ight":3342,"Ġà§§à§¬à§¦":3343,"à¦¯à¦ĸà¦¨":3344,"à¦¶à¦ķà¦°":3345,"à¦ĺà¦²":3346,"à¦ļà¦ªà¦°":3347,"à¦®à¦¨à¦ĩ":3348,"Ġà¦¸à¦ľà¦²":3349,"Ġà¦ľà¦¨à¦ªà¦¦":3350,"à¦¬à¦¹à¦°":3351,"à¦ķà¦ªà¦ķ":3352,"à¦ĩà¦¨à¦Ł":3353,"à§Łà¦¨à¦Ĺà¦°":3354,"à¦ªà¦®à¦¨":3355,"à¦¿âĢĻ,":3356,"Ġcl":3357,"Ġà¦Ĺà¦«":3358,"Ġà¦ĩà¦īà¦ľ":3359,"Ġà¦ĵà¦ĩà¦¦":3360,"Ġà¦Łà¦ªà¦ķ":3361,"à¦ĺà¦¸":3362,"à¦¨à§Łà¦¨à¦ª":3363,"à¦¡à¦ĵà§Ł":3364,"à¦Ńà¦®":3365,"Ġsa":3366,"à¦ıà¦¸à¦ı":3367,"Ġà¦¬à¦§":3368,"à¦¤à¦ľà¦¨à¦ķ":3369,"à¦°à¦¤à¦°":3370,"à¦Łà¦ķà¦®":3371,"Ġà¦«à¦ľ":3372,"oc":3373,"Ġà¦Ńà¦Ĺ":3374,"à¦łà¦ªà¦°":3375,"à¦Ľà¦ķ":3376,"Ġà¦ıà¦°à¦®à¦§":3377,"à¦°à¦®à¦¤":3378,"à§¦à§¬":3379,"à¦Ĥ,":3380,"Ġà¦Łà§Łà¦²":3381,"à¦¦à¦®à¦¤":3382,"Ġà¦¤à¦ĸà¦¨à¦ķ":3383,"Ġà¦®à¦¨à¦®":3384,"Ġà¦¯à¦ĸà¦¨à¦ĩ":3385,"Ġgo":3386,"Ġà¦¬à§ľà¦¦":3387,"à¦²à¦§":3388,"à¦ľà¦¨à¦¸":3389,"à¦¾âĢĮ":3390,"à¦²à¦¤à¦¬":3391,"Ġwww":3392,"à¦¬à¦īà¦¦":3393,"ĠL":3394,"Ġvery":3395,"Ġà¦¸à§Ł":3396,"à¦§à¦ª":3397,"à¦®à¦°à¦ķ":3398,"one":3399,"à¦²à¦¨à¦ķà¦ķ":3400,"Ġtr":3401,"Ġà§§à§¯à§Ńà§¨":3402,"à¦¸à¦ł":3403,"à§ĩà¥¤âĢĿâĢľ":3404,"ik":3405,"à¦°à¦¦à¦¤":3406,"à¦īà§İà¦¸à¦¬":3407,"Ġà¦§à¦°à¦¬":3408,"à¦ªà§Łà¦¸":3409,"à¦ķà¦ĩà¦¨à¦«":3410,"à§Ģà¦Ĥ":3411,"Ġà¦ĩà¦¨à¦«à¦°à¦®":3412,"Ġà¦®à¦¤à¦²à¦¬":3413,"Ġà¦ıà¦ķà¦ĩà¦¸à¦Ļ":3414,"ĊÂłĊÂłĊÂłĊÂł":3415,"Ġà¦¸à¦ªà¦°":3416,"à¦¤à¦¨à¦ķ":3417,"Ġà¦ıà¦«à¦¡":3418,"à¦ĩà¦¸à¦°":3419,"à¦¬à¦ªà¦°":3420,"Ġse":3421,"Ġà¦¸à¦¶":3422,"Ġà¦¬à¦®":3423,"à¦ļà¦ķà¦¦":3424,"Ġhas":3425,"Ġà¦ķà¦²à¦¹":3426,"Ġhim":3427,"Ġà¦ķà¦ĵà¦®":3428,"à¦°à¦ľà¦¨à¦¨":3429,"à¦°à¦Ńà¦Ļ":3430,"Ġà¦ıà¦²à¦¬":3431,"ĠïĤ":3432,"à¦ľà¦¨à¦ª":3433,"à¦¦à¦ķà¦°":3434,"à¦ĺà¦ķ":3435,"à¦£à¦ĺ":3436,"Ġà¦¦à¦¶à¦Ł":3437,"Ġà¦¸à¦ĵà¦ľ":3438,"ire":3439,"à¦īà¦ªà¦ķà¦°à¦£":3440,"à§¦à§¨":3441,"ong":3442,"Ġà¦«à¦²à¦ª":3443,"ind":3444,"Ġà¦ħà¦¬à¦§":3445,"à§«à§ª":3446,",âĢĿ":3447,"à¦ªà¦ķà¦°":3448,"ure":3449,"Ġà¦ıà¦¤à¦¦":3450,"à§Łà¦ķà¦¤":3451,"à¦ĩà¦ĩà¦ī":3452,"à¦ľà¦ĺà¦°":3453,"à¦¨à¦ĵà¦Ĺ":3454,"Ġà¦®à¦¦à¦¦":3455,"à¦°à¦Ŀ":3456,"Ġà¦Ĩà¦ĩà¦°":3457,"à¦ıà¦¸à¦ıà¦®à¦ıà¦®à¦ĩà¦ī":3458,"Ġà¦¨à¦¸":3459,"all":3460,"Ġà¦§à¦°à¦Ľ":3461,"à§Ńà§§":3462,"Ġà¦ķà¦¦à¦°":3463,"Ġà¦ıà¦®à¦°":3464,"Ġà¦ªà¦¦à¦ļ":3465,"à¦¨à¦ľà¦°":3466,"Ġà¦ħà¦¬à¦ľ":3467,"Ġà¦īà¦Ńà¦¯":3468,"Ġà¦Ĩà¦¹à¦°à¦£":3469,"âĢ¦":3470,"à¦ªà¦¶à¦¨":3471,"à¦¤à¦ªà¦°":3472,"à¦¦à¦°à¦ķ":3473,"ist":3474,"à¦Ńà¦Ł":3475,"à¦¨à¦Ĺà¦ŀ":3476,"Ġà¦Ĩà¦ªà¦¸":3477,"à¦ļà¦ĩ":3478,"Ġà¦ħà¦°à¦«":3479,"Ġà¦ļà¦ķà¦²":3480,"à¦£à¦°":3481,"Ġà¦ıà¦¸à¦¡":3482,"Ġj":3483,"Ġà¦ıà¦ĩà¦¡":3484,"Ġà¦ıà¦¯":3485,"à¦¬à¦¨à¦Ĺà¦°":3486,"able":3487,"Ġà¦¤à¦°à¦Ļ":3488,"à¦°à¦®à¦ª":3489,"à¦Ĺà¦Ń":3490,"à¦ıà¦¸à¦ĩà¦ī":3491,"Ġà¦°à¦ľ":3492,"à¦ªà¦ĩ":3493,"Ġà¦Ĩà§Łà¦¨":3494,"à¦Ĩà¦ĩà¦¨à¦ľ":3495,"à¦·à¦°à¦£":3496,"ib":3497,"Ġà¦ĵà¦¡":3498,"ÑĢÐ·ÐĽ":3499,"à¦¹à¦ªà¦°":3500,"other":3501,"lad":3502,"Ġà¦²à¦Ĺ":3503,"âķĿ":3504,"à¦¸à¦Ľ":3505,"Ġà¦ķà¦¦à¦®à¦¤à¦²":3506,"Ġà¦¬à¦Ľ":3507,"Ġà¦Ĩà¦¦à¦²":3508,"Ġday":3509,"à¦¸à¦¦à¦¦":3510,"Ġà¦ıà¦®à¦ı":3511,"Ġà¦¬à¦Ľà¦°à¦Ĺ":3512,"Ġà¦ªà¦¥à¦¸à¦Ń":3513,"à¦Ļà¦¤":3514,"à¦¶à¦¨à¦Ł":3515,"Ġ*":3516,"à¦Ļà¦²":3517,"Ġà¦īà¦ªà¦¸à¦ļ":3518,"à¦¯à¦®à¦ķà¦°":3519,"à¦¾...":3520,"à¦¤à¦°à¦¸":3521,"à§«à§¦à§¦":3522,"Ġà¦¦à¦²à¦¬à¦¦à¦²":3523,"mp":3524,"à¦¨à¦¥":3525,"Ġà¦īà¦ªà¦ļ":3526,"à¦Łà¦°à¦ķ":3527,"Ġà¦Ĩà¦¸à¦¨à¦Ł":3528,"à¦¬à¦ķà¦°":3529,"à§§à§¦à§¦":3530,"Ġà¦¨à¦ĩà¦²":3531,"à¦¤à¦¹":3532,"*;":3533,"Ġyour":3534,"à§«à§©":3535,"Ġà¦ķà¦¨à¦ķ":3536,"à¦Ŀà¦°":3537,"Ġà§§à§¯à§¯à§Ń":3538,"Ġà¦¦à¦¨":3539,"à¦¨à¦ķà¦°":3540,"à¦²à¦ķà¦¸à¦¹":3541,"à¦Ĺà¦Ńà¦¬à¦¨":3542,"Ġà¦ıà¦ķà¦ķà¦Ń":3543,"à§ģ:":3544,"ÂłÂłÂłÂłÂłÂł":3545,"ĠWhat":3546,"à¦¿à¦ĤâĢĻ":3547,"à¦ļà¦²à¦ļ":3548,"à¦²à¦ĵà¦¯":3549,"Ġstud":3550,"Ġà¦¤à¦¤à¦ĩ":3551,"ĠâĢĭ":3552,"à¦Ĩà¦ĩà¦ı":3553,"Ġà¦ļà¦¡":3554,"ary":3555,"Ġà¦Ĩà¦Ĺà¦¤":3556,"à§ģà§ģ":3557,"à¦Ļà¦°":3558,"Ġà¦īà§Ł":3559,"à¦£à¦Ĺ":3560,"Ġà§ªà§«à§¦":3561,"Ġ5":3562,"à¦¡à¦¸à¦¹":3563,"Ġà¦ļà¦°à¦®à¦ªà¦¨":3564,"à¦£à¦®à¦¨":3565,")---":3566,"Ġà¦Ľà§Łà¦ľà¦¨à¦ķ":3567,"Ġà¦Ĩà¦¯à¦®":3568,"à¦ķà¦ĸ":3569,"Ġà¦ķà¦¡":3570,"à¦¶à¦¬à¦ª":3571,"Ġà¦Ĩà¦ľà¦®à¦²":3572,"âķ¢":3573,"à¦ķà¦Ľà§ľ":3574,"à¦īà¦ĩà¦¨":3575,"à¦¼à§ĩ,":3576,"Ġà¦¬à¦ĸà¦¤":3577,"à§¨à§¦à§¦à§Ń":3578,"à¦°à¦¨à¦¦":3579,"à¦¨à¦®à¦¤":3580,"à¦ıà¦®à¦ıà¦«":3581,"à¦īà¦«à¦²":3582,"Ġà§§à§¦à§«":3583,"Ġà¦Ĩà¦²à¦«":3584,"Ġà¦ªà¦°à¦ķ":3585,"Ġà¦¯à¦ķ":3586,"Ġà¦ħà¦Ĺà¦£":3587,"Ġà¦¬à¦¸à¦¤à¦ĺà¦°":3588,"enc":3589,"à¦¹à¦Ł":3590,"à¦¦à¦¨à¦Ĺà¦°":3591,"à¦ıà¦®à¦ķ":3592,"Ġà¦¡à¦ľà¦¨":3593,"à¦¨à¦®à¦£":3594,"à¦®à§Łà¦ķà¦°":3595,"Ġà¦®à¦Ĺà¦¬":3596,"à¦°à¦ķà¦Ł":3597,"à¦Ĩà¦¸à¦¨":3598,"à¦¦à¦ľ":3599,"à¦Ĩà¦¬à¦¹":3600,"Ġà§§à§¯à§¯à§¨":3601,"à¦¸à¦ķà¦¦":3602,"à¦¬à¦ĩà§Ł":3603,"à§¬à§¬":3604,"à¦Ĺà¦£à¦¤à¦¨":3605,"à¦§à¦ĵ":3606,"à§¦à§§":3607,"Ġà¦īà¦ªà¦®à¦¨":3608,"à¦ıà¦ıà¦¸à¦Ĩà¦ĩ":3609,"à¦ħà¦¥à¦ļ":3610,"à¦īà¦¨à¦²":3611,"à§Ģ!":3612,"esh":3613,"à§Łà¦¬à¦¦":3614,"Ġà¦¬à¦Łà¦¤à¦²":3615,"Ġà¦®à¦¦à¦¨":3616,"à§ĩ'":3617,"ast":3618,"à¦¶à¦Ĺà¦¤":3619,"à¦īà¦ŀ":3620,"à¦ĵà¦¡":3621,"à¦¸à¦¦à¦ķ":3622,"Ġfol":3623,"Ġà¦¬à¦°à¦ķà¦¤":3624,"à§ĩà¥¤*":3625,"pr":3626,"Ġtheir":3627,"Ġà¦ħà¦¬à¦Ĺà¦¤":3628,"Ġà¦ķà¦ĩ":3629,"ks":3630,"à¦¦à¦ĸà¦²":3631,"Ġà§§à§¦à§§":3632,"à¦ľà¦¡":3633,"à¦ĵà¦ıà¦¸":3634,"Ġà¦ľà¦®à¦ľà¦®":3635,"Ġà¦ķà§Łà¦Ł":3636,"à¦īà¦ıà¦ĩà¦ļ":3637,"ost":3638,"ife":3639,"à¦°à¦«à¦°":3640,"à§ĩà¦¾-":3641,"ime":3642,"Ġà¦ĩà¦Łà¦ª":3643,"à¦ªà¦¦à¦¸":3644,"oy":3645,"Ġher":3646,"Ġà§§à§¨à§«":3647,"à§ĩ,âĢĿ":3648,"à¦¤à¦®à¦¨":3649,"Ġà¦§à¦²":3650,"ard":3651,"à¦ªà¦§":3652,"Ġà¦Ĩà¦²à¦Ń":3653,"à¦ľà¦ķà¦¦":3654,"à¦¬à§İ":3655,"Ġà¦Ŀà¦¡":3656,"à¦ħà¦®":3657,"à¦ĺà¦¬à¦¦":3658,"à¦¸à¦¬à¦ļ":3659,"Ġà¦Ĺà¦£à¦§à¦°":3660,"oug":3661,"à¦īà¦¶":3662,"à¦ĩà¦¨à¦®":3663,"à¦·à¦£à¦Ń":3664,"à¦°à¦¸à¦«":3665,"à¦īà¦Ľ":3666,"Ġà¦ĩà¦Ľ":3667,"à¦²à¦īà¦¦":3668,"Ġà¦¸à¦°à¦²":3669,"à§«à§§":3670,"à¦°à¦®à¦¬à¦°":3671,"Ġà¦¨à¦Ł":3672,"Ġthey":3673,"à¦Łà¦¶":3674,"à¦¨à¦¤à¦²":3675,"Ġà¦¤à¦°à¦®":3676,"Ġà¦īà¦ªà¦ª":3677,"Ġà¦¹à¦ĩà¦ļ":3678,"à¦ĵà¦ļ":3679,"âĢĪ":3680,"à¦¤à¦ªà¦ķ":3681,"à¦ĺà§ľ":3682,"à¦ĩà¦ªà¦²":3683,"à¦¨à¦°à¦¸":3684,"à¦ıà¦ıà¦¸à¦ª":3685,"Ġà¦Ĩà¦ĩà¦¨à¦ª":3686,"à¦Ĩà¦¨à¦¨":3687,"à¦ıà¦°à¦ĩ":3688,"à¦¦à¦ĩ":3689,"Ġà¦ĸà§ľ":3690,"Ġà§¦à§Ń":3691,"à¦¬à¦Ľà¦°à¦ĩ":3692,"à¦¹à¦ľà¦¨à¦ķ":3693,"à¦¨à§Łà¦¨à¦ķ":3694,"à§«à§¯":3695,"ÑĢÐ¶Ð¿ÑĢÐ¶":3696,"Ġà¦ķà¦¤à¦ľà¦¨":3697,"Ġà¦¶à¦¶":3698,"à¦Ĩà¦Ľ":3699,"ĠK":3700,"Ġà¦ĵà¦ªà¦°à¦ĵ":3701,"à¦ļà¦ĵ":3702,"à¦¼à¦¿,":3703,"Ġà¦ıà¦ıà¦«à¦¸":3704,"à¦®à¦°à¦£à¦¸à¦Ń":3705,"ĠÑĢÐ¶Ðº":3706,"Ġà¦¶à¦®":3707,"à¦¸à¦ĵà¦ľ":3708,"à¦·à¦§":3709,"à¦ıà¦¨à¦Ł":3710,"Ġà¦¦à§ľ":3711,"Ġà¦ıà¦²à¦¡":3712,"Ġà¦ķà¦¸à¦¬":3713,"à¦·à¦ľà¦¨à¦ķ":3714,"Ġfollow":3715,"Ġà§¦à§¬":3716,"ear":3717,"à¦ľà¦¨à¦Ĺà¦£":3718,"Ġsent":3719,"Ġà¦ĵà¦ľ":3720,"Ġà¦ļà¦ŀ":3721,"à¦Ľà¦¦":3722,"Ġà¦¸à§ľà¦ķà¦Ĺ":3723,"à¦¯à¦Ļ":3724,"Ġà¦ıà¦ķà¦ļ":3725,"à¦¯à¦®à§Ł":3726,"à¦§à¦¸à¦¹":3727,"à¦Ĺà¦£à¦®":3728,"à¦ªà¦ķà¦¥à¦¨":3729,"Ġ3":3730,"à§¨à§¦à§§à§¯":3731,"Ġabout":3732,"à§ĩâĢĵ":3733,"Ġà¦ıà¦¸à¦ı":3734,"Ġà¦ĩà¦®à¦ª":3735,"à¦°à¦®à¦¬":3736,"Ġà¦°à¦¥":3737,"à¦¸à¦Ĩà¦ª":3738,"à¦¬à¦ĸ":3739,"Ġà¦¦à¦®à¦ķà¦²":3740,"Ġà¦ıà¦ľà¦²":3741,"à§Łà¦¨à¦ķ":3742,"à¦ĩà¦ľà¦¡":3743,"à§ĩ)à¥¤":3744,"now":3745,"à§ĩà¦¾:":3746,"à¦°à¦®à¦¶":3747,"à¦Ĥà¥¤":3748,"so":3749,"à¦Łà¦°à¦¦":3750,"Ġcomp":3751,"à¦°à¦ķà¦ķ":3752,"à¦¦à¦¶à¦®":3753,"Ġà¦¬à¦¸à¦¤à¦¬":3754,"à¦·à¦£à¦¶":3755,"Ġà¦¸à¦ķà¦²à¦ķ":3756,"Ġà¦ľà¦¨à¦ĩ":3757,"Ġà¦ķà¦®à¦¨à¦ĵà§Ł":3758,"à¦¤à¦¬à§Łà¦¸":3759,"à¦ķà¦£":3760,"à¦¦à¦¯":3761,"Ġà¦¬à¦¨à¦Ń":3762,"Ġà¦¸à¦°à¦ĵà§Ł":3763,"à¦Łà¦ķà¦°":3764,"à¦Ĺà¦°à¦®":3765,"à§¬à§¨":3766,"à¦²à¦ķà¦°":3767,"Ġà¦Łà¦Ł":3768,"à¦ĩà¦®à¦°":3769,"à¦ıà¦ıà¦¨à¦ıà¦¸":3770,"Ġà¦¬à¦ķà¦¶":3771,"Ġà¦®à¦łà¦¬":3772,"à¦®à¦¨à¦ķ":3773,"à¦ıà¦«à¦¸":3774,"Ġà§§à§¯à§¯à§«":3775,"à¦¶à¦¨à¦Ĺ":3776,"Ġà§§à§¯à§¯à§ª":3777,"à¦°Ã¦à¦¤":3778,"Ġà¦ľà§Łà¦²":3779,"Ġà¦·à¦¡":3780,"Ġà¦¨à¦²":3781,"à¦¤à¦²à¦ķ":3782,"Ġà¦Łà¦°":3783,"à¦ªà¦ķà¦¥":3784,"Ġà¦ĩà¦ķà¦°":3785,"Ġà¦ħà¦ľà§Ł":3786,"Ġà¦¤à§ľ":3787,"Ġà¦¬à¦¸à¦Ľ":3788,"à¦ıà¦«à¦¬":3789,"Ġà¦®à¦¤à¦ª":3790,"à¦Ŀà¦²":3791,"anglad":3792,"à§į-":3793,"à¦łà¦Ĺà§ľ":3794,"à¦®à¦¹à¦²":3795,"Ġà¦¨à¦¡":3796,"Ġà¦ľà¦²à¦ª":3797,"à¦Ŀà¦¬":3798,"Ġà¦¸à¦«à¦²à¦Ń":3799,"à¦ľà¦¨à¦¤":3800,"à¦£à¦ĵ":3801,"ĠÑĢÐ¶Ð¥ÑĢÐ¶":3802,"angladesh":3803,"Ġà¦īà§İà¦¸à¦°":3804,"ult":3805,"Ġà¦ĵà§ľ":3806,"ff":3807,"ere":3808,"à¦·à¦ľà¦¨":3809,"à§Ģà¥¤âĢĻ":3810,"Ġcoun":3811,"ice":3812,"Ġà¦ľà¦²à¦¸":3813,"ence":3814,"Ġà¦ķà¦²à¦Ļ":3815,"à¦ĩà¦²à¦°":3816,"Ġà¦Łà¦²":3817,"ĠâĢĵ":3818,"à¦¯à¦¸à¦®":3819,"Ġà¦ħà¦ªà¦ļà§Ł":3820,"Ġà¦ıà¦®à¦Ń":3821,"Ġà¦¦à¦ĸà¦²à¦®":3822,"à¦ªà¦¸à¦¹":3823,"à¦¦à¦¨à¦ĵ":3824,"Ġone":3825,"Ġà¦ľà¦Ĺà§İ":3826,"Ġà¦ħà¦ªà¦ļ":3827,"à¦°à¦¤à¦®":3828,"Â¡":3829,"ÑĢÐ·ÐĹÑĢÐ¶Ð":3830,"Ġà¦Ĩà¦¦à¦¨":3831,"à¦²à¦¸à¦¨":3832,"ial":3833,"à¦Ĩà¦¹à¦¤à¦¦":3834,"à¦ıà¦²à¦ľ":3835,"à¦¸à¦¨à¦¬":3836,"Ġà¦Ĩà¦°à¦¶":3837,"Ġà¦ľà§Łà¦Ł":3838,"à§Ģ)à¥¤":3839,"Ġà¦ıà¦¨à¦°":3840,"Ġà¦®à¦ĵà¦²":3841,"à¦²à¦ķà¦ª":3842,"Ġpr":3843,"à¦Łà¦ķà¦²":3844,"à¦Ĩà¦§":3845,"à§¯à§¯":3846,"Ġà¦ıà¦¨à¦Ł":3847,"à¦Ńà¦°à¦¤":3848,"Ġà¦¹à¦ĩà¦ļà¦ĩ":3849,"à¦·à§Łà¦¬à¦¸":3850,"der":3851,"Ġïģ¬":3852,"Ġiv":3853,"Ġà§¦à§«":3854,"à¦ļà¦¡":3855,"uc":3856,"à¦¬à¦ļà¦°":3857,"à¦°à¦¬à¦¹":3858,"Ġà¦®à¦ĵà¦ķ":3859,"gl":3860,"Ġmy":3861,"Ġà¦ľà¦¨à¦®à¦¨":3862,"Ġà¦¥à¦®à¦ķ":3863,"à¦ıà¦°à¦¶":3864,"ther":3865,"à¦¨à¦·":3866,"à¦¼à¦¿à¥¤":3867,"Ġà§¦à§ª":3868,"à¦²à¦ķà¦²":3869,"ool":3870,"à¦ľà¦¤à¦¨":3871,"à¦ķà¦®à¦²":3872,"à¦¹à¦ł":3873,"à§Łà¦ĸ":3874,"Ġgr":3875,"Ġà¦²à§ľà¦Ľ":3876,"Ġà§¦à§®":3877,"Ġà¦Ĩà¦Łà¦ķà¦ķ":3878,"Ġà¦ķà¦®à¦²à¦Ĺà¦ŀ":3879,"à¦īà¦ªà¦¸":3880,"Ġà¦Ĩà¦¦à¦®":3881,"Ġà¦¬à¦Ľà¦°à¦ĵ":3882,"reat":3883,"à¦¬à¦¸à¦¨":3884,"Ġà¦¸à¦°à¦«à¦°":3885,"à¦¿...":3886,"à¦¨à¦īà¦¦":3887,"à¦£à¦§":3888,"à§Łà¦ľà¦¨":3889,"ĠïĤ¾":3890,"Ġall":3891,"à¦ĵà¦¹":3892,"à¦®à¦®à¦¤":3893,"Ġà§¦à§¯":3894,"Ġcountr":3895,"à¦Ĩà¦¹":3896,"ound":3897,"Ġà¦ªà¦¦à¦Ł":3898,"Ġà¦ıà¦¨à¦¸":3899,"à¦¸à¦®à¦¸":3900,"à¦ĩà¦īà¦¤":3901,"à¦¬à¦¹à¦¨à¦®à¦¨":3902,"Ġà¦ıà¦ķà¦°à¦ķà¦®":3903,"Ġà¦Ĩà¦¬à¦¶":3904,"à¦ªà¦¨à¦ķ":3905,"à¦¤à¦°à¦¬à¦Ļ":3906,"à¦°à¦£à¦ĵ":3907,"à¦łà¦ķà¦¦":3908,"Ġtime":3909,"Ġà§§à§¦à§¨":3910,"à¦ĩà¦¨à¦ļ":3911,"Ġbec":3912,"à¦¬à¦¶à¦¤":3913,"ĠThey":3914,"Ġà¦¦à¦²à¦ĵ":3915,"à¦¬à¦ªà¦¤":3916,"Ġà¦¡à¦°":3917,"Ġà¦¸à¦®à¦¤à¦²":3918,"à¦¤à¦¬à¦¦à¦²":3919,"Ġà¦¶à¦¹à¦°à¦¤à¦²":3920,"Ġà§¦à§¨":3921,"à§¨à§¦à§¦à§¬":3922,"ents":3923,"à¦ļà¦¤à¦°":3924,"à¦¹à¦¹":3925,"Ġà¦¸à¦®à¦ªà¦°":3926,"ÑĢÐ¶Ð¼":3927,"à¦Ĩà¦°à¦Ĩà¦ĩ":3928,"Ġde":3929,"Ġà¦ªà¦¦à¦®à¦°":3930,"ĠÑĢÐ¶Ðĸ":3931,"Ġà¦®à¦°à¦ķ":3932,"à¦Łà¦¸à¦¨":3933,"à¦¾à¦Ĥ,":3934,"à¦Ĩà¦¹à¦®":3935,"à¦·à¦¬à¦°à¦£":3936,"oth":3937,"Ġà¦ıà¦ıà¦¸à¦ª":3938,"Ġà¦Ĺà¦£à¦¬":3939,"ov":3940,"Ġà§§à§§à§¬":3941,"Ġà¦¯à¦¤à¦ķ":3942,"ip":3943,"à¦¬à¦¨à¦¬":3944,"à¦Ĩà¦ĩà¦Ń":3945,"Ġsaid":3946,"à¦¥à¦¦à¦£":3947,"à§§à§¯à§Ńà§§":3948,"Ġà¦°à¦ľà¦¨":3949,"à¦Łà¦ĵà¦¯":3950,"à¦¸à¦ĸ":3951,"Ġà§§à§¦à§ª":3952,"Ġà§§à§¯à§Ńà§©":3953,"Ġà§¦à§§":3954,"à¦ķà¦²à¦¨":3955,"Ġà§§à§§à§«":3956,"à¦¨à¦¦à¦£":3957,"à¦ĩà¦ŀ":3958,"Ġà§§à§¯à§®à§¬":3959,"ÃĲ":3960,"Ġà¦īà¦ªà¦¤":3961,"à¦²à§Łà¦¸à¦¹":3962,"ÑĢÐ¶Ð¶":3963,"Ġà¦ľà¦²à¦¦à¦¸":3964,").":3965,"à§Łà¦¨à¦°":3966,"à¦¡à¦¡":3967,"Ġà§§à§¦à§Ń":3968,"à¦Ĺà¦ķà¦°":3969,"à¦Ĩà¦ĩà¦ĩà¦ī":3970,"Ġà¦Ĩà¦ªà¦¡":3971,"à¦Ĩà§ľ":3972,"à¦¸à¦¹à¦¯":3973,"Ġlife":3974,"Ġà¦ļà¦¶à¦®":3975,"Ġthem":3976,"hen":3977,"à¦®à¦Ĺà¦¤":3978,"vi":3979,"à¦¸à¦«à¦°à¦®":3980,"Ġà§§à§Ńà§¦":3981,")--":3982,"à¦ıà¦¸à¦Ĩà¦°":3983,"à¦ľà§Łà¦ª":3984,"à§¬à§¯":3985,"à§¨à§¦à§¦à§ª":3986,"Ġà¦¦à¦°à¦¦":3987,"à¦²à¦¬à¦¨":3988,"à¦¾/":3989,"à¦§à¦¨à¦ķ":3990,"à¦¬à¦²à¦Ľ":3991,"Ġfollowing":3992,"Ġà§§à§¦à§©":3993,"Ġà¦²à¦ĺ":3994,"Ġà§§à§¦à§¬":3995,"à§ĭà¥¤âĢĿ":3996,"Ġà¦¶à¦¹à¦°à¦Ĺ":3997,"à¦Łà¦¸à¦ħ":3998,"à¦°à¦¹à¦¸à¦¨":3999,"à¦ĺà¦¬":4000,"à¦¶à¦Ļ":4001,"Ġà¦ĩà¦®à¦¦":4002,"à¥¤'":4003,"Ġà¦Ĺà¦¦":4004,"à¦ķà¦¸à¦¬à¦ľ":4005,"à§¦à§©":4006,"à¦ıà¦«à¦ıà¦²":4007,"à¦Ńà¦°à¦¯":4008,"Ġà¦īà§İà¦ĸ":4009,"Ġà§§à§¦à§¯":4010,"Ġthis":4011,"ans":4012,"à¦¾?âĢĻ":4013,"à¥¤ïģ¬":4014,"Ġen":4015,"à¦ķà¦ĵà§Ł":4016,"Ġà¦¨à¦°à¦ĵà§Ł":4017,"à¦ķà¦°à¦ª":4018,"Ġà¦ħà¦ĺà¦Łà¦¨":4019,"à¦²à¦°à¦¦":4020,"à§¬à§Ń":4021,"à¦ħà¦¨à¦²":4022,"à¦°à¦ļà¦²à¦¨":4023,"?(":4024,"Ġà§§à§¦à§®":4025,"Ġthere":4026,"Ġshould":4027,"Ġà¦Ĩà¦ľà¦ĩ":4028,"00":4029,"ĠWe":4030,"Ġà¦¦à¦°à¦ªà¦¤à¦¨":4031,"à¦ħà¦ªà¦°à¦¦":4032,"ful":4033,"ĠâĢ¢":4034,"chool":4035,"à§¬à§®":4036,"Ġà¦¹à¦°à¦®":4037,"Ġans":4038,"Ġà¦Ĩà§ľà¦¤":4039,"Ġà¦ªà¦²à¦ķ":4040,"Ġà§¦à§©":4041,"Ġà§§à§¯à§Ńà§ª":4042,"à¦¨à¦ªà¦¨":4043,"à¦īà¦ĩà¦¯":4044,"xt":4045,"Ġà¦ªà¦¦à¦¸":4046,"à¦¨à¦ľà¦¨à¦ĩ":4047,"Ġanswer":4048,"ĠĠĠ":4049,"Ġà¦ħà¦¤à¦°":4050,"Ġà¦ħà¦¦à¦ķ":4051,"Ġà¦Ĩà¦ĩà¦¬":4052,"à¦Ĩà¦ĩà¦ķ":4053,"ich":4054,"à¦ıà¦®à¦ıà¦®":4055,"à¦ĩà¦¸à¦¹":4056,"Ġà¦²à¦¬":4057,"Ġà¦ħà¦®à¦¨":4058,"Ġà§¨à§¦à§©à§¦":4059,"Ġà¦¨à¦ĸ":4060,"Ġshe":4061,"Ġà¦ıà¦ĵ":4062,"Ġà¦ĩà¦¸à¦¹":4063,"Ġà¦ľà¦¨à¦ľ":4064,"pl":4065,"à¦ıà¦¸à¦ıà¦¨":4066,"ition":4067,"Ġà¦¦à¦ĩ":4068,"à¦Ĳà¦¤":4069,"ĠÂ":4070,"Ġà¦¦à¦ĸ":4071,"Ġà¦¸à¦ĵà¦¦":4072,"rite":4073,"Ġà¦ĵà§ľà¦¨":4074,"à¦¦à¦ķà¦¸à¦¹":4075,"à¦¤à¦°à¦ªà¦¤":4076,"ied":4077,"à§Ńà§¨":4078,"Ġà¦¹à¦¤à¦¦à¦°":4079,"Ġà¦Ĩà¦ľà¦Ĺà¦°":4080,"Ġother":4081,"Ġà¦ħà¦¬à¦¤":4082,"à¦¿âĢĮ":4083,"Ġà¦Ĩà¦ªà¦²":4084,"à¦¹à¦Ĺ":4085,"à¦ĩà¦Ľà§ľ":4086,"Ġà¦ªà¦¥à¦ļà¦²":4087,"à¦ķà¦¬à¦°":4088,"à¦ıà¦ķà¦¨":4089,"à¦¸à¦ŀ":4090,"à¦¾à¦Ĥà¥¤":4091,"à¦¬à¦¸à¦¤":4092,"à§¨à§¦à§¦à§§":4093,"Ġà¦ľà¦ĺà¦¨":4094,"Ġà¦Ĩà¦¶à¦«":4095,"à¦¬à§Łà¦¸":4096,"à§Łà¦ķà¦ķ":4097,"à¦°à¦¥à¦®à¦Ł":4098,"à¦°à¦¸à¦ķ":4099,"ĠĠĠĠĠĠĠĠĠĠĠĠĠĠĠĠĠĠĠ":4100,"here":4101,"Ġà¦®à¦°à¦£":4102,"à¦§à¦¬à¦ª":4103,"à¦¯à¦°à¦ķà¦®":4104,"Ġà¦ķà¦®à¦ĩ":4105,"Ġà¦Ĳà¦ķà¦®à¦¤":4106,"à¦®à¦ķà¦Ń":4107,"à¦ıà¦ĩà¦¡":4108,"Ġà§§à§¨à§®":4109,"Ġwill":4110,"à¦¦à¦ķà¦¸":4111,"Ġà¦ĩà¦¨à¦Ł":4112,"Ġknow":4113,"Ġà¦¸à¦°à¦£":4114,"ise":4115,"Ġfri":4116,"à¥¤âĢĻâĢĺ":4117,"à¦ıà¦²à¦¡":4118,"iz":4119,"à¦°à¦¹à¦£à¦®":4120,"à¦ľà¦¨à¦Ł":4121,"à¦ıà¦ıà¦ĩà¦ļ":4122,"Ġà¦¤à¦¦à¦¬":4123,"à¦īà¦¯":4124,"à¦²à¦¨à¦Ĺà¦°":4125,"Ġà¦ĩà¦«":4126,"à¦¸à¦¬à¦¹":4127,"à¦¬à¦¨à¦Ł":4128,"Ġà¦Ĩà¦ĩà¦¸à¦ķ":4129,"Ġà¦ıà¦¹":4130,"Ġà§§à§§à§Ń":4131,"à¦²à¦¨à¦®":4132,"à¦ĩà¦®à¦¨":4133,"à¦ĸà§ľ":4134,"à§Ŀà¦¤":4135,"Ġà¦«à¦¯":4136,"Ġà¦ıà¦ĩà¦Ł":4137,"à¦°à¦¤à¦¨":4138,"à¦¤à¦¨à¦Ĺà¦°":4139,"ĠShe":4140,"à§Ńà§Ń":4141,"à¦¦à¦Ľ":4142,"Ġà§Ńà§«à§¦":4143,"à¦Ŀà¦®":4144,"Ġà¦Ĩà¦°à¦¸":4145,"à¦Ĩà¦ĩà¦ĵ":4146,"Ġà¦Ĩà¦Łà¦ľà¦¨à¦ķ":4147,"Ġà§¦à§§à§Ń":4148,"Ġà¦ıà¦ķà¦¸":4149,"Ġà¦Ķà¦·à¦§":4150,"Ġà¦Ĩà¦ĩà¦ķ":4151,"Ġà¦¤à¦ª":4152,"app":4153,"Ġà¦īà¦®à¦°":4154,"av":4155,"ĠĊĊ":4156,"ĠJ":4157,"Ġhad":4158,"à¦¨à§ľ":4159,"à¦Ĥ:":4160,"ach":4161,"à¦ĩà¦²à¦ķ":4162,"à§¦à§ª":4163,"à¦Ĺà¦®à¦Ĺà¦ŀ":4164,"ia":4165,"à¦²à¦¸à§ľà¦ķ":4166,"ences":4167,"Ġà§§à§§à§§":4168,"à¦Ŀà¦ķ":4169,"à¦¼à¦Ĥ":4170,"à¦ıà¦ĩà¦ļà¦¬":4171,"Ġà§§à§¯à§¯à§©":4172,"ÃĹ":4173,"Ġà¦Ńà§Łà¦Ļ":4174,"Ġà¦¸à¦¹à¦¨":4175,"à¦Ĺà¦²à¦ķ":4176,"Ġà¦ħà¦Ńà§Ł":4177,"Ġwere":4178,"à¦ħà¦Ł":4179,"à¦īà¦ĸ":4180,"Ġà§§à§¯à§Ńà§¦":4181,"Ġup":4182,"Ġà§§à§§à§¨":4183,"à¦¯à¦¦à¦²":4184,"à¦«à¦«à¦°":4185,"Ġà¦ĸà¦¸à¦¡":4186,"à¦ıà¦ĩà¦ļà¦¸":4187,"Ġà¦ĩà¦¶à¦°":4188,"ĠU":4189,"à§ĢâĢĶ":4190,"Ġpass":4191,"à¦²à¦Ŀ":4192,"à¦¥à¦ĩ":4193,"à¦°à¦¤à¦ķà¦°":4194,"Ġà¦ľà¦¨à¦¸à¦ļ":4195,"à¦°à¦®à¦£à¦Ń":4196,"à§¬à§ª":4197,"Ġà¦ıà¦ķà¦¦à¦®à¦ĩ":4198,"Ġx":4199,"ked":4200,"à¦§à¦ķà¦°":4201,"à¦¤à¦Ńà¦°":4202,"à¦Ĺà¦¤à¦¦":4203,"ue":4204,"à¦ĩà¦«à¦Ł":4205,"à¦£à¦®à¦¤":4206,"Ġà¦ħà¦ĸ":4207,"à¦Łà¦¨à¦ķ":4208,"Å¸":4209,"ob":4210,"ative":4211,"Ġ[":4212,"Ġà¦®à¦¨à¦Ł":4213,"Ġà¦ĵà¦ĩà¦¸à¦¬":4214,"Ġà¦ĺà¦¨à¦«":4215,"ÑĢÐ·Ð¯":4216,"Ġà¦Ĩà¦²à¦¬à¦¦à¦°":4217,"ĠY":4218,"à¦Ĩà¦ĩà¦ıà¦¨":4219,"à¦¬à¦¹à¦¤":4220,"Ġà¦¬à¦¦à¦°à¦Ĺà¦ŀ":4221,"à¦¥à¦ķà¦Ń":4222,"à§¬à§§":4223,"Ġà¦¬à§Łà¦ķà¦Ł":4224,"ĠBangladesh":4225,"Ġà¦ħà¦¬à¦²":4226,"à¦¾à¦ģ-":4227,"Ġà¦īà§İà¦¸à¦¬à¦®":4228,"à¦łà¦¸":4229,"Ġà¦Ĩà¦Łà¦²":4230,"à¦°à¦®à¦£à¦ķ":4231,"ĠÑĢÐ¶ÐŁ":4232,"Ġà¦Ĩà¦®à¦¬":4233,"ew":4234,"à¦Ĺà¦¨à¦¸":4235,"Ġà¦ľà¦ĵà§Ł":4236,"ings":4237,"à¦¦à¦²à¦Ł":4238,"ater":4239,"Ġ4":4240,"Ġà§§à§©à§«":4241,"Ġà¦ĩà¦¨à¦¶":4242,"Ġà¦ĩà¦¹à¦¸":4243,"Ġà¦ħà¦°à¦¬":4244,"à¦ıà¦«à¦¡":4245,"Ġà¦Ŀà¦°à¦¨":4246,"à¦°à¦¤à¦¤":4247,"Ġà¦¸à¦¬à¦Ł":4248,"à¦°à¦¬à¦¸":4249,"Ġà¦īà¦ªà§ľ":4250,"Ġà¦ķà¦¤à¦Ĺ":4251,"Ġà¦¨à¦Ĺà¦°à¦ķ":4252,"Ġà¦¶à¦Łà¦Ĺ":4253,"Ġà¦®à¦ľà¦¨":4254,"Ġà¦Ĺà¦¤à¦¬à¦Ľà¦°":4255,"Ġà¦Ľà¦²":4256,"Ġà¦Ŀà¦²à¦¸":4257,"à¦ªà¦ªà¦¤":4258,"Ġso":4259,"à¦¨à¦Ĺà¦¤":4260,"Ġà¦īà§İà¦ķà¦£":4261,"aus":4262,"à¦¹à¦ķà¦ķ":4263,"Ġà¦Ńà¦¬à¦¨à¦Ĺ":4264,"à§Łà¦®à¦ķ":4265,"à¦Ĩà¦°à¦ĩ":4266,"Ġsome":4267,"à¦Ĺà¦ľà¦¨à¦ķ":4268,"Ġar":4269,"ĠâĢĶ.":4270,"à¦¡à¦ĩ":4271,"Ġà§§à§¦à§¦à§¦":4272,"Ġlik":4273,"Ġà¦®à¦¬":4274,"à¦£à¦¶":4275,"à¦¬à¦ĺ":4276,"à¦°à¦£à¦Ń":4277,"âķĸ":4278,"ĠÑĢÐ¶Ð¼ÑĢÐ¶":4279,"à¦¨à¦īà¦²":4280,"à¦ıà§Ł":4281,"Ġà¦¸à¦¹à¦¸à¦®":4282,"Ġà¦ħà¦®à¦²":4283,"Ġà¦¶à¦¤à¦¬à¦°":4284,"à¦¿à¦Ĥ)":4285,"Ġgood":4286,"ub":4287,"Ġà¦Ĩà¦Ĺà¦°à¦¤à¦²":4288,"Ġà¦°à¦£à¦ľ":4289,"à¦¦à¦Ń":4290,"Ġà¦®à¦Ĺ":4291,"à¦¨à¦ĺ":4292,"à§Łà¦Ĺà¦ŀ":4293,"à¦¶à¦ķà¦ķ":4294,"à¦¶à¦¨à¦¸à¦¹":4295,"âĢº":4296,"Ġà¦Ĩà¦¹Å¸":4297,"à¥¤#":4298,"Ġdid":4299,"Ġà¦¬à¦ĩà¦Ľ":4300,"Ġà¦ħà¦¸à¦¤":4301,"à§ľà¦¤à¦²":4302,"Ġad":4303,"ÂłÂłÂłÂłÂłÂłÂłÂłÂłÂłÂłÂłÂłÂłÂłÂłÂłÂłÂłÂłÂłÂłÂłÂłÂłÂłÂłÂłÂłÂłÂłÂł":4304,"Ġà¦īà¦ĩà¦Ļ":4305,"Ġà¦¸à¦¹à¦¨à¦¶":4306,"Ġà¦ıà¦²à¦ª":4307,"Ġà§§à§§à§®":4308,"à¦¾à¥¤âĢĺ":4309,"Ġam":4310,"Ġà¦ĩà¦īà¦ıà¦¨à¦ĵà¦°":4311,"ĠâķĽ":4312,"Ġà¦ıà¦ķà¦¸à¦®à¦¯":4313,"Ġà§§à§¯à§ªà§Ń":4314,"à§ĩ!âĢĻ":4315,"Ġà§§à§¯à§®à§®":4316,"Ġà¦Ŀà¦ķ":4317,"à¦¯à§Łà¦¬à¦¹":4318,"à¦ľà¦¨à¦Ĺà¦°":4319,"Ġà§§à§§à§©":4320,"à¦Īà¦¶":4321,"Ġà¦ĩà¦ĩà¦īà¦°":4322,"Ġà¦°à¦ķà¦®à¦ĩ":4323,"à¦§à¦ľ":4324,"Ġà¦ĩà¦¥":4325,"Ġht":4326,"à¦Ĺà¦łà¦¨à¦ķ":4327,"à¦Łà¦ľà¦¨":4328,"à§¬à§©":4329,"Ġà§§à§§à§ª":4330,"à§İà¦ľ":4331,"Ġhttp":4332,"Ġà¦īà¦§":4333,"Ġà¦®à¦¨à¦ķ":4334,"à§ĩà¥¤'":4335,"à¦łà¦Ł":4336,"Ġschool":4337,"à¦ıà¦¸à¦ıà¦²":4338,"Ġà¦®à¦ľà¦¬":4339,"Ġà¦¸à¦«à¦°à¦°à¦¤":4340,"à¦ľà§Łà¦¨":4341,"à¦²à¦ķà¦®":4342,"ĠÑĢÐ¶Ð¸":4343,"Ġà¦¨à¦¸à¦°":4344,"à¦¨à¦ļà¦°":4345,"ild":4346,">>":4347,"Ġà¦Ĺà¦¹":4348,"Ġà¦Īà¦°":4349,"à§İà¦¸à¦ķà¦ķ":4350,"à¦°à¦¤à¦¹":4351,"orm":4352,"ally":4353,"Ġalso":4354,"à¦¯à¦¸à¦Ń":4355,"Ġà§§à§¯à§®à§¦":4356,"ÑĢÐ·ÐĲ":4357,"à§Łà¦ľ":4358,"Ġbr":4359,"Ġà¦ħà¦¨à¦Ń":4360,"Ġà¦ļà¦°à¦ķ":4361,"Ġà¦Ķà¦ªà¦¨":4362,"Ġà¦ķà¦ľà¦¨":4363,"à¦¡à¦¸à¦¨":4364,"Ġà¦ªà¦°à¦¬":4365,"à¦¶à¦¨à¦ĵ":4366,"à¦Ŀà¦ªà¦¥":4367,"à¦¯à¦ŀ":4368,"à¦Ĺà¦¨à¦Ń":4369,"Ġà¦ķà¦ĩà¦°":4370,"Ġà¦ıà¦¸à¦ķ":4371,"Ġà§§à§¨à§©":4372,"Ġà¦¸à§ľà¦ķà¦ªà¦¥":4373,"à¦¯à¦§":4374,"ine":4375,"ning":4376,"Ġà¦ĺà¦°à¦Ł":4377,"Ġà§¬à§«à§¦":4378,"Ġà§§à§¯à§®à§¨":4379,"à¦¨à¦¬à¦ľ":4380,"Ġcountry":4381,"Ġà¦Ĩà¦ķà¦®à¦²":4382,"ays":4383,"à§ľà¦°":4384,"Ġà¦ħà¦£":4385,"Ġà¦ıà¦¤à¦ĩ":4386,"Ġà¦ħà¦ªà¦°à¦ķ":4387,"Ġwords":4388,"Ġà¦¸à¦¹à¦®":4389,"alth":4390,"à¦¸à¦ķà¦ķ":4391,"sp":4392,"à¦¤à¦ªà¦¨":4393,"Ġà¦ħà¦²à¦¸":4394,"Ġà¦¨à§Łà¦¤":4395,"Ġà¦¦à¦²à¦¨":4396,"à¦ļà¦Ĺà¦¡":4397,"à¦§à¦Ĺ":4398,"Ġà¦ıà¦ĩà¦ļà¦¡":4399,"Ġà¦¶à¦®à¦¸":4400,"Ġà¦¥à¦®":4401,"ÑĢÐ¶Ð¾ÑĢÐ¶":4402,"à¦Ĺà¦¤à¦¬":4403,"The":4404,"à¦Łà¦ķà¦®à¦ķ":4405,"Ġà¦°à¦¦à¦¬à¦¦à¦²":4406,"Ġ?":4407,"ree":4408,"Ġà¦Ĩà¦ł":4409,"Ġà¦Ĩà¦Ĺà¦²":4410,"Ġà¦īà¦Ńà§Łà¦ªà¦ķ":4411,"pp":4412,"Ġà¦¸à¦«à¦Łà¦ĵà¦¯":4413,"Ġà¦¹à¦¤à¦¬":4414,"Ġà¦ľà¦¨à¦®":4415,"à¦ıà¦®à¦ıà¦²":4416,"Ġà¦ĭà¦£à¦ĸ":4417,"Ġà¦¬à¦ĩà¦¯":4418,"fer":4419,"à¦¿à¥¤âĢĺ":4420,"Ġà§§à§¯à§¦":4421,"à¦²à¦®à¦°":4422,"Ġà§§à§§à§¯":4423,"Ġà¦Ĩà¦ĩà¦ıà¦ıà¦¨à¦ıà¦¸":4424,"Ġà¦®à¦ķà¦¸":4425,"Ġà§§à§¨à§Ń":4426,"à¦£à¦ł":4427,"Ġà§¨à§¨à§¦":4428,"à¦ıà¦¨à¦ıà¦«":4429,"Ġà¦ıà¦¤à¦Ĺ":4430,"Ġà¦ħà¦Łà¦²":4431,"Ġà¦ıà¦²à¦¸":4432,"Ġdoes":4433,"Ġà¦«à¦ľà¦°":4434,"à¦¦à¦°à¦Ń":4435,"ĠEn":4436,"à¦¾.)-":4437,"Ġà¦Ĩà¦°à¦Ł":4438,"ĠÑĢÐ¶Ð¾":4439,"à§¨à§¦à§¦à§«":4440,"te":4441,"à¦¶à¦ªà¦¤":4442,"Ġà¦ľà¦¨à¦¬":4443,"à§Ĥ-":4444,"?âĢĿ":4445,"Ġà¦¤à¦ķà¦®":4446,"à¦ıà¦®à¦Ł":4447,"à¦§à¦¶à¦¤à¦ķ":4448,"Ġà¦¨à¦®à¦¨":4449,"à¦¾âĢĿ":4450,"Ġà¦ķà¦²à¦¸":4451,"Ġà¦¤à¦¸à¦²":4452,"Ġimp":4453,"Ġà¦ĭà¦·":4454,"à¦°à¦ªà¦¥":4455,"à¦°à¦¡à¦Łà¦ķà¦®à¦ķ":4456,"à¦¹à¦¬à¦¨":4457,"Ġà¦īà¦ĩà¦¥":4458,"Ġà§§à§©à§¨":4459,"à¦ľà¦ªà¦°":4460,"Ġany":4461,"à¦¹à¦¨à¦ª":4462,"Ġà¦¸à¦«à¦°à¦¸à¦Ļ":4463,"à¦ĸà¦¦":4464,"ather":4465,"Ġà¦Ĩà¦²à¦ľ":4466,"à¦¸à¦®à¦¤":4467,"à¦ªà§İà¦¸":4468,"à¦¥à¦¹":4469,"à¦°à¦¬à¦ļ":4470,"à¦²à¦ľà§Ł":4471,"ĠâĢĺâĢĺ":4472,"à¦°à¦¹à¦®":4473,"à¦ĵà¦¹à¦°":4474,"à¦ķà¦Łà¦ķ":4475,"Ġà¦¨à¦ķà¦Ĩà¦īà¦Ł":4476,"à¦ħà¦ľ":4477,"à¦¸à¦«à¦°":4478,"à¦ľà¦²à¦Ń":4479,"Ġà¦®à¦°à¦Ĺ":4480,"Ġbl":4481,"ust":4482,"Ġà¦ħà¦¸à¦ļ":4483,"Ġ---":4484,"à¦°à¦¹à¦¨":4485,"Ġà§§à§¨à§§":4486,"Ġà¦¹à¦¸à¦ª":4487,"Ġquestions":4488,"à¦°à¦ĵà¦¯":4489,"à¦°à¦Ľà§ľ":4490,"Ġà¦ĺà¦·":4491,"Ġà¦Ľà¦¦":4492,"Ġsentences":4493,"à§ĩâĢĮ":4494,"Ġà§§à§¨à§¬":4495,"Ġà¦¦à¦®à¦ķ":4496,"Ġà§§à§¯à§®à§ª":4497,"à¦ĩà¦«à¦īà¦¦":4498,"Ġà¦¬à¦ĩà¦¤":4499,"à¦ªà¦Ļ":4500,"à¦ķà¦ĸà¦¨":4501,"Ġà¦ıà¦®à¦¨à¦ĵ":4502,"à¦ªà¦Łà¦¨":4503,"à¦¾!âĢĻ":4504,"Ġthan":4505,"à§ĥà¦Ĥ":4506,"Ġà¦ĸà¦¸":4507,"à¦ıà¦«à¦ı":4508,"Ġ10":4509,"à¦§à§ľà¦ķ":4510,"à§ģà§į":4511,"à¦¬à¦°à¦Ĺà¦ŀ":4512,"à¦®à¦®à¦Ń":4513,"à¦¦à¦ĵà§Ł":4514,"à¦®à¦¤à¦ķ":4515,"à¦ĩà¦ľà¦¨à¦ķ":4516,"Ġà¦¬à¦ĩà¦Ĺ":4517,",\"":4518,"Ġà¦ħà¦«à¦¸":4519,"à¦°à¦«à¦¤":4520,"à¦ıà¦ıà¦«à¦ª":4521,"Ġà¦¸à¦¬à¦ĸ":4522,"Ġà§§à§¨à§ª":4523,"ĠBut":4524,"Ġà¦ıà¦²à¦ıà¦¨à¦ľ":4525,"Ġà¦¿":4526,"à¦®à¦¦à¦ķ":4527,"à¦²à¦Ľà§ľ":4528,"Ġworld":4529,"han":4530,"à§İà¦ĩ":4531,"Ġà¦ħà¦²à¦ķ":4532,"à¦°à¦®à¦ķ":4533,"à§Ńà§®":4534,"à¦¬à¦¶à¦ķ":4535,"à¦£à¦¸à¦¹":4536,"Ġout":4537,"Ġà¦Ĩà¦²à¦Ł":4538,"Ġà§§à§¯à§®à§¯":4539,"à¦ıà¦®à¦ıà¦ĩà¦ļà¦¬":4540,"ÑĢÐ·ÐĿÑĢÐ¶Ð¿":4541,"à¦£à¦ĸ":4542,"Ġà§§à§¨à§¨":4543,"Ġà¦īà§İà¦ªà¦¤":4544,"à¦£à¦Ł":4545,"ious":4546,"à¦ªà¦Ń":4547,"Ġà¦ħà¦ªà¦¶à¦¨":4548,"Ġà¦ľà¦¨à¦¸à¦®à¦ķ":4549,"à¦²à¦ĩà¦¸à¦²":4550,"à¦¬à¦²à¦ĩ":4551,"à¦ªà¦°à¦ķ":4552,"Ġmother":4553,"Ġwho":4554,"Ġà¦¤à¦«":4555,"Ġà¦¸à¦¹à¦ľà¦²à¦Ń":4556,"à¦¶à¦ļ":4557,"Ġà§©à§¨à§¦":4558,"ber":4559,"à¦¸à¦¬à¦ĩ":4560,"Ġà¦¨à¦Ľ":4561,"Ġà¦¯à¦¤à¦¦":4562,"Ġà¦Ŀà¦²à¦ķ":4563,"à¦¼à§ĩà¦¾":4564,"Ġà¦ĵà¦Ĩà¦ĩà¦¸":4565,"à§¯à§¬":4566,"à¦ıà¦ıà¦Ĩà¦°":4567,"Ġà¦ħà¦¸à§İ":4568,"Ġà¦²à§ľà¦¬":4569,"Ġà¦Ĩà¦ĩà¦¨à¦¬":4570,"à¦ķà¦°à¦¤":4571,"à¦¯à¦ĸ":4572,"Ġà¦ıà¦²à¦ĩà¦¡":4573,"à§ĩâĢĿ":4574,"ĠĠĠĠĠĠĠĠĠĠĠĠĠĠĠĠĠĠĠĠĠĠĠĠĠĠĠĠĠĠĠĠ":4575,"Ġà¦¬à¦²à§Ł":4576,"Ġà¦ªà¦Łà¦Ń":4577,"Ġ-----":4578,"Ġà¦¹à¦ĩà¦²":4579,"Ġà¦¸à¦¹à¦¶":4580,"à¦īà¦Ĺ":4581,"à¦£à¦¬à¦¨":4582,"à¦Ĩà¦ĵà¦¯":4583,"Ġ--":4584,"à¦®à¦ªà¦ķ":4585,"à¦ļà¦ĺ":4586,"à¦·à¦¸à¦¹":4587,"à¦²à¦ªà¦¤":4588,"à§®à§«":4589,"ry":4590,"Ġbut":4591,"à¦ľà¦¨à¦ĵ":4592,"Ġà¦Ŀà¦²":4593,"Ġà§§à§¯à§®à§«":4594,"ÑĢÐ¶Ðº":4595,"Ġà¦Ńà¦°à¦ª":4596,"Ġà§¨à§©à§¦":4597,"Ġà§¨à§ªà§¦":4598,"Ġà¦®à¦¹à¦®":4599,"à¦¨à§Łà¦¨à¦®":4600,"à¦ıà¦«à¦ĩà¦īà¦ľ":4601,"ĠâĢĮ":4602,"à§ĢâĢĻà¥¤":4603,"à§Łà¦¨à¦¯":4604,"à¦£à¦ªà¦¦à¦ķ":4605,"à¦®à¦¸à¦®":4606,"Ġà¦ħà¦¥à¦°":4607,"à¦¤à§Ł":4608,"à¦ķà¦¶à¦ª":4609,"à§¨à§¦à§¦à§¦":4610,"ech":4611,"og":4612,"à¦®à§Łà¦¨":4613,"à¦ªà¦°à¦¦":4614,"âĢĶâĢĺ":4615,"à¦¬à¦²à¦¡à¦¨":4616,"Ġà¦ªà¦¥à¦Ł":4617,"Ġà¦Ĺà¦£à¦¯":4618,"day":4619,"Ġà¦ĩà¦ıà¦¸à¦ª":4620,"ÑĢÐ¶Ð¼ÑĢÐ¶":4621,"à¦ıà¦²à¦¸":4622,"ide":4623,"à¦ªà¦°à¦¶":4624,"Ġà¦Ŀà¦²à¦®à¦²":4625,"Ġà¦ķà¦ĸà¦¨à¦ĩ":4626,"Ġpo":4627,"à¦¹à¦ļ":4628,"ated":4629,"Ġà¦¹à¦°à¦£":4630,"Ġà¦īà¦ªà¦Ĺ":4631,"à¦ıà¦«à¦ıà¦«":4632,"à§ľà¦¹":4633,"à¦®à¦¸à¦ľ":4634,"à¦łà¦Ń":4635,"Ġà¦īà¦¹":4636,"Ġà§«à§«à§¦":4637,"Ġà¦Ĩà¦ĩà¦¨à¦ķ":4638,"Ġà¦Ĩà§Łà¦¶":4639,"Ġà¦īà¦¸à¦®":4640,"Ġag":4641,"à§®à§®":4642,"Ġà¦ħà¦¦à¦®":4643,"à¦ªà¦ĸ":4644,"à¦§à¦ķà¦°à¦£":4645,"à¦¡à§Łà¦¨":4646,"ix":4647,"à¦Ĳà¦ķ":4648,"à§ĭà¥¤\"":4649,"à¦¤à¦¬à¦¸":4650,"Ġgreat":4651,"à¦Ńà¦ª":4652,"Ġà¦°à¦¹à¦®à¦¤à¦Ĺà¦ŀ":4653,"Ġà§§à§«à§©":4654,"à¦ĩà¦īà¦¸":4655,"ïĢ":4656,"à¦°à¦£à¦¯":4657,"Ġà¦ħà¦°à¦£":4658,"ll":4659,"Set":4660,"ical":4661,"à¦¾à¥¤*":4662,"à¦ľà¦¤à¦²":4663,"Ġà¦ıà¦ıà¦ĩà¦ļ":4664,"à¦¾à¦ĥ":4665,"acher":4666,"à¦²à¦ķà¦¬":4667,"Ġà¦²à§ľà¦¤":4668,"Ġà¦ķà¦®à¦°":4669,"à¦¹à¦°à¦ķ":4670,"'à¥¤":4671,"à¦ĸà¦ķà¦¦":4672,"Ġmore":4673,"Ġà¦ıà¦ĩà¦ļà¦Ĩà¦ĩà¦Ń":4674,"Ġà¦ħà¦¸à¦¦":4675,"à¦«à¦«":4676,"à¦ıà¦ıà¦¨":4677,"à¦ĩà¦«à¦¤":4678,"Ġà§§à§¯à§«à§¨":4679,"az":4680,"à¦ĸà¦¸à¦¹":4681,"à¦ıà¦ķà¦¬":4682,"Ġà¦Ĩà¦¦à¦®à¦¦":4683,"Ġà¦¬à¦Ľà¦°à¦Ł":4684,"Ġà¦Ńà¦Łà¦Ńà¦Ł":4685,"ÑĢÐ¶Ð´ÑĢÐ¶":4686,"king":4687,"à¦¯à¦ľà¦¨à¦ķà¦Ń":4688,"à¦ħà¦¶":4689,"Ġà§§à§ªà§«":4690,"Ġà§§à§¯à§Ńà§®":4691,"ĠÂłÂł":4692,"à¦¨à¦¬à¦¦":4693,"Ġà¦Ĩà¦¹à¦®à¦¦à¦ķ":4694,"Ġà¦¤à¦°à¦«à¦¦":4695,"Ġà¦ħà¦ªà¦¶à¦ķ":4696,"Ġà§§à§¯à§Ńà§¯":4697,"à¦°à¦Łà¦¨":4698,"ĠÑĢÐ¶Ð¶":4699,"à¦°à¦ļà¦¨":4700,"Ġà¦ķà¦¦à¦®":4701,"Ġà¦ķà¦°à¦®":4702,"à§Łà¦¨à¦¦":4703,"à¦§à¦ªà¦°":4704,"Ġà¦¹à¦²à¦Ĺ":4705,"à¦ªà¦¨à¦ļ":4706,"Ġà¦ĺà¦°à¦®":4707,"à¦¤à¦ķà¦²":4708,"Ġà¦¹à¦¦":4709,"Ġà¦ħà¦¤à¦ıà¦¬":4710,"à¦Łà¦Ĩà¦ª":4711,"à¦¾à¦¿":4712,"à§©à§¦à§¦":4713,"à¦§à¦Ĺà¦®":4714,"hak":4715,"Ġà¦¬à§ľà¦²":4716,"Ġà¦¬à§Łà¦¸à¦¸":4717,"ĠOn":4718,"Ġà¦ľà¦®à¦ķ":4719,"à¦ķà¦¸à¦®":4720,"à¦Ľà¦¨à¦Ľ":4721,"Ġà¦¬à¦¨à¦¶":4722,"Ġcol":4723,"à¦°à¦¬à¦§":4724,"Ġà¦«à§Łà¦¸à¦²":4725,"ÂŃ":4726,"Ġà§§à§©à§¬":4727,"Ġ6":4728,"ory":4729,"à¦¨à¦¤à¦¤":4730,"Ġà¦ªà¦¸à¦°":4731,"Ġà¦¹à¦ĩà¦¬":4732,"à¦·à¦ķà¦¸à¦¹":4733,"Ġà¦ļà¦£":4734,"ough":4735,"Ġà§§à§Ńà§«":4736,"à¦ļà¦ªà¦¦à¦¸":4737,"Ġà¦ħà¦¯à¦¥":4738,"Ġà¦Ĩà¦¨à¦ļ":4739,"Ġà¦¤à¦Ľà¦¨à¦Ľ":4740,"Ġà§§à§¯à§®à§©":4741,"à¦ľà¦¨à¦ķà¦Ń":4742,"Ġà¦ħà¦¤à¦Ł":4743,"ie":4744,"ox":4745,"ÑĢÐ·ÐĳÑĢÐ¶":4746,"à¦īà¦²à¦ķ":4747,"Ġč":4748,"Ġà§§à§©à§ª":4749,"´ÑĢÐ¶":4750,"Ġà¦¶à¦°à¦£à¦ĸ":4751,"à§ªà§¦à§¦":4752,"ĠThere":4753,"Ġà§§à§®à§¯":4754,"fter":4755,"Ġà¦ļà¦°à¦«":4756,"Ġfood":4757,"Ġà¦¶à¦°à¦¬à¦¤":4758,"ĠTh":4759,"à¦ĩà¦Łà¦Ĺ":4760,"Ġà§§à§©à§®":4761,"Ġà¦īà¦¦à¦ĺ":4762,"ÑĢÐ¶Ð¸ÑĢÐ¶":4763,"à¦®à¦ļà¦¨":4764,"à¦Ĺà¦°à¦ª":4765,"à¦¨à¦¬à¦ª":4766,"Ġà¦ıà¦ķà¦Ĺ":4767,"Ġà¦Ĩà¦ĵà¦²":4768,"Ġà§©à§¬à§¦":4769,"à¦¨à¦¬à¦²":4770,"Ġà¦ħà¦ķà¦²":4771,"Ġà¦¨à¦Īà¦®":4772,"Ġà¦¤à¦²à¦¦":4773,"ÂłĊÂł":4774,"ities":4775,"à¦«à¦°à¦Ĺ":4776,"à¦¡à¦¹":4777,"à¦¯à¦¬à¦ĩ":4778,"act":4779,"à¦Łà¦Ļ":4780,"à¦Ĩà¦°à¦ıà¦¸":4781,"à¦ıà¦®à¦¨à¦Ł":4782,"Ġà¦ħà¦Ńà§Łà¦¨à¦Ĺà¦°":4783,"arm":4784,"ÂłÂłÂłÂłÂłÂłÂłÂłÂł":4785,"10":4786,"to":4787,"à¦¸à¦«à¦²":4788,"à¦¸à¦ķà¦®":4789,"Ġà§§à§¯à§®à§§":4790,"Ġà§§à§¨à§¯":4791,"¯ÑĢÐ¶":4792,"à¦¿.,":4793,"à¦¤à¦°à¦Ļ":4794,"Ġà¦Ĩà¦¨à¦ľ":4795,"Ġà¦ľà¦Łà¦²":4796,"à¦ĩà¦¸à¦Ĺ":4797,"Ġà¦ıà¦«à¦¸":4798,"Ġà¦¦à¦ĸà¦²à¦ķ":4799,"à¦¾-à§ĩ":4800,"à§¨à§¦à§¦à§©":4801,"Ġà¦ıà¦ĩà¦¡à¦¸":4802,"ĠEngl":4803,"Ġà¦ªà¦°à¦²":4804,"à¦¹à¦ĵ":4805,"Ġlike":4806,"à¦ľà§Łà¦ķ":4807,"à¦Ĩà¦°à¦ıà¦«":4808,"Ġïģ®":4809,"à¦ĵà¦²à¦ľ":4810,"Ġmany":4811,"Ġà¦īà¦¦à§Ł":4812,"Ġà¦°à¦Ł":4813,"Ġà¦ħà¦¸à¦¹à¦¯":4814,"à¦¬à¦¦à¦®":4815,"à¦¯à¦Ĺà¦¤":4816,"Ġà¦§à¦°à¦®à¦ª":4817,"Ġà¦ľà¦ķ":4818,"à§Łà¦¤à¦²":4819,"http":4820,"à¦ªà¦¦à¦®à¦¨":4821,"Ġà¦ĵà¦¤":4822,"à¦«à¦ĸà¦°":4823,"Ġà§§à§«à§ª":4824,"à¦®à¦¤à¦¬":4825,"Ġà§§à§¯à§®à§Ń":4826,"à¦°à¦ħà¦¨":4827,"à¦¸à¦ĺ":4828,"Ġà¦Ĩà¦ĩà¦ĵà¦ıà¦¸":4829,"Ġà¦ľà¦¨à¦¸à¦®à¦°":4830,"à¦·à¦°à¦¤":4831,"à¦§à¦ĩ":4832,"Ġà¦ļà¦¬":4833,"Ġà¦Ĩà¦¬à¦Ľ":4834,"ove":4835,"Ġà¦®à¦°à¦¤":4836,"Ġà¦ıà¦¸à¦ıà¦®à¦ĩ":4837,"ouse":4838,"à¦ĸà¦ķà¦°":4839,"Ġneed":4840,"Ġà¦Īà¦®":4841,"Ġà¦Ĺà¦£à¦Ĺ":4842,"Ġà¦Ĩà¦ĩà¦¸à¦²":4843,"Ġà§§à§¬à§«":4844,"à§į,":4845,"per":4846,"à¦§à¦®à¦ķ":4847,"Ġà¦«à¦²à¦ķ":4848,"Ġclass":4849,"à¦¸à¦ªà¦¨":4850,"à¦°à¦¹à¦ķ":4851,"Ġà¦Ĩà¦ļà¦®à¦ķ":4852,"à¦¼à¦¾à¦Ĥ":4853,"cc":4854,"à¦ıà¦ĩà¦ļà¦ıà¦¸":4855,"à¦¶à¦¨à¦¬":4856,"à§ľà¦Ĺ":4857,"Ġà§§à§ªà§¨":4858,"ause":4859,"Ġà¦ħà¦¨à¦¬à¦¦":4860,"Ġà§§à§©à§¯":4861,"ÑĢÐ¶Ð¥ÑĢÐ¶":4862,"ress":4863,"à¦¬à¦°à¦Ł":4864,"Ġà¦¸à¦¬à¦ķà¦Ł":4865,"à§¨à§¦à§¨à§¦":4866,"à¦ĩà¦īà¦ķ":4867,"Ġà§¨à§®à§¦":4868,"à¦¿?âĢĻ":4869,"à¦¦à¦¨à¦¬":4870,"à§Ģ;":4871,"à¦¦à¦²à¦ķ":4872,"à¦ĵà¦Ľ":4873,"Ġstudents":4874,"à§Łà¦°à¦ķ":4875,"Ġà¦¡à¦Ĺ":4876,"à¦¦à¦°à¦Ĺ":4877,"Ġmake":4878,"à¦¼âĢĻ":4879,"à¦łà¦ķà¦Ł":4880,"Ġà¦¶à¦¤à¦¤à¦®":4881,"Ġdif":4882,"à¦¦à¦īà¦¦":4883,"à¦ıà¦®à¦ĵ":4884,"Ġà¦Ĩà¦ĩà¦ıà¦®à¦ıà¦«":4885,"Ġà¦Ĩà¦ĸà§ľ":4886,"à¦¾à¦ģà¥¤":4887,"à¦°à¦ķà¦¨":4888,"ĉĉ":4889,"à¦ļà¦²à¦®":4890,"Ġà¦Ĩà¦ķà¦²":4891,"ĠSh":4892,"à¦°à¦Ĩ":4893,"ru":4894,"Ġà¦ļà¦ĵà§ľ":4895,"Ġteacher":4896,"Ġ...":4897,"à¦¯à¦¶à¦¸":4898,"à¦¦à¦®à§Ł":4899,"à§ĩâĢĻâĢĶ":4900,"Ġà¦Ńà¦¨":4901,"Ġà¦ħà¦¬à¦¬":4902,"Ġà¦¬à¦¸à¦¤à¦Ń":4903,"Ġà¦ķà¦¸à¦®":4904,"aj":4905,"Ġà¦ıà¦¡à¦ĵà§Ł":4906,"ack":4907,"à¦¨à¦¬à¦¸":4908,"à§ľà¦§à¦¸":4909,"à¦°à¦īà¦¤":4910,"Ġà¦Łà¦°à¦¨":4911,"à¦Ńà¦¦":4912,"à¦°à¦¨à¦®":4913,"Ġà¦¨à¦¬à¦Ĺà¦ł":4914,"à¦¯à¦ªà¦Ł":4915,"ĠÑĢÐ¶Ðķ":4916,"Ġà¦Ŀà¦Ł":4917,"Ġà§§à§«à§¨":4918,"Ġà¦¯à¦®à¦ľ":4919,"à¦¡à¦²à¦¸":4920,"Ġliv":4921,"à¦°à¦¥à¦®à¦¦":4922,"Ġà§¨à§Ńà§¦":4923,"à¦°à¦°à¦¹à¦®":4924,"ĠQ":4925,"ple":4926,"à¦¥à¦Ł":4927,"Ġbook":4928,"Ġro":4929,"à¦ªà¦ľà§Ł":4930,"Ġà¦ħà¦¨à§ľ":4931,"Ġwant":4932,"à¦ľà¦®à¦¹à¦²":4933,"Ġà§¨à§§à§¦":4934,"Ġfam":4935,"sh":4936,"à¦¾à¦¾":4937,"Ġà§§à§©à§§":4938,"à¦¨à¦ĺà¦°":4939,"Ġà¦Ĩà¦īà¦Łà¦¸":4940,"Ġà§§à§«à§«":4941,"Ġà¦ķà¦¬à¦ľ":4942,"Ġà§§à§©à§Ń":4943,"à¦¸à¦®à¦¨":4944,"ĊĊĊĊĊ":4945,"ead":4946,"Ġà¦ıà¦ķà¦ľ":4947,"tain":4948,"othom":4949,"à§§à§¯à§¯à§¬":4950,"Ġà¦¬à¦¨à¦ª":4951,"à¦Łà¦°à¦°":4952,"Ġà¦¸à¦¬à¦¸à¦®à§Łà¦ĩ":4953,"ĠEnglish":4954,"à¦ļà¦²à¦¬":4955,"Ġà¦ľà§Łà¦ķ":4956,"irect":4957,"Ġà¦ıà¦ĩà¦ļà¦ª":4958,"hed":4959,"Ġà§§à§ªà§Ń":4960,"Ġà§§à§©à§©":4961,"à¦ĩà¦Ļ":4962,"Ġà¦Ĩà¦īà¦Łà¦²":4963,"à¦¤à¦¹à¦¤":4964,"à¦Ĺà¦«à¦²":4965,"Ġcomm":4966,"Ġà¦ħà¦Ĺà¦£à¦¤":4967,"à¦¹à¦¨à¦Ĺà¦ŀ":4968,"à¦ıà¦²à¦ĵ":4969,"ÑĢÐ¶Ð¬":4970,"à¦ıà¦¸à¦ĩà¦īà¦ıà¦®":4971,"Ġà¦ªà¦¦à¦Ĺ":4972,"à¦¤à¦¨à¦Ń":4973,"Ġà¦¬à¦¨à¦¦à¦¸":4974,"Ġ/":4975,"à¦ļà¦¦à¦¶":4976,"Ġà§§à§ªà§®":4977,"à§ĩà¥¤ïģ¬":4978,"Ġread":4979,"Ġà¦¤à¦¹":4980,"Ġget":4981,"ts":4982,"à¦¤à¦¬à¦¸à¦®":4983,"à¦ĩà¦¸à¦Ł":4984,"ĠHow":4985,"à¦®à¦ĩà¦¨":4986,"Ġà¦Ĩà¦¤à¦²":4987,"à¦ħà¦ªà¦¹à¦°à¦£":4988,"à¦ļà¦²à¦Ł":4989,"Ġà¦¸à¦ĩà¦¤":4990,"Ġpre":4991,"Ġà§§à§®à§®":4992,"à¦¤à¦ķà§ľ":4993,"Ġwater":4994,"à¦Ĩà¦¶à¦°":4995,"à¦ļà¦¨à¦Ł":4996,"form":4997,"Ġà§§à§¬à§¨":4998,"à¦°à¦¡à¦Łà¦ķà¦®":4999,"à¦°à¦£à¦Ĺ":5000,"Ġà¦ĭà¦£à¦Ĺ":5001,"Ġà§§à§«à§§":5002,"Ġif":5003,"haka":5004,"à¦°à¦Ĩà¦ª":5005,"à¦§à¦²":5006,"à¦Ĩà¦ļ":5007,"à§Ńà§©":5008,"à¦¹à¦¸à¦¹":5009,"à¦·à¦¤à¦¬":5010,"à§¯à§«":5011,"Ġtext":5012,"ĠÑĢÐ¶Ð¸ÑĢÐ¶":5013,"Ġà¦¦à¦°à¦ĸ":5014,"ivers":5015,"à¦«à¦ª":5016,"à§Ńà§¬":5017,"Ġà¦¬à¦¹à¦¦":5018,"à¦¨à¦Ĩà¦īà¦Ł":5019,"à¦¶à¦§":5020,"à¦·à¦¹":5021,"à¦²à¦ĺà¦°":5022,"........":5023,"ody":5024,"ĊÂłĊÂłĊÂłĊÂłĊÂłĊÂłĊÂłĊÂł":5025,"Ġà¦¸à¦¹à¦®à¦°":5026,"Ġà¦«à¦²à¦®":5027,"irst":5028,"Ġà¦īà¦²à¦«":5029,"Ġà¦ªà¦¦à¦¬":5030,"Ġà¦¤à¦ĸà¦¨à¦ĵ":5031,"à¦Ńà¦²à¦¬":5032,"Ġà¦ıà¦¨à¦Ń":5033,"Ġà§§à§ªà§§":5034,"ĠCh":5035,"Ġà§§à§ªà§¬":5036,"à¦¾à§ĩ":5037,"Ġà¦ĩà¦īà¦²":5038,"Ġà¦¶à¦¹à¦°à¦ķ":5039,"à¦Ĩà¦°à¦ľ":5040,"Ġà¦ªà¦¹":5041,"Ġlet":5042,"à¦®à§Łà¦ķ":5043,"à¥¤âĢĶ":5044,"Ġà¦ľà§Łà¦¸":5045,"lp":5046,"Ġà¦Ĺà¦łà¦¨à¦®":5047,"Ġà§§à§ªà§¯":5048,"à¦ľà¦Ĺà¦¤":5049,"Ġà¦¹à¦²à¦¦":5050,"Ġà¦ıà¦¡à¦Ń":5051,"Ġword":5052,"à¦¡à¦ıà¦«":5053,"Ġà¦ªà¦¦à¦¯":5054,"à¦²à¦ŀ":5055,"Ġà¦¬à§ľà¦ª":5056,"à¦¤à¦ķà¦¦":5057,"à¦ªà¦¨à¦¸à¦°":5058,"ons":5059,"à¦Ĩà¦ĸ":5060,"ational":5061,"alo":5062,"ĠSo":5063,"Ġà¦ľà¦Ĺà¦¦":5064,"Ġà¦ĸà¦¨à¦¨à¦ķ":5065,"à¦£à¦ķà¦°":5066,"Ġà¦ıà¦ķà¦¤à¦²":5067,"à¦¯à¦ļà¦°":5068,"à¦®à¦®à¦¨":5069,"à¦ļà¦²à¦¨":5070,"ĊĊĊĊĊĠ":5071,"à¦ªà¦ļà¦°":5072,"Ġà§¨à§¦à§ªà§§":5073,"à¦ıà¦«à¦ª":5074,"à¦®à¦Ĺà§ľ":5075,"ÑĢÐ¶Ð¸ÑĢÐ·ÐĿÑĢÐ¶Ð":5076,"à¥¤:":5077,"à¦Ŀà¦¡":5078,"à¦Ĩà¦ĩà¦°":5079,"à¦ĤâĢĶ":5080,"educ":5081,"à¦¤à¦ĸ":5082,"à¦¤à¦«à¦¸":5083,"âĢĻâĢĵ":5084,"à¦¯à¦Łà¦¨à¦®à¦¨":5085,"Ġà§§à§ªà§©":5086,"Ġà§¨à§¬à§¦":5087,"Ġà¦ħà¦°à¦ķ":5088,"Ġà§§à§¯à§¬à§¯":5089,"Ġà¦Ĩà¦ĩà¦ķà¦¨":5090,"à¦Ĩà¦ĩà¦¯":5091,"à¦ķà¦Łà¦ª":5092,"à¦°à¦ıà¦ķ":5093,"âĢĮà§ģ":5094,"ond":5095,"à§Łà¦ļ":5096,"les":5097,"Ġà§§à§¬à§§":5098,"Ġà¦Ĩà§Łà¦°à¦¨":5099,"Ġà¦ħà¦ªà¦°à¦ľà¦¨":5100,"à¦¥à¦ĵ":5101,"Ġà¦²à¦²":5102,"Ġà¦ĵà¦¶":5103,"Ġà¦¦à¦²à¦¬":5104,"ange":5105,"à¦ľà¦²à¦¬":5106,"à¦°à¦ĭà¦£":5107,"Ġà¦Ľà¦Ł":5108,"Ġà¦ľà¦²à¦¢":5109,"Ġà§©à§Ńà§¦":5110,"à¦Ĺà¦°à¦¦":5111,"Ġà¦¹à¦ĩà¦¤":5112,"Ġhapp":5113,"à¦¬à¦²à¦¨":5114,"à¦ĩà¦Ĩà¦°à¦¸":5115,"à¦Ĩà¦Ĺà¦¸":5116,"Ġà¦¤à¦¬à¦²":5117,"Ġà¦¬à¦¶à¦°":5118,"à¦īà¦ªà¦¦":5119,"à¦¿à¥¤âĢĿâĢľ":5120,"ÑĢÐ¶Ð§":5121,"à§¨à§¦à§¦à§¨":5122,"à¦ĵà¦«":5123,"Ġà¦ħà¦ªà¦Ł":5124,"Ġev":5125,"Ġà¦¸à¦ĵà§Ł":5126,"à§Ńà§ª":5127,"Ġà¦īà¦ªà¦°à¦¨":5128,"à¦ķà¦¨à¦¸":5129,"à¦ļà¦²à¦Ĺ":5130,"à¦¦à¦¨à¦ª":5131,"Ġà¦¬à§Łà¦¸à¦Ń":5132,"Ġyear":5133,"à¦ľà¦ľ":5134,"ÂłÂłÂłÂłÂłÂłÂłÂłÂłÂłÂł":5135,"Ġwhich":5136,"à§ĩ),":5137,"à¦Ĩà¦ĩà¦¨à¦¶":5138,"row":5139,"Ġà§¨à§¨à§«":5140,"Ġà§§à§¯à§Ńà§¬":5141,"à¦ıà¦®à¦¨à¦ķ":5142,"Ġà¦ıà¦¨à¦ķ":5143,"à¦ķà¦Łà¦¬à¦°":5144,"Ġpassage":5145,"ick":5146,"à§®à§¦à§¦":5147,"à¦®à¦ĵà§Ł":5148,"eech":5149,"à§ĭâĢĻà¥¤":5150,"à¦¨à¦¸à¦ĩ":5151,"Ġà¦Ĺà¦®à¦¨":5152,"Ġà¦ĩà¦¬à¦¤":5153,"à¦Łà¦°à¦¯":5154,"Ġ8":5155,"Ġà¦ıà¦¨à¦Ĩà¦°à¦¸":5156,"Ġhealth":5157,"Ġà¦¬à¦¨à¦¬":5158,"Ġà¦ľà¦¨à¦¦":5159,"à¦¼:":5160,"ution":5161,"ose":5162,"à¦ĵà¦¥":5163,"Ġuse":5164,"Ġà¦¬à¦¦à¦¨":5165,"à¦°à¦¹à¦Ł":5166,"à¦Ĺà¦²à¦¨":5167,"Ġà¦ıà¦®à¦ıà¦²":5168,"à¦°à¦¤à¦¬":5169,"à¦°à¦¬à¦ķ":5170,"à¦¦à¦°à¦¨à¦Ĺà¦°":5171,"à¦ķà¦°à¦£à¦Ł":5172,");":5173,"à¦ªà¦Ľ":5174,"à¦¦à¦ķà¦®":5175,"Ġà¦ļà¦°à¦ª":5176,"à¦ıà¦²à¦ıà¦ĩà¦ļ":5177,"Ġà¦ħà¦¸à¦¹à¦¨":5178,"Ġà¦ĩà¦¸à¦ķ":5179,"Ġà¦Ĩà¦°à¦ķ":5180,"Ġà§§à§«à§®":5181,"Ġ19":5182,"Ġà¦Ĺà¦ŀ":5183,"Ġtoo":5184,"ïĢł":5185,"à¦¡à¦ľ":5186,"à¦ĩà¦¡à¦²":5187,"Ġà§§à§¯à§ªà§®":5188,"Ġà¦ħà¦§à¦°":5189,"à¦Łà¦°à¦ªà¦¨":5190,"Ġà¦ļà¦°à¦¬":5191,"à¦ıà¦¸à¦ıà¦¸à¦¸":5192,"Ġà¦Ĺà¦«à¦°à¦Ĺ":5193,"Ġà¦Ĺà§ľà¦²":5194,"Ġdis":5195,"Ġà¦¨à§ľà¦¬":5196,"Ġà¦§à¦¬à¦²":5197,"à¦ĩà¦¥":5198,"Ġà¦Ĩà¦¹à¦¤à¦°":5199,"Ġà¦¡à¦²à¦«":5200,"ĊĊĠÂł":5201,"à¦¿à¦¾":5202,"à¦ıà¦ķà¦¸à¦®à§Ł":5203,"à¦¬à¦Ĺà¦¤":5204,"Ġinter":5205,"à§ģâĢĵ":5206,"Ġà¦ªà¦®":5207,"à¦¯à¦®à¦Ł":5208,"Ġà¦ĸà¦ª":5209,"Ġà§¨à§¦à§¨à§¨":5210,"Ġfriend":5211,"Â¬":5212,"Ġà¦®à¦Ł":5213,"à¦Ĺà¦ļ":5214,"à¦ķà¦°à¦Ĺ":5215,"à¦ªà¦¤à¦¨":5216,"ren":5217,"à§İà¦¬":5218,"Ġbir":5219,"Ġà¦Ĩà¦°à¦ª":5220,"Ġhelp":5221,"à¦°à¦®à¦¹":5222,"à¦ĸà¦ļ":5223,"à¦Łà¦¬à¦²à¦ª":5224,"à§§à§¯à§Ńà§«":5225,"à¦ľà§Łà¦¨à¦Ĺà¦°":5226,"ily":5227,"à§ģ.":5228,"Ġà¦ıà¦ķà¦²":5229,",âĢĻ":5230,"Ġà¦¦à¦°à¦Ĺ":5231,"à¦ĩà¦īà¦¬":5232,"Ġà¦¸à¦¹à¦§à¦°":5233,"à¦°Ã¦à¦ª":5234,"à§Ńà§¯":5235,"Ġact":5236,"à§®à§©":5237,"à¦ıà¦ķà¦ĩà¦¸à¦Ļ":5238,"Ġà¦¸à¦ªà¦ķ":5239,"Ġà§¯à§¯à§¯":5240,"à¦īà¦ªà¦°":5241,"Ġà¦¨à¦¬à¦¬":5242,"Ġà¦ĩà¦¬à¦°":5243,"à¦¿âĢĿ":5244,"à¦ķà¦°à¦Ľ":5245,"Ġwork":5246,"Ġà¦Ĩà¦ĩà¦ıà¦¸à¦ª":5247,"prothom":5248,"Ġà¦ħà¦ªà¦°à¦Ł":5249,"Ġà§§à§«à§¯":5250,"ÂłÂłÂłÂłÂłÂłÂłÂłÂłÂł":5251,"à¦°à¦ľà§Ł":5252,"Ġà¦ľà¦¨à¦¬à¦¹":5253,"Ġform":5254,"Ġà¦Ĩà§Łà¦¤":5255,"à¦¸à¦¬à¦¨":5256,"Ġà¦¬à§Łà¦²":5257,"à¦ķà¦ķà¦°":5258,"Ġà¦¶à¦Łà¦Ł":5259,"Ġà¦°à¦ĺ":5260,"à¦¼âĢĶ":5261,"à¦®à¦§à¦¨":5262,"Ġà¦Ĩà¦®à¦Ĺ":5263,"à¦²à¦°à¦°":5264,"Ġà¦°à¦Ĺ":5265,"--------":5266,"Ġà¦¬à¦¨à¦Ĺ":5267,"Ġà¦ĩà¦īà¦ıà¦¨à¦¡":5268,"à¦¯à¦¬à¦ĩà§Ł":5269,"Ġà§§à§«à§¬":5270,"Ġà¦Ĩà¦ĩà¦ļ":5271,"à¦¨à¦¬à¦®":5272,"à¦ľà¦¸à¦ķ":5273,"Ġà¦Ĺà¦²à¦¦":5274,"Ġà¦ıà¦Ĩà¦ĩ":5275,"Ġà§§à§¬à§¬":5276,"Ġà§§à§¯à§Ńà§Ń":5277,"à¦ķà¦¨à¦ķ":5278,"Ġà¦Ľà§Łà¦¤à¦²":5279,"Ġà¦Ĩà¦²à¦Ĺ":5280,"à¦°à¦£à¦ª":5281,"Ġà¦ıà¦¬à¦Ľà¦°":5282,"à§®à§¯":5283,"Ġind":5284,",âĢĺ":5285,"à¦ıà¦ıà¦¨à¦ıà¦®":5286,"ĠV":5287,"Ġà¦Ĺà¦¡à¦«":5288,"Ġà¦¶à¦²":5289,"Ġà¦Ĩà¦ĩà¦ĩà¦¡":5290,"à¦·à¦£à¦ĵ":5291,"Ġtake":5292,"à¦ıà¦®à¦ıà¦ĩà¦ļà¦¸":5293,"à¦°à¦ķà¦¥":5294,"à¦°à¦ħà¦Ń":5295,"Ġà¦ķà¦°à¦¨":5296,"à¦«à¦ľ":5297,"Ġà§§à§¯à§¬à§¨":5298,"à¦Ĭ":5299,"à¦ĩà¦¤à¦²":5300,"Ġà¦¶à¦°à¦«":5301,"à¦Ńà¦§":5302,"ely":5303,"Ġà¦ªà¦ļà¦¨":5304,"à§ľà¦ľ":5305,"à§¬à§¦à§¦":5306,"Ġà¦ıà¦¤à¦ķ":5307,"à¦¬à¦¶à¦°":5308,"à¦Ľà¦®":5309,"Ġà¦®à¦ľà¦¹":5310,"à¦¸à¦ķà¦²":5311,"à¦Ĩà¦¯":5312,"gov":5313,"Ġà¦«à¦£":5314,"à¦ķà¦°à¦¬":5315,"à§Łà¦ķà¦¦":5316,"à¦·à¦£à¦ª":5317,"Ġpers":5318,"ĠÑĢÐ¶Ð¼":5319,"à¦Łà¦ľà¦ķ":5320,"Ġà¦ĩà¦īà¦Ń":5321,"umn":5322,"Ġà¦¹à¦ķà¦¸à¦¹":5323,"Ġà¦¹à¦Łà¦²":5324,"à¦ľà¦¨à¦¸à¦¹":5325,"Ġà¦īà§ľà¦¤":5326,"à¦£à¦¯":5327,"ĠNo":5328,"book":5329,"à¦·à¦£à¦®":5330,"à¦·à¦ķà¦¬":5331,"à¦Ĺà¦£à¦¤":5332,"ues":5333,"Ġà¦īà§İà¦ªà¦²":5334,"Ġà¦ĸà¦°à¦ļà¦ĵ":5335,"à¦²à¦¨à¦Ł":5336,"iet":5337,"à¦ĸà¦ĵ":5338,"à§ľà¦Ļ":5339,"ular":5340,"à¦ªà¦¦à¦ķ":5341,"elf":5342,"Ġà¦Ĺà¦ĵà¦¹à¦°":5343,"Ġtw":5344,"Ġà¦¦à¦²à¦®à¦¤":5345,"à¦°à¦ªà¦°à¦ĩ":5346,"ÑĢÐ¶ÐĹ":5347,".#":5348,"à¦£à¦ļ":5349,"à¦¿!âĢĻ":5350,"Ġimport":5351,"Ġà¦¹à¦ĩà¦Ľ":5352,"à¦£à¦ļà¦°":5353,"omet":5354,"Ġà¦¬à¦¨à¦ľ":5355,"Ġà§§à§«à§Ń":5356,"Ġà¦Ĩà¦¶à¦ķ":5357,"à¦Ĩà¦¡":5358,"ahoo":5359,"Ġlive":5360,"à¦Łà¦°à¦Ĺ":5361,"Ġà¦«à¦°à¦ľ":5362,"à¦ıà¦¸à¦ıà¦¨à¦¡":5363,"à¦°à¦ħ":5364,"Ġà¦Ĩà¦²à¦®à¦¡":5365,"à¦®à¦¶à¦¤à¦¬":5366,"à¦²à¦ļà¦¤":5367,"à¦¤à¦®à¦ŀ":5368,"Ġà¦Łà¦¬":5369,"à§ľà¦Ń":5370,"à¦¸à¦¯à¦ľ":5371,"à¦¼à§Ģà¥¤":5372,"à§ĩâĢĺ":5373,"Ġà¦Ĩà¦ĩà¦ıà¦¸à¦Ĩà¦ĩ":5374,"Ġmost":5375,"Ġà¦®à¦¹à§İ":5376,"Ġeduc":5377,"Ġ7":5378,"Ġà¦§à¦°à¦ª":5379,"à¦¨à¦§":5380,"à¦¡à¦§":5381,"vel":5382,"à¦¾à¥¤âĢĿâĢľ":5383,"à¦¯à¦¯à¦¨":5384,"Ġà¦¹à¦ĵ":5385,"ought":5386,"Ġà¦ĵà¦Ĺ":5387,"angu":5388,"âĢĻ!":5389,"Ġà§§à§Ńà§¬":5390,"yahoo":5391,"à¦Ĩà¦ŀ":5392,"Ġà§§à§¯à§«à§¦":5393,"Ġà¦Ŀà¦¨":5394,"à§®à§¬":5395,"Ġ''":5396,"ÑĢÐ·ÐĹÑĢÐµÐ´":5397,"à¦ıà¦«à¦Ĩà¦ĩ":5398,"à¦°Ã¦à§Ł":5399,"Ġà¦ľà¦²à¦®":5400,"à§İà¦¸à¦°":5401,".âĢĻ":5402,"Ġà¦¶à¦¬à¦¨à¦®":5403,"Ġà¦Ĩà¦Ľà§ľ":5404,"Ġà§®à§«à§¦":5405,"Ġevery":5406,"ĠYou":5407,"ĊĊĊĊĊÂł":5408,"Ġà¦¸à¦°à¦¸":5409,"Ġà§§à§¬à§Ń":5410,"à¦Ĺà¦¶":5411,"Ġà¦¬à§ľà¦¬":5412,"org":5413,"Ġà¦ıà¦«à¦ı":5414,"ĠWrite":5415,"à¦¸à¦ĵà¦¯":5416,"à¦Łà¦¡":5417,"à¦°à¦²à§Ł":5418,"Ġà¦Ĩà¦¦à¦¤":5419,"à¦ıà¦®à¦ľ":5420,"à¦¤à¦ķà¦¤":5421,"à¦¬à¦°à¦ª":5422,"Ġà¦®à¦«à¦¸":5423,"à§Łà¦£à¦ª":5424,"Ġasked":5425,"à¦ªà¦¨à¦Ł":5426,"à¦¿à§ģ":5427,"à¦ĩà¦¨à¦ĺ":5428,"Ġà¦®à¦¨à¦ª":5429,"Ġà¦§à¦®à¦ķ":5430,"Ġà¦¤à¦¤à¦¦":5431,"Ã¿":5432,"Ġà¦īà¦ľà¦¬":5433,"à¦ıà¦¨à¦Ĩà¦ĩ":5434,"à¦¬à¦¨à¦§":5435,"à¦Ĩà¦Łà¦ľà¦¨":5436,"Ġà¦ĵà¦¸à¦¬":5437,"à¦ļà¦¨à¦Ĺ":5438,"ÑĢÐ¶Ðª":5439,"à§®à§ª":5440,"à¦¨à¦§à¦°":5441,"Ġà¦ĵà¦ıà¦¸à¦¡":5442,"ase":5443,"à¦¥à¦ªà¦¥":5444,"Ġà¦¤à¦ķ":5445,"à¦Ĩà¦¦à¦°":5446,"à¦°à¦¹à¦¸":5447,"à¦®à¦¤à¦ª":5448,"à¦ķà¦ĺà¦°":5449,"à¦Ĺà¦¹":5450,"à¦¼!":5451,"à¦¤à¦°à¦ŀ":5452,"ĠÑĢÐ¶ÐºÑĢÐ¶":5453,"à¦®à¦ĺà¦°":5454,"à¦ıà¦¸à¦ıà¦¨à¦ıà¦²":5455,"Ġà¦§à¦¨à¦ķ":5456,"à¦¤à¦ķà¦ķ":5457,"Ġà¦ľà¦¨à¦ķà¦²":5458,"Ġà¦¸à¦ļà¦°":5459,"ite":5460,"##":5461,"Ġà¦¬à¦²à¦°":5462,"à¦Ĩà¦°à¦ķ":5463,"Ġpart":5464,"à¦ļà¦ķà¦Ń":5465,"ferent":5466,"à§®à§§":5467,"Ġover":5468,"Ġph":5469,"à¦ıà¦ľà¦¨":5470,"Ġà¦ıà¦ıà¦ĩà¦ļà¦ıà¦®":5471,"à¦łà¦ķà¦ķ":5472,"Ġà¦ľà¦²à¦ķ":5473,"à¦ĺà¦¶":5474,"Ġà¦®à¦Łà¦°":5475,"\",":5476,"à¦¸à¦ľà¦®":5477,"Ġonly":5478,"hes":5479,"à¦£à¦ĩ":5480,"Ġà¦Ĩà¦°à¦¡":5481,"Ġà¦īà¦ªà¦¶à¦¹à¦°":5482,"Ġà§§à§¯à§©":5483,"Ġà¦īà§ľà¦Ľ":5484,"à¦ľà¦Ĺà¦¨":5485,"Ġà¦¨à§ľà¦¬à§ľ":5486,"à¦ħà¦·":5487,"ĠAn":5488,"à¦ķà¦ľà¦¨à¦ĵ":5489,"Ġà¦Ĩà¦īà¦¶":5490,"igh":5491,"à¦ĩà¦²à¦ļ":5492,"à¦¬à¦¨à¦¨à¦Ĺà¦°":5493,"Ġà¦ļà¦°à¦Ń":5494,"à¦¾âĢĻâĢĶ":5495,"à¦¨à¦ķà¦ķ":5496,"ade":5497,"Ġà¦ķà§Łà¦°":5498,"Ġà¦ľà¦¨à¦¸à¦¹":5499,"ĠâĢĿ":5500,"Ġà¦ĩà¦īà¦ıà¦¸à¦ı":5501,"ends":5502,"Ġgiv":5503,"à§Łà¦¶":5504,"Ġà¦¬à¦°à¦¦":5505,"als":5506,"Ġà¦Ĩà¦²à¦®à¦¸à¦¹":5507,"Ġà¦Ĩà¦¤à¦¶à¦¬":5508,"à¦§à¦¯":5509,"à§ĩà¦¾âĢĻ":5510,"à¦·à¦£à¦¸à¦¹":5511,"à§®à§Ń":5512,"à¦¾(":5513,"Ġà¦§à¦ķà¦²":5514,"Ġà¦Ĩà§ľà¦¤à¦¦":5515,"à¦ĸà¦®à¦£":5516,"Ġwould":5517,"ict":5518,"Ġà¦Ĩà¦ĩà¦¯":5519,"à§Łà¦¸à¦¹":5520,"à¦ħà¦ŀ":5521,"à¦Ĩà¦Łà¦ķà¦ķ":5522,"Ġà¦ıà¦¨à¦Ĩà¦°à¦¬":5523,"à¦¸à¦ķà¦°":5524,"à¦®à¦¯à¦ľ":5525,"à§ģà¥¤âĢĻ":5526,"Ġà§§à§¨à§¦à§¦":5527,"à¦¾Â¤":5528,"à¦ĩà¦ĵà¦¯":5529,"Ġà¦¸à¦¦à¦°à¦ª":5530,"Ġlear":5531,"Ġà¦ħà¦¨à¦¤":5532,"edu":5533,"à¦īà¦ıà¦ĩà¦ļà¦ĵ":5534,"Ġvill":5535,"Ġà¦Ĩà¦§à¦ĺà¦£":5536,"Ġfirst":5537,"à¦·à¦¦à¦ķ":5538,"à¦®à§İà¦¸":5539,"à¦¸à¦¬à¦¶":5540,"ÂłÂłĊĊĊĊ":5541,"Ġà¦ħà¦ªà¦Ľà¦¨":5542,"à¦Ĩà¦ĩà¦¨à¦®à¦¨":5543,"Ġà¦ħà¦ªà¦¤":5544,"Ġà¦¬à¦Ľà¦°à¦ľ":5545,"Ġà¦¸à¦¨à¦¦à¦ªà¦¤":5546,"Ġà¦ķà¦¤à¦ķ":5547,"Ġà¦¤à¦°à¦ķ":5548,"Ġà¦Ĩà¦īà¦²":5549,"à¦ıà¦ķà¦ĩà¦Ń":5550,"ĠCom":5551,"à§®à§¨":5552,"du":5553,"à¦Ĩà¦°à¦¡à¦¬":5554,"Ġà¦¥à¦°":5555,"à¦Ľà¦²à¦¤":5556,"à¦ĩà¦ķà¦¬":5557,"à§Łà¦¨à¦¸à¦¹":5558,"à¦¨à¦¤à¦ķ":5559,"ash":5560,"acebook":5561,"Ġà¦īà§İà¦ªà¦¨":5562,"Ġà§§à§¯à§¬à§¬":5563,"à¦§à¦¬à¦¦":5564,"à§ĩà¦¾?":5565,"à¦«à¦ľà¦²":5566,"à¦ĩà¦®à¦§":5567,"à§ģ?":5568,"Ġear":5569,"à¦°à¦®à¦ĵ":5570,"Ġà¦¬à¦²à¦¬à§İ":5571,"à§¨à§§à§¨":5572,"anguage":5573,"à§¨à§§à§©":5574,"à¦¡à¦¦":5575,"à¦ªà¦¥à¦Ĺ":5576,"ĠâĢł":5577,"à§ĩà¥¤âĢĻâĢĺ":5578,"à¦ıà¦ĩà¦ļà¦ª":5579,"osition":5580,"Ġà§©à§¦à§¨":5581,"Ġà¦°à¦ľà¦¬":5582,"ens":5583,"Ġà¦īà¦¤à¦°":5584,"Ġà¦Ĩà¦¸à¦Ĺà¦°":5585,"à¦¼à§Ĥ":5586,"Ġà¦Łà§Ł":5587,"Ġhouse":5588,"čččččččč":5589,"Ġà¦®à¦²à¦®":5590,"Ġà§§à§¯à§¬à§¦":5591,"ĠĠĠĠĠĠĠĠĠĠĠĠĠĠĠĠĠĠĠčččččččč":5592,"01":5593,"à¦¬à¦°à¦¦à¦¸":5594,"čĠĠĠĠĠĠĠĠĠĠĠĠĠĠĠĠĠĠĠ":5595,"Ġà¦ľà¦¬à¦¸":5596,"ĠĠĠĠĠĠĠĠĠĠĠĠĠĠĠĠĠĠĠčččččččččč":5597,"Ġà¦¹à¦ĩà¦¨":5598,"à¦¹à¦¤à¦Ń":5599,"à¦¶à¦Ľ":5600,"à¦°à¦¤à¦¬à¦°":5601,"à§ĩà¦¾à¥¤âĢĻ":5602,"Ġà§§à§¬à§©":5603,"Ġà¦¸à¦°à¦Ĺà¦°à¦®":5604,"Ġà§§à§Ńà§ª":5605,"à¦¯à¦ªà¦°":5606,"à¦Ĺà¦°à¦ķ":5607,"à¦²à¦¶à¦¹à¦°":5608,"Ġpol":5609,"we":5610,"à¦ĩà¦¨à¦Ń":5611,"Ġà¦ľà¦²à¦ľ":5612,"Ġà§§à§Ńà§¨":5613,"à¦Ĺà¦Ńà¦°":5614,"à¦Ĩà¦ĩà¦ıà¦¸à¦ª":5615,"à¦¬à¦¤à¦ĩ":5616,"ÑĢÐ¶Ð¯ÑĢÐ¶":5617,"Ġsee":5618,"à¦°à¦¸à¦¨à¦ķ":5619,"à¦°à¦ıà¦ķà¦Ł":5620,"Ġà§¨à§¦à§«":5621,"Ġà¦Ĩà¦«à¦Ľ":5622,"à¦¬à¦°à¦ĸ":5623,"à¦¦à¦°à¦Ł":5624,"à§¨à§§à§ª":5625,"Ġà¦ıà¦¨à¦ª":5626,"ance":5627,"à¦¨à¦¬à¦°":5628,"Ġbu":5629,"Ġà¦¨à¦Łà¦°":5630,"Ġà¦īà§İà¦ķà¦°":5631,"Ġeat":5632,"Ġà¦¯à¦¤à¦¬":5633,"à¦ļà¦¨à¦ĵ":5634,"Ġà¦ľà¦Ĺà¦²":5635,"Ġlook":5636,"à¦ªà¦°à¦®":5637,"Ġà¦ıà¦ĩà¦¬":5638,"à¦ĩà¦ķà¦Ĺ":5639,"Ġà¦¹à¦ĩà§Ł":5640,"Ġà¦Ľà§Łà¦¬":5641,"Ġà§§à§¬à§®":5642,"ÑĢÐ¶Ð´ÑĢÐ·ÐĹ":5643,"Ġà¦ħà¦§à¦¸":5644,"atch":5645,"à¦·à¦ĸ":5646,"à¦²à¦ķà¦¨":5647,"à¦·à¦·":5648,"Ġà¦ªà¦¥à¦¨":5649,"à§ĢâĢĻ,":5650,"à¦¡à¦¬à¦²":5651,"à¦®à¦¤à¦Ń":5652,"wn":5653,"à¦¶à¦Ĺà¦ŀ":5654,"à¦ĩà¦īà¦Ł":5655,"à¦®à¦¸à¦Ł":5656,"à¦ıà¦ķà¦ªà¦°":5657,"Ġà¦¸à¦Ĺ":5658,")âĢĻ":5659,"à¦²à¦¨à¦ĵ":5660,"à§¨à§§à§«":5661,"à¦¥à¦¬à¦¹":5662,"Ġà¦Ĩà¦®à¦°à¦£":5663,"ject":5664,"à¦¼à¦¾)":5665,"Ġà¦¨à§Łà¦ľà¦¨à¦ķ":5666,"à¦īà¦Ńà§Ł":5667,"Ġà§¨à§¦à§§":5668,"ĠFill":5669,"In":5670,"à¦§à¦ĺ":5671,"à¦²à¦¸à¦ł":5672,"ile":5673,"Ġà§·":5674,"Ġà¦²à§Ł":5675,"Ġà§ªà§¨à§¦":5676,"Ġà¦ļà¦ķà¦ļà¦ķ":5677,"à¦·à¦£à¦ĩ":5678,"Ġà¦¡à¦®":5679,"à¥¤-":5680,"à§¯à§¨":5681,"Ġcould":5682,"Ġnew":5683,"à¦ĩà¦ĺ":5684,"à¦Łà¦§":5685,"Ġà¦ĸà¦¬à¦°à¦ĵ":5686,"à¦īà¦ĩà¦²":5687,"à¦°à¦£à¦ķà¦ķ":5688,"à¦®à¦¦à¦®":5689,"Ġà§§à§®à§«":5690,"ys":5691,"ÑĢÐ¶ÐĴ":5692,"à¦ªà¦¦à¦®":5693,"Ġsm":5694,"à¦¬à¦²à¦ķ":5695,"à¦ĩà¦Łà¦ĵà§Ł":5696,"à¦ĩà§ľ":5697,"à¦¹à¦ĵà§Ł":5698,"Ġsoc":5699,"ÑĢÐ¶Ð·":5700,"Ġà¦Ŀà¦Ĺà¦¡":5701,"Ġà¦ıà¦ıà¦ª":5702,"à¦¸à¦ķà¦Ĺ":5703,".)-":5704,"Ġà§§à§Ńà§§":5705,"à¦¬à¦¹à¦¨à¦¶":5706,"à§¯à§§":5707,"Ġà¦ıà¦¥":5708,"à¦¹à¦ĸ":5709,"à¦Ĩà¦¨à¦¸":5710,"à¦¨à¦ķà¦²":5711,"Ġà¦ıà¦®à¦ıà¦®":5712,"à§§à§¯à§¯à§¯":5713,"à¦Ĩà¦°à¦ĩà¦ī":5714,"Ġà¦ħà¦ĺ":5715,"ural":5716,"Ġà¦¸à¦¦à¦°à¦¦à¦ª":5717,"à¦¶à¦¨à¦®":5718,"Ġà¦ļà¦®à¦ķà¦ª":5719,"Ġà¦®à¦¹à¦¡":5720,"à¦ıà¦®à¦Ń":5721,"à¦ıà¦«à¦Ł":5722,"à§¯à§®":5723,"à¦¾,âĢĿ":5724,"Ġà¦ĸà¦¬":5725,"Ġchild":5726,"Ġ9":5727,"Ġà¦¬à¦²à¦ª":5728,"Ġfather":5729,"à¦ļà¦ķà¦ķ":5730,"Ġà§§à§®à§¨":5731,"à¦Ĩà¦¤à¦Ļ":5732,"Ġletter":5733,"à¦°à¦¸à¦®à§Ł":5734,"à¦ľà¦ķà¦¤":5735,"Ġafter":5736,"à¦Ĩà¦°à¦ıà¦®à¦ĵ":5737,"à¦®à¦²à¦®à¦¤":5738,"à¦Ĩà¦ĩà¦ıà¦®à¦ıà¦«":5739,"...à¥¤":5740,"ĠAs":5741,"Ġà¦īà¦Ńà§Łà¦ĩ":5742,"Ġà¦ıà¦ĩà¦ļà¦Ł":5743,"Ġà§§à§Ńà§Ń":5744,"à¦ľà¦¸à¦ľ":5745,"à§ľà¦ĩ":5746,"Ġà¦Ĩà¦ľà¦®à¦¤":5747,"à¦ĩà¦¨à¦¸à¦¹":5748,"à¦Ĺà¦²à¦ª":5749,"Ġà¦ªà¦¥à¦¶":5750,"Ġà¦¡à¦¬à¦²à¦®":5751,"Ġà¦¦à¦²à¦Ĺà¦¤":5752,"à§Ģà¥¤âĢĿ":5753,"Ġà¦ħà¦¨à¦§":5754,"air":5755,"lect":5756,"à¦·à¦ªà¦¥":5757,"à¦¤à¦¯":5758,"à¦ĩà¦īà¦ıà¦¨":5759,"Ġà§¨à§¯à§¦":5760,"à¦Łà¦°à¦Ł":5761,"à¦¾âĢĭ":5762,"Ġwell":5763,"à¦łà¦ķà¦°":5764,"itt":5765,"à§Łà¦®à¦¤":5766,"Ġà¦Ŀà¦ķà¦Ŀà¦ķ":5767,"Ġà¦Ĩà¦ĩà¦¨à¦¸":5768,"Ġà¦¸à¦«à¦°à¦Ł":5769,"à¦Ĩà¦®à¦¦":5770,"Ġà¦ķà¦®à¦²à¦¨à¦Ĺà¦°":5771,"Ġperson":5772,"ug":5773,"à¦°à¦¨à¦¬":5774,"Ġ)":5775,"Ġà§§à§¯à§¨":5776,"à§Łà¦°à¦¦":5777,"Ġà¦¸à¦®à¦®à¦¨":5778,"Ġsc":5779,"à¦ķà¦Ľà¦¡":5780,"Ġà¦Ĩà¦¹à¦²":5781,"Ġwrit":5782,"Ġà¦Ĺà¦£à¦ķà¦¬à¦°":5783,"âĢĿà¥¤":5784,"à¦¤à¦°à¦£à¦ķ":5785,"Ġà¦ļà¦°à¦®à¦Ń":5786,"hing":5787,"Ġà¦¶à¦°à§İ":5788,"Ġà¦¯à¦¤à¦Ĺ":5789,"Ġà¦ħà¦¬à¦¨à¦®à¦¨":5790,"Ġà¦ĸà¦¨à¦¨à¦¯à¦¨":5791,"à¦ľà§Łà¦¦":5792,"à¦²à¦¸à¦®":5793,"Ġà¦°à¦¸à¦¦":5794,"Ġà¦ªà¦¦à¦¬à¦ŀ":5795,"à¦¹à¦¨à¦Ĺ":5796,"Ġà¦®à¦ł":5797,"à¦ĩà¦¨à¦°":5798,"Ġbeen":5799,"à¦¦à¦¸à¦®":5800,"aw":5801,"Ġà¦¦à¦¬":5802,"à¦¦à¦¨à¦¹":5803,"Ġà§©à§©à§¦":5804,"à¦ľà¦¨à¦¬":5805,"Ġà§¨à§§à§«":5806,"Ġà¦ĺà¦¨à¦¤":5807,"à¦Ĩà¦ĩà¦ıà¦®":5808,"à§¨à§¦à§¨à§§":5809,"Ġà¦Ĩà¦·":5810,"Ġà¦¹à¦²à¦°":5811,"ĠDhaka":5812,"à§ģâĢĻà¥¤":5813,"à§§à§¯à§¯à§§":5814,"Ġà¦Īà¦¦à¦ķ":5815,"Ġà¦ıà¦®à¦Ł":5816,"Ġ|":5817,"à¦ĩà¦®à¦ļà¦°":5818,"Ġà¦ĩà¦īà¦ıà¦¨à¦ıà¦ĩà¦ļà¦¸":5819,"à¦¿|":5820,"Ġà¦Łà¦ķà¦¶":5821,"à¦°à¦£à¦®":5822,"Ġà¦ıà¦ĩà¦¸à¦¬":5823,"'-":5824,"Ġà¦¦à¦²à¦¬à¦²":5825,"Ġà¦ıà¦ĺà¦Łà¦¨":5826,"Ġà¦«à¦¸à¦ķ":5827,"ĠÑĢÐ¶Ð¬":5828,"à¦ľà¦¨à¦®à¦¤":5829,"à§¯à§Ń":5830,"à¦Łà¦°à¦¬":5831,"Ġà¦Ĭà¦·":5832,"Ġdr":5833,"Ġà¦Ĩà¦°à¦«":5834,"Ġà¦¨à¦«à¦²":5835,"eep":5836,"à¦¹à¦£":5837,"Ġfe":5838,"Ġfl":5839,"Ġà¦§à¦¬à¦²à¦§":5840,"Ġaw":5841,"Ġres":5842,"à¦ªà¦ªà¦°":5843,"Ġà¦ļà§Łà¦¨":5844,"Ġà¦ªà¦Ĺà¦¬":5845,"Ġà¦ķà¦¤à¦¦":5846,"Ġà¦¨à¦ĵà¦°":5847,"à¦¤à¦°à¦Ĺ":5848,"'s":5849,"à¦¹à¦¶":5850,"Ġà¦ħà¦ķà¦ªà¦Ł":5851,"Ġà§§à§¬à§¯":5852,"à§Ģ),":5853,"à¦¤à¦¹à§Ł":5854,"à¦ĵà¦ı":5855,"à¦ĩà¦ķà¦ª":5856,"Â¦":5857,"Ġà¦ħà¦¥":5858,"Ġà¦«à¦¸":5859,"à¦°à¦£à¦¸à¦¹":5860,"à§ĩ?âĢĿ":5861,"à§Łà¦¡":5862,"à¦¬à§Łà¦¹":5863,"cl":5864,"Ġbecause":5865,"Ġà¦ħà¦ľà¦¸":5866,"à¦¤à¦¨à¦ĵ":5867,"Ġper":5868,"à§Ģ'":5869,"à¦¸à§ľà¦ķà¦Ł":5870,"Ġà¦¸à¦¶à¦°":5871,"à§Łà¦°à¦¨à¦®":5872,"à¦¯à¦Ľ":5873,"Ġà§¨à§«à§¬":5874,"Â¯":5875,"Ġà¦ķà¦¤à¦¬":5876,"ital":5877,"à¦ĩà¦ľà¦Ń":5878,"à¦¿Â¤":5879,"à§ĢâĢĵ":5880,"gr":5881,"à¦¿)-":5882,"à¦¤à¦ļà¦°":5883,"à¦°à¦¤à¦¸à¦¹":5884,"Ġà¦ĩà¦°à¦¶":5885,"Ġdifferent":5886,"Ġà§§à§®à§©":5887,"à§ľà¦¸":5888,"à§¯à§ª":5889,"Ġname":5890,"à¦ĩà¦ĩ":5891,"à¦°à¦£à¦ªà¦¤":5892,"à¦Ĩà¦¹à¦¤à¦°":5893,"Ġrem":5894,"Ġcome":5895,"Ġà¦ħà¦ªà¦¤à§İà¦ªà¦°à¦¤":5896,"à¦¹à¦ķà¦¸":5897,"Ġà¦ıà¦¨à¦ĩà¦¸":5898,"Ġà¦¹à¦Łà¦¸":5899,"à¦°à¦¤à¦ĵ":5900,"Ġà¦Ĩà¦²à¦¸":5901,"ĠÑĢÐ¶Ð´ÑĢÐ¶":5902,"Ġà¦¬à§ľà¦ľ":5903,"à¦ĩà¦«à¦¸":5904,"ÂłÂłĊĊĊ":5905,"ĠÑĢÐ¶ÐºÑĢÐ·ÐĿÑĢÐ¶":5906,"Ġà¦¦à¦¶à¦ľà¦¨":5907,"ÑĢÐ¶Ð¶ÑĢÐ·ÐĹÑĢÐ¶":5908,"à¦¬à¦²à§Ł":5909,"à¦¥à¦ķà¦ķ":5910,"Ġà¦Ĩà¦²à¦ªà¦¨":5911,"iss":5912,"½ÑĢÐ¶":5913,"Ġà§§à§Ńà§©":5914,"ĠÂ¯":5915,"à§ĩà§ĩ":5916,"Ġà§§à§¯à§¬à§Ń":5917,"ĠÃĹ":5918,"Ġà¦ıà¦¸à¦¬à¦ĩ":5919,"eng":5920,"Ġimportant":5921,"ĠÂłĠÂłĠÂłĠÂłĠÂłĠÂłĠÂłĠÂł":5922,"à¦¸à¦°à¦²":5923,"Ġà¦ļà¦°à¦£":5924,"à¦īà¦ĩà¦ļ":5925,"à§¨à§§à§¦":5926,"Ġà¦Ĩà¦īà¦¯":5927,"ble":5928,"Ġà¦¹à¦°à¦Ń":5929,"à§§à§¯à§¯à§®":5930,"Ġà¦¬à¦Ľà¦°à¦¬":5931,"à¦¦à¦ĸ":5932,"à¦¶à¦®à¦¨":5933,"à¦ıà¦¸à¦ıà¦ĩà¦ļ":5934,"Ġà¦īà¦ĩà¦²à¦¸à¦¨":5935,"à¦¬à¦§à¦²":5936,"à§Łà¦¨à¦¬":5937,"à§¯à§©":5938,"Ġà¦¸à¦ĩà§Ł":5939,"ink":5940,"à§Ģà¥¤âĢľ":5941,"Ġsub":5942,"à¦ªà¦¦à¦¬":5943,"à¦¯à§Łà¦¨à¦°à¦¤":5944,"à¦²à¦¬à¦°":5945,"à¦Ĩà¦ĩà¦ĩà¦¡":5946,"Ġà¦Ŀà¦°à¦Ľ":5947,"à¦ĩà¦Łà¦¬":5948,"Ġà¦īà¦ªà¦ķà¦£":5949,"à¦¯à¦Łà¦¨à¦ķ":5950,"tic":5951,"Ġà¦¹à¦°à¦ķ":5952,"Ġà¦ħà¦¨à¦¬à¦°à¦¤":5953,"Ġà¦®à¦¨à¦¨":5954,"à¦Ĺà¦£à¦¸":5955,"à¦¤à¦§":5956,"à¦Łà¦¬à¦²à¦ķ":5957,"à¦ıà¦°à¦ªà¦°à¦ĩ":5958,"à¥¤...":5959,"à¦¤à¦ĺ":5960,"à¦°à§Łà¦¸":5961,"Ġà¦ĩà¦īà¦ıà¦¸à¦¬":5962,"Ġà¦¶à§Łà¦¤":5963,"à¦Ĺà¦¤à¦°":5964,"à¦ĩà¦Ľà¦¡":5965,"ions":5966,"à¦Ĩà¦¸à¦Ľ":5967,"amm":5968,"à¦Ĺà¦¯":5969,"à¦°à¦¡à¦¬":5970,"Ġà§§à§Ńà§®":5971,"gative":5972,"à§ģ!":5973,"Ġà¦ķà¦¤à¦ĸ":5974,"à§Ŀà¦Ń":5975,"Ġà¦°à¦£à¦ķ":5976,"à§ĩà¦¾à¦Ĥ":5977,"à¦¦à¦¨à¦Ĺ":5978,"Ġà¦ħà¦ķà¦¥":5979,"Ġà¦Ńà¦°à¦£à¦ª":5980,"à¦°à¦²à¦¸":5981,"à¦Ĺà¦£à¦ª":5982,"à¦Ĩà¦²à¦®à¦Ĺ":5983,"Ġà¦Ĩà¦ĩà¦¨à¦Ĺà¦¤à¦Ń":5984,"Ġà¦ľà¦²à¦¦":5985,"fo":5986,"Ġà¦ĸà¦²à¦¨":5987,"à§¯à§¦à§¦":5988,"Ġplay":5989,"Ġà¦¨à¦ĵà¦¯":5990,"Ġà§§à§¯à§¬à§«":5991,"Ġà¦ıà¦ķà¦Ŀ":5992,"à¦ıà¦®à¦ĩà¦īà¦ıà¦¸":5993,"Ġà§¨à§¨à§ª":5994,"à¦«à¦¸à¦¹":5995,"à¦ķà¦¸à¦ľ":5996,"Ġà§¯à§¯à§¦":5997,"à¦Ĩà¦ĩà¦ıà¦°":5998,"ĠAl":5999,"à§Łà¦ķà¦°":6000,"à¦·à¦£à¦Ł":6001,"à¦łà¦°":6002,"à¦·à¦£à¦¬":6003,"à¦¨à¦ķà¦¶":6004,"à¦ĩà¦īà¦ıà¦¸":6005,"Ġnow":6006,"Ġà¦ıà¦ķà¦ķà¦¥":6007,"à§§à§¯à§¯à§¦":6008,"à¦¶à¦°à¦£":6009,"Ġà¦¸à¦¹à¦ľà¦Ń":6010,"Ġà¦łà¦ķ":6011,"Ġà¦Ķà¦¦":6012,"Ġà§¨à§§à§©":6013,"à¦ĩà¦¨à¦Ĩà¦ª":6014,"ÑĢÐ¶Ð³":6015,"à¦Łà¦¬à¦¦":6016,"à¦¬à¦ľà¦¨à¦ª":6017,"Ġà¦°à¦ĵà¦¨à¦ķ":6018,"ĠÂłĠ":6019,"Ġà¦°à¦ĵà§Ł":6020,"verb":6021,"Ġà§¨à§¨à§¨":6022,"Ġhome":6023,"aper":6024,"à¦ªà¦ĩà§Ł":6025,"own":6026,"à¦Łà¦¯":6027,"Ġà¦¦à¦®à¦¦à¦®":6028,"Ġits":6029,"Ġà§§à§®à§§":6030,"âĹ":6031,"à§µ":6032,"ors":6033,"ĠWhen":6034,"Ġà¦Ĩà¦¸à¦¨à¦¸":6035,"Ġà¦ĩà¦īà¦Ľ":6036,"Ġà¦ķà¦¨à¦¡":6037,"Ġà§¨à§©à§ª":6038,"Ġà¦ĸà¦¤à¦®":6039,"Ġà¦¸à¦¬à¦¦":6040,"Ġà§§à§¯à§¬à§ª":6041,"ign":6042,"à§ģâĢĮ":6043,"Ġà¦¨à¦²à¦¡":6044,"à¦ĵà¦ªà¦°":6045,"à¦®à¦¸à¦ļ":6046,"Ġtwo":6047,"à¦ķà¦ĭà¦£":6048,"Ġà¦ªà¦¬à¦¨":6049,"Ġgap":6050,"à¦°à¦ıà¦ĩ":6051,"Ġà¦ıà¦®à¦¤":6052,"Ġà§§à§®à§Ń":6053,"Ġà¦ĩà¦¸à¦®à¦¤":6054,"Ġà¦ľà¦¨à¦Ĺà¦¨":6055,"Ġà¦ľà¦²à¦°":6056,"à¦¤à¦°à¦ĵ":6057,"à¦ľà¦²à¦ķ":6058,"âĹı":6059,"à¦ħà¦¨à¦¨":6060,"à¦¸à¦¨à¦¸à¦¹":6061,"à¦ļà¦ķà¦¬":6062,"à¦¿,âĢĿ":6063,"Ġ@":6064,"Ġnec":6065,"''":6066,"à¦ĸà¦Ĺ":6067,"à¦²à¦¸à¦¡":6068,"Ġstart":6069,"Ġà¦ħà¦¹à¦¨":6070,"à¦¡à¦²à¦ķ":6071,"Ġà§§à§®à§ª":6072,"à¦¯à¦ķà¦°à¦Ń":6073,"Ġcall":6074,"à§ĥ-":6075,"Ġagain":6076,"Ġà¦ıà¦¹à¦¤":6077,"Ġà§¨à§¦à§ª":6078,"Ġà§§à§¯à§¬à§®":6079,"12":6080,"Ġà¦ľà¦®à¦¤":6081,"Ġà§§à§«à§¦à§¦":6082,"Ġà¦¬à¦Ľà¦°à¦ķ":6083,"à¦®à¦ĵà¦¦":6084,"à¦°à¦¶à¦ķ":6085,"ĠHis":6086,"à¦·à¦ªà¦°":6087,"à¦ªà¦¦à¦¤":6088,"à¦²à¦¡à¦Łà¦ķà¦®":6089,"à¦Ĩà¦ļà¦°à¦£":6090,"Ġà§§à§Ńà§¯":6091,"Ġboy":6092,"Ġwhat":6093,"oney":6094,"à¦¶à¦¸à¦®":6095,"à¦¯à¦Ŀ":6096,"à¦¤à¦¨à¦¸à¦¹":6097,"ord":6098,"Ġà§Ńà§Ńà§Ń":6099,"à¦ıà¦ķà¦ķ":6100,"Ġà§¯à§«à§¦":6101,"Ġà¦°à¦ľà¦¤":6102,"Ġà§¨à§§à§Ń":6103,"Ġbox":6104,"get":6105,"à¦¸à¦¨à¦¦":6106,"à¦ľà¦²à¦¸":6107,"Ġà¦ıà¦°à¦ĩà¦®à¦§":6108,"Ġà¦Ĩà¦¸à¦¨à¦Ĺ":6109,"à¦¨à¦¸à¦ķ":6110,"à¦®à¦«à¦²à¦ķ":6111,"à¦¦à¦¯à¦¨":6112,"à¦ļà¦¸à¦¹":6113,"Ġà§©à§¦à§ª":6114,"ĠAns":6115,"Ġmeans":6116,"Ġà¦ĥ":6117,"à§ľà¦ĵ":6118,"Ġwhen":6119,"Ġà¦¨à¦²à¦Ľ":6120,"Ġà§§à§¯à§«à§ª":6121,"à¦¦à¦°à¦¤":6122,"à¦°à¦¶à¦®à¦¨":6123,"à¦¤à¦°à¦¬":6124,"Ġapp":6125,"Ġiiià¦Ĺ":6126,"Ġà§§à§¯à§§":6127,"Ġà§¨à§§à§¨":6128,"à¦ĩà¦¨à¦Ĺ":6129,"à¦ıà¦ĩà¦ļà¦ıà¦¸à¦¸":6130,"Ġà¦ľà¦¨à¦¶":6131,"à§¨à§§à§§à§":6132,"Ġfriends":6133,"uch":6134,"ty":6135,"à¦°à¦ĸà¦¨":6136,"Ġvillage":6137,"à§ģ)à¥¤":6138,"Ġà¦Ĩà¦¬à¦°à¦£":6139,"à¦Ĺà¦¤à¦¤":6140,")âĢĶ":6141,"à¦¬à¦ķà¦Ł":6142,"à¦Ĩà¦Ļ":6143,"Ġà¦¹à¦°à¦Ńà¦ľà¦¨":6144,"à¦²à¦¤à¦ĸ":6145,"à¦ħà¦¸à¦®":6146,"à§ľà¦Ŀ":6147,"Ġà¦ļà¦ª":6148,"à¦īà¦Łà¦¨":6149,"velop":6150,"Ġà¦¸à¦«à¦²à¦¤à¦®":6151,"ĊĊĊĊĊÂłĊĊĊ":6152,"Ġà¦īà§İà¦¸à¦¬à¦Ł":6153,"ÑĢÐ¶Ð¥ÑĢÐ·ÐĹ":6154,"Ġstr":6155,"?âĢĻâĢĺ":6156,"Ġà¦¬à¦¨à¦¸":6157,"Ġà§¨à§Ńà§«":6158,"à¦ļà¦°à¦®":6159,"Ġoff":6160,"à¦¦à¦¬à¦°":6161,"à§ĭ;":6162,"Ġà¦«à¦ķà¦°":6163,"Ġà¦Ĺà§ľà¦¬":6164,"ĠTr":6165,"à¦¤à¦¤à¦ªà¦ķ":6166,"Ġà¦ĭà¦£à¦¦":6167,"fore":6168,"à¦¬à¦²à¦²":6169,"à¦¥à¦ĵà§Ł":6170,"à¦®à¦£à¦ª":6171,"à¦®à¦¸à¦²":6172,"à¦®à¦ķà¦®":6173,"à¦ıà¦«à¦Ĩà¦ĩà¦¸":6174,"Ġeach":6175,"Ġplace":6176,"à¦°à¦¯à¦¨":6177,"à¦¯à¦ĺ":6178,"à¦ĵà¦ıà¦ĩà¦ļà¦ıà¦¸":6179,"à¦Łà¦ķà¦Ĺ":6180,"ĠInd":6181,"aut":6182,"à¦ĸà¦¨à¦¨":6183,"à¦¥à¦²à¦ľ":6184,"Ġlong":6185,"à¦ıà¦ĸà¦¨à¦ĵ":6186,"à¦īà¦ľà¦ķ":6187,"à¦¯à¦¨à¦¤":6188,"à¦ĩà¦ķà¦°":6189,"Ġpop":6190,"à§Łà¦¨à¦ĵ":6191,"Ġà¦ĭà¦£à¦ªà¦¤":6192,"anks":6193,"à§ĩâĢĭ":6194,"Ġà§¨à§¦à§¬":6195,"old":6196,"à¦¬à¦ıà¦ĩà¦¡":6197,"à¦īà§İà¦ķ":6198,"Ġà§¨à§¦à§¨":6199,"Ġà§§à§¯à§«à§®":6200,"à¦Ńà§İà¦¸":6201,"Ġà¦ªà¦¥à¦°":6202,"af":6203,"Ġinto":6204,"à§¨à§¨à§¦":6205,"Ġà¦¬à§ľà¦ĩ":6206,"à§§à§¯à§¯à§Ń":6207,"Ġà¦Ĺà¦Ĺ":6208,"Ġà§©à§¬à§«":6209,"Ġà¦®à¦¥":6210,"ased":6211,"ĠSet":6212,"à¦īà¦ĩà¦¦":6213,"à¦°à¦®à¦°":6214,"à¦¼à¦¿-":6215,"Ġà¦ħà¦ĸà¦£":6216,"Ġ.":6217,"à¦¦à¦¨à¦®":6218,"à¦ªà¦ķà¦ķ":6219,"Ġà¦ľà§Łà¦Ĺ":6220,"Ġsuit":6221,"à¦īà§İà¦ª":6222,"à¦¦à¦°à¦ª":6223,"Ġà¦ĺà¦¨à¦¬à¦¸à¦¤":6224,"Ġà¦ĺà¦¡":6225,"Ġà§¨à§ªà§¨":6226,"Ġ0":6227,"Ġà¦ķà¦Łà¦¨":6228,"à¦¬à¦¨à¦¸":6229,"Ġà¦¨à¦Ĺà¦£":6230,"à¦ĩà¦Łà¦ķ":6231,"à¦«à¦¦":6232,"à¦¬à¦°à¦¸à¦¹":6233,"à¦¬à¦¸à¦ķ":6234,"Ġmor":6235,"à¦¹à¦°à¦¦":6236,"Ġà¦Ĩà§Łà¦¬à¦¹":6237,"à¦¯à¦ªà¦¨":6238,"à¦¿âĢĻâĢĶ":6239,"Ġà¦ļà¦·":6240,"à¦«à¦°à¦®":6241,"Ġà¦ıà¦¸à¦ĩà¦¸":6242,"iety":6243,"à¦ľà¦ĸ":6244,"Ġà§¨à§¦à§©":6245,"Ġà§¨à§©à§¯":6246,"Ġà¦īà¦ĩà¦ĺ":6247,"ĠZ":6248,"à¦®à¦·":6249,"Ġà¦¸à¦¬à¦®":6250,"Ġà¦®à¦¤à¦Ń":6251,"ÂłÂłĠ":6252,"Ġunder":6253,"à¦Łà¦ķà¦ķ":6254,"à¦¯à¦®à¦£":6255,"à¦ķà¦ľà¦®à¦ķ":6256,"ting":6257,"à¦²à¦¨à¦¸à¦¹":6258,"Ġmay":6259,"à¦Ĩà¦¸à¦ķ":6260,"Ġà¦Ĩà¦²à¦ķ":6261,"Ġwent":6262,"ĠWhy":6263,"Ġà¦ĭà¦¦":6264,"à¦ļà¦²à¦ĵ":6265,"Ġà¦¥à¦²":6266,"à¦¦à¦ļ":6267,"info":6268,"ima":6269,"à¦¬à¦°à¦ĵ":6270,"à¦ıà¦°à¦Ĩà¦Ĺ":6271,"Ġà¦ıà¦¨à¦«":6272,"à¦ģà§ģ":6273,"à§ĩà¦¾)":6274,"à¦ªà¦ķà¦¦":6275,"Ġlanguage":6276,"Ġà¦ļà¦²à¦¨à¦¬":6277,"Ġà¦Ľà¦Łà¦«à¦Ł":6278,"Ġcame":6279,"Ġà¦¹à¦°à¦¹":6280,"à¦Ľà¦¯":6281,"ĠSt":6282,"à¦¦à§Łà¦¬":6283,"à¦°à¦¡à¦ķ":6284,"à¦łà¦ľà¦¨":6285,"11":6286,"alk":6287,"à¦ħà¦¬à¦¸à¦°":6288,"à¦°à¦Ĩà¦Ĺ":6289,"à¦ĩà¦ıà¦¸":6290,"à¦Ĺà¦£à¦¨":6291,"à¦¹à§Łà¦¤":6292,"à¦ĩà¦¨à¦¸à¦ķ":6293,"vii":6294,"goo":6295,"à¦¸à¦¸à¦ķ":6296,"Ġpres":6297,"Ġà¦Ńà¦¸":6298,"à¦ľà¦¨à¦Ĺ":6299,"Ġà¦Ĩà¦°à¦ıà¦¸à¦ıà¦¸":6300,"Ġold":6301,"à¦¿âĢĻ-":6302,"à¦¶à¦¨à¦ľà¦Ł":6303,"à¦Ńà¦ĵ":6304,"Ġà¦Ĺà¦¯":6305,"Ġà§§à§¯à§ª":6306,"Ġà¦ªà¦¦à¦ķà¦ª":6307,"formation":6308,"à¦ķà¦¨à¦Ĺà¦°":6309,"à¦Łà¦¤à¦ĩ":6310,"Ġà¦ķà¦¹":6311,"à¦ĵà¦®à¦°":6312,"à¦°à¦®à¦¶à¦ķ":6313,"Ġà¦«à¦²à¦Ł":6314,"à¦¶à¦¶":6315,"Ġà¦ªà¦°à¦Ĺà¦¨":6316,"ĠSp":6317,"à¦²à¦¸à¦ķ":6318,"ĠAt":6319,"Ġà¦Ĺà¦ļ":6320,"à¦°à¦£à¦¸à¦®":6321,"Ġà¦¤à§İà¦¸":6322,"à¦²à¦¹à¦ľ":6323,"Ġà¦ĵà¦ķà¦¸":6324,"ĠÑĢÐ¶Ð§":6325,"à¦¸à¦¶":6326,"Ġtak":6327,"à¦ªà¦ķà¦¤":6328,"à¦ħà¦¯":6329,"à¦°à§Łà¦ķà¦°":6330,"à¦¹à¦ĩ":6331,"à¦ľà¦¬à¦¨":6332,"Ġà§§à§®à§¬":6333,"Ġà¦¶à¦ªà¦¥à¦¬":6334,"ĠÑĢÐ¶Ð¾ÑĢÐ¶":6335,"Ġmade":6336,"Ġhow":6337,"Ġà§¨à§§à§ª":6338,"stit":6339,"ÑĢÐ·ÐĿÑĢÐ¶Ð¿ÑĢÐ¶":6340,"à¦°à¦²à¦¸à¦Ń":6341,"Ġà§¨à§©à§«":6342,"Ġhttps":6343,"à¦§à¦¨à¦®":6344,"Ġà¦īà§ľà¦¨":6345,"à§ĩà¥¤#":6346,"Ġnecess":6347,"à¦¦à¦ķà¦®à¦£":6348,"ÂłÂłÂłÂłÂłÂłÂłÂłÂłÂłÂłÂłÂłÂłÂł":6349,"à¦ľà¦¤à¦¬":6350,"Ġà¦ıà¦¨à¦Ĩà¦ĩà¦¡":6351,"à¦ªà¦ľà¦²":6352,"à¦°à¦¸à¦¦à¦¸":6353,"à¦¾âĢĻ-":6354,"Ġbet":6355,"à¦ħà¦¦":6356,"à¦Īà¦²":6357,"Ġbest":6358,"Ġrepl":6359,"Ġà¦¶à¦®à¦¶":6360,"à§ľà¦ª":6361,"led":6362,"Ġà¦¬à¦Łà¦®":6363,"Ġà¦¶à¦¤à¦°":6364,"Ġà¦®à¦Łà¦°à¦¸":6365,"ÂłÂłÂłÂłÂłÂłÂłÂłÂłÂłÂłÂł":6366,"à¦ĩà¦Łà¦¨":6367,"à¦·à§Łà¦ĵ":6368,"Ġkeep":6369,"à¦Ĩà¦¹à¦¸":6370,"orn":6371,"Ġmust":6372,"Ġà§¨à§©à§¨":6373,"à¦§à¦¹à§Ł":6374,"Ġ(-":6375,"ĠUn":6376,"any":6377,"Ġà¦ıà¦ķà¦§":6378,"à¦Ĩà§Łà¦¨":6379,"Ġà¦¨à¦ĵà¦«":6380,"Ġà¦ĩà¦īà¦ıà¦¨à¦¬":6381,"à¦¯à¦®à¦ŀ":6382,"à¦ħà¦Ļ":6383,"Ġà¦ıà¦«à¦ıà¦®":6384,"à¦ĵà¦Ĩà¦ĩà¦ª":6385,"à¦°à¦«à¦ķ":6386,"Ġà¦Ĩà¦ĩà¦ĵ":6387,"facebook":6388,"à¦¤à¦°à¦ĸ":6389,"Ġà¦ıà¦²à¦Ĩà¦°à¦¬":6390,"gan":6391,"oh":6392,"à§ĩÂ¡":6393,"à¦ĩà¦ľà¦®":6394,"à¦¬à¦¹à¦£":6395,"à¥¤(":6396,"à¦¬à¦¨à¦¸à¦Ļ":6397,"à¦¸à¦¹à¦ľ":6398,"à¦ļà¦ķà¦Ł":6399,"Ġà¦¹à¦¤à¦Ńà¦®":6400,"à¦¬à¦ķà¦¨":6401,"à¦²à§Łà¦ĵ":6402,"Ġmuch":6403,"ian":6404,"à¦¹à¦²à¦¬":6405,"à¦Ļà¦Ľ":6406,"Ġà§¨à§¦à§®":6407,"Ġexp":6408,"Ġà§¨à§Ńà§¨":6409,"à¦Ĺà¦²à¦¬à¦¨":6410,"Ġà¦ľà¦¨à¦Ĺà¦£à¦ĩ":6411,"^à¦¾":6412,"Ġà¦ıà¦ķà¦ľà¦¨à¦ĵ":6413,"Ġresp":6414,"aren":6415,"Ġà¦ħà¦¨à¦¸":6416,"à¦¸à¦®à¦Ŀ":6417,"à¦²à¦¦à¦¹":6418,"à§Ģ?âĢĻ":6419,"Ġà¦ıà¦ĸà¦²":6420,"Ġà¦ħà¦Ľ":6421,"à¦¬à¦ľà¦¨à¦ķ":6422,"à¦¨à¦Ĺà§ľ":6423,"ÑĢÐ·ÐĹÑĢÐ¶Ð«":6424,"Ġà¦¸à¦®à¦·":6425,"Ġà¦ĺà¦¨à¦®":6426,"à¦¦à¦ķà¦¢":6427,"Ġinv":6428,"à¦²à¦¹à¦ķ":6429,"à¦¤à¦°à¦¦":6430,"Ġà¦ľà§Łà¦°":6431,"Ġà¦ľà§Łà¦¶":6432,"Ġà¦ļà¦¸":6433,"à¦°à¦£à¦ĩ":6434,"à¦¬à¦¦à¦°":6435,"à¦¸à¦¦à¦¨":6436,"à§ĭ'":6437,"à¦·à¦°à¦ķ":6438,"à¦łà¦ķà¦ĵ":6439,"à¦Ľà§Łà¦Ł":6440,"Ġà§§à§¯à§¬à§§":6441,"à¦ľà¦ķà¦¨":6442,"à¦ľà¦¨à¦¨":6443,"à¦²à¦ķà¦ĵ":6444,"à¦°à¦¢":6445,"à¦ļà¦Ļ":6446,"Ġà§¨à§¦à§¯":6447,"Â¡à¦¾":6448,"à¦¨à¦ªà¦°":6449,"Ġà§¨à§§à§®":6450,"Ġfive":6451,"Ġà¦Łà¦¨à¦ķ":6452,"Ġà¦Ńà¦£":6453,"à¦¸à¦¥":6454,"à¦ĩà¦²à¦Ĺ":6455,"Ġà¦ķà¦¸à¦°à¦¤":6456,"à¦ıà¦ķà¦®":6457,"à¦¯à¦°à¦¸":6458,"Ġà§©à§ªà§¦":6459,"Ġac":6460,"ĠCol":6461,"Ġà¦Ĩà¦£à¦¬":6462,"ms":6463,"Ġà¦ļà¦°à¦Ńà¦¦":6464,"Ġcare":6465,"µÑĢÐ¶":6466,"à¦ıà¦²à¦Ł":6467,"joy":6468,"à¦ıà¦¬à¦²":6469,"Ġà¦ıà¦ķà¦ĺ":6470,"Ġà§¨à§§à§¬":6471,"à¦¼à§ĩ-":6472,"à¦ĩà¦ªà¦Ĺ":6473,"Ġvis":6474,"Ġblanks":6475,"ÑĢÐ¶Ð«":6476,"Ġà§¨à§¦à§Ń":6477,"à¦¹à¦ľà¦°à¦¤":6478,"He":6479,"Ġà§ªà§®à§¦":6480,"Ġà¦Ļ":6481,"à¦¹à¦Ĺà¦¨":6482,"Ġà¦ľà¦¬à¦°à¦¦à¦¸":6483,"à¦¼à¦¾âĢĻ":6484,"à¦Ĩà¦ĩà¦«":6485,"à¦¥à¦²à¦¸":6486,"à¦Ĩà¦Łà¦Ł":6487,"Ġà¦ħà¦ľà¦Ĺà¦°":6488,"?:":6489,"Ġà¦°à¦¹à¦®à¦¤à¦īà¦²":6490,"Ġà¦ħà¦¹à¦°à¦¹":6491,"Ġsomet":6492,"Ġthr":6493,"à¦Ĩà¦ĩà¦Ĩà¦°":6494,"à§§à§¯à§Ńà§¨":6495,"à¦¯à¦¹à¦¤":6496,"Ġyears":6497,"Ġà¦¬à¦Ľà¦°à¦ĸ":6498,"à¦§à¦¨à¦¶":6499,"à¦ªà¦°à¦¤":6500,"Ġà¦Ĩà¦Ĺà¦®":6501,"à¦°à¦ľà¦¨à¦ĩ":6502,"Ġ<":6503,"Ġtable":6504,"Ġgiven":6505,"Ġfamily":6506,"Ġsuitable":6507,"à¦¨à¦ªà¦²":6508,"Ġà¦ħà¦¶à¦¨":6509,"à¦¥à¦¸à¦Ń":6510,"à¦¬à¦ļà¦¨":6511,"à¦·à§Łà¦Ń":6512,"Ġà¦īà§İà¦¸à¦¬à¦ķ":6513,"à¦¤à¦ļà¦°à¦¬":6514,"Ġdevelop":6515,"Ġà¦¸à¦°à§Ł":6516,"à¦²à¦¸à¦¹à¦ķ":6517,"à¦ķà¦¢":6518,"Ġà¦ĺà¦Łà¦ķ":6519,"Ġà¦ıà¦ıà¦¸":6520,"à¦ĩà¦Ńà¦¸":6521,"à¦ļà¦¨à¦ĩ":6522,"à¦ķà¦®à¦¨":6523,"à¦¬à¦¨à¦ª":6524,"ark":6525,"ways":6526,"Ġà¦®à¦¹à¦ķ":6527,"à¦ĩà¦īà¦¡":6528,"Ġway":6529,"Ġà¦ıà¦ĩà¦ļà¦ıà¦¸à¦¬":6530,"à¦²à¦¨à¦¸":6531,"âĢĿ,":6532,"ath":6533,"over":6534,"Ġà¦®à¦¨à¦Ľ":6535,"Ġvi":6536,"à¦ıà¦ı":6537,"à¦ıà¦®à¦ıà¦°":6538,"Ġid":6539,"à¦¸à¦¤à¦°":6540,"Ġà¦ĵà¦°à¦¸":6541,"à¦ıà¦ķà¦¸":6542,"Ġà¦ıà¦®à¦ıà¦¸":6543,"ey":6544,"à¦²à¦¨à¦ķà¦¶":6545,"Ġà§¨à§¨à§¬":6546,"arr":6547,"Ġà¦Īà¦¦à¦¯":6548,"Ġà¦ĸà¦¡":6549,"ĠWho":6550,"à¦°à¦Ĺà¦£":6551,"Ġà§¨à§§à§§":6552,"à¦īà¦ł":6553,"Ġà¦Ĩà¦ĩà¦¨à¦¸à¦Ń":6554,"Ġà¦ĭà¦£à¦¸":6555,"à¦¸à¦ľà¦¨":6556,"à§ĩà§į":6557,"Ġà§©à§§à§¦":6558,"Ġà¦ĺà¦°à¦Ĺ":6559,"Ġtell":6560,"Ġà¦Ĩà¦ĸà¦¨":6561,"Ġà¦ħà¦¬à§Łà¦¬":6562,"à¦īà¦¥à¦ĩà¦¸":6563,"Ġstudent":6564,"Ġà¦¬à¦²à¦ķ":6565,"Ġà§©à§®à§¦":6566,"ited":6567,"Ġmean":6568,"Ġà¦ıà¦¸à¦Ł":6569,"Ġà¦Ĩà¦ĵà¦°":6570,"à§§à§¯à§¯à§¨":6571,"Ġ12":6572,"its":6573,"Ġà¦ħà¦ªà¦ķ":6574,"à§ĩ*":6575,"Ġà§¨à§¨à§Ń":6576,"ten":6577,"à¦¸à¦¨à¦ĵ":6578,"à¦¸à¦¦à¦¬":6579,"à¦ªà¦°à¦¬":6580,"Ġà¦¬à¦°à¦ľ":6581,"à¦Īà¦¦à¦ķ":6582,"Ġreplied":6583,"Ġwithout":6584,"Ġà§¨à§®à§®":6585,"Ġà¦ıà¦ķà¦ľà¦¨à¦ĩ":6586,"Ġà¦ľà§Łà¦²à¦²":6587,"Ġà¦ĵà¦ıà¦®à¦ıà¦¸":6588,"Ġà¦«à¦¸à¦²à¦¹":6589,"Ġà¦ļà§Ł":6590,"à¦¤à¦¨à¦¬":6591,"à¦¸à¦¨à¦®à¦¨":6592,"à§Łà¦°à¦ª":6593,"à¦·à§ľà¦¯à¦¨":6594,"à¦Łà¦ķà¦¹":6595,"Ġà¦®à¦¶à¦ķ":6596,"à¦ĵà¦¸à¦ķ":6597,"à¦«à¦°à¦¹":6598,"à¦ıà¦®à¦ıà¦ĩà¦ļà¦ª":6599,"à¦ķà¦°à¦ķ":6600,"ĠIf":6601,"Ġà¦Ĩà¦ľà¦¬":6602,"à§ĩ(":6603,"Ġà¦ıà¦ķà¦¹":6604,"à¦ıà¦ıà¦®à¦Ł":6605,"à§Ńà§¦à§¦":6606,"ĠÑĢÐ¶Ð£":6607,"à¦ĺà¦¤à¦®":6608,"Ġnat":6609,"à¦¨Ãĳ":6610,"Ġà¦īà¦ĩà¦¦":6611,"Ġà§¨à§§à§¯":6612,"à¦ļà¦²à¦¸à¦¹":6613,"à§ĩ^":6614,"à¦īà¦¸à¦ķ":6615,"Ġà¦¥à¦®à¦¥à¦®":6616,"à¦Ńà¦¯":6617,"Ġà¦ıà¦ķà¦ĺà¦°":6618,"à¦ħà¦®à¦°":6619,"ually":6620,"à¦ķà¦²à¦¸":6621,"à¦°à¦¤à¦ľ":6622,"à¦īà¦ªà¦¨":6623,"à¦¶à¦¨à¦ĩ":6624,"à¦īà¦¬à¦ĵà§Ł":6625,"à¦ĵà¦ĩà¦¦":6626,"Ġà¦ħà¦¸à¦®à§Ł":6627,"à¦¥à¦¸à¦¹":6628,"à¦¾à¦ģâĢĻ":6629,"Ġnecessary":6630,":(":6631,"not":6632,"à¦Łà¦ĵà¦Ń":6633,"à§§à§¯à§¯à§ª":6634,"hr":6635,"à¦ķà¦¦à¦®":6636,"Ġà¦°à¦®à¦°à¦®":6637,"à¦ıà¦«à¦ĵ":6638,"à¦¿à¥¤âĢĻâĢĺ":6639,"Ġà§¨à§¨à§®":6640,"Ġà§Ńà§©à§Ń":6641,"à¦¡à¦¤":6642,"à¦ªà¦¦à¦Ĺ":6643,"à¦Ļà¦¬":6644,"Ġà¦¬à§ľà¦Ń":6645,"Ġlist":6646,"man":6647,"ĠÂłĊĊĊĊ":6648,"Ġà§§à§¯à§«à§¬":6649,"à¦²à§ľ":6650,"à¦ıà¦¸à¦Ĩà¦°à¦ıà¦®":6651,"à¦°à¦²à¦ª":6652,"à¦°à¦ĸà¦°":6653,"Ġfore":6654,"à¦ĵà¦ĸ":6655,"à¦ĵà¦¸à¦®":6656,"à¦°à¦¬à¦¦":6657,"Ġà¦Ĩà¦°à¦¤":6658,"Ġà¦«à¦²à¦¦":6659,"à¦ĩà¦ľà¦¦":6660,"à¦¦à§Łà¦ķ":6661,"à¦²à¦ªà¦°":6662,"Ġà¦¬à¦ªà¦¨":6663,"Ġà¦®à¦¦à¦¨à¦ª":6664,"à¦Ľà§Łà¦ľà¦¨":6665,"Ġverb":6666,"à¦¾*":6667,"Ġà¦¶à¦°à¦¤":6668,"à¦ľà¦¸à¦®":6669,"Ġà§¨à§©à§§":6670,"ize":6671,"ĠÑĢÐ·Ð":6672,"à¦®à§İ":6673,"Ġà¦Ĩà¦¦à¦®à¦ľ":6674,"à¦°à§Łà¦²":6675,"Ġà§¨à§ªà§«":6676,"à¦Ńà¦°à¦ª":6677,"à¦ļà¦®à¦¬":6678,"à¦®à¦¨à¦ľ":6679,"...âĢĻ":6680,"à¦¯à¦²":6681,"Read":6682,"ember":6683,"Ġà¦¸à§Łà¦²":6684,"à§Łà¦¤à¦ĩ":6685,"Ġà¦¬à¦°à¦¬":6686,"Ġà¦¤à¦¡":6687,"à¦ļà¦²à¦Ľ":6688,"ates":6689,"Ġà§¨à§©à§Ń":6690,"Ġà¦¦à¦¡":6691,"Ġà¦«à¦²à¦ĵ":6692,"à¦ķà¦¸à¦¬":6693,"Ġà¦¸à¦Łà¦ķ":6694,"Ġà¦Ĩà¦ĩà¦Ńà¦°":6695,"Ġwom":6696,"Ġà¦īà¦Ł":6697,"à§įà¥¤":6698,"Ġà¦īà¦ªà¦§":6699,"à¦¸à¦¨à¦ª":6700,"à¦¦à¦¶à¦ķ":6701,"à¦Łà¦ªà¦£":6702,"à¦·à¦¬à¦°":6703,"à¦ħà¦ļ":6704,"à¦¸à¦°à¦¦":6705,"Ġent":6706,"Ġà¦°à¦ĩà¦¸":6707,"Ġà§¨à§¨à§¯":6708,"Ġà§¨à§©à§¬":6709,"Ġmoney":6710,"Ġà¦īà¦¦à§Łà¦¨":6711,"à§§à§§à§¨":6712,"à§§à§¯à§¯à§«":6713,"Ġshort":6714,"à¦ļà¦¨à¦ª":6715,"à¦·à¦ªà¦ŀ":6716,"à¦īà§İà¦ķà¦£":6717,"Ġà¦īà¦¶":6718,"Ġtook":6719,"à¦ªà¦¸à¦®":6720,"à¦ıà¦ĩà¦ļà¦Ł":6721,"Ġtold":6722,"à¦§à¦Ľ":6723,"à¦ıà¦ıà¦¸":6724,"Ġà¦Ĩà¦ªà¦¨à¦ľà¦¨":6725,"Ġà§¨à§«à§Ń":6726,"à¦¸à¦¸à¦ļ":6727,"à¦łà¦Ĺà¦¡":6728,"ĠThen":6729,"Ġà¦ħà¦¸à¦Ļ":6730,"Ġbeaut":6731,"Ġà§©à§§à§¨":6732,"Ġà¦ıà¦¨à¦ıà¦¸à¦Ĩà¦ĩ":6733,"iver":6734,"à¦¬à¦Ĺà¦¨":6735,"à¦¦à§İ":6736,"à¦·à¦£à¦Ĺ":6737,"à¦Łà¦Ĺà¦²":6738,"Ġcult":6739,"Ġdec":6740,"Ġmorning":6741,"à¦Ńà¦°à¦Ń":6742,"Ġà¦°à¦£à¦¤à¦°":6743,"Â²":6744,"à¦·à¦ķà¦ĵ":6745,"Ġbooks":6746,"con":6747,"à§ĩà¥¤-":6748,"à¦¨à¦¨à¦Ĺà¦°":6749,"ank":6750,"à¦®à¦¹à¦°":6751,"à¦Ĺà¦Ńà¦Ļ":6752,"*)":6753,"à¦¶à¦¬à¦¨":6754,"Ġà¦ħà¦¨à¦Ĺ":6755,"à¦Ĺà¦£à¦ľ":6756,"à¦Ĺà¦²à¦¦":6757,"ected":6758,"à¦Ĺà¦Ĩà¦īà¦Ł":6759,"à§ģâĢĶ":6760,"à¦ķà¦Ĩ":6761,"à¦°à¦ľà¦¨à¦¨à¦ķ":6762,"Ġatt":6763,"ss":6764,"à¦¤à¦¦à¦²":6765,"à¦¾à¥¤ïģ¬":6766,"à¦¦à¦°à¦ªà¦²":6767,"Ġà§¨à§¬à§«":6768,"à¦°à¦Ĩà¦¬":6769,"Ġbus":6770,"Ġà§¨à§ªà§ª":6771,"ÂłÂłÂłÂłÂłÂłÂłÂłÂłÂłÂłÂłÂłÂł":6772,"à§§à§«à§¦":6773,"Ġthrough":6774,"à§ĭâĢĻ,":6775,"à¦°à¦¹à¦¶":6776,"...à¥¤âĢĻ":6777,"tern":6778,"la":6779,"à¦¨à¦Ŀ":6780,"à¦ĩà¦¨à¦ª":6781,"Ġnum":6782,"Ġenjoy":6783,"ĠAr":6784,"oss":6785,"ern":6786,"à¦ķà¦Łà¦¨":6787,"à¦¤à¦°à¦¸à¦¹":6788,"à¦¤à¦¸à¦¨":6789,"Ġà¦ªà¦¸":6790,"pt":6791,"ĠâĢĮâĢĺ":6792,"Ġà¦¸à¦²à¦Ļ":6793,"à¦Ļà¦¨à¦ķ":6794,"à¦¯à¦¬à¦¶à¦¤":6795,"Ġà§§à§¯à§ªà§«":6796,"Ġà¦¹à¦ķà¦ĵ":6797,"à¦¤à¦¤à¦²":6798,"à¦ĩà¦¨à¦ĵ":6799,"à¦°à§Łà¦£":6800,"Ġà¦Ĩà¦¤à¦°":6801,"à¦¬à¦²à¦¸":6802,"Ġà§¨à§¨à§§":6803,"urn":6804,"Ġà¦¹à¦°à¦«":6805,"à¦¤à¦¸à¦®à§Ł":6806,"Ġà¦¸à¦¹à¦ľà¦¤à¦°":6807,"Ġ{":6808,"à¦°à¦ħà¦§":6809,"Ġà¦¬Ã¸":6810,"Ġà§¨à§¯à§®":6811,"ps":6812,"Ġà¦ľà¦¶":6813,"à¦ļà¦¨à¦®":6814,"Ġà¦¬à¦¨à¦®à¦¨":6815,"Ġreg":6816,"à¦°à¦£à§Ł":6817,"à¦°à¦Ĩà¦¨à¦ĸ":6818,"à¦ĩà¦¨à¦¡":6819,"Ġà§©à§§à§«":6820,"à¦¨à¦Ĺà¦¡":6821,"Ġgoing":6822,"Ġà§¨à§ªà§Ń":6823,"Ġcor":6824,"Ġà¦ªà¦Łà¦ķ":6825,"Ġà¦°à¦ĩà¦Ľ":6826,"Ġcle":6827,"ĠÑĢÐ¶Ð¶ÑĢÐ¶":6828,"Ġactiv":6829,"Ġà¦Ńà¦°à¦¤":6830,"à§¯à§¯à§¦":6831,"Ġà¦Ĩà¦Łà¦ķà¦¦":6832,"à¦²à§Łà¦¶":6833,"Ġà¦īà¦ªà¦®":6834,"à¦Ĺà¦£à¦¹à¦¤":6835,"à¦Ĩà¦®à¦²":6836,"Ġeducation":6837,"Ġà¦¦à¦²à¦¸à¦¹":6838,"à¦ıà¦«à¦ıà¦ĩà¦ļà¦¬":6839,"erv":6840,"Ġà¦¤à¦ľ":6841,"Ġbel":6842,"ÑĢÐ¶Ð¦":6843,"Ġà¦®à¦¹à¦¤":6844,"iness":6845,"position":6846,"à¦¶à¦®à¦¤":6847,"Ġà¦ľà¦²à¦ķà¦ª":6848,"à¦ĸà¦¹":6849,"Ġhappy":6850,"Ġking":6851,"!!":6852,"ĠAll":6853,"à¦Ĺà¦ĺà¦¨":6854,"à¦°à¦ĵà¦¸":6855,"à§§à§§à§«":6856,"à¦Ńà¦°à¦¨":6857,"Ġà¦Ĺà§ľà¦¨":6858,"stitution":6859,"Ġà§ªà§ªà§¦":6860,"ĠThis":6861,"Ġà¦ıà¦¨à¦Ĺ":6862,"Ġà§¨à§«à§©":6863,"à¦ľà¦¤à¦ĸ":6864,"Ġbecome":6865,"Ġà¦ĵà¦ıà¦¸":6866,"Ġà¦¬à¦ĩà¦ĵ":6867,"Ġà§¨à§¯à§¯":6868,"Ġà¦ĩà¦¸à¦¤":6869,"à§§à§§à§¦":6870,"Ġthings":6871,"Ġalways":6872,"à¦¾âĢĺ":6873,"Ġà¦ıà¦§à¦°à¦¨":6874,"à¦¤à¦¨à¦ĸ":6875,"à¦·à¦ķà¦ĩ":6876,"Ġà¦ªà¦¦à¦¦à¦²":6877,"Ġà§¨à§®à§¯":6878,"Ġà¦®à¦¤à¦ĩ":6879,"à¦ĸà¦²à¦¨":6880,"à¦¡à¦ıà¦®":6881,"à¦ĩà¦¨à¦¦":6882,"à¦¾):":6883,"à¦Ĺà¦¤à¦¬à¦Ľà¦°":6884,"à¦ªà¦¸à¦¨":6885,"à¥¤\"\"":6886,"Ġstory":6887,"à¦²à¦¨à¦ª":6888,"Ġà§¨à§¦à§¨à§©":6889,"à¦ĩà¦¸à¦ķ":6890,"à¦¥à¦ķà¦¤":6891,"ication":6892,"Ġà¦¨à¦¨à¦¦":6893,"à§ĩà¦¾!":6894,"ases":6895,"à¦£à¦¸à¦®":6896,"à¦°à¦¡à¦Ĺ":6897,"à¦¥à¦°à¦ķ":6898,"Ġà¦¸à¦°à¦«":6899,"Ġà¦¸à¦¯":6900,"à¦ĺà¦¡":6901,"Ġà¦ıà¦°à¦Ĩà¦Ĺ":6902,"rect":6903,"à¦¬à¦īà¦²":6904,"Ġà§©à§¨à§«":6905,"Ġà¦ĵà¦²à¦Ł":6906,"Ġà¦§à¦°à¦¨à¦Ł":6907,"Ġwrite":6908,"à¦ıà¦Ĩà¦°à¦ıà¦ĩà¦ļ":6909,"Ġwhere":6910,"à¦Ļà¦¨à¦ķà¦¬à¦²":6911,"à§Ĥà¥¤":6912,"anc":6913,"Ġhere":6914,"à¦¶à¦¤à¦ķ":6915,"à¦¯à¦ªà¦¤":6916,"à¦£à¦ľà§Łà¦¨":6917,"à¦¨à¦Ľà§ľ":6918,"à¦Ĩà¦ķà¦°":6919,"Ġà§¨à§«à§§":6920,"Ġà¦°à¦¨à¦ľ":6921,"à¦ĺà¦°à¦Ł":6922,"Ġà§¨à§®à§«":6923,"Ġà¦ķà¦¨à¦ķà¦¨":6924,"à¦¦à¦°à¦¦":6925,"imes":6926,"the":6927,"à¦Ľà¦ĵ":6928,"__":6929,"à¦¤à¦¨à¦Ł":6930,"ĠÂ¾":6931,"Ġà¦®à¦¨à¦Ĺà§ľ":6932,"port":6933,"à¦ĩà¦ı":6934,"Ġà¦Ĩà¦¦à¦®à¦¶":6935,"Ġà¦¬à¦¦à¦²à¦Ĺ":6936,"Ġà¦Ĩà¦®à¦ľà¦¨à¦¤":6937,"ĠÑĢÐ¶ÐĸÑĢÐ¶":6938,"be":6939,"Ġà¦¶à¦¹à¦°à¦¬":6940,"à¦¿à¥¤*":6941,"à¦ĸà¦ĩ":6942,"à¦īà¦ĩà¦°":6943,"à¦°à¦¸à¦¤":6944,"erc":6945,")----":6946,"ĠAnswer":6947,"Ġà¦Ĺà¦ľà¦²":6948,"ĠÑĢÐ¶ÐĸÑĢÐ¶Ð¾ÑĢÐ¶":6949,"à¦®à¦ĩà¦°à¦¹":6950,"Ġsociety":6951,"Ġà§§à§¯à§¬à§©":6952,"Ġà¦®à¦ĸà¦¦":6953,"Ġà¦®à¦¹à¦¬":6954,"à¦ķà¦¨à¦«":6955,"Ġright":6956,"à¦¼;":6957,"Ġà¦ľà¦¨à¦¬à¦¸à¦¤":6958,"à¦¤à¦®à§Ł":6959,"Ġcalled":6960,"Ġexam":6961,"body":6962,"cre":6963,"Ġà¦°à¦ļà§Ł":6964,"à¦ıà¦ķà¦¨à¦ľà¦°":6965,"Ġà§¨à§«à§«":6966,"Ġà¦ľà¦²à¦®à¦¹":6967,"à§ĭ...":6968,"Ġà¦ľà¦ĩà¦¶":6969,"Ġà¦ħà¦°à¦²":6970,"ĠÂłĊĊĊ":6971,"ĠPr":6972,"à¦Ĩà¦ķà¦¸":6973,"Ġà¦ıà¦¸à¦¸":6974,"ĠMr":6975,"Ġchildren":6976,"Ġà¦¹à¦²à¦®":6977,"Ġà§¨à§ªà§®":6978,"Ġà§¨à§¬à§¨":6979,"à¦°à¦«à¦²":6980,"Ġà§§à§¯à§«à§©":6981,"Ġused":6982,"à§¨à§¦à§©à§¦":6983,"à¦¡à¦Ńà¦¨":6984,"Ġbefore":6985,"à¦Ĩà¦°à¦ıà¦«à¦ıà¦²":6986,"à¦¦à¦°à¦¸":6987,"Ġà¦¤à¦ŀ":6988,"Ġrel":6989,"Ġà¦ĩà¦Łà¦¨":6990,"Ġà¦ĩà¦īà¦ıà¦¸à¦ıà¦Ĩà¦ĩà¦¡":6991,"à¦°à¦£à¦°":6992,"à§Łà¦¯":6993,"ÑĢÐ·ÐĹÑĢÐ¶Ð¸":6994,"à¦Łà¦®à¦¨":6995,"Ġà¦ļà¦°à¦Ĺ":6996,"à¦ªà¦¨à¦¸à¦¹":6997,"Ġà¦Ĩà¦ĩà¦ıà¦«à¦Ĩà¦ĩà¦¸":6998,"Ġcr":6999,"Ġcap":7000,"Ġlast":7001,"Ġà§¨à§¨à§©":7002,"Ġcomple":7003,"Ġà¦Ĺà¦¹à¦¨":7004,"Ġà§¨à§¯à§«":7005,")(":7006,"à¦Łà¦¸à¦ķ":7007,"Ġà¦Ĩà¦Łà¦¬":7008,"Ġà¦ĸà§Ł":7009,"à¦¾à¦ĤâĢĻ":7010,"à¦¯à¦¬à§Łà¦¸":7011,"à¦ıà¦²à¦¬":7012,"à¦ķà¦ľà¦¨à¦ĩ":7013,"à¦ľà¦Ĩà¦ª":7014,"Ġcons":7015,"à¦¼à¦¾:":7016,"à¦¿à¦Ĥ:":7017,"à¦¶à¦Ŀ":7018,"à¦¬à¦ªà¦¦":7019,"Ġà¦ıà¦«à¦Ł":7020,"à¦īà¦¤à¦°":7021,"à¦ıà¦«à¦ıà¦¸":7022,"udd":7023,"à¦ķà¦Łà¦®à§Ł":7024,"à¦°à§Łà¦®":7025,"Ġà¦ļà¦Łà¦ªà¦Ł":7026,"à¦¬à¦®à¦¤":7027,"Ġà¦«à§ľ":7028,"à§ĩà¥¤âĢĶ":7029,"Ġà¦¸à¦¨à¦ľ":7030,"à¦ıà¦®à¦Ĩà¦°":7031,"à¦°à¦Ľà¦¡":7032,"à¦ľà¦ĺ":7033,"Ġple":7034,"Ġà¦¬à¦°à¦¯":7035,"Ġmon":7036,"à¦Ĩà¦ķà¦¬à¦°":7037,"Ġà¦ħà¦Ŀ":7038,"à§ĭâĢĵ":7039,"à¦¼à¦¿à¦Ĥ":7040,"à¦ĺà¦¸à¦¹":7041,"à¦ªà¦ķà¦Ł":7042,"à§§à§¨à§¦":7043,"Ġadd":7044,"à¦¿(":7045,"à¦¹à¦°à¦Ĺà¦ŀ":7046,"ĠNow":7047,"à¦¶à¦ıà¦¬à¦²":7048,"à¦Ĩà¦°à¦ıà¦²":7049,"Ġà¦Ńà¦Ĺà¦¬":7050,"Ġà§¨à§©à§©":7051,"à¦ªà¦¹":7052,"Ġà¦¨à¦°à¦ķ":7053,"à¦Ĩà¦ľà¦¹":7054,"Wh":7055,"Ġà¦¹à¦²à¦Ł":7056,"à¦¤à¦¨à¦¶":7057,"à¦ĵà¦·":7058,"à¦£à¦¶à¦ķ":7059,"à¦°à¦ľà¦Ĺà¦¤":7060,"ible":7061,"',":7062,"ÂłÂłÂłÂłÂłÂłÂłÂłÂłÂłÂłÂłÂł":7063,"à¦¶à¦¡":7064,"à¦¡à¦ī":7065,"à¦¸à¦¬à¦²":7066,"à¦Łà¦ķà¦²à¦Ĺ":7067,"à¦ĩà¦²à¦¬":7068,"Ġà¦Ĩà¦Łà¦ª":7069,"Ġà¦ĩà¦īà¦ıà¦¨à¦ĵà¦ķ":7070,"à¦®à¦®à¦¹":7071,"à§ĩà¥¤:":7072,"ÑĢÐ¶Ð½ÑĢÐ¶":7073,"à¦¬à¦®à§Ł":7074,"à¦¸à¦°à¦¶":7075,"à¦¤à¦®à¦ķ":7076,"Ġà¦īà§İà¦«":7077,"Ġà¦Īà¦Ĺà¦²":7078,"Ġà¦¬à¦ĩà¦ªà¦¤":7079,"à¦¹à¦°à¦ª":7080,"à¦ıà¦°à¦®à¦§":7081,"Ġfarm":7082,"Ġà¦Ĩà¦ĩà¦¨à¦¤":7083,"à¦¨à§Łà¦¨à¦¬":7084,"Ġthree":7085,"à¦Ĩà¦ĩà¦ĩà¦īà¦¬":7086,"Ġnever":7087,"Ġproble":7088,"à§įà§į":7089,"Ġà¦¬à¦īà§Ł":7090,"Ġà§¨à§ªà§¬":7091,"ĠOne":7092,"à¦ļà¦¢":7093,"à¦ıà¦¸à¦ıà¦®à¦ıà¦®à¦ĩà¦īà¦¤":7094,"à¦¿âĢĭ":7095,"Ġà¦ªà¦°à¦ĸ":7096,"uman":7097,"à¦ĩà¦°à¦¨":7098,"à¦¦à¦°à¦ľ":7099,"à¦ıà¦¸à¦Ĩà¦ĩà¦Ł":7100,"à¦¸à¦§":7101,"Ġthen":7102,"à§įâĢĮ-":7103,"Com":7104,"Ġà¦ľà§Łà¦¯":7105,"Ġaway":7106,"Ġfew":7107,"Ġlearn":7108,"Ġà¦«à¦ķà¦¨":7109,"Ġà§¨à§©à§®":7110,"à¦¯à§Łà¦¨à¦ªà¦¤":7111,"à¦¹à¦¨à¦ķ":7112,"à¦ķà¦Łà¦¸":7113,"Ġland":7114,"Ġà¦Łà¦®à¦Łà¦®":7115,"à¦¬à¦²à¦ľ":7116,"Ġà¦ĸà¦¬à¦°à¦¦":7117,"à¦ĩà¦°à¦¹":7118,"à¦¬à¦¨à¦ĵ":7119,"Ġà§¨à§ªà§©":7120,"à¦¦à¦°à¦¬à¦¨à¦ķ":7121,"à¦£à¦ªà¦£":7122,"Ġà¦ĵà¦Ŀ":7123,"à¦¡à¦Łà¦ķà¦®":7124,"à§§à§¯à§®à§¯":7125,"br":7126,"à¦ħà¦¬à¦¹":7127,"Ġà¦Ĩà¦Łà¦ĺà¦°":7128,"à¦ħà¦¨à¦¶à¦¨":7129,"Ġsec":7130,"à¦¤à¦²à¦®":7131,"Ġà¦¬à§ľà¦¸à§ľ":7132,"à¦ķà¦ľà¦¨à¦¦":7133,"Ġà¦¤à¦ĵà¦¬":7134,"Ġint":7135,"à¦¬à¦ĩà¦Ł":7136,"à¦Ńà¦¶":7137,"Ġob":7138,"Ġgive":7139,"Ġà¦²à¦ĩà§Ł":7140,"Ġà¦ħà¦¸à¦¤à¦°":7141,"à¦°à¦²à¦¨":7142,"à¦¬à¦¨à¦ĩ":7143,"à¦Ĩà¦ľà¦®":7144,"Ġà¦ıà¦®à¦ľ":7145,"à¦·à§Łà¦ĩ":7146,"à¦ħà¦ªà¦Ľà¦¨":7147,"ull":7148,"à¦ıà¦ıà¦ª":7149,"±ÑĢÐ¶":7150,"à¦°à¦¸à¦ª":7151,"oin":7152,"à¦ķà¦¸à¦ķ":7153,"à§§à§¯à§®à§¬":7154,"Ġà¦Ĩà¦ĵà¦°à¦Ļ":7155,"à¦ªà§ľà¦¤":7156,"Ġà§©à§¦à§Ń":7157,"ience":7158,"à¦®à¦Īà¦¨":7159,"à¦¬à¦ķà¦¬":7160,"Ġà¦Ĩà¦ĩà¦ıà¦¸à¦ķ":7161,"Ġcannot":7162,"uestion":7163,"à¦ĩà¦Ĩà¦°à¦¡":7164,"à¦Ŀà¦¨":7165,"Ġorder":7166,"Ġsentence":7167,"Â¨":7168,"Ġà¦Ĩà¦¬à¦Ĺ":7169,"à¦²à¦ļà¦°":7170,"Ġà¦²à¦¬à¦Ļ":7171,"à¦Ĺà¦®à¦¸à¦¹":7172,"ÑĢÐ¶Ð¸ÑĢÐ·ÐĹ":7173,"à¦ķà¦²à¦°":7174,"ination":7175,"Ġanim":7176,"arents":7177,"Ġà¦¤à¦¤à¦¬":7178,"à¦¥à¦¸à¦ļ":7179,"à§İà¦¸à¦ķà¦¸à¦¹":7180,"Ġà§©à§Ńà§«":7181,"Ġspeech":7182,"Ġà¦¸à¦¦à¦¨":7183,"Ġà¦¸à¦¬à¦²":7184,"Ġà¦ıà¦²à¦Ł":7185,"Ġà§ªà§¬à§¦":7186,"Ġà§¨à§Ńà§§":7187,"à¦¤à¦°à¦ĩ":7188,"à¦¦à¦ªà¦¤à¦¨":7189,"ÑĢÐ¶ÐºÑĢÐ¶":7190,"à¦¸à¦¨à¦¤à¦¨":7191,"Ġà¦Ĩà¦®à¦¸":7192,"à¦¤à¦ķà¦Ł":7193,"à¦ıà¦®à¦ĩà¦Ł":7194,";(":7195,"à¦®à¦®à¦°":7196,"à¦°à¦ı":7197,"à¦®à¦°à¦£à¦ķ":7198,"24":7199,"Ġà¦¢à¦Ļ":7200,"Ġà¦ıà¦¡à¦®":7201,"à¦Ŀà§ľà¦Ł":7202,"Ġà¦¡à¦°à¦®":7203,"à¦¸à¦Łà¦¨":7204,"à¦Ĩà¦ĩà¦ıà¦²à¦ĵ":7205,"Ġà§§à§¯à§«à§«":7206,"Ġà¦¬à¦ĩà¦ª":7207,"Ġà¦¬à¦Łà¦Ĺ":7208,"à§ĩà¥¤\"\"":7209,"à¦£à¦¨à¦Ĺà¦°":7210,"Ġà§¨à§¬à§ª":7211,"Ġà¦ľà¦¨à¦ķà¦£":7212,"à¦¤à¦¸à¦®":7213,"à¦ĩà¦¸à¦®":7214,"à¦ıà¦®à¦ĩà¦īà¦°":7215,"à§§à§§à§©":7216,"à¦ĩà¦īà¦ıà¦«à¦ıà¦²":7217,"ours":7218,"à¦¾à¥¤âĢĻâĢĺ":7219,"Ġà§¨à§¬à§¬":7220,"olog":7221,"viii":7222,"à¦¥à¦ªà¦°":7223,"Ġà¦§à¦¨à¦ŀ":7224,"Ġà§©à§¦à§§":7225,"à¦ıà¦²à¦ª":7226,"Ġà¦Īà¦¸":7227,"ĠÂłĠÂłĠÂł":7228,"à¦«à¦ĵ":7229,"à¦īà¦§":7230,"Ġà§«à§¬à§¦":7231,"à¦°à¦ĵà¦ªà¦°":7232,"à¦Łà¦ªà¦°":7233,"à¦Ĩà¦²à¦¤":7234,"Ġà§¨à§¦à§¨à§ª":7235,"Ġà¦¨à¦¬à¦¬à¦§":7236,"à¦ķà¦°à¦²":7237,"Ġà§«à§ªà§¦":7238,"Ġà¦ªà¦¥à¦ĵ":7239,"à§§à§¯à§¯à§©":7240,"Ġpresent":7241,"à¦°à¦īà¦ª":7242,"à¦¬à¦¸à¦¹à¦ķ":7243,"ĠWhere":7244,"à¦¶à¦¨à¦ª":7245,"Ġà§©à§¦à§©":7246,"Ġà¦¬à¦ľà¦°":7247,"Ġà¦Ĩà¦¦à¦Ń":7248,"ÑĢÐ¶Ð¥ÑĢÐ·ÐĿÑĢÐ¶":7249,"à¦°à¦®à¦Ł":7250,"ual":7251,"Ġà¦īà¦ªà¦¸à¦®":7252,"Ġà§¨à§¦à§«à§¦":7253,"Ġà¦Ĺà¦£à¦ħà¦Ń":7254,"Ġà¦Ĩà¦®à¦²à¦ķ":7255,"à¦Łà¦ķà§Ł":7256,"à¦°à§Łà¦ª":7257,"à¦Ĺà¦£à¦«":7258,"Ġà¦®à¦Ĺà¦ľ":7259,"Ġà¦Ľà¦Ĺ":7260,"Ġthese":7261,"ctor":7262,"iversity":7263,"Ġà¦®à¦ĩ":7264,"Ġà§©à§ªà§¨":7265,"umm":7266,"à¦Ĩà¦«à¦°":7267,"à¦Łà¦²à¦Ĺ":7268,"à¦¶à¦ļà¦¨":7269,"Ġà¦Ĺà¦£à¦¹":7270,"à¦ĩà¦®à¦Ł":7271,"Ġcont":7272,"Ġgl":7273,"ĠMar":7274,"à¦¥à¦¨à¦ķ":7275,"à¦ļà¦¨à¦¬":7276,"à¦ªà¦Łà¦ªà¦Ł":7277,"à¦Ĩà¦®à¦¤à¦²":7278,"icket":7279,"à¦īà¦¤à¦²":7280,"à¦°à¦¬à¦®à§Ł":7281,"Ġsomething":7282,"à¦¤à¦²à¦ľ":7283,"Ġdes":7284,"Ġà¦ıà¦®à¦ıà¦ĩà¦ļ":7285,"Ġà§©à§¦à§«":7286,"à§ĩâĢĻ-":7287,"uring":7288,"Ġà¦°à¦¥à¦¯":7289,"à¦¦à¦¸à¦ĩ":7290,"Ġmain":7291,"Ġlot":7292,"eak":7293,"à¦ªà§Łà¦²":7294,"Ġbody":7295,"à¦ıà¦¸à¦ıà¦®à¦ıà¦®à¦ĩà¦īà¦°":7296,"Ġpoor":7297,"Ġà¦ıà¦ĩà¦°":7298,"à¦¨à¦¦à¦°à¦¬":7299,"à¦¦à¦Ļ":7300,"à§ĭ?âĢĻ":7301,"Ġà¦ħà¦ķà¦Ł":7302,"Ġà¦®à¦°à¦Ľ":7303,"Ġà§¨à§«à§¯":7304,"à¦¶à¦Ĺà§ľ":7305,"Ġà§¨à§®à§¨":7306,"Ġ201":7307,"à¦Ĩà¦¹à¦®à¦¦":7308,"ÂłÂłĊ":7309,"Ġà§¨à§«à§®":7310,"à§ĭ)à¥¤":7311,"Ġà¦īà¦¥":7312,"Ġà§§à§¯à§©à§¦":7313,"à¦ıà¦ķà¦¤à¦°à¦«":7314,"à¦ĵà¦¸à¦¹":7315,"à¦ıà¦ķà¦¸à¦Ļ":7316,"Ġà¦ĩà¦¦à¦²":7317,"ng":7318,"à¦¨à¦ļà¦²":7319,"à¦ĩà¦īà¦ıà¦¨à¦¡":7320,"à¦¬à¦ľà§Ł":7321,"à§§à§§à§ª":7322,"Ġinterest":7323,"à¦¤à¦²à¦Ł":7324,"ĠSpeech":7325,"à¦°à¦ľà¦®":7326,"à¦·à¦¶":7327,"à¦ªà¦¨à¦ĵ":7328,"à¦ıà¦ĩà¦ı":7329,"Ġà¦ľà¦¬à¦°à¦¦":7330,"Ġà§¯à§«à§«":7331,"à§§à§¯à§ªà§Ń":7332,"à¦°à¦ĺà¦Łà¦¨":7333,"Ġbig":7334,"Ġà¦ľà¦ĵà¦¹à¦°":7335,"ĠIs":7336,"à¦°à¦ĩà¦¸":7337,"à¦ªà¦²à¦ķ":7338,"Ġà¦¹à¦¤à¦Ń":7339,"Ġà¦ĩà¦īà§Ł":7340,"Ġà§¨à§¬à§®":7341,"Ġhon":7342,"Ġà¦®à¦¦à¦¦à¦¦":7343,"à¦īà¦¸à¦Ĺ":7344,"ction":7345,"Ġà¦®à¦ķà¦°":7346,"à¦Ńà¦Ĺ":7347,"Ġà¦Ĩà¦ĩà¦ıà¦®":7348,"à¦«à¦Łà¦ķ":7349,"Ġà¦ıà¦®à¦Ĩà¦°à¦Ĩà¦ĩ":7350,"à¦ĸà¦¡":7351,"Ġà¦ıà¦ķà¦¨à¦ľà¦°":7352,"Ġdays":7353,"Ġà¦¶à§Łà¦¨":7354,"Ġà§©à§©à§©":7355,"à¦łà¦Ĺ":7356,"Ġbecame":7357,"à¦ĵà¦ıà¦¸à¦¡":7358,"Ġà§¨à§ªà§§":7359,"à¦¯à¦Łà¦¨à¦¶":7360,"Ġà¦ħà¦¯à¦¤":7361,"à¦²à¦¬à¦¦":7362,"à¦Łà¦®à¦¹à¦²à¦¬":7363,"ĠMy":7364,"Ġà§Ńà§¨à§¦":7365,"Ġà¦¬à¦°à¦¬à¦Ł":7366,"à¦¨à¦Ĺà¦£":7367,"Ġpoll":7368,"à¦²à¦¬à¦ķ":7369,"à¦ľà¦²à¦¦":7370,"adm":7371,"à¦ķà¦Ĩà¦ªà¦Ł":7372,"Ġà¦¡à¦Ĺà¦²":7373,"Ġà¦ĩà¦īà¦¡":7374,"Ġà¦ľà¦ŀ":7375,"Ġà¦Ĩà¦ĩà¦¤":7376,"Ġfind":7377,"âĢĮâĢĮ":7378,"Ġdown":7379,"ÑĢÐ·ÐĴ":7380,"à¦®à¦ĺà¦£":7381,"akes":7382,"Ġsaw":7383,"20":7384,"à¦ıà¦ĺà¦Łà¦¨":7385,"Ġà¦ķà§Łà¦ľà¦¨":7386,"Ġà§§à§¯à§ªà§¯":7387,"Ġkind":7388,"een":7389,"à¦·à¦£à¦¸":7390,"ertain":7391,"à¦¨à¦ľà¦Łà¦®":7392,"Ġdon":7393,"à¦¼)":7394,"à¦īà¦Łà¦¸":7395,"aph":7396,"à¦ıà¦®à¦ıà¦Ĩà¦°":7397,"à§Łà¦«":7398,"Ġà§¨à§Ńà§®":7399,"ired":7400,"eb":7401,"à¦ĸà¦¢":7402,"Ġà§©à§¨à§§":7403,"ĊÂłĊĊĊĊ":7404,"à¦ªà¦¨à¦¦":7405,"Ġà§§à§¯à§ªà§¬":7406,"Ġà¦¨à¦Ĺà¦°à¦ľ":7407,"epend":7408,"Ġcommun":7409,"à¦ªà¦¦à¦¶":7410,"Ġà§©à§¨à§¨":7411,"à§ĩâĢĶâĢĺ":7412,"à¦ķà¦°à¦¦":7413,"Ġà¦ıà¦ĩà¦Ń":7414,"Ġà¦Ĩà¦Ĺà¦·":7415,"Ġà§¨à§®à§¬":7416,"à¦§à¦°à¦£":7417,"Ġà§¨à§«à§¨":7418,"Ġfound":7419,"Ġrec":7420,"iate":7421,"à¦ĵà¦¶":7422,"Ġà¦Ĺà¦¤à¦°":7423,"à§ľà¦¸à¦¹":7424,"à¦ľà¦ĵà¦¯":7425,"Ġà¦ıà¦°à¦«":7426,"à§Łà¦¤à¦®":7427,"à¦¦à¦ĺà¦¨":7428,"Ġwriting":7429,"ticle":7430,"à¦ĩà¦®à¦¸à¦ķ":7431,"à§§à§¯à§Ńà§©":7432,"à¦īà¦ĩà¦®":7433,"ÂłĊĊÂłĊ":7434,"à¦°à¦°à¦«à¦ķ":7435,"à¦®à¦®à§Ł":7436,"Ġà§¨à§¦à§¨à§«":7437,"Ġà¦¸à¦°à¦·":7438,"à¦ĩà¦°à§Ł":7439,"Ġà¦Ĩà¦Ĺà¦°à¦ĵà§Ł":7440,"à¦ĩà¦Łà¦®":7441,"Ġgot":7442,"à¦¬à¦°à¦¬":7443,"à¦¬à¦°à¦®":7444,"à¦Ĭà¦°":7445,"à¦¤à§ľ":7446,"Ġà¦¸à¦®à§Łà¦Ĺ":7447,"Ġà¦ħà¦«à¦¶":7448,"Ġà¦Ĩà¦®à§ľ":7449,"à¦ħà¦¨à¦Łà¦¨":7450,"à¦ħà¦ªà¦¹":7451,"à¦Ĺà¦¸à¦¨":7452,"Ġsuff":7453,"Ġproper":7454,"Ġlives":7455,"à¦®à¦łà¦¬":7456,"à§Łà¦¨à¦Ĺ":7457,"Ġà¦®à¦²à§Ł":7458,"ute":7459,"Ġfeel":7460,"à¦¿):":7461,"à§ĩà¥¤''":7462,"Ġà¦¹à¦łà¦ķ":7463,"Ġà¦ıà¦¨à¦ıà¦²à¦¡":7464,"Ġwanted":7465,"à¦ľà¦¨à¦¸à¦Ń":7466,"à§¨à§«à§¦":7467,"iful":7468,"à¦²à¦ķà¦°à¦¤":7469,"Ġcountries":7470,"ÂłÂłÂłÂłÂłÂłÂłÂłÂłÂłÂłÂłÂłÂłÂłÂłÂłÂłÂłÂłÂłÂłÂłÂłÂłÂłÂłÂłÂłÂłÂłÂłÂłÂłÂłÂłÂłÂłÂłÂłÂłÂłÂłÂłÂłÂłÂłÂłÂłÂłÂłÂłÂłÂłÂłÂłÂłÂłÂłÂłÂłÂłÂłÂł":7471,"khan":7472,"mb":7473,"Ġà¦§à¦²à¦ĺ":7474,"à¦¨à¦¬à¦°à¦£":7475,"à¥¤âĢĿâĢĺ":7476,"ands":7477,"Ġà¦ıà¦®à¦Ĩà¦°à¦ª":7478,"à¦ĩà¦¨à¦ľ":7479,"Ġà§§à§¯à§«à§Ń":7480,"ness":7481,"ra":7482,"ower":7483,"Ġà¦ľà§Łà¦¨à¦Ĺà¦°":7484,"à¦ĺà¦·":7485,"Ġà¦ıà¦°à¦ĵ":7486,"ina":7487,"cr":7488,"à¦ĭà¦¤":7489,"Ġà¦Ĩà¦¬à¦ľ":7490,"Ġà¦ıà¦ķà¦ĩà¦¦":7491,"Ġà§§à§¯à§«à§¯":7492,"à¦Ĩà¦°à¦ıà¦Ĩà¦°":7493,"Ġà¦Ĩà¦ĩà¦¡à¦²":7494,"Ġà§¨à§¬à§§":7495,"Ġà§ªà§©à§¦":7496,"ĠĠÂłĠ":7497,"Ġà¦¬à¦¦à¦°à¦īà¦¦":7498,"Ġà¦¶à¦¹à¦°à¦ľ":7499,"Ġà¦Ĩà¦ªà¦¸à¦¹":7500,"ided":7501,"Ġresult":7502,"Ġà¦ľà§Łà¦¤":7503,"Ġà¦ħà¦¸à¦®à¦¤":7504,"à¦®à¦¬à¦¹":7505,"Ġà¦Ńà¦¬à¦¨à¦¸à¦¹":7506,"Ġà§¨à§ªà§¯":7507,"à¦¨à¦Ĺà¦°à¦¬":7508,"Ġà§©à§¯à§¦":7509,"à¦¡à¦¹à¦ķ":7510,"Ġà¦«à¦°à¦ļ":7511,"à¦¶à¦¤à¦¬à¦°":7512,"ĠÑĢÐ¶Ð¿":7513,"ĠÑĢÐ¶ÐŁÑĢÐ¶Ð¥":7514,"Ġgaps":7515,"19":7516,"gg":7517,"à¦¦à¦°à¦®":7518,"Ġà¦ıà¦®à¦ķ":7519,"ĠâĢ¦":7520,"Ġ-------":7521,"à¦ķà¦ªà¦¥":7522,"à¦§à¦¨à¦¸à¦¹":7523,"Ġeven":7524,"à¦¦à¦¬à¦ª":7525,"Ġà¦ıà¦ıà¦¸à¦ıà¦®":7526,"ters":7527,"Ġà¦ħà¦¤à¦¨":7528,"à¦ıà¦Ĩà¦ĩ":7529,"Ġà¦§à¦¨à¦¬":7530,"Ġà§«à§¨à§¦":7531,"à¦ªà¦Ŀ":7532,"ations":7533,"à¦®à¦¥":7534,"à§Łà¦°à¦°":7535,"Ġà§¨à§Ńà§¯":7536,"ission":7537,"Ġmod":7538,"cle":7539,"à¦¹à¦¨à¦¤":7540,"à§İà¦¶":7541,"à¦ĩà¦®à¦²":7542,"à¦¬à¦°à¦§":7543,"à¦ĩà¦«à¦ķ":7544,"Ġà§©à§¨à§¬":7545,"Ġà¦ıà¦²à¦Ĺ":7546,"à¦ıà¦«à¦Ĩà¦ĩà¦¡":7547,"Ġà¦®à¦Īà¦¨à¦īà¦¦":7548,"à¦¨à¦¤à¦°":7549,"Ġà¦Ĩà¦¬à¦¹à¦®":7550,"ledge":7551,"Ġà¦ıà¦ľà¦¬":7552,"à¦Ľà¦¤à¦²":7553,"à¦¡à¦ļ":7554,"Ġà¦¯à¦ľ":7555,"à§¨à§©à§«":7556,"à§§à§¯à§Ńà§¦":7557,"Ġà¦Ĩà¦¯à¦¹":7558,"à¥¤''":7559,"à¦¦à¦¨à¦ĩ":7560,"à§Łà¦ķà¦ĵ":7561,"à¦ıà¦°à¦ªà¦°à¦ĵ":7562,"Ġà¦Ľà¦¹":7563,"read":7564,"Ġà§ªà§¯à§¦":7565,"aug":7566,"ph":7567,"à¦²à¦¬à¦²":7568,"Ġà¦®à¦¤à¦¨":7569,"à¦ıà¦¸à¦ĵ":7570,"Ġà¦Ĺà¦£à¦Ĩà¦¨":7571,"ĠÑĢÐ¶Ðª":7572,"Ġà¦ľà§Łà¦ľà§Łà¦ķ":7573,"Ġà§¨à§®à§Ń":7574,"Ġà¦Ĩà¦¤à¦¤":7575,"Ġown":7576,"icult":7577,"ft":7578,"à¦§à¦Ĺà¦²":7579,"Ġborn":7580,"alking":7581,"ĊÂłĊÂłĊÂłĊÂłĊÂłĊÂłĊÂłĊÂłĊÂłĊÂłĊÂłĊÂłĊÂłĊÂłĊÂłĊÂł":7582,"Ġà¦¨à¦ĵà¦¦":7583,"à¦°à§Łà¦¶":7584,"à¦¤à¦²à¦ª":7585,"Ġà§¨à§Ńà§¬":7586,"ĠRead":7587,"Ġà¦ķà¦¶":7588,"Ġà¦®à¦¹à¦°à¦¤":7589,"ĠTo":7590,"à§Ŀà¦ª":7591,"Ġà¦°à¦£à¦¦":7592,"Ġà§©à§¨à§©":7593,"à¦¬à¦²à¦¬":7594,"Ġà§ªà§§à§¦":7595,"Ġà§¨à§¯à§¨":7596,"55":7597,"à¦¸à¦ıà¦ķ":7598,"Â©":7599,"à§Łà¦Ľ":7600,"à§§à§©à§¦":7601,"à¦·à¦ķà¦¨":7602,"à¦ľà¦²à¦īà¦¡":7603,"Ġlead":7604,"Ġà¦Ńà¦¬à¦¦":7605,"à¦°à¦ĵà¦¶à¦¨":7606,"à¦¨à§Łà¦ľ":7607,"Ġboth":7608,"Ġà¦¸à§ľà¦ķà¦¬":7609,"à§§à§¯à§®à§¦":7610,"à¦ķà¦Ļ":7611,"Ġà¦ļà¦®à¦¤":7612,"Ġà¦Ĩà¦°à¦¬à¦ķ":7613,"self":7614,"Ġà¦ļà¦Łà¦ķ":7615,"à§ĩà¦¾âĢĶ":7616,"Ġà¦ľà¦¨à¦°":7617,"Ġà§©à§¦à§®":7618,"à§§à§¯à§Ńà§ª":7619,"ets":7620,"Ġà¦¬à¦īà¦ķ":7621,"à¦Łà¦§à¦°":7622,"à¦¹à¦¨à¦¬":7623,"à¦īà¦ıà¦®":7624,"Ġà¦ľà¦¹à¦°":7625,"à¦®à¦ķà¦¤":7626,"à¦ķà¦¬à¦ļ":7627,"à¦ıà¦²à¦ıà¦«":7628,"à¦¬à¦¹à¦¨à¦¬":7629,"Ġà§¨à§Ńà§©":7630,"à¦²à¦Ľà¦¡":7631,"!âĢĿ":7632,"à¦¶à¦ªà¦¨":7633,"à¦·à¦£à¦ļ":7634,"à§§à§¯à§«à§¦":7635,"Ġflow":7636,"à§ĩ.à¥¤":7637,"Ġà§¨à§®à§§":7638,"Ġactivities":7639,"ient":7640,"à§ĩâĢ¦":7641,"à¥¤âĢ¢":7642,"Ġà¦®à¦ĵà¦¸":7643,"à¦°à¦¶à¦¹à¦°":7644,"ope":7645,"Ġlov":7646,"Ġà¦ĩà¦Ĺà¦²":7647,"à¦²à¦¨à¦Ĺ":7648,"Ġà¦ľà§Łà¦ĩ":7649,"Ġyoung":7650,"ok":7651,"Ġà§Ł":7652,"à¦¸à¦¦à¦¸à¦¹":7653,"Ġacc":7654,"Ġà§¨à§®à§ª":7655,"alse":7656,"oose":7657,"à¦®à¦¤à¦²à¦¬":7658,"à§§à§¯à§®à§§":7659,"ÑĢÐ¶ÐĴÑĢÐ¶":7660,"Ġcorrect":7661,"ĠÂłÂłÂł":7662,"à¦¥à¦°à¦¬":7663,"Ġà§¨à§Ńà§Ń":7664,"à¦īà¦Ń":7665,"Ġ(âĢĺ":7666,"à¦¯à§Łà¦Ń":7667,"oods":7668,"âĢºà¦¿":7669,"https":7670,"Ġà¦īà¦¦à¦Ĺ":7671,"Ġsmall":7672,"à¦ħà¦¸à¦¹":7673,"à¦ĸà¦¬à¦°à¦Ł":7674,"à§Ģ/":7675,"à¦¥à¦¯":7676,"à¦¬à¦ķà¦¸à¦¹":7677,"Ġà¦Ĺà¦£à¦¸à¦ļ":7678,"Ġà¦Ľà¦®":7679,"Ġà¦®à¦¨à¦¯":7680,"Ġà§¨à§¬à§Ń":7681,"Ġcro":7682,"Ġà¦ıà¦«à¦Ĩà¦ĩà¦Ĩà¦°":7683,"Ġà§«à§ªà§©":7684,"à¦°à¦«à¦Ł":7685,"Ġà¦Ĩà¦Ĺà¦¨":7686,"à¦¬à¦¤à¦£":7687,"à¦²à¦¨à¦¬":7688,"à¦²à¦¨à¦ķà¦°":7689,"à¦¬à¦¹à¦¨à¦ķ":7690,"à¦ķà¦ľà¦®à¦ķà¦ª":7691,"Ġà¦Ĩà¦°à¦Ń":7692,"Ġà¦Ĩà¦ĩà¦¨à¦Ĺ":7693,"à¦¶à¦ķà¦ª":7694,"Ġà¦ĭà¦£à¦ļ":7695,"Ġà§¦à§§à§¯":7696,"à¦¿âĢĺ":7697,"à¦ıà¦²à¦ĵà¦°":7698,"Ġbeing":7699,"Ġà¦ħà¦Ńà¦¯":7700,"à¦²à§Łà¦®":7701,"à¦·à¦ķà¦¸":7702,"à¦ļà¦²à¦Ń":7703,"Ġà§¦à§§à§®":7704,"Ġanother":7705,"à¦¬à§İà¦ķ":7706,"à¦ķà¦ªà¦°":7707,"à¦łà¦ļà¦ķ":7708,"à¦ĩà¦ķà¦Ł":7709,"à§ĩà¥¤âĢĿâĢĺ":7710,"à§ĩà¦¿":7711,"Ġà¦ıà¦¸à¦ıà¦¸":7712,"Ġà§©à§¨à§ª":7713,"à¦«à¦°à¦īà¦²":7714,"à¦¥à¦²à¦Ń":7715,"à¦¨à¦īà¦¤":7716,"à¦ĵà¦ľà¦¨":7717,"Ġà¦Ĩà¦°à¦ıà¦«à¦ıà¦²":7718,"Ġfi":7719,"Ġà¦¸à¦®à¦¬à§Łà¦¸":7720,"ÂłĊÂłĊ":7721,"Ġà§¨à§¯à§§":7722,"ention":7723,"à§§à§¯à§®à§¨":7724,"Ġà§©à§§à§®":7725,"Ġà¦¥à¦ĩ":7726,"Ġà¦ĩà¦Ĩà¦°à¦¡":7727,"Ġà¦Ńà¦¬à¦ĺ":7728,"Ġà§¨à§¯à§ª":7729,"à¦¨à¦Ńà¦Ļ":7730,"à§ģâĢĻ,":7731,"Ġà§«à§Ńà§¦":7732,"Ġback":7733,"à¦ıà¦ĩà¦ļà¦Ĩà¦°à¦¡à¦¬":7734,"make":7735,"à§ĩà¥¤...":7736,"à¦°à¦īà¦²":7737,"Ġà¦ķà¦°à¦®à¦°":7738,"Ġà¦ħà¦¨à¦°":7739,"Ġà¦ķà¦¨à¦ķà¦°":7740,"à§§à§¯à§®à§®":7741,"Ġà§¨à§«à§ª":7742,"Ġmind":7743,"ived":7744,"Ġ14":7745,"ÑĢÐ·ÐĽÑĢÐ¶":7746,"Ġvisit":7747,"ĠĠÂł":7748,"Ġà§©à§©à§®":7749,"à¦Ĳà¦¶":7750,"ages":7751,"à¦ĸà¦ķà¦ķ":7752,"à¦īà¦ľà¦ª":7753,"Ġhand":7754,"Ġà¦®à¦¨à¦¤":7755,"Ġshow":7756,"à¦¸à¦¶à¦¸":7757,"à¦¸à§ľà¦ķà¦Ĺ":7758,"ï¿":7759,"ĠPeople":7760,"Ġvar":7761,"à¦īà§İà¦¸":7762,"Ġà¦Ĺà¦£à¦§":7763,"Ġlove":7764,"ĠQues":7765,"à¦Ĺà¦°à¦ªà¦¥":7766,"Ġà¦Ĩà¦¹à¦Ľ":7767,"ives":7768,"ï¿½":7769,"Ġà¦«à¦°à¦¸":7770,"à¦°à¦¹à¦ĵ":7771,"Ġà§¨à§Ńà§ª":7772,"Ġfish":7773,"ĠCl":7774,"ĠPart":7775,"net":7776,"Ġà¦ªà¦¦à¦§":7777,"Ġà¦ķà¦ŀ":7778,"ri":7779,"Ġà¦®à¦°à¦¬":7780,"Ġà¦ħà¦²à¦Ļ":7781,"à¦®à¦°à¦ª":7782,"Ġà¦ħà§Łà¦¨":7783,"ÑĢÐ·ÐĿÑĢÐ¶Ð¼ÑĢÐ¶":7784,"ÑĢÐ¶Ð¸ÑĢÐ·ÐĹÑĢÐ¶":7785,"vis":7786,"Ġà§§à§¯à§¨à§¦":7787,"Ġà§©à§¦à§¯":7788,"à¦®à¦¨à¦Ń":7789,"Ġpar":7790,"Ġbuild":7791,"Ġ!":7792,"Ġà¦Łà¦ķà¦¦":7793,"à¦ļà¦¨à¦¸à¦¹":7794,"Ġà¦ľà¦ĵà¦¹à¦°à¦²":7795,"Ġsur":7796,"âĢĻâĢĻ":7797,"âĢĻ;":7798,"Ġà¦¨à¦ļ":7799,"à¦°à¦£à¦¹":7800,"à¦§à¦¡":7801,"Ġà¦Ĩà¦¸à¦°à¦Ł":7802,"Ġà¦ķà¦ķà¦ª":7803,"à¦ªà§ľà¦ļ":7804,"Ġà§©à§§à§ª":7805,"Ġà§©à§§à§©":7806,"à¦¨à§Łà¦¨à¦¸à¦¹":7807,"duc":7808,"Ġà¦ľà¦ľà¦ķ":7809,"à¦ķà¦Łà¦°":7810,"à¦¨à§Łà¦Ł":7811,"ĊÂłĊĊ":7812,"à¦®à¦¸à¦ķ":7813,"Ġà¦ıà¦ķà¦ĩà¦¸":7814,"à¦¬à¦¨à¦¨":7815,"Ġà§©à§§à§¬":7816,"Ġà¦Łà¦¹à¦²à¦°à¦¤":7817,"à¦¤à¦¹à¦¬":7818,"Ġà¦ªà¦Łà¦²":7819,"Ġà¦¹à¦ªà¦ķ":7820,"Ġmen":7821,"amal":7822,"wor":7823,"Ġà¦ħà¦Ĺà¦¤":7824,"à¦·à¦£à¦¤":7825,"à¦Ĩà¦¸à¦¤":7826,"Ġà§¨à§®à§©":7827,"Ġparents":7828,"Ġhard":7829,"Ġà¦ıà¦ŀ":7830,"à¦ļà¦°à¦ķ":7831,"à¦ĸà¦ªà¦¤":7832,"Ġà¦Ĩà¦ĩà¦®":7833,"à¦¯à§Łà¦ĵ":7834,"à¦®à¦¦à¦°":7835,"Ġà¦¸à§İà¦ķ":7836,"à¦¸à¦ķà¦Ń":7837,"à¦ĩà¦¸à¦¨":7838,"à§§à§¦à§¦à§¦":7839,"Ġ18":7840,"à§§à§¯à§ªà§®":7841,"**":7842,"à¦¤à¦°à¦Ń":7843,"à¦¯à¦¨à¦Ĺà¦°":7844,"à¦ħà¦¡":7845,"à¦ıà¦ĩà¦Ł":7846,"Ġà¦Ĳà¦ļ":7847,"Ġà¦ĩà¦¨à¦¬à¦ķ":7848,"à¦°à§Łà¦¡":7849,"à¦ªà¦£à¦ķ":7850,"Ġsy":7851,"à¦łà¦¤à¦®":7852,"à¦īà§İ":7853,"Ġà¦īà¦¦à¦°":7854,"Ġà¦ĸà¦¬à¦°à¦ĩ":7855,"Ġà¦ªà§ľà¦¶":7856,"à¦²à¦¬à¦¶à¦¤":7857,"à¦°à§Łà¦¦":7858,"à¦¤à¦¦à¦¶":7859,"Ġcity":7860,"à¦ªà¦¸à¦ļ":7861,"Ġà¦Ĩà¦Łà¦ķà¦°":7862,"ames":7863,"à¦¤à¦°à¦¤":7864,"à§¨à§©à§¦":7865,"à¦¤à¦¨à¦®":7866,"à¦®à¦¤à¦ĵ":7867,"Ġà¦ıà¦¨à¦ıà¦¸":7868,"à¦«à¦²à¦ĵ":7869,"Ġgrow":7870,"Ġà¦¥à¦ķ":7871,"uter":7872,"Ġà¦Ńà¦¬à¦¦à¦¹":7873,"à¦¤à¦Ļ":7874,"à¦ļà¦Ľ":7875,"ubl":7876,"à¦ľà¦ļ":7877,"à¦·à¦²à¦§":7878,"à¦¯à¦®à¦¸à¦¹":7879,"à¦¶à¦ķà¦¸à¦¹":7880,"50":7881,"Ġcar":7882,"Ġà¦®à¦¦à¦°":7883,"à¦¤à¦®à¦ľ":7884,"à¦¤à§İà¦ķ":7885,"à¦ĩà¦¶à¦¤":7886,"à§Łà¦¨à¦Ń":7887,"à¦²à§Łà¦¸":7888,"Ġà§¬à§¨à§¦":7889,"Ġà¦°à¦ķà¦®à¦Ń":7890,"Ġà¦¨à¦ľà¦°à¦ķ":7891,"Ġstarted":7892,"à¦°à¦¶à¦¨":7893,"à¦ĩà¦ľà¦°":7894,"Ġà¦ĵà¦¤à¦ª":7895,"Ġà¦§à¦ĩà¦°":7896,"à¦īà¦¨à¦¸":7897,"Ġà¦¸à¦¹à¦ļà¦°":7898,"Ġput":7899,"ĠAv":7900,"à¦¬à¦Łà¦Ł":7901,"à¦«à¦īà¦¦":7902,"à¦ħà¦¹":7903,"à¦ĩà¦¡à¦¬":7904,"Ġ>":7905,"à¦¶à¦¬à¦°":7906,"Ġà§«à§®à§¦":7907,"à§§à§¯à§®à§ª":7908,"Ġà¦Ĩà¦ĩà¦Ľ":7909,"ics":7910,"Ġiiià¦īà¦¤":7911,"engal":7912,"à¦Ŀà¦¨à¦¦":7913,"à¦²à¦ªà§ľ":7914,"ÂŃà¦¾":7915,"à¦¨à¦°à¦ķ":7916,"à¦ĩà¦¨à¦Ĺà¦°":7917,"à¦¨à§Łà¦ĵ":7918,"ïģľ":7919,"Ġchange":7920,"à¦¬à¦®à¦¨":7921,"ÑĢÐ¶Ð£":7922,"Ġà§©à§©à§§":7923,"à¦®à¦Ŀ":7924,"Ġà¦ļà¦ĵà¦¡":7925,"à¦¡à¦¸à¦ķ":7926,"à¦¬à¦°à¦ļ":7927,"à¦¦à¦¨à¦¸à¦¹":7928,"Ġà§©à§§à§¯":7929,"à¦¶à¦ķà¦¸":7930,"Ġà§©à§¨à§®":7931,"Ġà¦ĸà¦ļ":7932,"Ġà§Ńà§®à§Ń":7933,"Ġà¦°à¦¤à¦¨à¦ª":7934,"à¦¡à¦²à¦ª":7935,"à§ĩâĢĿ,":7936,"à¦Łà¦Ľà§ľ":7937,"Ġà¦°à¦¨à¦ķ":7938,"à¦ıà¦®à¦¡à¦¬":7939,"ĠEvery":7940,"Ġà¦ªà¦¥à¦ĩ":7941,"à¦ĩà¦ªà¦®":7942,"ĠâĢĶà¥¤":7943,"ĠAd":7944,"Ġret":7945,"Ġtele":7946,"Ġà¦Ĩà¦¥":7947,"à§ľà¦ĸà¦¨":7948,"čĉĉ":7949,"à¦¶à¦¨à¦¸à¦¨":7950,"à§Łà¦¨à¦Ł":7951,"reed":7952,"agr":7953,"Ġà¦²à¦Ĺà¦ĩà¦¨":7954,"ĠX":7955,"à¦ĩà¦ªà¦ķ":7956,"à¦ĩà¦²à¦Łà¦ķ":7957,"à¦Ľà¦¸à¦¹":7958,"Ġà¦¨à¦¤à¦ľ":7959,"Ġà§¬à§ªà§¦":7960,"Ġà¦¬à§ľà¦°":7961,"ener":7962,"ĠColumn":7963,"Ġmeet":7964,"Ġà¦ļà§ľà¦¤":7965,"Ġà¦ħà¦Ĺà¦Ń":7966,"ĊÂłÂłÂłÂł":7967,"Ġà§¨à§¬à§¯":7968,"Ġrece":7969,"uation":7970,"à¦·à¦ķà¦²":7971,"Ġà¦«à¦¨à¦¸":7972,"à¦°à¦Ĺà¦¬":7973,"à¦ľà¦¸à¦ªà¦¤":7974,"Ġusing":7975,"à¦¦à¦®à¦¨":7976,"à¦ıà¦ıà¦®":7977,"Ġà¦Ĩà¦ĩà¦ĵà§Ł":7978,"ÑĢÐ·Ð¶":7979,"Ġà§¨à§¯à§©":7980,"Ġà§©à§¨à§¯":7981,"Ġthought":7982,"Ġphys":7983,"Ġà¦¬à¦°à¦®":7984,"Ġà¦Ĩà¦¬à¦¸":7985,"Ġreading":7986,"Ġà¦Ĩà¦ĩà¦ıà¦²à¦ĵ":7987,"à§§à§¯à§«à§¨":7988,"Ġrivers":7989,"Ġčĉ":7990,"à¦§à¦¸à¦®":7991,"à¦¹à¦·":7992,"Ġà¦Ĩà¦ľà¦Ĺ":7993,"à¦¶à¦ĵà¦ķà¦¤":7994,"Ġà§§à§¯à§«à§§":7995,"Ġnumber":7996,"à¦¯à¦Łà¦ķà¦°":7997,"Ġà¦ļà¦°à¦ĸ":7998,"à¦°à¦ļà¦Ł":7999,"à¦ķà¦²à¦¬":8000,"Ġà¦¨à§Łà¦ĩ":8001,"à¦°à¦Ńà¦ķ":8002,"Ġà§ªà§¨à§«":8003,"Ġà§©à§¦à§¬":8004,"Ġop":8005,"Ġdoctor":8006,"à¦¹à§Łà¦°":8007,"Ġà§©à§©à§«":8008,"à¦¤à¦²à¦¸à¦¹":8009,"uth":8010,"Ġà¦Ĩà¦°à¦ıà¦¸":8011,"à¦ıà¦¸à¦ıà¦ĩà¦ļà¦ı":8012,"Ġà¦Ĺà¦£à¦°":8013,"à§¦à§§à§Ń":8014,"à¦ıà¦®à¦ıà¦¨":8015,"à¦¹à¦²à¦«à¦¨":8016,"Ġà¦ĩà¦ĩà¦īà¦¤":8017,"à¦ıà¦¨à¦ķ":8018,"Ġà¦¬à¦¨à¦ķà¦°":8019,"Ġà¦ıà¦¹à¦¨":8020,"âĸł":8021,"Ġà§ªà§Ńà§¦":8022,"hrab":8023,"à¦ĸà¦¸à§ľ":8024,"à¦Ĩà¦ªà¦¦":8025,"à¦°à¦ªà¦°à¦¨":8026,"Ġà§¨à§¬à§©":8027,"ĠÑĢÐ¶ÐĻ":8028,"15":8029,"Ġà¦Ĩà§Łà¦ĵ":8030,"Ġà¦ıà¦ĩà¦ļà¦ıà¦®":8031,"à¦¨à¦®à¦§":8032,"à¦ıà¦®à¦ıà¦¸à¦ıà¦¸":8033,"ĠâĢĺ...":8034,"à¦ħà¦¥à¦¬":8035,"ted":8036,"à¦¦à¦¨à¦¦":8037,"Ġhigh":8038,"ared":8039,"Ġide":8040,"Ġà¦ıà¦²à¦ķ":8041,"Ġà§«à§§à§¨":8042,"Ġhuman":8043,"à¦ĵà¦¨à¦ķ":8044,"à¦ķà¦¨à¦īà¦¦":8045,"à¦ıà¦¨à¦ıà¦¨à¦ķ":8046,"Ġà¦ľà¦¬à¦°à¦¦à¦ĸà¦²":8047,"à¦ıà¦®à¦Ĩà¦ĩà¦Ĩà¦°":8048,"Ġà¦ıà¦®à¦ıà¦ľ":8049,"à¦¤à¦¨à¦Ĺ":8050,"ÑĢÐ·ÐĿÑĢÐ¶Ð´ÑĢÐ¶":8051,"30":8052,"Ġà¦ķà¦°à¦¹":8053,"à¦¬à¦¨à¦¤":8054,"à¦°à¦¶à¦¤":8055,"Ġet":8056,"à¦Ľà¦ļ":8057,"à¦§à¦¤à¦¨":8058,"à¦¦à¦¤à¦¬":8059,"Ġà¦¡à¦ķà¦ĩà§Ł":8060,"à¦¯à§Łà¦¸":8061,"à¦Łà¦¥":8062,"à¦·à¦¦à¦Ń":8063,"à¦ļà¦£":8064,"à¦ªà¦£à¦¨à¦ķ":8065,"Ġknowledge":8066,"ef":8067,"à¦®à¦īà¦²":8068,"à¦ļà¦«":8069,"à¦·à¦ķà¦¢":8070,"ĠÂłĊ":8071,"Ġà¦ıà¦ķà¦¬à¦Ľà¦°":8072,"ock":8073,"Ġà¦¬à¦¤":8074,"à¦¿à¥¤'":8075,"Ġà§¬à§§à§¦":8076,"Ġà¦«à¦²à¦¸":8077,"Ġà¦Ĩà¦Ľà¦®":8078,"à¦ıà¦²à¦ı":8079,"Ġsay":8080,"pur":8081,"à¦ķà¦ļà¦ķ":8082,"à¥¤à¥¤":8083,"à¦§à¦®à¦¨":8084,"Ġà¦¸à§ľà¦ķà¦¸à¦¹":8085,"Ġà¦ľà§ľà¦¤":8086,"pe":8087,"à¦¤à¦ªà¦¤":8088,"à¦·à¦°à¦ľ":8089,"à¦¡à¦ĵà¦¯":8090,"Ġ20":8091,"Ġhealthy":8092,"à¦§à¦§à¦°":8093,"à¦ĵà¦¬à¦¨":8094,"à¦īà¦°à¦ķ":8095,"Ġà¦ıà¦ĩà¦ļà¦Ĩà¦°à¦¡à¦¬":8096,"ality":8097,"à¦ħà¦¬à¦¸à¦°à¦ª":8098,"à¦ªà¦Ľà¦¨":8099,"à¦²à¦ķà¦Ł":8100,"à¦§à¦¨à¦ĵ":8101,"Ġà¦¨à¦¦à¦Ń":8102,"à¦īà¦ªà¦¹":8103,"à§§à§¯à§Ńà§®":8104,"à¦¬à¦ĩà¦®":8105,"osp":8106,"à¦Ĩà¦ĩà¦ĵà¦ıà¦®":8107,"Â¬à¦¾":8108,"Ġà¦¸à¦°à¦¤":8109,"à¦Ĩà¦ªà¦¤":8110,"Ġfin":8111,"Ġbirth":8112,"à¦°à¦¨à¦ķ":8113,"à¦°à¦¤à¦ĩ":8114,"à¦·à¦Ľ":8115,"Ġà¦ĩà¦²à¦®":8116,"à¦¬à¦¬à¦Ļ":8117,"Ġche":8118,"Ġthink":8119,"Ġà¦Ĩà¦¨à¦¹":8120,"à¦Ĺà¦łà¦¨à¦¸à¦¹":8121,"Ġà¦ĩà¦Ĺ":8122,"à¦²à¦¬à¦£":8123,"Ġlib":8124,"Ġà§«à§§à§¦":8125,"à¦ķà¦¤à¦ķ":8126,"Ġà¦¨à¦Ĺà¦°à¦ª":8127,"Ġcommon":8128,"Ġà¦īà¦ªà¦¡":8129,"Ġà¦Ĩà¦«à¦ľà¦²":8130,"21":8131,"à§Łà¦ªà¦°":8132,"Ġà¦ķà§Łà¦¦":8133,"ÑĢÐ¶Ð±ÑĢÐ¶":8134,"Ġà¦¬à¦¦à¦°à¦ª":8135,"Ġpaper":8136,"Ġoften":8137,"ĠĠĠĠĠĠĠĠĠĠĠĠĠĠĠĠĠĠĠĠĠĠĠĠĠĠĠĠĠĠĠĠĠĠĠĠĠĠĠĠĠĠĠĠĠĠĠĠĠĠĠĠĠĠĠĠĠĠĠĠĠĠĠĠ":8138,"----------------":8139,"à¦¡à¦¯":8140,"ÑĢÐ¶Ð¶ÑĢÐ¶":8141,"à¦ĵà¦Ĩà¦ĩà¦¸":8142,"à¦°à¦¬à¦²à¦Ń":8143,"ittle":8144,"Make":8145,"Ġtrain":8146,"ency":8147,"Ġsim":8148,"Ġspeak":8149,"à¦ĸà¦°à¦ļ":8150,"à¦¡à¦īà¦ĩà¦ļ":8151,"Ġà¦ķà¦¤à¦ĩ":8152,"ĠMany":8153,"à¦Ĩà¦®à¦¨":8154,"med":8155,"à¦ĥ)":8156,"Ġfire":8157,"à¦īà¦¡à¦¬":8158,"anger":8159,"Ġà¦®à¦¹à¦°à¦°à¦®":8160,"ropr":8161,"\"à¥¤":8162,"à¦¤à¦¯à¦¶":8163,"Ġà¦ıà¦ķà¦ªà¦ķ":8164,"Ġshop":8165,"ves":8166,"Ġà¦§à¦®à¦¨":8167,"Ġà¦ıà¦ķà¦ĸ":8168,"Ġà§ªà§¦à§¯":8169,"à¦®à¦¸à¦¨à¦¦":8170,"reen":8171,"à¦ĩà¦ľà¦¤":8172,"à¦īà¦ĩà¦¥":8173,"à¦¨à¦¬à¦¬à¦°":8174,"à¦°à¦Ĩà¦¦":8175,"à§Łà¦ľà¦¨à¦¦":8176,"Ġà¦Łà¦Ĺà¦¬":8177,"à¦®à¦¨à¦ª":8178,"ccess":8179,"Ġà§©à§§à§§":8180,"ĊÂłĊÂłĊ":8181,"à¦¤à¦¤à¦°":8182,"Ġà§©à§ªà§«":8183,"à¦Ĩà¦Łà¦ķà¦°":8184,"prot":8185,"Ġpopular":8186,"à¦ļà¦¹":8187,"à¦ªà¦¤à¦Ļ":8188,"SC":8189,"by":8190,"à¦®à¦¨à¦¡":8191,"à¦ĺà¦¸à¦®à§Ł":8192,"Ġsport":8193,"à¦łà¦ĵ":8194,"Ġà¦ıà¦¨à¦ıà¦¸à¦¸":8195,"Ġà¦Łà¦ķà¦¦à¦ĩ":8196,"à¦ıà¦«à¦Ĩà¦ĩà¦ĩà¦ī":8197,"à¦ıà¦ĸà¦¨à¦ĩ":8198,"Ġothers":8199,"Ġnatural":8200,"Ġà¦ĩà¦®à¦¨à¦ķ":8201,"à§Łà¦®à¦¬à¦¹":8202,"à¦ĩà¦ĵà¦°":8203,"Ġà¦¸à§İà¦Ń":8204,"Ġà¦īà¦¦à¦¦":8205,"à¦°à¦¶à¦ª":8206,"à¦ĩà¦²à¦«":8207,"à¦Ĺà¦®à¦ĵ":8208,"Ġà§¨à§¯à§¬":8209,"à§§à§¯à§Ńà§¯":8210,"à¦ķà¦ļà¦Ł":8211,"Ġà¦ıà¦²à¦ıà¦²à¦¬":8212,"ÑĢÐ·ÐĿÑĢÐ¶Ð´":8213,"Ġ----":8214,"Ġà¦Ĩà¦°à¦¬à¦¸à¦¹":8215,"Ãĸ":8216,"à¦Ĺà§Ł":8217,"Ġà¦¸à¦«à¦°à¦¸":8218,"Ġà¦ĵà¦ĩà¦Ł":8219,"ature":8220,"à¦Ĩà¦¶à¦Ļ":8221,"à¦¹à§Łà¦¨":8222,"Ġà¦¤à¦¨à§Ł":8223,"Ġà¦Ĩà¦ļà¦°à¦£à¦ķ":8224,"Ġà¦ļà¦°à¦¦":8225,"Ġà§©à§©à§ª":8226,"Ġstudy":8227,"Ġlived":8228,"Ġà¦¸à¦¦à§Ł":8229,"à¦ļà¦ĸ":8230,"Ġtoday":8231,"à¦Łà¦ľà¦¨à¦¦":8232,"à¦¶à¦§à¦°":8233,"à¦¨à§Łà¦¨à¦¬à¦ŀ":8234,"Ġsound":8235,"ĠBengal":8236,"à¦ĸà¦ĸ":8237,"à¦Łà¦¨à¦¸":8238,"Ġà¦¸à¦¬à¦§à¦°à¦¨":8239,"à¦īà¦¨à¦Ł":8240,"à¦ĩà¦¡à¦¸":8241,"Ġà¦Ŀà¦Łà¦ªà¦Ł":8242,"Ġà§§à§®à§¦à§¦":8243,"Ġà¦ĩà¦«à¦«":8244,"Ġà¦Ĩà§ľà¦®":8245,"ants":8246,"ropriate":8247,"ĊÂłÂł":8248,"Ġà¦¤à¦²à¦ª":8249,"Ġà¦Ĩà¦ľà¦®à¦ª":8250,"Ġà¦ĺà¦°à¦¬à¦¨":8251,"à¦Ĺà¦²à¦ľà¦¨à¦ķ":8252,"à§§à§¯à§®à§©":8253,"à¦°à¦Ĩà¦²":8254,"less":8255,"Ġà¦ªà¦°à¦Ľ":8256,"Ġà¦ıà¦ĩà¦¸":8257,"à¦®à¦²à¦ķ":8258,"Ġà¦¦à¦²à¦Ń":8259,"Ġà¦Ĩà¦¨à¦«":8260,"à¦Łà¦ķà¦¨":8261,"Ġlar":8262,"und":8263,"ization":8264,"ever":8265,"Ġà¦¯à¦¬":8266,"Ġà¦ıà¦°à¦«à¦²":8267,"reak":8268,"ider":8269,"Ġchang":8270,"à¦ıà¦ıà¦«à¦¸":8271,"à¦¶à¦²à¦ªà¦¤":8272,"à§¨à§¨à§¨":8273,"Ġrun":8274,"à¦¨à¦ªà¦¦":8275,"à¦¤à¦īà¦²":8276,"à¦°à¦ķà¦¸à¦¹":8277,"Ġà¦Ĩà¦¨à¦ķ":8278,"Ġà¦ªà¦¥à¦ķ":8279,"Ġcrow":8280,"Ġfill":8281,"Ġfour":8282,"Ġprov":8283,"Ġuncle":8284,"Ġà¦Ľà§Łà¦¶":8285,"à¦ĩà¦īà¦®":8286,"Ġà§©à§«à§¯":8287,"Ġà¦¬à¦¶à¦¬à¦°":8288,"Ġà¦ıà¦®à¦Ĩà¦ĩ":8289,"à¦ĸà¦²à¦Ń":8290,"à¦ıà¦®à¦¨à¦ĩ":8291,"Ġgard":8292,"Ġà§ĩ":8293,"à¦ĩà¦ķà¦Ĩà¦ª":8294,"à¦¥à¦¨à¦ĵ":8295,"Ġà¦ıà¦«à¦Ĩà¦°":8296,"Ġà¦¬à¦²à¦ĵ":8297,"à¦°à¦ķà¦¬":8298,"Ġfru":8299,"à¦¬à¦ªà¦ķ":8300,"à¦°à¦ľà¦¬":8301,"ished":8302,"ffect":8303,"Ġà¦Łà¦Ĺà¦¬à¦Ĺ":8304,"We":8305,"ek":8306,"Ġà¦ľà¦®à¦¬":8307,"à¦ļà¦¯à¦¨":8308,"Ġà¦ĸà¦¦":8309,"Ġà¦¦à¦²à¦¬à¦¦":8310,"à¦¨à¦¬à¦ľà¦®":8311,"Ġà¦¸à¦®à¦®à¦°":8312,"à¦Ĩà¦²à¦¬":8313,"à¦¶à¦ķà¦ĵ":8314,"Ġnight":8315,"ung":8316,"à¦Ĺà¦®à§Ł":8317,"Ġà¦īà¦ªà¦¶à¦®":8318,"Ġà§§à§¯à§ªà§¦":8319,"Ã¸à¦īà¦Ł":8320,"à¤":8321,"à§ģà¦¿":8322,"amp":8323,"à¦ķà¦¥à¦¨":8324,"à¦¶à¦¤à¦²":8325,"Ġà§¬à§¬à§¦":8326,"Ġrespect":8327,"à¦°à¦¶à¦®":8328,"Ġriver":8329,"nment":8330,"à¦¨à¦®à¦ķ":8331,"Ġinformation":8332,"Ġforest":8333,"à¦ıà¦¨à¦ıà¦°":8334,"Ġage":8335,"Ġà¦Ĩà¦ĩà¦ĩà¦īà¦¬":8336,"aster":8337,"à§§à§¯à§®à§Ń":8338,"Ġà¦®à¦Łà¦°à¦¶":8339,"à¦Łà¦¤à¦°":8340,"à§Į,":8341,"à¦¦à¦²à¦Ĺ":8342,"onment":8343,"Ġà§©à§©à§¨":8344,"str":8345,"à§ĩ,\"":8346,"à¦¶à¦¨à¦¶":8347,"à¦¦à¦ķà¦ĵ":8348,"Ġtre":8349,"Ġfree":8350,"Ġtown":8351,"Ġlittle":8352,"Ġà§©à§©à§Ń":8353,"à¦°à¦ĩà§Ł":8354,"à¦²à¦¬à¦¦à¦²":8355,"Ġà¦īà§İà¦¸à¦®":8356,"à¦¡à¦¨à¦Ń":8357,"Ġpe":8358,"à§§à§§à§§à§":8359,"à¦¨à¦¶à¦Ł":8360,"Ġà¦¦à¦¯":8361,"Ġà¦¶à¦¤à¦¬":8362,"Ġà¦Ĺà¦Ĺà¦¨":8363,"à¦¾à¥¤'":8364,"à¦¨à¦¤à¦¤à¦°":8365,"à¦¯à¦¤à¦¤":8366,"Ġà¦Ĺà§ľà¦ªà§ľà¦¤":8367,"à§§à§¯à§Ńà§¬":8368,"Ġà¦¤à¦°à¦¤":8369,"Ġà¦Łà¦¯":8370,"Ġà¦ıà¦¤à¦¥":8371,"Ġà¦ľà§Łà¦¶à¦Ļ":8372,"Ġbirds":8373,"ex":8374,"oice":8375,"Ġà¦¹à¦ĩà¦¹":8376,"Ġà¦Ĩà¦ķà¦¬":8377,"Ġanimals":8378,"à¦£à¦Ĺà¦¤à¦®":8379,"à¦ĩà¦īà¦ıà¦¨à¦ıà¦ĩà¦ļà¦¸":8380,"à¦¸à¦ľà¦²":8381,"Ġlion":8382,"itive":8383,"?âĢĶ":8384,"à¦¤à¦¸à¦ĩ":8385,"sohrab":8386,"Ġà¦¨à¦¬à¦¦à¦®":8387,"à¦ĩà¦®à¦ª":8388,"ince":8389,"ĠÑĢÐ¶Ð´":8390,"à¦Łà¦Ĺà¦¤à¦Ń":8391,"à§İà¦¸à¦¨":8392,"Ġà¦®à¦¹à¦¨":8393,"à¦¤à¦®à¦¬":8394,"à§Łà¦®à¦Ł":8395,"·ÑĢÐ¶":8396,"Ġà§«à§©à§¦":8397,"Ġaround":8398,"Ġbeautiful":8399,"pose":8400,"à§ľà¦«":8401,"à¦ıà¦¨à¦Ĩà¦°à¦¸":8402,"à¦¬à¦¦à¦°à¦Ĺà¦ŀ":8403,"Ġà¦¬à¦°à¦ķà¦²":8404,"Ġà¦®à¦¨à¦¨à¦¶":8405,"Ġmin":8406,"ustr":8407,"ÑĢÐ¶Ð¸ÑĢÐ·ÐĿÑĢÐ¶Ð´":8408,"à¦¾à§į":8409,"Ġà¦¬à§ľà¦Ĺ":8410,"Ġcontr":8411,"vir":8412,"à¦°à¦īà¦ªà¦°":8413,"Ġà¦ıà¦ķà¦Ń":8414,"Ġà¦¨à¦¹":8415,"Ġà¦ħà¦¨à¦¡":8416,"ense":8417,"ating":8418,"ĠPro":8419,"Ġrich":8420,"à¦ĩà¦²à¦¸à¦¹":8421,"iter":8422,"Ġà¦Ńà¦¬à¦¨à¦ķ":8423,"ert":8424,"à¦¯à§Łà¦ķà¦°":8425,"à¦¡à¦¦à¦Ĺ":8426,"à¦¬à¦®à¦ŀ":8427,"Ġsea":8428,"à¦¨à¦¢":8429,"à¦°à¦¸à¦¹à¦ķ":8430,"fully":8431,"à¦¬à¦ĵà§Ł":8432,"à¦ĩà¦Łà¦ĵ":8433,"Ġà§Ńà§©à§¦":8434,"leep":8435,"Ġnear":8436,"à¦¿à¦¿":8437,"à§ģà§ĩ":8438,"à¦ĩà¦ĵà¦¨":8439,"à¦ĺÅĵ":8440,"à¦®à¦°à¦¨":8441,"ĠAfter":8442,"à§ĥà§ĥ":8443,"Ġà§©à§«à§¨":8444,"ility":8445,"à¦Łà¦°à¦¸à¦¹":8446,"Ġà§«à§¨à§«":8447,"thing":8448,"à¦«à¦®":8449,"à¦¤à¦¬à¦¬":8450,"ides":8451,"Ġà¦Ŀà¦°à¦Ŀà¦°":8452,"ÑĢÐ¶Ð¼ÑĢÐ·ÐĹ":8453,"à¦£à¦ªà¦¦":8454,"à¦¬à¦°à¦²":8455,"Ġà¦ħà¦ªà¦¦à¦¸":8456,"à¦ļà§Łà¦Ł":8457,"à¦¸à¦¦à¦°à¦ĺ":8458,"ures":8459,"Ġà¦®à¦¡à¦°":8460,"Ġà§©à§«à§«":8461,"Ġà¦¬à¦°à¦ķà¦¤à¦īà¦²":8462,"Ġà¦¨à¦ľà¦®":8463,"Ġà¦¬à¦²à¦ĩ":8464,"à¦¾à¦Ĥ-":8465,"à§Ģà¥¤\"":8466,"à¦¶à¦Łà¦¨":8467,"Ġà¦ıà¦īà¦ĩà¦¨":8468,"Ġà¦°à¦®à¦£":8469,"Ġà¦ĸà§ľà¦ķ":8470,"à¦¤à¦¨à¦¸":8471,"à¦°à¦¹à§Ł":8472,"ÑĢÐ¶Ð¯":8473,"ific":8474,"ĠRe":8475,"ĠComp":8476,"ha":8477,"à¦ıà¦²à¦ıà¦¨":8478,"Ġwon":8479,"à¦Łà¦¸à¦Ļ":8480,"à¦®à§Łà¦¦":8481,"à¦¨à¦ĩà¦ī":8482,"à¦ıà¦ĵ":8483,"ments":8484,"Ġsoon":8485,"à¦¤à¦°à¦®":8486,"Ġsit":8487,"Ġà§©à§ªà§§":8488,"Ġrul":8489,"Ġass":8490,"Ġà¦¸à¦¹à¦®à¦¤":8491,"à¦¶à¦®à¦£":8492,"à¦Łà¦«à¦°à¦®":8493,"Ġà¦Łà¦¨à¦ª":8494,"Ġà¦Ĩà¦¤à¦¹":8495,"Ġmed":8496,"à¦¸à¦¤à¦¨":8497,"à¦§à¦¨à¦¬":8498,"à¦Ĩà¦ĩà¦ıà¦«":8499,"Ġwomen":8500,"à¦ľà¦°à¦¤":8501,"Ġà¦¬à¦²à¦¦":8502,"à¦¸à¦°à¦°":8503,"vironment":8504,"à¦Ĺà¦łà¦¨à¦ĵ":8505,"ÑĢÐ·Ðĵ":8506,"à§ĭ!âĢĻ":8507,"à¦®à¦¤à¦¸à¦¹":8508,"Ġà¦Ĩà¦ĩà¦¨à¦¸à¦®":8509,"à¦Ĺà¦¦à¦ĸà¦²":8510,"Ġà¦Ĩà¦¸à¦¨à¦¬":8511,":âĢĺ":8512,"à§ĭ),":8513,"Ġà¦Ľà§Łà¦¦":8514,"Ġà¦¦à¦²à¦Ĺà¦¤à¦Ń":8515,"Ġcour":8516,"Ġprodu":8517,"13":8518,"ÑĢÐ·ÐĿÑĢÐ¶Ð¾":8519,"à¦ıà¦ĩà¦ļà¦ıà¦ıà¦ĩà¦ļ":8520,"ween":8521,"Ġà¦¨à¦īà§Ł":8522,"Ġà§©à§§à§Ń":8523,"ÑĢÐ·ÐĽÑĢÐ¶Ð§":8524,"pport":8525,"Ind":8526,"Ġà¦¬à¦¹à¦®":8527,"Ġà¦ıà¦Ĩà¦ĩà¦ľ":8528,"Ġà¦ªà¦¦à¦ĵ":8529,"ery":8530,"à¦ķà¦Ĺà¦¨":8531,"à¦ľà¦«":8532,"Ġà¦ıà¦¤à¦¬":8533,"Ġà§©à§¯à§«":8534,"à¦¨à¦¦à¦²":8535,"à¦Ĩà¦§à¦Ł":8536,"Ġà§¬à§©à§¦":8537,"âĢĿ-":8538,"range":8539,"à¦°à¦²à¦ķ":8540,"à¦¤à¦¨à¦ľà¦¨":8541,"à¦¥à¦¨à¦¯":8542,"Ġà¦Ĩà¦ĩà¦ıà¦¸à¦¬":8543,"Ġà¦Ĩà¦ªà¦Ĺ":8544,":)":8545,"Ġà¦ľà¦²à¦¯":8546,"à¦¥à¦¡":8547,"à¦§à¦¨à¦ª":8548,"Ġà¦ıà¦®à¦«":8549,"Ġà¦ķà¦¨à¦ķà¦ļ":8550,"ĠÑĢÐ¶Ð¬ÑĢÐ¶":8551,"email":8552,"Ġà¦¤à¦°à¦¬":8553,"à§ĩà¥¤>>":8554,"à¦ıà¦ĩà¦¡à¦¸":8555,"à¦Ĺà¦£à¦Ńà¦¬à¦¨":8556,"ïĥ":8557,"à¦Łà¦²à¦¸":8558,"à¦¤à¦®à¦¹":8559,"à¦§à¦¨à¦¹":8560,"red":8561,"Ġà§¨à§¯à§Ń":8562,"irl":8563,"à¦ķà¦¨à¦Ł":8564,"Ġà¦ıà¦ĩà¦®":8565,"à¦Ĺà¦¤à¦®":8566,"à¦¨à¦®à¦¨à¦¸":8567,"unct":8568,"Ġearly":8569,"à¦°à¦°à¦ķ":8570,"à¦¶à¦°à¦¤":8571,"Ġincre":8572,"Ġstop":8573,"à¦¨à¦¸à¦°":8574,"Ġà¦ĸà¦Ĺ":8575,"Ġà¦Ŀà§ľà¦Ł":8576,"ïĢłïĢł":8577,"Ġà¦Ĩà¦²à¦®à¦ĵ":8578,"ards":8579,"Ġà§©à§©à§¬":8580,"à§ĩ\",":8581,"à¦¦à¦°à¦¸à¦¹":8582,"Ġà¦¸à¦®à¦°à¦ľ":8583,"à¦ļà¦ķà¦Ĺ":8584,"à¦īà¦ªà¦®à¦¹":8585,"Ġà¦ıà¦¹à¦Ľ":8586,"Ġà¦Ĩà§Łà¦®":8587,"Ġlearning":8588,"à¦²à¦Ĺà¦°":8589,"à§ĥ.":8590,"Ġill":8591,"à§§à§¦à§§":8592,"ecial":8593,"Ġà¦Ĩà¦īà¦¨":8594,"Ġà¦Ľà¦°à¦°":8595,"Ġà¦ħà¦ªà¦¶":8596,"à¦ķà¦®à¦ª":8597,"à¦¨à¦ĵà¦¯":8598,"Ġà¦¸à¦®à¦Ń":8599,"Ġà¦¬à¦¨à¦°":8600,"Ġà§«à§¦à§¨":8601,"protected":8602,"à¦°à¦ĺà¦°":8603,"à¦¸à¦¹à¦¸":8604,"à¦Ĩà¦Ĺà¦°à¦¤à¦²":8605,"à¦·à¦¦à¦¸à¦¹":8606,"Ġà¦ħà¦ľà¦¯":8607,"à¦¦à¦ļà¦¶à¦®":8608,"bit":8609,"Ġà¦Ĩà¦¹à¦°":8610,"Ġà¦Ľà§Łà¦®":8611,"à¦Ĩà¦°à¦Ĩà¦°à¦¡":8612,"à¦¯à¦Ĺà¦¤à¦Ń":8613,"Ġà§¬à§®à§¦":8614,"Ġà¦ıà¦ıà¦®":8615,"Ġà¦®à¦¸à¦¨à¦¦":8616,"rogative":8617,"Ġà¦ħà¦¢":8618,"Ġà¦¬à¦²à¦Ĺ":8619,"à¦®à¦¹à¦¨à¦¨":8620,"à¦ıà¦¸à¦Ĩà¦ĩà¦Ĩà¦°":8621,"Ġà¦Ĺà¦°à¦®à¦®à¦¸à¦²":8622,"Ġà¦īà¦ĩà¦²à¦¸":8623,"Ġwear":8624,"à¦ľà¦¸à¦Ń":8625,"à¦£à¦ªà¦¨":8626,"Ġà¦Ĺà¦ľà¦¨":8627,"à¦¡à¦¸à¦ķà¦®":8628,"Ġà¦¸à¦°à¦¨":8629,"à¦°à¦®à¦§à¦°":8630,"à¦°à¦Ĩà¦°":8631,"Ġà¦ıà¦Ńà¦°":8632,"Ġà¦ĸà§Łà¦°":8633,"Ġà¦Ĩà¦īà¦Łà¦¡":8634,"Ġà¦¬à¦ĩà¦²":8635,"Ġà¦ıà¦ĩà¦ĸ":8636,"à¦Ĩà¦ĸà¦¤":8637,"à¦¾?âĢĿ":8638,"Ġà¦īà¦Ńà§Łà¦ķ":8639,"Ġmonth":8640,"%)":8641,"à¦ĤâĢĻ":8642,"Ġà¦Ľà¦«":8643,"à¥¤âĢĻâĢĻ":8644,"à¦ķà§Łà¦²":8645,"à¦Ļà¦¨à¦°":8646,"à¦°à¦®à¦®à¦¨":8647,"ĠÂłÂłÂłÂłÂłÂłÂłÂłÂłÂłÂłÂłÂłÂłÂłÂł":8648,"à¦¬à¦¤à¦®":8649,"Ġà¦ķà¦²à¦°":8650,"à¦¨à¦Łà¦¨à¦ķ":8651,"à¦°à¦£à¦¸":8652,"Ġà§¯à§¬à§¦":8653,"à¦ļà¦Ń":8654,"Ġà¦¬à§Łà¦¸à¦Ł":8655,"à¦«à¦¹":8656,"ĠRaj":8657,"à¦ļà¦ĵà§Ł":8658,"Ġà¦ĩà¦¨à¦ķà¦°à¦ª":8659,"à¦ķà¦¦à¦²":8660,"à¦ķà¦¶à¦¨à¦ıà¦ĩà¦¡":8661,"Ġà§ªà§Ńà§«":8662,"*)à¥¤":8663,"ĠSima":8664,"ĠâķĽ.":8665,"yr":8666,"à¦Łà§Ł":8667,"à§ĩà¥¤(":8668,"à¦®à¦¨à¦¸à¦¹":8669,"Ġà¦ķà¦®à¦¸":8670,"Ġà¦Ĩà¦ĩà¦¥":8671,"Ġsame":8672,"Ġà§«à§¦à§¦à§¦":8673,"à¦Ĩà¦¸à¦®":8674,"à¦īà¦ªà¦¯":8675,"Ġsubject":8676,"Ġfiel":8677,"à¦°à¦ħà¦¤":8678,"Ġà¦ıà¦ķà¦¨à¦²":8679,"à¦ıà¦¤à¦¦":8680,"à§ģ),":8681,"Ġà¦Łà¦Ĺà¦°":8682,"à¦°à¦ķà¦Ĺ":8683,"à¦°à¦ªà¦¦":8684,"à¦ıà¦¸à¦ıà¦¸à¦ľ":8685,"à¦¤à¦°à¦¨":8686,"Ġà¦°à¦¸à¦Ĺ":8687,"Ġà¦®à¦°à¦¨":8688,"à¦¬à¦¸à¦Ń":8689,"Ġà¦®à¦¹à¦²à¦ķ":8690,"Ġwin":8691,"orrow":8692,"Ġà¦Ĩà¦Ľà¦°":8693,"à¦Ĩà¦«à¦¸":8694,"Ġà¦®à¦¨à¦°":8695,"à¦®à¦²à¦Ĺ":8696,"à¦ıà¦ĩà¦ļà¦ķ":8697,"Ġà¦ªà¦°à¦®à¦¬":8698,"à¦°à¦ļà¦ķ":8699,"à¦Ĺà¦²à¦Ł":8700,"à¦°à¦ıà¦²":8701,"à¦ĩà¦«à§Ł":8702,"à¦«à¦¸à¦²":8703,"Ġbetter":8704,"Ġà¦¸à§İà¦®":8705,"Ġà¦ľà¦²à¦®à¦Ĺ":8706,"à¦ķà¦Ĩà¦īà¦Ł":8707,"à¦ĩà¦Ĩà¦°":8708,"Ġà¦Ĩà¦¹à¦®à¦¦à¦¸à¦¹":8709,"ïĤ´":8710,"à¦¿à¦ĤâĢĻà¥¤":8711,"à¦²à¦¨à¦ĩ":8712,"Ġà¦¦à¦²à¦Ľ":8713,"ĠSome":8714,"à¦·à¦§à¦°":8715,"Ġà¦īà¦«":8716,"ĠEx":8717,"à¦«à¦¤à¦°":8718,"à¦¯à¦®à¦¯":8719,"à¦ļà¦²à¦°à¦¤":8720,"lege":8721,"à¦¦à¦ĺ":8722,"Ġà¦ļà¦°à¦ļ":8723,"Ġà§ªà§§à§¯":8724,"à§§à§¯à§©à§¦":8725,"Ġà§©à§¦à§¦à§¦":8726,"Ġà¦°à¦ĵà¦ľ":8727,"Ġbetween":8728,"Ġclean":8729,"Ġsuffer":8730,"Ġà¦«à¦²à¦¶":8731,"à¦²à¦ªà¦¥à¦®à¦¨":8732,"Ġworks":8733,"à¦¤à¦¨à¦¦":8734,"Ġà¦ıà¦®à¦Ĩà¦°":8735,"mun":8736,"à¦ıà¦ĸà¦¨à¦ķ":8737,"irm":8738,"Ġà¦¦à¦ĸà¦²à¦¬":8739,"à¦Ńà¦¬à¦ķ":8740,"Ġà¦ķà¦ĩà¦Ľ":8741,"à¦łà¦¸à¦¹":8742,"Ġà¦īà¦²à¦Ń":8743,"int":8744,"Ġsuch":8745,"à¦¯à¦¸à¦¬":8746,"à¦²à¦¤à¦Ĺ":8747,"ason":8748,"ulation":8749,"Ġplan":8750,"à¦¨à¦¬à¦¬":8751,"à¦£Åĵ":8752,"à¦ĸà¦ľ":8753,"à¦ľà¦¨à¦°":8754,"Ġà¦ħà¦¤à¦²":8755,"ÑĢÐ·ÐĿÑĢÐ¶Ð¼":8756,"Ġcolumn":8757,"à§İà¦¹":8758,"Ġà¦®à¦¤à¦²":8759,"à¦ļà¦ķà¦£":8760,"Ġà¦ħà¦«à¦²":8761,"à¦ĵà¦ĵ":8762,"Ġà¦°à¦Łà¦¨":8763,"à¦²à¦ķà¦ĩ":8764,"Ġà¦ªà§ľà¦¨":8765,"à¦·à¦ķà¦ª":8766,"à¦ķà¦Ńà¦°":8767,"ÑĢÐ¶Ðĳ":8768,"Ġbreak":8769,"Ġappropriate":8770,"à¦¸à¦ħà¦°":8771,"Ġà¦ħà¦Ĺà¦®":8772,"à¦«à§Łà¦¸":8773,"à¦¶à¦²à¦¬":8774,"à¦¬à¦°à¦¸":8775,"Ġà¦Ĩà¦²à¦®à¦ª":8776,"Ġsecond":8777,"Ġhonest":8778,"14":8779,"à¦Ńà¦¬à¦¨à¦Ł":8780,"Ġà¦ĩà¦īà¦ıà¦¸à¦Ł":8781,"Ġà¦Ĩà¦¦à¦®à¦ª":8782,"à¦¯à¦®à¦ĵ":8783,"à¦ħà¦¬à¦ķ":8784,"à¦Ŀà¦Ľ":8785,"Ġà¦Ĩà¦ķà¦¬à¦°à¦ķ":8786,"Ġà§«à§¯à§¦":8787,"Ġà¦ĩà¦Łà¦¬":8788,"à¦²à¦¤à¦ĵ":8789,"à¦Ńà¦¬à¦ªà¦°":8790,"Ġmar":8791,"à§Łà¦ľà¦¨à¦ķ":8792,"à¦¸à¦®à¦ķ":8793,"Ġà¦¬à¦ķà¦¸":8794,"Ġfoods":8795,"à¦Ĺà¦ªà§İ":8796,"à¦ħà¦¤à¦ıà¦¬":8797,"Ġsuccess":8798,"à¦°à¦īà¦ªà¦ľ":8799,"à¦°à¦¬à¦¹à¦®":8800,"Ġdep":8801,"Ġà§©à§ªà§¯":8802,"It":8803,"à¦¬à§ľà¦¦":8804,"Ġà¦Ĺà¦īà¦Ľ":8805,"Ġve":8806,"Ġà¦ħà¦¸à¦®à¦°":8807,"Ġà§¬à§¨à§«":8808,"à¦ķà¦Ĩà¦ªà¦Ń":8809,"à§©à§Ńà§¦":8810,"Ġkill":8811,"Ġà¦¬à¦¨à¦«":8812,"ars":8813,"Ġà¦ĩà¦īà¦ıà¦¨à¦ıà¦«à¦ª":8814,"à¦ıà¦°à¦¦":8815,"à¦¿à¥¤ïģ¬":8816,"Ġà§®à§¨à§¦":8817,"ĠFor":8818,"assan":8819,"Ġà¦¡à§Ł":8820,"Ġà¦¬à¦°à¦ĩà¦¤à¦²":8821,"à§§à§¨à§§à§«":8822,"Ġvii":8823,"à¦¿à¦ĤâĢĶ":8824,"ĠOur":8825,"ele":8826,"sm":8827,"Ġà¦īà¦¡à¦¸":8828,"Ġà¦ıà¦ĩà¦ª":8829,"Ġà¦ıà¦®à¦Ĩà¦ĩà¦Ł":8830,"ĠSa":8831,"Ġà¦ªà¦ļà¦¨à¦¶":8832,"uk":8833,"à¦²à¦Ńà¦°":8834,"à§©à§«à§¦":8835,"Ġà§ªà§§à§«":8836,"Ġà¦Ĩà¦¤à¦ª":8837,"ĠÑĢÐ¶Ð«":8838,"Ġà§©à§®à§«":8839,"à¦¨à¦ıà¦¬":8840,"à¦ĺà¦Łà¦ķ":8841,"Ġà§§à§¯à§©à§®":8842,"erm":8843,"Ġà§ªà§¦à§«":8844,"Ã¿à¦ķ":8845,"à¦¾à¥¤:":8846,"à¦²à¦ķà¦¡":8847,"à¦¨à¦Ĺà¦¦":8848,"Ġà§©à§®à§§":8849,"ird":8850,"à¦īà¦¦à¦ª":8851,"Ġà§«à§¦à§§":8852,"Ġà§©à§¨à§Ń":8853,"Åĵà¦¤":8854,"plete":8855,"ercise":8856,"Ġà¦°à¦¸à¦°":8857,"Ġpubl":8858,"ised":8859,"Ġà¦¸à¦¦à¦°à¦¸à¦¹":8860,"Ġà¦ľà¦¨à¦Ĺà¦£à¦ĵ":8861,"que":8862,"Ġintern":8863,"à¦ıà¦ķà¦°":8864,"à¦ıà¦°à¦ķà¦®":8865,"à¦¾à¥¤#":8866,"Ġà¦ħà¦ªà¦ļà¦¯":8867,"Ġà¦ľà¦®à¦Ľ":8868,"à¦¦à¦®à¦ķà¦²":8869,"Ġà¦ĩà¦ĩà¦īà¦Ń":8870,"à§§à§§à§¯":8871,"à¦¸à¦®à¦®":8872,"Ġfull":8873,"à§ĩ...à¥¤":8874,"Ġà¦Ĩà¦ĩà¦ĵà¦ıà¦®":8875,"of":8876,"à¦Ķ":8877,"Ġà§ªà§¬à§«":8878,"abul":8879,"agraph":8880,"Ġà¦®à¦¦à¦¦à¦ª":8881,"%à¥¤":8882,"Ġà§¨à§§à§¦à§¦":8883,"Ġà§©à§©à§¯":8884,"à¦°à¦īà¦ĩà¦¨":8885,"à¦¸à¦¸à¦®":8886,"à¦ļà¦®à¦ķ":8887,"Ġà§©à§«à§§":8888,"Ġeas":8889,"à¦²à¦ªà¦Ł":8890,"à¦ıà¦¸à¦Ń":8891,"à¦°à¦¹à¦£à¦ĵ":8892,"Ġà§©à§«à§ª":8893,"Ġgirl":8894,"ourn":8895,"à¦¤à¦¬à¦®":8896,"Ġà¦ħà¦¬à¦ļ":8897,"à¦¬à¦¬à¦¹":8898,"alam":8899,"Ġ(-)":8900,"à¦ļà¦¨à¦¸":8901,"à§İà¦¸à¦¹":8902,"à¦ķà¦¦à¦®à¦¤à¦²":8903,"Ġenvironment":8904,"à¦¬à¦¸à¦Ĺ":8905,"Ġstate":8906,"Ġà§ªà§§à§ª":8907,"à¦¨à¦Ĺà¦°à¦ķ":8908,"à¦¨à¦ıà¦ĩ":8909,"à¦¨à¦¡à¦«à¦¸":8910,"à¦ıà¦ĩà¦ļà¦Ĩà¦°":8911,"à¦Ĩà¦ļà¦°à¦£à¦¬":8912,"Ġà¦®à¦°à¦²":8913,"Ġà¦®à¦Ĺà¦¨":8914,"à¦¹à¦Ļ":8915,"à¦¥à¦¸à¦®":8916,"à¦ĵà¦ł":8917,"à§§à§¦à§¬":8918,"Ġsing":8919,"Ġà¦¦à¦®à¦¨à¦ª":8920,"Ġà§©à§¬à§Ń":8921,"à¦ıà¦¸à¦ıà¦«à¦ķ":8922,"à¦¤à§İà¦ªà¦°à¦¤":8923,"à¦§à¦¬à¦¨":8924,"à¦¶à¦²à¦Ł":8925,"Ġset":8926,"Ġà¦¬à¦¹à¦¨à¦¯":8927,"Ġà§§à§¬à§¦à§¦":8928,"à¦Ĺà¦²à¦¸":8929,"à¦ļà¦¨à¦ķà¦®":8930,"let":8931,"à¦Łà¦¨à¦¸à¦¹":8932,"Ġà¦¬à¦¹à¦°à¦®à¦ª":8933,"ential":8934,"23":8935,"ven":8936,"Ġà¦ħà¦²à¦Ł":8937,"à¦Ĩà¦ĺ":8938,"Ġap":8939,"à§§à§¯à§ªà§«":8940,"Ġhab":8941,"à¦Ĺà¦łà¦ķà¦¦":8942,"à§§à§¦à§¯":8943,"Ġbrother":8944,"Ġà¦¸à¦ĩà¦Ľ":8945,"Ġà¦ļà¦°à¦¸":8946,"à¦¦à¦¨à¦®à§Ł":8947,"Ġà¦Ĩà¦ĩà¦ĩà¦¬":8948,"à¦ļà¦¬à¦Ł":8949,"ari":8950,"ĠÑĢÐ¶Ð¿ÑĢÐ¶":8951,"Ġà¦®à¦¶à¦Ĺ":8952,"à¦§à¦¨à¦¸":8953,"Ġà¦Ĩà¦Łà¦¶":8954,"Ġcur":8955,"à§§à§§à§§":8956,"Ġexc":8957,"16":8958,"rom":8959,"à¦Łà¦ªà¦¤à¦Ļ":8960,"Ġsw":8961,"ĠAb":8962,"Ġrest":8963,"à¦ķà¦®à¦²à¦Ĺà¦ŀ":8964,"à¦§à¦¬à¦ķ":8965,"à¦Ńà¦¡":8966,"à¦ķà¦¬à¦Ľà¦°":8967,"à¦¨à§Łà¦¨à¦ĵ":8968,"à¦¯à¦¸à¦Ļ":8969,"Ġà§ªà§¦à§¬":8970,"Ġdress":8971,"Ġà§©à§«à§©":8972,"Ġless":8973,"ĠPre":8974,"à¦°à¦Ĩà§Ł":8975,"à¦¤à¦ĺà§ľ":8976,"à¦®à¦¸à¦°":8977,"Ġbad":8978,"à¦¹à¦°à¦£à¦¸":8979,"à¦¡à¦²à¦«":8980,"ĠÂłĠÂłĠ":8981,"à§§à§§à§®":8982,"Ġbuy":8983,"âĻ":8984,"Ġà¦Ĩà¦¨à¦²à¦ķ":8985,"à§¨à§§à§¦à§¦":8986,"Ġà¦®à¦°à¦®":8987,"à¦¡à¦īà¦ĩà¦¥":8988,"Ġà¦Ńà§ľà¦ķ":8989,"Ġà¦¬à¦¨à¦²à¦¤":8990,"Ġpower":8991,"Ġproblem":8992,"Ġgarden":8993,"Ġ__":8994,"à¦®à¦¶à¦¤à¦¬à¦°":8995,"Ġà¦ĸà¦¬à¦°à¦ķ":8996,"à§Ģà¥¤âĢĺ":8997,"Ġà¦Ĩà¦Łà¦ķà¦ķà¦°":8998,"à§§à§¯à§®à§«":8999,"à¦®à¦Ĺà¦¬":9000,"à¦¨à¦ĵà¦Ń":9001,"Ġà¦Ĩà¦ĸà¦²":9002,"Ġsk":9003,"Ġà§¬à§Ńà§§":9004,"à¥¤>>":9005,"à¦§à¦¹":9006,"Ġà¦ıà¦ĩà¦ľ":9007,"à§ĩ?âĢĻâĢĺ":9008,"à¦¤à¦ķà¦£":9009,"Ġà¦Ĩà¦ĩà¦¶":9010,"à¦®à¦ļà¦°":9011,"Ġà§©à§«à§Ń":9012,"Ġliving":9013,"Ġà¦ıà¦®à¦ıà¦²à¦ıà¦¸à¦ıà¦¸":9014,"Ġà¦ĩà¦¹à¦°":9015,"Ġà¦ħà¦¨à¦Łà¦¨":9016,"Ġà¦īà¦ªà¦¦à¦²":9017,"à¦¯à¦ķà¦®à¦ª":9018,"à¦¬à¦ľà¦¨à¦¸à¦¹":9019,"Ġpur":9020,"¦ÑĢÐ¶":9021,"à¦¦à¦¶à¦Ł":9022,"à§Łà¦ķà¦ĩ":9023,"à¦ĭà¦·":9024,"Ġnext":9025,"ĠAnd":9026,"âĻ¦":9027,"Ġ&":9028,"Ġà¦Ńà¦°à¦¦":9029,"hens":9030,"à¦ĺà¦¨à¦ķ":9031,"à§§à§¬à§¦":9032,"Ġà¦Ńà¦ľà¦¨":9033,"à¦°à¦ĵà¦ĩ":9034,"Ġà¦ıà¦®à¦ıà¦¨à¦ª":9035,"Ġmeaning":9036,"à¦«à¦°à¦ķ":9037,"Ġà¦Ĩà§Łà¦²":9038,"à¦·à¦¤à¦¸":9039,"à¦¾:)":9040,"Ġà§ªà§¨à§Ń":9041,"à¦ķà¦¡à¦ĩà¦¨":9042,"Ġà¦ķà¦°à¦Ł":9043,"à¦°à¦ķà¦°à¦£":9044,"à¦°à¦¥à¦®à¦Ĩà¦²":9045,"à§ĩà§Ĺ-":9046,"Ġfact":9047,"Ġinternational":9048,"hassan":9049,"à§ĩà¥¤]":9050,"à¦łà¦ĸà§ľ":9051,"à¦ĩà¦¨à¦²":9052,"à¦°à¦Ńà¦°":9053,"à¦¥à¦¨à¦ª":9054,"Ġà§©à§Ńà§©":9055,"On":9056,"à¦²à¦®à¦ķ":9057,"Ġà¦ħà¦¸à¦²":9058,"Ġduring":9059,"à§ĩâĢĿà¥¤":9060,"Ġà¦Ĩà¦°à¦¦":9061,"à¦ķà¦²à¦ľ":9062,"à¦°à¦®à¦£à¦ª":9063,"Ġcomputer":9064,"à¦¨à¦¬à¦¸à¦Ń":9065,"à¦®à¦Ľà§ľ":9066,"à¦ªà¦Łà¦ķ":9067,"à¦ĩà¦®à¦¤":9068,"Ġà¦ĸà¦°à¦Ĺ":9069,"à¦°à¦²à¦®":9070,"Ġà¦ıà¦ķà¦ĩà¦°à¦ķà¦®":9071,"Ġà§©à§ªà§®":9072,"Ġmodern":9073,"Ġà¦¸à¦¯à¦¤":9074,"à¦¿)âĢĻ":9075,"Ġà¦ķà¦Ľ":9076,"à¦¸à¦ķà¦¨à¦¸":9077,"ishes":9078,"Ġ##":9079,"à§ªà§¯à§¦":9080,"Ġverbs":9081,"dr":9082,"à¦§à¦ķà¦²":9083,"Ġà¦Ĩà¦ĩà¦¨à¦ĵ":9084,"Ġà¦Ĺà¦£à¦¸à¦®":9085,"Ġà¦ªà¦ł":9086,"à¦·à§Łà¦ķà¦®à¦¨":9087,"atter":9088,"à§§à§¨à§¦à§¦":9089,"Ġpast":9090,"ffic":9091,"ĠIsl":9092,"à¦Ĺà¦¦à¦²":9093,"à¦¬à¦¨à¦Ń":9094,"à¦ķà¦Łà¦ĵ":9095,"à¦ıà¦®à¦Ĩà¦°à¦ıà¦«":9096,"Ġim":9097,"Ġà¦Ĩà¦ĩà¦ıà¦²à¦ĵà¦°":9098,"à¦ķà¦¨à¦ľ":9099,"à§§à§¯à§¬à§¦":9100,"à¦ķà¦¶à¦¨à¦¸":9101,"els":9102,"à¦Ĩà§Łà¦ķà¦°":9103,"Ġetc":9104,"à¦¨à¦¬à¦ķ":9105,"Ġà¦¬à§ľà¦¹":9106,"à§§à§§à§Ń":9107,"ÑĢÐ·ÐĴÑĢÐ¶":9108,"à¦®à¦¶à¦ķ":9109,"à§ģ;":9110,"Ġà§ªà§§à§®":9111,"Ġà¦ĩà¦¨à¦¹":9112,"---":9113,"Ġà§©à§¬à§§":9114,"Ġà¦ıà¦ıà¦¨à¦¸":9115,"à¦ļà¦ķà¦²":9116,"à¦Ńà¦«à¦²":9117,"à¦ķà¦°à¦ŀ":9118,"à¦¨à¦¨à¦ķ":9119,"à¦¬à¦¹à¦¨à¦®":9120,"à¦ļà§Łà¦ĵ":9121,"Ġrep":9122,"ieve":9123,"Ġà¦¬à¦ļà¦¸":9124,"à¦ĵà¦°à¦¬":9125,"Ġà¦¬à¦¨à¦®":9126,"Ġà¦¶à§Łà¦¨à¦ķà¦ķ":9127,"vent":9128,"Ġà¦ıà¦ķà¦ĺà¦£":9129,"à¦ĩà¦²à¦ľ":9130,"Ġà§§à§¯à§©à§¬":9131,"Ġà§Ńà§®à§¦":9132,"Ġà¦«à¦²à¦¨à¦ĵ":9133,"à¦°à¦ħà¦°":9134,"Ġà¦ĭà¦£à¦ª":9135,"à¦²à¦¹à¦¤":9136,"à¦¡à¦īà¦ĩà¦ķ":9137,"Ġà§ªà§©à§«":9138,"Ġà§©à§«à§¬":9139,"Ġà¦Ĩà¦¯à¦®à¦ķ":9140,"Ġà¦¶à¦¹à¦°à¦¸à¦¹":9141,"à¦ıà¦«à¦Ĩà¦ĩà§Ł":9142,"à¦ıà¦²à¦ĩà¦¡":9143,"ines":9144,"Ġà¦¸à¦«à¦²à¦ĵ":9145,"Ġà§©à§®à§®":9146,"Ġà§©à§®à§¬":9147,"à¦²à¦īà¦¡":9148,"Ġà¦ıà¦Ĩà¦°":9149,"à¦Ĩà¦¸à¦¬":9150,"à¦ªà¦¨à¦ĩ":9151,"ote":9152,"ficult":9153,"à¦·à§ľ":9154,"aces":9155,"ÑĢÐ¶Ð·ÑĢÐ¶":9156,"Ġà¦ıà¦ĩà¦¦":9157,"Ġà¦Ĩà¦ĩà¦¨à¦¸à¦ļ":9158,"à¦ļà¦ľà¦¨à¦ĩ":9159,"à¦Ĩà¦¶à¦ª":9160,"Ġà¦¨à¦°à¦ĵà¦¯":9161,"ĠAm":9162,"Ġà¦¶à¦ªà¦¥à¦Ĺ":9163,"à¦ķà¦Ĺà¦£":9164,"à¦£à¦Ńà§Ł":9165,"à¦¦à¦°à¦ªà¦¤":9166,"Ġà¦¬à§ľà¦¶":9167,"Ġfamous":9168,"ĠUniversity":9169,"Ġà¦«à¦¸à¦«à¦°":9170,"Ġà¦§à¦¬":9171,"à§§à§¯à§«à§ª":9172,"à§§à§¯à§¬à§¯":9173,"Ġsong":9174,"à¦īà¦¹":9175,"Ġà¦ªà¦¦à¦ĩ":9176,"................":9177,"à¦¤à¦Ľà§ľ":9178,"à§§à§¨à§©":9179,"à¦¯à¦ªà¦ķ":9180,"à¦ľà¦ħ":9181,"Ġà¦¦à¦¹à¦¨":9182,"à¦®à¦¨à¦®":9183,"à¦Ĩà¦²à¦«":9184,"ica":9185,"à¦¬à¦ªà¦¨à¦ķ":9186,"Å¡":9187,"à¦¬à¦ľà¦°":9188,"Ġà¦ķà¦¨à¦°":9189,"à¦¶à¦¨à¦¸à¦ķ":9190,"Ġà§®à§Ńà§¦":9191,"ÑĢÐ·ÐĲÑĢÐ¶":9192,"Indirect":9193,"à¦§à¦ªà¦¤":9194,"ale":9195,"Ġnation":9196,"-âĢĺ":9197,"Ġà§į":9198,"Ġà¦®à¦ķà¦Ľ":9199,"Ġà¦¯à¦¶à¦°":9200,"à§ĭà¥¤âĢľ":9201,"Ġà§«à§¦à§«":9202,"Ġà§ªà§¦à§§":9203,"Ġmill":9204,"Ġà¦¨à¦ĵà¦®":9205,"Ġà¦Ĩà¦°à¦£":9206,"ĠÑĢÐ¶ÐªÑĢÐ¶":9207,"à§Łà¦ķà¦¤à¦¨":9208,"à¦°à¦ľà¦¨à¦¨à¦¸":9209,"à¦¸à¦®à§Łà¦Ł":9210,"ĠBe":9211,"à¦®à¦ł":9212,"Ġà¦ĩà¦¶à¦ķ":9213,"à¦¿à¥¤:":9214,"Ġà¦ıà¦ĩà¦ļà¦¬":9215,"Ġà§¨à§«à§¦à§¦":9216,"à§§à§¯à§¨à§¦":9217,"à¦¤à¦ķà¦°à¦¬":9218,"'t":9219,"Ġà¦ħà¦®à¦¤":9220,"à¦īà¦ıà¦«à¦ª":9221,"Ġà¦ķà¦®à¦¡":9222,"à¦¤à¦ķà¦¡":9223,"à¦Ĺà¦²à¦Ĺ":9224,"à¦Īà¦®à¦ķ":9225,"ĠBang":9226,"à¦°à¦²à¦ľ":9227,"Ġà¦Ĩà¦ĩà¦ıà¦«à¦¸":9228,"Ġbased":9229,"à¦ıà¦¸à¦¬à¦ĩ":9230,"Ġgover":9231,"Ġà¦¨à¦¬à¦°":9232,"à¦¤à¦¨à¦ĩ":9233,"Ġà¦«à¦²à¦ĩ":9234,"à¦¼à¥¤ïģ¬":9235,"Ġà§©à§¯à§¯":9236,"à¦ıà¦Ĩà¦°à¦Ĩà¦°":9237,"Ġlibr":9238,"à¦ķà¦¤à¦®":9239,"à¦¦à¦¹à¦¨":9240,"à¦Ĺà¦¨à¦ķ":9241,"Ġà¦ħà¦ľà¦¨":9242,"Ġà§«à§«à§«":9243,"à¦¦à¦°à¦¸à¦®":9244,"Ġà¦ĸà¦°à¦¸":9245,"Ġà¦Ĩà¦ĸà¦¡":9246,"à§ĩâĢ¢":9247,"à¦ĸà¦ľà¦¨à¦ķà¦Ń":9248,"Ġà¦¨à¦¬à¦Ĺ":9249,"à¦ĩà¦īà¦Ń":9250,"aving":9251,"à¦®à¦¦à¦¨":9252,"à¦¯à¦Ńà¦°":9253,"à¦·à¦¤à¦ķ":9254,"à¦¬à¦ķà¦¶":9255,"Ġà¦ľà§Łà¦ĵ":9256,"à¦ľà¦ªà§ľ":9257,"ÑĢÐ·ÐĿÑĢÐ¶Ðº":9258,"000":9259,"ÑĢÐ·Ð¯ÑĢÐ¶":9260,"à¦¦à¦®à¦¸":9261,"à¦ĸà¦§":9262,"à¦¡à¦¸à¦°":9263,"à§Łà¦¨à¦ĩ":9264,"à¦¸à¦¨à¦¸":9265,"Ġà¦Ńà¦¬à¦¨à¦§à¦¸":9266,"Ġins":9267,"Ġà¦Ĺà¦łà¦¨à¦ķ":9268,"à¦¯à¦Łà¦ķà¦¬":9269,"à¦¬à¦ķà¦¤":9270,"à¦ĩà¦ķà¦ļ":9271,"à¦ĩà¦Łà¦¹":9272,"Ġà§Ńà§ªà§¦":9273,"à¦¨à§Łà¦¨à¦ķà¦°":9274,"Ġà§ªà§¯à§¯":9275,"à¦¡à¦¦à¦²":9276,"à¦°à¦ªà¦Ł":9277,"à¦¨à¦¬à¦ķà¦²":9278,"Ġà§§à§¯à§ªà§¨":9279,"Ġwatch":9280,"à¦ıà¦ķà¦¦à¦²":9281,"Ġà¦Ńà§Łà¦Ł":9282,"Ġmus":9283,"Ġà§©à§®à§©":9284,"à§§à§§à§¬":9285,"à¦Łà¦¨à¦Ń":9286,"à¦ĺà¦²à¦ķ":9287,"Ġà§Ńà§§à§¦":9288,"adition":9289,"Ġbeg":9290,"ved":9291,"Ġà¦īà¦Ľà¦®":9292,"Ġà§ªà§¦à§®":9293,"Ġpract":9294,"vb":9295,"à¦°à¦ķà¦ª":9296,"à§§à§¯à§«à§«":9297,"Ġà§ªà§¦à§©":9298,"à§§à§ªà§¦":9299,"à§Łà¦¶à¦ĩ":9300,"à¦®à¦Ĺà¦¤à¦Ń":9301,"à¥¤)":9302,"à¦łà¦ľ":9303,"à§§à§¯à§¬à§¬":9304,"à¦ªà¦¥à¦ļ":9305,"à¦£à¦¬à¦Ļ":9306,"Ġà¦Ĩà¦ĩà¦ıà¦¸à¦Ĩà¦ĩà§Ł":9307,"Ġpeace":9308,"Ġà¦ĵà¦²à¦®":9309,"Ġà¦¬à¦Ľà¦°à¦ª":9310,"à¦¸à¦ķà¦¸à¦¹":9311,"Ġà¦ıà¦¡à¦ĵà¦¯":9312,"Ġà¦¨à¦ĵà¦¹":9313,"Ġbird":9314,"à¦¯à¦Ĺà¦£":9315,"à¦ľà¦īà¦²":9316,"Ġà¦ªà¦°à¦ª":9317,"à¦¬à¦²à¦¸à¦¹":9318,"à¦ĩà¦Łà¦Ń":9319,"Ġswe":9320,"ately":9321,"à¦°à¦¨à¦¨":9322,"à¦ķà¦ļà¦°":9323,"Ġà¦Ĩà¦ĵà§ľ":9324,"à¦ľà¦¥":9325,"à¦¼à¦¾)à¥¤":9326,"ata":9327,"Ġdifficult":9328,"à§ģà¦¾":9329,"à¦Ľà¦ĩ":9330,"Ġà¦¨à¦¨à¦¸":9331,"à¦ħà¦ªà¦®":9332,"à¦¸à¦°à¦¬à¦°":9333,"Ġsun":9334,"Ġà§©à§¬à§ª":9335,"Ġusually":9336,"Ġfarmer":9337,"Ġà¦Ĩà¦¹à¦¨":9338,"à¦ıà¦¸à¦ıà¦®à¦ıà¦¸":9339,"à¦Ĺà¦£à¦¶":9340,"oud":9341,"Ġà§ªà§®à§§":9342,"à¦Ĩà¦ĩà¦ıà¦¸à¦ıà¦¸":9343,"Ġwhy":9344,"par":9345,"Ġà¦¾":9346,"Ġà¦¦à¦²à¦ªà¦¤":9347,"ened":9348,"Ġref":9349,"Ġà¦ľà¦²à¦ªà¦¥":9350,"à¦ļà¦ŀ":9351,"Ġà¦ªà¦°à¦ļ":9352,"Ġà§®à§ªà§¦":9353,"ÑĢÐ·Ð¯ÑĢÐ·ÐĹ":9354,"à¦®à¦¹à¦¸":9355,"Ġà¦¬à§ľà¦ķ":9356,"Ġà¦īà§İà¦ķà¦Ł":9357,"à§§à§¯à§¬à§¨":9358,"Ġà¦Ĩà¦ļà¦°à¦£à¦Ĺà¦¤":9359,"à¦ķà¦ĵà¦®":9360,"uck":9361,"à¦°à¦¸à¦¦à¦°":9362,"Ġà§©à§ªà§¬":9363,"Ġrequ":9364,"Ġà§¬à§¬à§ª":9365,"ĠDo":9366,"ĠÂłÂłÂłÂł":9367,"Ġà¦ļà¦Łà¦ľà¦²à¦¦":9368,"à¦ļà¦ķà¦ĵ":9369,"à¦¨à¦ľà¦¨à¦¸à¦¹":9370,"Ġà¦Ķà¦ľ":9371,"Ġà¦Ĩà§Łà¦¸":9372,"ont":9373,"ount":9374,",''":9375,".:":9376,"à¦¤à¦ĵà§Ł":9377,"à¦īà¦¬à¦²":9378,"à¦ħà¦ľà§Ł":9379,"Ġà¦Ŀà¦°à¦²":9380,"Ġmag":9381,"Ġrain":9382,"à¦ĵà¦°à¦ª":9383,"à¦ĩà¦¨à¦¸à¦¨":9384,"à¦ħà¦²à¦°":9385,"à§§à§¯à§Ńà§Ń":9386,"ositive":9387,"à¦¿à§ĩ":9388,"à¦¸à¦ķà¦Ł":9389,"Ġà§ªà§§à§¬":9390,"à¦ıà¦¸à¦ıà¦®à¦ĩ":9391,"Ġà¦¬à§ľà¦®":9392,"à¦ķà¦¨à¦Ń":9393,"ÑĢÐ¶Ð©":9394,"à¦ıà¦²à¦ıà¦¨à¦ľ":9395,"Ġmakes":9396,"Ġà§©à§ªà§ª":9397,"Ġjoin":9398,"à¦ıà¦«à¦ķ":9399,"ables":9400,"ĠâĢĶ?":9401,"à¦Ĺà¦ĵà§Ł":9402,"à¦¹à¦¯à¦°à¦¤":9403,"Ġà¦ļà¦¨à¦®à¦¨":9404,"Ġà¦¸à¦®à¦ª":9405,"âĢĻ?":9406,"à¦°à¦®à¦¸":9407,"Ġà§©à§®à§¨":9408,"ĠIndia":9409,"à¦°à¦Ĩà¦ĩà¦¨à¦ľ":9410,"à¦¨à§Łà¦ķ":9411,"à¦°à¦¸à¦°à¦ķ":9412,"à¦ķà¦²à¦Ļ":9413,"à¦ĩà¦°à¦«":9414,"Ġaff":9415,"Ġà§©à§®à§ª":9416,"ĠMatch":9417,"ĊÂłĊÂłĊÂł":9418,"terrogative":9419,"Ġgramm":9420,"ÑĢÐ¶Ð¬ÑĢÐ¶":9421,"18":9422,"à¦¨à¦ħà¦¨":9423,"Ġà¦¬à§Łà¦°":9424,"à¦°à¦¤à¦¯":9425,"Ġà¦īà¦¨à¦¸à¦¤":9426,"à§§à§¯à§¬à§Ń":9427,"Ġà§Ńà§¯à§¦":9428,"Ġabove":9429,"Ġà§ªà§¨à§§":9430,"à¦Ĩà¦®à¦ľ":9431,"Ġà§©à§¬à§©":9432,"Ġà¦¶à¦°à§İà¦ļà¦¨":9433,"Ġagainst":9434,"à¦°à¦ıà¦¬":9435,"Ġà¦®à¦²à¦¦":9436,"Ġà¦Ĺà¦¨à¦¸":9437,"à¦¼à§Ģ-":9438,"Ġà¦ĵà¦ĩà¦Ń":9439,"à¦®à§Łà¦²":9440,"Ġà§©à§Ńà§§":9441,"ixes":9442,"ward":9443,"à¦¯à¦¬à¦ĩà¦¯":9444,"ospital":9445,"Ġreal":9446,"Ġà§¬à§Ńà§¦":9447,"à¦¨à¦¬à¦¹":9448,"Ġà§©à§¬à§¨":9449,"à§ªà§«à§¦":9450,"Ġà§ªà§¨à§¨":9451,"à¦ķà¦¦à¦«":9452,"Ġà¦ªà¦¥à¦ª":9453,"à§§à§¯à§ªà§¦":9454,"ats":9455,"Ġprogr":9456,"Ġparagraph":9457,"à¦·à¦²":9458,"Ġà¦Ĺà¦¸":9459,"à¦¤à¦¬à¦²":9460,"à¦ıà¦®à¦ĵà¦ĩà¦ī":9461,"Ġgovernment":9462,"Cl":9463,"à¦Ľà¦Ń":9464,"à§ĩà¦¾âĢĮ":9465,"Ġà¦ĸà¦¬à¦°à¦Ĺ":9466,"à§ĩ?:":9467,"à¦°à¦¹à¦®à¦¤":9468,"à¦¤à¦¸à¦ķ":9469,"à¦ĩà¦°à¦ª":9470,"à¦°à¦§à¦°à¦ĵ":9471,"Ġà§§à§¯à§©à§¯":9472,"à¦¹à¦¨à¦ĵ":9473,"Ġamong":9474,"Ġà§ªà§§à§Ń":9475,"Ġà§Ńà§¬à§¦":9476,"Ġexercise":9477,"ĠïĤ´":9478,"à¦ıà¦«à¦ıà¦ĵ":9479,"new":9480,"Ġà¦®à¦ľà¦®":9481,"à¦¶à¦£":9482,"Ġà¦ħà¦¨à¦®à¦¨":9483,"Ġ;":9484,"Ġà¦ħà¦¹à¦®":9485,"à§Łà¦¨à¦Ĺà¦ŀ":9486,"Ġà§ªà§§à§¨":9487,"Ġà§¯à§¨à§¦":9488,"à§ĭà¥¤#":9489,"à¦īà¦²à¦Ĺ":9490,"à¦¸à§Ł":9491,"Ġà¦°à¦ĩà¦ļ":9492,"Ġà¦²à¦Łà¦ķà¦¨":9493,"Ġtest":9494,"à§§à§¯à§«à§®":9495,"à§§à§¯à§«à§¬":9496,"Ġsleep":9497,"Ġjourn":9498,"ier":9499,"à¦¯à¦¬à¦¨":9500,"Ġà¦¸à¦®à§Łà¦ľ":9501,"à¦ªà¦ķà¦¹":9502,"à§§à§¯à§¦à§¦":9503,"Ġwalk":9504,"Ġgener":9505,"tra":9506,"à¦¾âĢ¦":9507,"à¦°à¦ĩà¦²":9508,"à¦Łà¦°à¦ļ":9509,"à¦¹à¦ľà¦®":9510,"à¦¹à¦ľà¦¨à¦ķà¦Ń":9511,"Ġà§«à§¨à§©":9512,"ÑĢÐ¶Ð¸ÑĢÐ·ÐĽ":9513,"Ġjob":9514,"Ġbrought":9515,"Ġentertain":9516,"?âĢĺ":9517,"mr":9518,"à¦ķà¦¬à¦ķ":9519,"à¦ļà¦°à¦«":9520,"à¦°à¦¹à¦£à¦¸à¦¹":9521,"Ġà¦ıà¦¨à¦Ĩà¦ĩà¦ı":9522,"Ġà¦ľà¦®à¦²":9523,"à¦ıà¦¨à¦ıà¦¸à¦Ĩà¦ĩ":9524,"come":9525,"Ġ------":9526,"à§ľà¦¬à¦ķ":9527,"à¦ĩà¦²à¦ĵ":9528,"à¦ĩà¦Łà¦²":9529,"à¦Ĩà¦°à¦Ĩà¦ĩà§Ł":9530,"à¦ķà¦ªà¦ŀ":9531,"Ġà§©à§Ńà§Ń":9532,"Ġà¦Ŀà¦¨à¦Ŀà¦¨":9533,"oot":9534,"anu":9535,"Ġà§¬à§¯à§¦":9536,"Ġà¦ķà¦®à¦¨à¦ĵà¦¯":9537,"à¦ĩà¦¶à¦°":9538,"Ġà¦īà¦ªà¦¦à¦ª":9539,"à¦°à¦ªà¦²":9540,"assive":9541,"Ġà¦°à¦¸à¦¨":9542,"à¦£à¦«à¦²":9543,"à¦°à¦¤à¦¥":9544,"Ġà¦Ĩà¦°à¦ıà¦ķ":9545,"à¦¸à¦®à¦¬":9546,"Ġà§©à§®à§Ń":9547,"Ġà¦°à¦¸à¦¬":9548,"à§§à§¦à§¨":9549,"Ġà§ªà§«à§¬":9550,"Ġà¦Ĩà¦°à¦¬à¦¦":9551,"à¦¥à¦²à¦ªà¦¥":9552,"à¦¬à¦ĩà¦¯":9553,"Ġdest":9554,"ÑĢÐ·ÐĿÑĢÐ¶ÐµÑĢÐ¶":9555,"sohrabhassan":9556,"à¦Ĩà¦¨à¦¤":9557,"ĠÂłÂłÂłÂłÂł":9558,"Ġà¦ĸà¦°à¦¤":9559,"à¦¾à¥¤âĢĶ":9560,"Ġà¦Ŀà§ľà¦¬":9561,"à¦¯à¦°à¦ŀ":9562,"Ġà¦Ĩà¦īà¦Łà¦«":9563,"ĠčĠĠĠĠ":9564,"Ġstrong":9565,"oon":9566,"à§§à§¦à§©":9567,"à¦¡à¦¨à¦ª":9568,"Ġthing":9569,"Ġseen":9570,"à§¯à§¯à§¯":9571,"à¦£à¦ķà¦²":9572,"Ġà¦¨à¦¬à¦¯":9573,"Ġà¦®à¦£à¦ª":9574,"Ġgu":9575,"ïĤ¾":9576,"Ġà¦ĵà¦ķà¦²":9577,"à¦«à¦¥":9578,"à¦¤à¦®à¦¸à¦ľ":9579,"Ġà¦Ĩà¦«à¦Ł":9580,"Ġà¦§à¦¨à¦¸à¦®":9581,"à¦ľà¦Ĺà§İ":9582,"Ġà§©à§¬à§¯":9583,"Ġcontin":9584,"My":9585,"à¦¨à¦ıà¦ľ":9586,"à¦Ĺà¦ªà¦¨":9587,"à¦Ĺà¦²à¦®":9588,"Ġà¦¹à§Łà¦¬à¦²":9589,"à¦°à¦¶à¦°":9590,"à¦¯à¦ķà¦¤":9591,"Ġà¦¸à¦¹à¦¦à¦ª":9592,"Ġà¦ĩà¦Ńà¦Ł":9593,"Ġremain":9594,"What":9595,"ĠĠĠĠĠĠĠĠĠĠĠĠĠĠĠĠĠĠĠĠĠĠĠĠĠĠĠĠĠĠĠĠĠĠĠĠĠĠĠĠĠĠĠĠĠĠĠĠĠĠĠĠĠĠĠĠĠĠĠĠĠĠĠĠĠĠĠĠĠĠĠĠĠĠĠĠĠĠĠĠ":9596,"čĠĠĠĠ":9597,"à¦°à¦¸à¦ł":9598,"Ġtree":9599,"à¦¬à¦¤à¦ª":9600,"rehens":9601,"atives":9602,"Ġà¦ļà¦ķà¦ª":9603,"à§§à§®à§¦à§¦":9604,"Ġà§¯à§®à§¦":9605,"Ġà¦¨à§Łà¦¨à¦ķ":9606,"Ġphr":9607,"vw":9608,"Ġà¦®à¦ļ":9609,"à¦§à¦°à¦¤":9610,"à¦¸à¦¬à¦Ĺ":9611,"Ġser":9612,"Ġà¦Ńà§Łà¦ĵ":9613,"à¦ļà¦Ĺà¦¤":9614,"Ġgrou":9615,"à¦Ĺà¦§":9616,"à¦īà¦°à¦®":9617,"à¦¸à¦¨à¦Ĺ":9618,"à¦°à¦®à¦£à¦ĵ":9619,"à§§à§¦à§«":9620,"Ġà§©à§Ńà§ª":9621,"ÑĢÐ·ÐĹÑĢÐ¶ÐĹ":9622,"ĠčĉĠčĠĠĠĠ":9623,"à§ĩà¥¤âĢĻâĢĻ":9624,"Ġà¦¨à¦°à¦¡":9625,"Ġvarious":9626,"ying":9627,"à§Łà¦£à¦¤":9628,"Ġà§ªà§¯à§¬":9629,"à¦¬à¦ķà¦²":9630,"ories":9631,"à¦īà¦ªà¦²à¦ķ":9632,"stru":9633,"à¦Łà¦®à¦¹à¦²à¦Ĺ":9634,"Ġà¦¶à¦°à¦®":9635,"Ġà¦ıà¦²à¦Ń":9636,"Ġà¦ħà¦ªà¦¶à¦¨à¦Ł":9637,"Ġà¦Ŀà¦°à¦¤":9638,"à¦¶à¦²à¦ĵ":9639,"à¦¹à¦ĭà¦£":9640,"à¦ªà¦°à¦ªà¦°":9641,"Ġà§©à§ªà§©":9642,"Ġculture":9643,"for":9644,"à¦°à¦£à¦¨":9645,"Ġà§«à§©à§¨":9646,"Ġà¦°à¦¹à¦®à¦¤à¦ª":9647,"à¦¨à¦ªà¦ķ":9648,"à¦¬à¦°à¦¨":9649,"Ġhare":9650,"Ġà¦Ĩà§Łà¦¬":9651,"Ġsat":9652,"à¦®à¦°à¦¤à¦¦":9653,")âķĽ":9654,"ait":9655,"egative":9656,"Ġà¦¤à¦¹à¦®":9657,"à¦·à¦£à¦Ĺà¦£à¦¨":9658,"Ġà§¬à§¨à§ª":9659,"Ġà§§à§¯à§¨à§¯":9660,"Ġà§§à§ªà§¦à§¦":9661,"Ġà¦ĵà¦łà¦¬à¦¸":9662,"Ġà§®à§®à§¦":9663,"22":9664,"Ġà¦ķà¦ĩà¦¤":9665,"Ġà¦®à¦ķà¦²":9666,"ins":9667,"Ġà¦ıà¦ıà¦«à¦ıà¦®":9668,"Ġà§«à§¯à§«":9669,"à¦®à¦ªà¦¦":9670,"à¦ķà¦®à¦¨à¦ĵà§Ł":9671,"Ġregular":9672,"No":9673,"à¦ıà¦¨à¦ıà¦²à¦¡":9674,"à¦Łà¦¬à¦²à¦Ł":9675,"ocr":9676,"Question":9677,"à¦ķà¦ªà¦Ł":9678,"à¦ĩà¦Ŀ":9679,"à¦Łà¦¬à¦²à¦ĩ":9680,"Ġval":9681,"Ġbirthday":9682,"sel":9683,"à¦Łà¦ħ":9684,"Ġà¦¦à¦ĩà§Ł":9685,"Ġà§§à§¯à§©à§¨":9686,"Ġà§©à§Ńà§¨":9687,"à¦ķà¦¤à¦¨":9688,"à¦ķà¦ķà¦Ł":9689,"à¦¤à¦§à¦¨":9690,"à¦¤à¦ļà¦ķ":9691,"à§ĩà¥¤âĢ¢":9692,"à¦¬à¦¨à¦Ĺ":9693,"Ġà¦¹à¦²à¦«":9694,"à¦īà¦¸à¦«":9695,"à¦ķà§ľà¦¸":9696,"Ġà¦ķà¦ĵ":9697,"à¦¯à¦¤à¦°":9698,"Ġà¦ıà¦ıà¦¨":9699,"à¦¹à¦Ĩà¦²à¦®":9700,"à¦¤à¦°à¦ªà¦¶":9701,"Ġà§ªà§§à§©":9702,"Ġpunct":9703,"Ġpoet":9704,"à§Łà¦°à¦¸à¦¹":9705,"à§ĩ,âĢĻ":9706,"Ġways":9707,"outh":9708,"Ġà§¬à§Ńà§«":9709,"Ġ`":9710,"Ġ(+":9711,"Ġà§©à§ªà§Ń":9712,"ÑĢÐ¶Ð¸ÑĢÐ·ÐĳÑĢÐ¶":9713,"Ġà¦Łà¦ªà¦ħà¦°":9714,"à¦¸à¦ªà¦¨à¦¸":9715,"Ġà¦ĩà¦¸à¦ķà¦¨":9716,"Ġsocial":9717,"Ġà¦ĵà¦«":9718,"Ġà¦ľà¦¨à¦¯":9719,"à¦ķà¦Łà¦ľà¦¨à¦ķ":9720,"Ġà§«à§©à§®":9721,"Ġà¦¶à¦¤à¦¶à¦¤":9722,"Ġà¦ļà¦°à¦ľ":9723,"Ġà¦īà¦ªà¦°à¦ĵ":9724,"Ġà§Ńà§Ńà§¦":9725,"Ġmem":9726,"na":9727,"à¦¦à¦¶à¦¨":9728,"à¦ķà¦°à¦¨":9729,"Ġav":9730,"nu":9731,"Ġà¦®à§ľ":9732,"à¦ĩà¦¬à¦¨":9733,"à¦łà¦¯":9734,"à¦·à¦£à¦ľà¦¨":9735,"ana":9736,"Ġà§©à§Ńà§¬":9737,"à¦¬à¦ľà¦°à¦Ļ":9738,"à¦¨à¦°à¦ķà¦®":9739,"à¦Ńà¦²à¦ªà¦®":9740,"Ġà¦ıà¦ķà¦ĸà¦£":9741,"à¦Ĩà¦¦à¦®":9742,"Ġà¦ıà¦°à¦¨":9743,"à¦®à¦ľà§Łà¦¨":9744,"auses":9745,").(":9746,"jv":9747,"à¦Łà¦²à¦Ł":9748,"à¦¥à¦«":9749,"Ġà¦¶à§Ł":9750,"à§§à§¯à§ªà§¯":9751,"inc":9752,"ÑĢÐ·Ð¬":9753,"ices":9754,"Ġteachers":9755,"gle":9756,"à¦¶à¦ĵà§Ł":9757,"Ġà¦ıà¦ıà¦¨à¦Ĩà¦ĩ":9758,"à¦¡à¦īà¦ĩà¦Ł":9759,"aid":9760,"Ġà§§à§§à§¦à§¦":9761,"à¦¥à¦²à¦Ĺ":9762,"à§§à§¯à§«à§©":9763,"à¦Łà¦®à¦£":9764,"à¦Ĩà¦¦à¦®à¦¦":9765,"Ġà§©à§Ńà§®":9766,"Ġworking":9767,"fl":9768,"Ġà¦¬à¦īà¦¬":9769,"à¦§à¦ªà¦¥":9770,"à§Łà¦®à¦Ĺ":9771,"atical":9772,"Ġthose":9773,"Ġevents":9774,"ÑĢÐ¶Ð·ÑĢÐ·ÐĿÑĢÐ¶Ð¿":9775,"à¦°à¦Ŀà§ľ":9776,"à¦¨à¦ħ":9777,"Ġà§¯à§©à§¦":9778,"Ġà§¬à§ªà§©":9779,"ÑĢÐ¶Ð¼ÑĢÐ·ÐĹÑĢÐµÐ´":9780,"ology":9781,"Ġà¦ªà¦¥à¦¯":9782,"Ġdel":9783,"Ġà§©à§«à§®":9784,"Ġà§©à§¬à§¬":9785,"Ġà§«à§Ńà§«":9786,"irt":9787,"stem":9788,"Ġhelps":9789,"ĠĠĠĠĠĠĠĠĠĠĠĠĠĠĠĠĠĠĠĠĠĠĠĠĠĠĠĠĠĠĠĠĠĠĠĠĠĠĠĠĠĠĠĠĠĠĠĠĠĠĠĠĠĠĠĠĠĠĠĠĠĠĠĠĠĠĠĠĠĠĠĠĠĠĠĠĠĠĠĠĊ":9790,"ony":9791,"à¦¡à¦²à¦ħà¦°":9792,"Ġà§©à§¯à§§":9793,"Ġemp":9794,"stand":9795,"à§Łà¦¸à¦®":9796,"Ġà¦®à¦°à¦ļ":9797,"à¦·à¦¥":9798,"à¦ĵà¦¤à¦°":9799,"ÑĢÐ¶Ð¸ÑĢÐ·ÐĿÑĢÐ¶Ð¿":9800,"à¦®à§Łà¦ķà¦°à¦Ń":9801,"à¦¶à¦¤à¦Ń":9802,"Ġà¦Ĩà¦®à¦¡":9803,"Ġà¦Ĩà¦¨à¦®à¦¨":9804,"à¦¸à¦¬à¦ĸ":9805,"à¦īà¦¨à¦ķ":9806,"ÑĢÐ¶Ð¿":9807,"Ġcut":9808,"Ġhours":9809,"ĠSy":9810,"ĠÃ":9811,"à¥¤ïģ®":9812,"à¦ļà§Łà¦ķ":9813,"Ġà¦ĩà§Łà¦¨":9814,"Ġà¦īà¦ĩà¦¸à¦ķà¦¨à¦¸":9815,"ĠMs":9816,"Ġvoice":9817,"à¦²à¦Ĩà¦¬":9818,"Ġà¦¤à¦Łà¦¸":9819,"Ġà§ªà§ªà§«":9820,"à§¦à§¦à§¦à§¦":9821,"à¦¶à¦²à¦Ĺà¦¤à¦Ń":9822,"Ġà§©à§Ńà§¯":9823,"Ġà§ªà§¯à§®":9824,"Ġjust":9825,"/-":9826,"my":9827,"Ġà¦®à§ľà¦ķ":9828,"Ġà¦ĺà¦¨à¦ĺà¦Ł":9829,"Ġà§ªà§¯à§¨":9830,"à¦£à¦Ĺà¦¹":9831,"Ġexamination":9832,"à¦¬à¦ī":9833,"Ġà¦ķà¦Łà¦ķ":9834,"Ġà¦ļà¦°à¦Ł":9835,"Ġà¦¹à§Łà¦Ľ":9836,"à¦Ĺà¦²à¦¹":9837,"Ġà§ªà§ªà§©":9838,"Ġà¦°à¦¤à¦¨à¦ķ":9839,"Ġprot":9840,"à¦¦à¦°à¦®à¦¹à¦²":9841,"17":9842,"à¦°à¦Ĩà¦®":9843,"à¦ķà¦īà¦²":9844,"à§ĢâĢĿ":9845,"à¦īà¦ıà¦¸":9846,"à¦Ĩà¦ĩà¦¨à¦Ł":9847,"Ġà¦ħà¦¨à¦ķ":9848,"à¦Ńà¦¬à¦ĵ":9849,"Ġà¦ĺà¦°à¦Ľ":9850,"à¦°à¦®à¦£à¦Ł":9851,"Ġà§«à§¯à§¯":9852,"âĢĻ:":9853,"à¦ªà¦¨à¦¸":9854,"à¦¸à¦¹à¦ķà¦°":9855,"Ġmet":9856,"ows":9857,"utes":9858,"Ġà¦¸à§ľà¦ķà¦¦":9859,"à¦ĵà¦ķà¦°":9860,"à¦īà¦ķà¦ķ":9861,"à¦ķà¦¤à¦Ł":9862,"Ġà¦ķà¦°à¦¬à¦ĩ":9863,"Ġà§®à§¨à§«":9864,"Ġà¦ľà§Łà¦¨à¦¬":9865,"Ġconsider":9866,"Ġchanges":9867,"rehension":9868,"Ġà¦®à¦²à¦¤":9869,"à¦ĩà¦Ĺà¦ŀ":9870,"Ġà¦ļà¦°à¦¶":9871,"à¦·à§Łà¦¸à¦¹":9872,"à¦¨à¦¸à¦°à¦ķ":9873,"à¦°à¦ĩà¦īà¦¨":9874,"oad":9875,"à¦¨à¦ĩà¦¨":9876,"Ġà¦ªà¦łà¦¨":9877,"à¦¸à¦¦à¦ĵ":9878,"à¦ıà¦¬à¦Ľà¦°":9879,"abi":9880,"ĠIntern":9881,"ladin":9882,"Ġà¦Ĩà¦ĩà¦īà¦¬":9883,"Ġposs":9884,"ĠFalse":9885,"à¦¦à¦°à¦¸à¦ľ":9886,"à¦Ľà¦ĺ":9887,"Ġà§ªà§§à§§":9888,"à¦¨à¦¬à¦¦à¦²":9889,"Ġà§§à§¯à§ªà§§":9890,"Ġà¦ªà¦Łà¦ªà¦°":9891,"Ġà§ªà§Ńà§¬":9892,"Ġcommunication":9893,"Ġtrees":9894,"irmative":9895,"hood":9896,"à¦ļà§Łà¦¦":9897,"Ġà¦ļà¦¯":9898,"à¦¸à¦®à§Łà¦ķ":9899,"ĠÑĢÐ¶ÐŁÑĢÐ¶":9900,"-à¦¿":9901,"NA":9902,"à¦ķà¦īà¦¤":9903,"Ġà¦¬à¦ĩà¦¬":9904,"à§ľà¦¸à¦®":9905,"ĠNew":9906,"à¦Łà¦ĺ":9907,"à¦£à¦ªà¦¤":9908,"Ġà¦ħà¦¸à¦Ń":9909,"Ġà¦¬à§ľà¦ªà¦°":9910,"ÑĢÐ¶ÐªÑĢÐ¶":9911,"à¦Łà¦ĩà¦¨":9912,"à¦Ĩà¦ĩà¦ĩà¦īà¦¸":9913,"à§Łà¦¸à¦°à¦ķ":9914,"Ġà§ªà§ªà§ª":9915,"ĠHer":9916,"à¦¥à¦ªà¦°à¦¤":9917,"ĠQuestion":9918,"Ġà¦¸à¦ľà¦¨":9919,"Ġfun":9920,"Ġà¦ľà¦Ĺà¦®":9921,"Ġà¦īà¦ĩà¦Ĺ":9922,"à¦ľà¦¨à¦®":9923,"Ġà§«à§¦à§¬":9924,"Ġserv":9925,"Ġfair":9926,"à¦ıà¦¸à¦ĩà¦ıà¦¸":9927,"Ġ16":9928,"ift":9929,"à§į+":9930,"à§ľà¦¨à¦¬":9931,"à¦°à¦ķà¦ĺ":9932,"Ġà¦ħà¦°à¦Ĺ":9933,"Ġà§«à§©à§«":9934,"à¦Īà¦ĸ":9935,"Ġdoing":9936,"Ġà¦Ĩà¦ªà¦¦":9937,"à¦Ĺà¦ľà¦Ł":9938,"Ġà¦ķà¦°à¦¬à¦°":9939,"Ġà¦¬à¦¨à¦ķ":9940,"Ġtort":9941,"Ġà¦Ĩà§ľà¦ª":9942,"Ġà¦¬Ã¸à¦ķ":9943,"Ġà¦ªà¦°à¦ľ":9944,"Ġà§©à§¯à§®":9945,"Ġà¦īà¦ªà¦ķà¦°à¦£à¦Ĺ":9946,"Ġà¦ħà¦ĩà¦¬":9947,"Ġà¦ªà¦¥à¦Ĺ":9948,"à¦«à¦Łà¦¬":9949,"Ġpm":9950,"-----":9951,"ÑĢÐ¶Ð´ÑĢÐ·ÐĿÑĢÐ¶":9952,"......":9953,"à¦°à¦¨à¦¤":9954,"à¦°à¦®à¦ĩ":9955,"Ġà¦Ĩà¦ľà¦®à¦ķ":9956,"Ġà§«à§¦à§ª":9957,"There":9958,"à¦¬à¦®à¦°":9959,"à¦¸à¦ħ":9960,"Ġà¦¹à§Łà¦ĩ":9961,"Ġà¦ĸà¦ĩ":9962,"âĢĻ.":9963,"Ġà¦ıà¦¤à¦¸à¦¬":9964,"Ġà§®à§§à§¦":9965,"à¦Ĩà¦°à¦ıà¦°":9966,"à¦£à¦¬à§Łà¦¸":9967,"Ġdist":9968,"etency":9969,"Ġarea":9970,"ext":9971,"à¦®à¦¬à¦¨":9972,"Ġà¦ķà¦ĩà¦²":9973,"à¦·à¦«":9974,"Ġà¦Łà¦¨à¦¸":9975,"à¦¿à¦ĤâĢĻ-":9976,"à¦²à¦ķà¦Ĺ":9977,"ĊĊĠ":9978,"Ġà§ªà§¦à§ª":9979,"ection":9980,"Ġlarge":9981,"ÑĢÐ¶Ð©ÑĢÐ·ÐĿÑĢÐ¶Ð":9982,"eed":9983,"Ġà¦Ĩà¦ľà¦¨":9984,"à¦£à¦ªà¦¶":9985,"à¦ģ-":9986,"à¦¬à¦°à¦ªà¦¤":9987,"à¦ĩà¦¨à¦īà¦¦":9988,"à¦°à¦¬à¦ŀ":9989,"Ġà¦ıà¦®à¦ĵ":9990,"à¦«à¦²à¦Ł":9991,"Ġà¦¬à¦ĩà¦¸à¦¹":9992,"khanbd":9993,"à¦ĩà¦ıà¦«":9994,"à¦¬à¦°à¦°":9995,"Ġà¦¸à¦¨à¦®":9996,"Ġgoes":9997,"à¦·à¦£à¦¦":9998,"ĠÑĢÐ¶Ð·ÑĢÐ¶":9999,"à§ĩà¦ĥ":10000,"à¦ĩà¦īà¦²":10001,"Ġsumm":10002,"Ġz":10003,"à§ľà¦¨à¦ķ":10004,"Ġà¦ĸà¦Łà¦ķ":10005,"Ġà¦¬à¦°à¦ªà¦ķ":10006,"à¦Ĩà¦°à¦ıà¦¸à¦ıà¦¸":10007,"Ġang":10008,"Ġà§©à§¯à§Ń":10009,"ĠTrue":10010,"Ġphysical":10011,"Ġsimple":10012,"Ġà¦Ĩà¦ī":10013,"à¦Ŀà¦ŀ":10014,"à¦¦à¦²à¦ĩ":10015,"Ġà¦ļà¦°à¦ľà¦¬":10016,"Ġà§ªà§®à§«":10017,"Ġstand":10018,"Ġteach":10019,"à¦ıà¦¨à¦ıà¦«à¦ª":10020,"Ġà¦ĩà¦ķà¦¨":10021,"Ġgame":10022,"Ġeffect":10023,"Ġà§ªà§ªà§Ń":10024,"ĠChoose":10025,"Ġ197":10026,"à¦¿*":10027,"Ġà¦¬à¦Ĺà¦²":10028,"à¦£à¦®à§Ł":10029,"Ġà¦®à¦¨à¦®à¦¤":10030,"à¦ªà¦ķà¦¸à¦¹":10031,"Ġà¦ĩà¦¨à¦ª":10032,"Ġà§ªà§¬à§Ń":10033,"Ġtradition":10034,"echn":10035,"à¦°à¦ĩà¦¨":10036,"à¦Łà§Łà¦¨":10037,"Ġà§ªà§©à§¨":10038,"Ġà¦ĩà¦¤à¦¸":10039,"Ġà¦¦à¦°à¦ķà¦·":10040,"à§§à§®à§¦":10041,"Ġà§ªà§«à§¨":10042,"ester":10043,"Ġsports":10044,"fort":10045,"Ġà¦°à¦°":10046,"Ġà¦¬à¦°à¦ĩ":10047,"à¦ħà¦¸à¦¨":10048,"Ġà§ªà§¨à§®":10049,"Ġà¦¨à§Łà¦¬":10050,"à¦ķà¦¤à¦²":10051,"à¦¯à¦¤à¦Ł":10052,"Ġà¦ħà¦ľà¦Ĺà¦°à¦Ł":10053,"Ġinteresting":10054,"à¦ķà¦ĵà¦Ń":10055,"Ġà¦Ńà¦²à¦«":10056,"Ġà¦Ńà¦°à¦¤à¦¨":10057,"Ġà¦ĩà¦¨à¦ļà¦¨":10058,"à¦īà¦ľà¦«":10059,"à¦Ĩà¦ĩà¦¤":10060,"Ġair":10061,"ita":10062,"Ġà¦ıà¦ĩà¦ļà¦Ĩà¦°":10063,"à¦ıà¦¨à¦ıà¦¸à¦ı":10064,"vision":10065,"à¦¬à¦¨à¦Ńà¦°":10066,"Ġà¦ıà¦Łà¦°":10067,"à¦Ĩà¦«à¦ľ":10068,"Ġlikes":10069,"Ġindepend":10070,"Ġà¦¬à§İà¦¸à¦°":10071,"à¦ľà¦ªà¦¤":10072,"à§§à§¯à§«à§¯":10073,"Ġext":10074,"à¦ľà¦¨à¦Ĺà¦£à¦ķ":10075,"avy":10076,"Ġadv":10077,"dom":10078,"à§Łà¦Łà¦¸":10079,"à¦²à¦Ńà¦ª":10080,"Ġhospital":10081,"ĠÑĢÐ¶ÐĹ":10082,"Ġà¦ķà¦¸à¦®à¦¸":10083,"selves":10084,"AR":10085,"à¦Ĥ)":10086,"Ġà§¬à§©à§¨":10087,"à¦¨à¦Ĺà¦°à¦¸à¦¹":10088,"Ġà¦ıà¦ľà¦¹":10089,"à§§à§¨à§«":10090,"Ġgave":10091,"ĠAladin":10092,"oll":10093,"à¦Ńà¦ĩ":10094,"Ġà¦ļà¦°à¦¨":10095,"à¦ŀà¦ķ":10096,"Ġmil":10097,"Ġlost":10098,"à¦Ĩà¦ĩà¦ķà¦¨":10099,"ĠOnce":10100,"ron":10101,"à¦¿]":10102,"à¦ĵà¦ħà¦§":10103,"Ġà¦Ĩà¦°à¦¨":10104,"Ġà§§à§©à§¦à§¦":10105,"à§§à§¦à§ª":10106,"Ġhead":10107,")à¥¤âĢĻ":10108,"à¦¨à¦Ĩà¦®":10109,"à¦®à§Łà¦¸":10110,"à¦Ľà¦ķà¦ĩ":10111,"Ġà¦ĵà¦°à¦ķà¦®":10112,"à¦¼à§ĩâĢĻ":10113,"à¦°à¦®à¦²":10114,"à¦¸à¦ķà¦¨":10115,"Ġà§§à§¬à§¨à§¨à§¨":10116,"Ġà§ªà§Ńà§§":10117,"ĠWith":10118,"ĠMay":10119,"Ġ13":10120,"?\"":10121,"Ġà¦Ĩà¦īà¦Łà¦°":10122,"à¦¶à¦ªà¦°à¦®":10123,"Ġ11":10124,"Ġplaces":10125,"Ġà¦®à¦¦à¦¨à¦®":10126,"Ġà¦Ĺà¦²à¦¦à¦ĺà¦°":10127,"co":10128,"fe":10129,"à¦¶à¦ªà¦²":10130,"Ġà¦¨à¦ĩà¦®":10131,"à¦ĸà¦¶":10132,"Ġà¦īà¦¥à¦²":10133,"Ġà¦ıà¦¸à¦ıà¦¨à¦¸":10134,"Ġnational":10135,"Ġà§©à§¬à§®":10136,"Ġà§©à§¯à§¨":10137,"Ġwoman":10138,"ĠArticle":10139,"mrkhanbd":10140,"Direct":10141,"Ġà¦¸à¦¬à¦°":10142,"à¦¾-à¦¾":10143,"ĠSchool":10144,"Ġtrav":10145,"Ġà¦ıà¦®à¦ıà¦²à¦ıà¦®":10146,"»ÑĢÐ¶":10147,"à¦¬à¦ļà¦ķ":10148,"Ġà¦ķà¦°à¦¸":10149,"à¦ķà¦¨à¦¸à¦¹":10150,"Ġele":10151,"ner":10152,"à¦ļà¦ľ":10153,"Ġà¦ıà¦ķà¦¡":10154,"Ġà¦²à¦£":10155,"Ġà¦ľà¦¨à¦Ń":10156,"à¦°à¦¬à¦Ĺ":10157,"à§Łà¦¸à¦Ļ":10158,"Ġà¦Ĺà§ľà¦Ľ":10159,"à§§à§¯à§«à§Ń":10160,"Ġà§¦à§§à§¬":10161,"Ġà§©à§¯à§¬":10162,"cess":10163,"io":10164,"à¦ľà¦ķà¦ķ":10165,"à¦ĩà¦°à¦¤":10166,"Ġà¦Ĩà¦®à¦¤":10167,"à¦°à¦¸à¦Ł":10168,"Ġà§«à§§à§¬":10169,"à¦ļà¦®à§İà¦ķ":10170,"Ġà¦®à¦¦à¦ª":10171,"à¦¸à¦²à¦ĸ":10172,"à§Łà¦ķà¦®":10173,"Ġco":10174,"with":10175,"à¦²à¦īà¦¤":10176,"à¦²à¦¥à¦Ń":10177,"à¦£à¦¤à¦®":10178,"ĠâĢĺâĢľ":10179,"à¦¶à¦¨à¦¦":10180,"à¦²à¦¤à¦ķà¦ķ":10181,"à¦·à¦¤à¦ļ":10182,"Ġà§ªà§®à§¨":10183,"usm":10184,"lymp":10185,"à¦¯à¦ĸà¦¨à¦ĩ":10186,"ÑĢÐ·ÐĹÑĢÐ¶Ð«ÑĢÐ·ÐĹÑĢÐµÐ´":10187,"Ġgrammatical":10188,"!)":10189,"Ġà¦¹à¦Łà¦¤":10190,"à¦īà¦°à¦¨":10191,"à¦°à¦®à§Ł":10192,"à¦°à¦¸à¦®à¦°":10193,"Ġà§®à§¬à§¦":10194,"à¦·à¦¦à¦Ĺ":10195,"à¦²à¦Łà¦¸":10196,"Ġà§ªà§¯à§«":10197,"Interrogative":10198,"gy":10199,"à§Ģ(":10200,"Ġà¦°à¦¹à¦¨à¦ª":10201,"à¦ľà¦¨à¦¶à¦ķ":10202,"Ġty":10203,"ross":10204,"Ġpreposition":10205,"à¦ĩà¦²à¦¨":10206,"à¦¸à¦¨à¦ĩ":10207,"Ġà¦¬à§Łà¦¸à¦ĵ":10208,"à¦®à¦ªà¦²":10209,"Ġà§ªà§¬à§ª":10210,"conom":10211,"ĠÑĢÐ¶ÐŁÑĢÐ¶Ð¥ÑĢÐ¶Ð¯ÑĢÐ¶":10212,"Ãį":10213,"à¦¬à¦²à¦Ł":10214,"Ġà§ªà§©à§ª":10215,"Ġà§ªà§Ńà§Ń":10216,"Ġà§«à§ªà§¨":10217,"à¦Ĩà¦Łà¦ķà¦¦":10218,"istan":10219,"ma":10220,"à¦®à¦²à¦¤":10221,"ĊĊĠĊ":10222,"Ġà§¯à§§à§§":10223,"Ġà¦ıà¦¨à¦ıà¦¸à¦ı":10224,"Ġà§¬à§¦à§¬":10225,"à¦¸à¦°à¦£à¦ķ":10226,"Ġà§«à§®à§«":10227,"Ġfield":10228,"µÑĢÐ·ÐĹ":10229,"à¦°à¦Ĩà¦¹":10230,"à§ģâĢĭ":10231,"Ġà¦ķà¦²à¦¤":10232,"Ġà§«à§¨à§¨":10233,"Ġà§¬à§§à§¨":10234,"à¦¬à¦ķà¦ĵ":10235,"à¦Ĩà¦ĩà¦ıà¦«à¦¸":10236,"Ġà¦¨à¦¬à¦Ĺà¦Ļ":10237,"à¦Ĩà¦ľà¦ĵ":10238,"Ġà§ªà§©à§¬":10239,"aking":10240,"ĠCO":10241,"Ġorgan":10242,"Ġexpress":10243,"201":10244,"à¦°à¦īà¦¨":10245,"à¦·à¦¦à¦¸":10246,"Ġà¦¦à¦²à¦¤":10247,"ined":10248,"Ġà§ªà§¨à§¬":10249,"Ġà§ªà§¯à§§":10250,"Ġintro":10251,"BC":10252,"à¦®à¦¬à¦²":10253,"à¦¶à¦ªà¦°":10254,"à¦£à¦°à¦¸":10255,"à¦°à§Łà¦¹":10256,"à¦Ĩà¦°à¦Ĩà¦°":10257,"à¦²à¦ļà¦¨":10258,"Ġà¦¡à¦¬à¦²":10259,"à§İà¦ªà¦¦":10260,"à¦²à¦¨à¦¶":10261,"Ġà§ªà§«à§Ń":10262,"Ġà§ªà§®à§Ń":10263,"Ġà§ªà§©à§®":10264,"una":10265,"à¦¾'à¥¤":10266,"onee":10267,"ists":10268,"Ġà¦ıà¦¸à¦ıà¦²à¦¸":10269,"Ġà¦¦à¦®à¦ķà¦²à¦ķà¦°":10270,"Ġà¦ĭà¦£à¦ĵ":10271,"Ġsubstitution":10272,"à¦¥à¦ĭà¦£":10273,"Ġà¦¸à¦®à¦¶":10274,"à¦¹à¦°à¦£à¦ĵ":10275,"à¦¸à¦«à¦Łà¦ĵà§Ł":10276,"ource":10277,"Ġremember":10278,"Ġà¦¶à¦¤à¦°à¦ŀ":10279,"à§§à§«à§¦à§¦":10280,"Ġà§«à§Ńà§©":10281,"Â¯à§į":10282,"à¦ıà¦ıà¦®à¦ıà¦ĩà¦ļ":10283,"à§§à§¯à§¬à§«":10284,"Ġà§«à§¬à§«":10285,"Ġà§Ńà§®à§¬":10286,"angonee":10287,"Ġà¦ĩà¦ķà¦°à¦ļ":10288,"usmangonee":10289,"°ÑĢÐ¶":10290,"à¦Ńà¦°à¦¸":10291,"à¦¡à¦īà¦ĩà¦¨":10292,"Ġà¦īà¦Ĺà¦°":10293,"Ġà¦«à¦ĵà¦ľ":10294,"à¦ľà¦¨à¦Ń":10295,"à¦°à¦¸à¦¬à¦ķ":10296,"à¦ĺà¦ľ":10297,"Ġà§¬à§§à§¬":10298,"Ġmouse":10299,"à¦īà¦ĩà¦ıà¦«":10300,"Ġà¦ĩà¦Ľà¦¹":10301,"ĠÑĢÐ·Ð·":10302,"à§Łà¦ĺ":10303,"à¦ĩà¦ľà¦¨à¦ĩ":10304,"à¦¡à¦ªà¦¤":10305,"à¦īà¦Ĩà¦ĩà¦ıà¦¸":10306,"Ġà§ªà§¨à§©":10307,"à§ĩ--":10308,"ÂłÂłÂłĠ":10309,"ĠMake":10310,"Ġbeh":10311,"Ġà¦ħà¦ĩà¦Ľ":10312,"Ġà¦ıà¦®à¦ıà¦«à¦ıà¦¸":10313,"Ġson":10314,"Ġpi":10315,"Ġviii":10316,"à¦Ĩà¦°à¦ĩà¦¬":10317,"à¦Ĩà¦ĩà¦ıà¦®à¦ĩà¦¡":10318,"à¦°à¦ķà¦ĵ":10319,"à¦¾à¥¤...":10320,"à¦ľà¦¨à¦ķà¦°":10321,"à¦Ĩà¦°à¦®":10322,"à¦°à¦®à¦Ĺ":10323,"Ġà¦®à¦¹à¦°à¦®":10324,"Ġà¦«à¦²à¦Ĺ":10325,"à¦ķà¦ľà¦¨à¦¸à¦¹":10326,"à¦ıà¦ĩà¦¬":10327,"à¦ħà¦Ńà§Łà¦¨à¦Ĺà¦°":10328,"Ġfamil":10329,"à¦¦à¦ªà¦¨":10330,"Ġà¦ıà¦¸à¦Ń":10331,"à§Łà¦®à¦®":10332,"Ġà¦Ĩà¦Łà¦¤à¦²":10333,"Ġdone":10334,"à§įâĢĮ,":10335,"à¦¬à¦°à¦£à¦ķ":10336,"Ġà¦¦à¦¹à¦Ĺ":10337,"Ġà¦¶à¦ľ":10338,"à¦¨à§Łà¦¨à¦ĩ":10339,"Ġà¦Ĩà¦ĩà¦ıà¦ĩà¦ı":10340,"Ġà§ªà§ªà§¯":10341,"Ġà§ªà§¯à§©":10342,"à§Łà¦Łà¦Ĺà¦ŀ":10343,"Ġroad":10344,"Ġplaying":10345,"Ġpopulation":10346,"à¦¦à¦¬à¦¨":10347,"Ġà¦Ĺà¦ľà¦¬":10348,"Ġà¦¸à¦°à¦ĵà¦¯":10349,"à¦¬à¦¦à¦°à¦¬":10350,"Ġà§ªà§¦à§¨":10351,"Ġà¦®à¦¦à¦¸à¦¹":10352,"Ġpollution":10353,"à¦¤à¦®à¦¤":10354,"à¦Ĩà¦Łà¦²":10355,"à¦Ĺà¦°à¦ĸ":10356,"ÂłÂłÂłÂłÂłÂłÂłÂłÂłÂłÂłÂłÂłÂłÂłÂłÂł":10357,"à§ĩ...à¥¤âĢĻ":10358,"Ġfruits":10359,"à¦®à¦Łà¦¬":10360,"Ġà¦¬à¦Łà¦¬":10361,"à¦¦à¦²à¦¨":10362,"à¦¿à¥¤#":10363,"à¦¤à¦¬à¦°à¦£":10364,"à§§à§¯à§ªà§¨":10365,"Ġà§Ńà§«à§¨":10366,"ĠÂłĠÂłĠÂłĠ":10367,"Ġà¦®à¦¹à¦°":10368,"à¦ĩà¦īà¦ıà¦¸à¦Ł":10369,"Ġà¦ªà¦¶à¦¤":10370,"Ġwr":10371,"Ġà§ªà§ªà§®":10372,"Ġà§«à§ªà§¯":10373,"Ġcond":10374,"Ġknown":10375,"Ġreceived":10376,"à¦®à¦ĵà¦²":10377,"Ġà¦¸à¦¦à¦ķ":10378,"Ġà§¬à§¨à§¨":10379,"à¦Ĺà¦£à¦ķ":10380,"Ġhour":10381,"Ġà§ªà§¬à§¨":10382,"akistan":10383,"aily":10384,"hat":10385,"à¦¤à¦¡":10386,"à¦ĩà¦ĩà¦īà¦°":10387,"Ġà¦Ĩà¦°à¦ıà¦®à¦ĵ":10388,"Ġà§ªà§¦à§Ń":10389,"Ġpain":10390,"uted":10391,"Ġà¦¹à¦°à¦°":10392,"à¦Ĺà¦¸à¦®":10393,"Ġà§§à§¯à§¦à§¦":10394,"Ġach":10395,"Ġà§©à§¯à§©":10396,"ĠBrit":10397,"Ġweek":10398,"ĠOlymp":10399,"à¦¦à¦¤à¦°":10400,"à¦ĩà¦ªà¦¸":10401,"à¦ĺà¦¬à¦¬":10402,"à¦²à¦ķà¦ļ":10403,"Ġà§«à§§à§ª":10404,"Ġà§§à§¯à§©à§ª":10405,"Ġcompet":10406,"Ġforms":10407,"Ġà¦¸à¦®à¦ķà¦ķ":10408,"à¦¾à¥¤>>":10409,"à¦ĩà¦²à¦¡":10410,"à¦¤à¦ķà¦°à¦¤":10411,"Ġà¦Ĩà¦ĸà¦ļ":10412,"Ġà§ªà§¬à§¬":10413,"Ġcomes":10414,"oise":10415,"Ġà¦ıà¦§à¦°à¦£":10416,"Ġà¦¡à§Łà¦ļ":10417,"Ġà§ªà§«à§®":10418,"Ġà¦¶à¦Łà¦ĵ":10419,"ÑĢÐ·ÐĿÑĢÐ¶Ð¯":10420,"Ġdeath":10421,"Ġpleas":10422,"Ġà¦ļà¦ªà¦²":10423,"à¦¡à¦ıà¦ĩà¦ļ":10424,"Ġà¦¸à¦®à¦ħà¦§":10425,"à¦Ĩà¦¸à¦°":10426,"Ġà¦¸à¦¹à¦¬":10427,"Ġà¦ªà¦¦à¦¸à¦¹":10428,"Ġà¦Ĩà¦ĩà¦ıà¦®à¦ĩ":10429,"à¦¬à¦¹à¦¨à¦Ĺ":10430,"ĠBy":10431,"à¦¯à¦Łà¦ķà¦ķ":10432,"Ġà¦Ĺà¦«à¦«":10433,";&":10434,"à¦®à¦°à¦¦":10435,"à¦¬à¦¨à¦¹":10436,"Ġà¦Ĩà¦¬à¦ķ":10437,"à¦²à§Łà¦¸à¦®":10438,"Ġà¦ķà¦¥à¦¨":10439,"Ġà§ªà§¬à§®":10440,"ces":10441,"âĪ":10442,"à¦Łà¦ļà¦ķ":10443,"à¦¹à¦Ĩà¦²":10444,"à¦¿.à¥¤":10445,"à¦¤à¦ľà¦¨à¦¦":10446,"me":10447,"à¦Łà¦Ĺà¦¤":10448,"à¦°à¦ķà¦®à¦£":10449,"à¦¸à¦°à¦«":10450,"ali":10451,"à¦®à¦£à¦ķ":10452,"Ġgold":10453,"à¦²à¦ļà¦²à¦¨":10454,"Ġà¦Łà¦¹à¦²à¦¦à¦²":10455,"Ġveget":10456,"à¦¾#":10457,"Ġà¦®à¦ĩà¦ľ":10458,"à¦ıà¦®à¦°":10459,"à§Łà¦¨à¦ªà¦°":10460,"Ġà¦¸à¦°à¦«à¦¤":10461,"à¦Ĩà¦ĩà¦ıà¦ĩà¦ı":10462,"à¦ĩà¦īà¦ıà¦¨à¦ıà¦«à¦ª":10463,"à§§à§¯à§ªà§§":10464,"ĠcÃĸ":10465,"Ġà§«à§«à§®":10466,"âĶ¤":10467,"Ġtaken":10468,"Ġreturn":10469,"à¦¨à¦ł":10470,"à¦¤à¦§à¦°":10471,"à¦¸à¦¤à¦¤":10472,"Ġà¦ĵà¦ļ":10473,"Ġà¦ªà¦¤à¦Ļ":10474,"amed":10475,"Ġà¦ĩà¦īà¦ıà¦¸à¦ıà¦ĩà¦¡":10476,"ticles":10477,"à¦¾)-":10478,"Ġà¦ķà¦°à¦ľ":10479,"à¦°à¦ķà¦¸":10480,"à¦¤à¦¬à¦¯":10481,"Ġà¦¬à¦°à¦ª":10482,"Ġà¦Ĩà¦Łà¦ķà¦ĵ":10483,"à¦īà¦²à¦¦":10484,"à¦¸à¦Ńà¦°":10485,"Ġà¦Ĩà¦¸à¦¨à¦ĵ":10486,"Ġà§ªà§ªà§¨":10487,"uture":10488,"ording":10489,"most":10490,"Ġà¦¤à¦°à¦¤à¦°":10491,"Ġà¦¶à¦ľà¦¨":10492,"Ġà§İ":10493,"à¦Ĩà¦ĩà¦ıà¦¸à¦Ĩà¦ĩ":10494,"à¦ªà¦¦à¦ľà¦¨à¦ķ":10495,"à¦ĩà¦ľà¦¬":10496,"Ġà¦ıà¦Ĩà¦ĩà¦Ĩà¦ĩà¦¬":10497,"Ġà¦¸à§İà¦¸":10498,"à¦¼à§ĩà¥¤âĢĻ":10499,"à¦Ĩà¦ł":10500,"à¦ĩà¦²à¦ª":10501,"à¦¶à¦ķà¦¶":10502,"à§§à§¯à§¬à§ª":10503,"crib":10504,"ĠIslam":10505,"Ġà¦ªà¦¶à¦®":10506,"Ġà¦Ĩà¦Ĺà¦¤à¦¦":10507,"Ġà¦ıà¦²à¦Łà¦¨":10508,"à¦¨à¦°à¦ĵà§Ł":10509,"Ġà§¬à§¦à§«":10510,"obal":10511,"Ġlibrary":10512,"-à§ĩ":10513,"à¦¶à¦¨à¦Ĺà¦°":10514,"Ġà¦¹à¦²à¦ķ":10515,"Ġà§¬à§¨à§§":10516,"Ġà¦Ĩà§Łà¦ķ":10517,"Ġà§§à§¯à§ªà§©":10518,"à¦¨à¦¹à§Ł":10519,"à§¨à§¨à§¦à§¦":10520,"Ġheart":10521,"uppose":10522,"Ġhimself":10523,"à¦°à¦¤à¦°à¦¤":10524,"à¦ıà¦¨à¦Ĩà¦ĩà¦¡":10525,"Ġà§§à§¯à§¦à§«":10526,"à¦¬à§Łà¦¬":10527,"à¦Ĩà¦¨à¦²":10528,"à§§à§ªà§Ń":10529,"Ġey":10530,"amat":10531,"Ġwaste":10532,"Ġtrans":10533,"à¦¨à¦°à¦®":10534,"à¦Ĺà¦°à¦¸à¦¹":10535,"à¦¹à¦ļà¦°":10536,"Ġà¦ļà¦īà¦ķ":10537,"Ġà§®à§ªà§«":10538,"à¦¦à¦²à¦ª":10539,"à¦¨à¦¸à¦¤":10540,"à¦ªà¦¦à¦ĵ":10541,"à¦ªà¦Łà¦²":10542,"Ġcreat":10543,"Ġdut":10544,"Ġdise":10545,"Ġbegan":10546,"Ġà§®à§¯à§¦":10547,"Ġcollect":10548,"à¦¿^":10549,"Ġà¦ıà¦¸à¦°":10550,"à¦°à¦ªà¦¶":10551,"Ġà§«à§®à§©":10552,"ĠRah":10553,"Ġneeds":10554,"à¦ıà¦ķà¦ľà¦¨à¦ķ":10555,"à§ĥà¦¿":10556,"Ġà¦Ĩà¦¨à¦®":10557,"Ġnothing":10558,"Ġprogramm":10559,"Negative":10560,"Ġà¦ķà¦²à¦¬":10561,"à¦ľà¦¤à¦ķ":10562,"à¦°à¦¤à¦¦à¦¨":10563,"à¦¬à¦°à¦ļà¦¨":10564,"Ġà¦ĵà¦ĩà¦ĸ":10565,"Ġà¦°à¦ķà¦¸":10566,"Ġhear":10567,"à¦²à¦°à¦¸à¦¹":10568,"à¦ķà¦²à¦Ĺ":10569,"Ġà¦¸à¦°à¦²à¦¤":10570,"Ġà¦ľà§Łà¦¬":10571,"Ġwar":10572,"Ġdevelopment":10573,"Ġopen":10574,"à¦¶à¦¤à¦®":10575,"Ġà¦¤à¦Ľà¦°":10576,"Ġà¦Ĩà¦ĩà¦¨à¦¬à¦¹":10577,"Ġà§«à§¦à§Ń":10578,"à¦²à¦Ńà¦¬à¦¨":10579,"ĠÑĢÐ¶Ð¥ÑĢÐ·ÐĿÑĢÐ¶":10580,"Ġà¦ķà¦ªà¦Ł":10581,"à¦·à§İ":10582,"à¦°à¦ķà§Ł":10583,"à¦°à¦¹à¦ĩ":10584,"à¦¶à¦ķà¦®":10585,"à¦§à¦¨à¦¦":10586,"Ġà¦ĩà¦īà¦ıà¦ĩ":10587,"Ġà¦ĸà¦¬à¦°à¦ª":10588,"Ġà¦Ńà¦°à¦Ľ":10589,"Ġà¦Ĩà¦ĩà¦ı":10590,"Ġà¦Ĩà¦«à¦®":10591,"à¦¬à¦¹à¦¨à¦¸":10592,"Ġalone":10593,"Ġcapital":10594,"Ġwonder":10595,"à¦¦à¦§":10596,"Ġà¦ĩà¦ĸà¦¤":10597,"Ġà¦Ŀà¦ŀ":10598,"Ġà§¯à§ªà§¦":10599,"Ġix":10600,"à§§à§¯à§ªà§¬":10601,"à§§à§¯à§¬à§®":10602,"inds":10603,"à¦¾.),":10604,"Ġà¦īà¦ªà¦°à¦ĩ":10605,"à¦²à¦ľà¦¯":10606,"à¦¸à¦«à¦°à¦ķ":10607,"ief":10608,"admission":10609,"Ġrules":10610,"à§ĩÂŃ":10611,"à¦¡à¦¸à¦Ń":10612,"Ġà§§à§¯à§ªà§ª":10613,"à¦īà¦°à¦°à¦¹à¦®":10614,"Ġà§«à§¦à§©":10615,"prothomalo":10616,"ĠTrans":10617,"Ġadded":10618,"à¦¡à¦īà¦ĩà¦¡":10619,"à¦¶à¦īà¦¦":10620,"à¦Łà¦ķà¦¥":10621,"à¦·à¦ķà¦Ĩà¦¨":10622,"Ġà¦®à¦¤à¦ķ":10623,"Ġpay":10624,"ĠÑĢÐ¶Ð½ÑĢÐ¶":10625,"amb":10626,"Ġà§ªà§¯à§ª":10627,"udden":10628,"à¦®à¦ªà¦¤":10629,"Ġà¦«à¦Ĺ":10630,"Ġà¦ıà¦¬à¦¦":10631,"à¦²à¦¤à¦¨":10632,"à¦ķà¦²à¦¹":10633,"Ġà¦°à¦ľà¦¤à¦ľà§Łà¦¨":10634,"à¦ıà¦ĩà¦¸":10635,"à¦ķà¦Łà¦¸à¦¹":10636,"à¦®à¦ķà¦¥":10637,"ĠDr":10638,"ÂĿ":10639,"Ġà¦«à¦²à¦¬":10640,"à¦ķà¦°à¦Ń":10641,"Ġà¦Ĩà¦ĩà¦¨à¦¸à¦¹":10642,"Ġà§§à§¯à§©à§Ń":10643,"Ġsays":10644,"ury":10645,"à¦¾à¦ĥ)":10646,"Ġà¦ıà¦¨à¦ıà¦¸à¦Ĩà¦ĩà§Ł":10647,"Ġhabit":10648,"à¦ĩà¦ıà¦¨":10649,"Ġà¦¸à¦®à¦¦":10650,"Ġà¦Ľà¦²à¦Ľ":10651,"à¦¸à¦°à¦ŀ":10652,"à¦Ĺà¦£à¦ªà¦°":10653,"à¦¬à§ľà¦²":10654,"à¦®à¦¹à¦®":10655,"Ġà¦Ĩà¦¸à¦®à¦¤":10656,"Ġà¦Ĺà§ľà¦¬à§ľ":10657,"à¦ĩà¦ľà¦ª":10658,"Ġà§¬à§¬à§¬":10659,"anced":10660,"Ġà¦ļà¦°à¦¤":10661,"à¦°à¦ķà¦°à¦¤":10662,"Ġà¦Ńà¦¬à¦¨à¦®":10663,"Ġfox":10664,"à¦²à¦®à¦¤":10665,"à¦¹à¦ĩà§Ł":10666,"Ġà¦¶à¦®à¦°":10667,"Ġà¦īà¦¯":10668,"Ġà¦Ĩà¦¸à¦ª":10669,"Ġà¦ıà¦°à¦ľà¦¨":10670,"Ġà§¬à§§à§«":10671,"à¦§à¦¨à¦¯à¦ľ":10672,"à¦Ĺà¦£à¦Ń":10673,"arch":10674,"ism":10675,"Ġextra":10676,"à¦¶à¦°à¦£à¦ĸ":10677,"?âĢľ":10678,"à¦ıà¦ıà¦ĩà¦ļà¦ı":10679,"Ġà§ªà§¨à§ª":10680,"à¦¤à¦®à¦ª":10681,"Ġà¦ĺà¦Łà¦®":10682,"Ġdanger":10683,"Ġlate":10684,"Ġà¦Ĩà¦Ĺà¦®à¦¨à¦ķ":10685,"à¦®à¦«à¦¨":10686,"Ġà¦¦à¦¶à¦°":10687,"à¦¶à¦¨à¦¨":10688,"à¦²à¦¤à¦ĩ":10689,"Ġà¦ĩà¦īà¦¬":10690,"Ġà¦ĸà¦°à¦ļà¦ĩ":10691,"Ġpat":10692,"Ġà§¯à§Ńà§¦":10693,"Ġbusiness":10694,"bangladesh":10695,"à§ĭ/":10696,"à¦¹à¦°à¦®":10697,"Ġà¦Ńà§Łà¦ķ":10698,"Ġà§§à§¯à§©à§©":10699,"Ġproblems":10700,"à§Łà¦¬à¦²":10701,"à¦¦à¦¬à¦ķ":10702,"à¦¡à¦²à¦¸à¦¹":10703,"Ġindustr":10704,"à§į!":10705,"Ġà¦īà¦ĩà¦ª":10706,"à¦¸à¦®à¦Ĺ":10707,"à¦Ĺà¦łà¦¨à¦¤à¦¨":10708,"Ġà¦¨à¦¦à¦Ł":10709,"ĠSub":10710,"azar":10711,"Ġroom":10712,"Ġuseful":10713,"Ġïģ":10714,"à¦¤à¦¸à¦°":10715,"à¦¸à¦¬à¦¸":10716,"à¦«à¦ĵà§Ł":10717,"Ġà¦¸à¦¬à¦°à¦ķà¦®":10718,"Ġà¦Ĩà¦ĩà¦ĵà¦Ł":10719,"Ġsn":10720,"Ġwalking":10721,"ĠPakistan":10722,"Ġprof":10723,"tings":10724,"à¦¨à¦Ĩà§Ł":10725,"à¦Łà¦¬à¦¨":10726,"à¦£à¦Ńà¦°":10727,"à¦ıà¦°à¦ĵ":10728,"Ġsis":10729,"Ġwood":10730,"Ġà§©à§¯à§ª":10731,"Ġà§Ńà§«à§§":10732,"Ġà§ªà§©à§Ń":10733,"use":10734,"à¦¨à¦¸à¦®à¦ĵà§Ł":10735,"Ġadm":10736,"à¦ħà¦ªà¦¹à¦°à¦£à¦ķ":10737,"25":10738,"à¦¯à¦¤à¦ķ":10739,"à¦¯à¦īà¦¤":10740,"Ġà¦¸à¦¦à¦°à¦¹":10741,"à§§à§¯à§©à§¨":10742,"Ġcook":10743,"à§§à§ªà§ª":10744,"Ġexper":10745,"Ġpartic":10746,"Ġpublic":10747,"Ġpunctuation":10748,"iod":10749,"Ġà¦¬à¦ļà¦¨":10750,"Ġà¦ķà¦²à¦¡":10751,"Ġà§Ńà§«à§®":10752,"Ġà§«à§®à§¨":10753,"ept":10754,"ĠÃĹ;":10755,"Ġentertainment":10756,"ee":10757,"oard":10758,"à¦®à¦Ĺà¦£":10759,"à¦¦ÃĲ":10760,"Ġà¦ıà¦ªà¦°":10761,"à§¨à§¦à§¨à§¨":10762,"à¦ķà¦°à¦£à¦ķ":10763,"Ġmight":10764,"Ġreally":10765,"Ġà§«à§¬à§®":10766,"Ġwinter":10767,"An":10768,"Dear":10769,"Ġà¦īà¦ªà¦¬à¦¨":10770,"à¦²à¦¤à¦¸":10771,"Ġà¦Ĩà¦¸à¦¨à¦ĩ":10772,"Ġà¦Ĩà¦ªà§İà¦ķ":10773,"Ġwhole":10774,"à¦¹à¦Ľ":10775,"à¦°à¦®à¦®":10776,"à¦ĩà¦ķà¦ķ":10777,"à¦¨à¦ªà¦ŀ":10778,"ĠÑĢÐ¶ÐµÑĢÐ·ÐĹ":10779,"istr":10780,"Ġà¦ħà¦¨à¦¶à¦¨à¦°à¦¤":10781,"à¦Łà¦Ĩà¦īà¦Ł":10782,"à¦¿à¦Ĥ'":10783,"Ġà§§à§¯à§¨à§§":10784,"à¥¤âĢĻâĢĶ":10785,"Ġfail":10786,"Ġfuture":10787,"à¦īà¦¡à¦ķ":10788,"Ġparts":10789,"dhaka":10790,"à¦²à¦Ĩà¦²à¦®":10791,"à§Łà¦ıà¦ķà¦Ł":10792,"à§ģ...":10793,"Ġà¦ªà¦¯à¦°":10794,"à¦°à¦¸à¦°à¦®":10795,"Ġtimes":10796,"à§§à§¯à§§à§®":10797,"Ġà§ªà§«à§«":10798,"ïĢŃ":10799,"Ġeducated":10800,"ĊĊĊĊĊÂłĊĊĊĊ":10801,"ï¿½ï¿½":10802,"Ġà¦ĸà¦ŀ":10803,"à¦ľà¦¨à¦°à¦¸":10804,"à¦°à¦®à¦¸à¦ļ":10805,"à¦°à¦¬à¦Ľà¦°":10806,"Ġà¦Ĩà¦¨à¦ª":10807,"Ġà§«à§¦à§®":10808,"Ġà¦ħà¦®à¦Ļ":10809,"ĠNob":10810,"Col":10811,"hab":10812,"à¦¾]":10813,"à¦Ĺà¦ľà¦¨":10814,"Ġà¦ĩà¦Łà¦¸":10815,"à¦Ĩà¦ĩà¦²":10816,"Ġà§Ńà§ªà§Ń":10817,"à¦°à¦¸à¦¹à¦¯":10818,"Ġà§¬à§¦à§¨":10819,"Ġà§©à§®à§¯":10820,"Ġdistr":10821,"uddin":10822,"à¦²à¦ļà¦ķ":10823,"Ġà¦ļà¦ĩà¦²":10824,"Ġà¦®à¦¶à¦¹":10825,"ĠLet":10826,"Ġwants":10827,"Ġtaking":10828,"esterday":10829,"à¦ļà¦ļ":10830,"ĠTamal":10831,"Ġreach":10832,"Ġà§«à§¬à§¬":10833,"Ġà§¬à§Ńà§©":10834,"Ġà§®à§Ńà§«":10835,"Ġà¦ķà¦·à¦¤":10836,"Ġà¦®à¦Ĺà¦¡":10837,"à¦Ĩà¦°à¦Ń":10838,"Ġà¦Ĩà¦²à¦®à¦¸":10839,"à¦®à¦¦à¦¸à¦¹":10840,"à¦ıà¦²à¦ıà¦®":10841,"Ġfine":10842,"Ġà§ªà§¨à§¯":10843,"Ġheard":10844,"Ġstay":10845,"ÑĢÐ¶Ð©ÑĢÐ·ÐĿÑĢÐ¶Ð§":10846,"à¦¾âĢ¢":10847,"Ġà¦ĺà¦°à¦ĵ":10848,"à¦ĺà¦Ĺ":10849,"Ġà¦Ĩà¦ĩà¦ĩ":10850,"Ġfar":10851,"ĠCan":10852,"ĠĊĠ":10853,"ĠFl":10854,"à¦ıà¦¸à¦ıà¦²à¦¸":10855,"Ġnature":10856,"ae":10857,"à¦«à§Ł":10858,"à¦¯à¦¤à¦ĩ":10859,"à§§à§¨à§ª":10860,"à¦¬à¦ľà¦¨à¦¹":10861,"ask":10862,"Ġ17":10863,"Ġhist":10864,"Ġearth":10865,"Ġswim":10866,"Ġtortoise":10867,"Ġà¦¬à¦ĩà¦ķ":10868,"Ġà¦ªà¦°à¦¶à¦®à¦£":10869,"Ġà¦ľà¦¨à¦¸à¦¨à¦ķ":10870,"Ġà¦ķà¦®à¦«":10871,"à¦ĩà¦īà¦ıà¦ĩ":10872,"erry":10873,"ream":10874,"Ġà¦Ĩà¦īà¦Łà¦Ł":10875,"Ġà§ªà§«à§ª":10876,"ÑĢÐ·ÐĿÑĢÐ¶Ð¥":10877,"à¦īà¦·":10878,"à¦¿à¦ĤâĢĵ":10879,"à¦¬à¦ķà¦¹":10880,"à§§à§¦à§®":10881,"Ġà¦¨à¦ĵà¦ª":10882,"ĠMost":10883,"Ġcomposition":10884,"Ġmillion":10885,"Ġphrases":10886,"%,":10887,"à§Ī,":10888,"à¦°à¦¹à¦²":10889,"à¦°à¦ĩà¦ª":10890,"Ġà¦Ĺà¦°à¦®à¦ķ":10891,"ĠDay":10892,"ĠĊĊĊ":10893,"à¦¨à¦ĩà§Ł":10894,"à¦¤à¦²à¦¬":10895,"à¦¸à§İ":10896,"Ġà¦Ńà¦°à¦£":10897,"Ġà¦ĩà¦ªà¦¸":10898,"Ġà¦Ĩà¦®à¦®":10899,"à¦ľà§Łà¦Ł":10900,"à¦¨à¦ľà¦Łà¦ĵ":10901,"Ġ15":10902,"à¦¿Â¬":10903,"à¦¶à¦ľà¦¨":10904,"à¦īà¦ĵ":10905,"Ġtalking":10906,"à§¨à§¦à§ªà§§":10907,"à¦°à¦®à¦£à¦¬":10908,"Ġocc":10909,"Ġà§ªà§®à§¯":10910,"à¦¨à¦ªà¦¤à¦¨":10911,"Ġà¦¶à¦ĵà¦ķ":10912,"ems":10913,"arming":10914,"iction":10915,"ĠAli":10916,"à¦¡à¦īà¦ĩà¦¡à¦¥":10917,".âĢĿ":10918,"know":10919,"Ġ###":10920,"ÑĢÐ¶Ð¶ÑĢÐ·ÐĿÑĢÐ¶Ð":10921,"Ġà¦ħà¦ľà¦¨à¦ª":10922,"Ġà¦ľà¦¨à¦¹":10923,"Ġà¦Ĩà¦¸à¦ĵà§Ł":10924,"Ġà¦¶à¦¹à¦°à¦°à¦ķ":10925,"à¦ªà¦¥à¦Ł":10926,"à¦ıà¦ĩà¦ļà¦ıà¦¸à¦¬":10927,"Ġloc":10928,"Ġà¦®à¦Łà¦ķ":10929,"Ġà¦Ĩà¦®à¦ļ":10930,"Ġà§«à§§à§§":10931,"Ġà¦ķà¦²à¦²":10932,"Ġà¦Ĺà¦£à¦ľà¦®":10933,"Ġà¦¡à¦Łà¦ķà¦®à¦¢":10934,"à§§à§©à§«":10935,"Ġbuilding":10936,"à¦®à¦¤à¦¨":10937,"Ġà¦®à¦ĺ":10938,"à¦Ľà¦§à¦°":10939,"à¦§à¦¹à¦¸":10940,"à¦ıà¦°à¦ª":10941,"Ġà¦Łà¦ªà¦¸":10942,"à¦Łà¦¨à¦Ł":10943,"à¦®à¦¤à§İà¦ªà¦°à¦¤":10944,"à¦¬à¦²à¦¹":10945,"Ġà¦§à¦°à¦¨à¦ĵ":10946,"Ġsail":10947,"Ġà¦ªà¦¦à¦ķà¦Ł":10948,"Ġleft":10949,"Ġspecial":10950,"Ġà¦ľà¦Ĺà§İà¦Ł":10951,"Ġpolit":10952,"à¦¯à§Łà¦ķ":10953,"Ġà¦īà¦ĩà¦ľà¦¡":10954,"inal":10955,"à¦ªà¦¸à¦ľ":10956,"Ġà¦ħà¦®à¦°à¦¤":10957,"bers":10958,"à¦Łà¦¸à¦¬":10959,"à¦Ńà¦¸à¦¹":10960,"à¦¡à¦¸à¦®":10961,"Ġà¦īà¦ĩà¦ļ":10962,"à¦¶à¦¦à¦Ń":10963,"earrange":10964,"Ġà¦ıà¦Ĩà¦ĩà¦ıà¦¡":10965,"CO":10966,"Ġà§«à§¨à§®":10967,"à¦ıà¦¸à¦¡à¦¬":10968,"à¦¶à¦ķà¦ĩ":10969,"âĢĻà¥¤âĢľ":10970,"à¦¾âĢĶâĢĺ":10971,"ized":10972,"Ġarr":10973,"Ġago":10974,"Ġà¦ļà§ľà¦ķ":10975,"âĢĿà¥¤âĢĻ":10976,"à§§à§¯à§©à§¬":10977,"Ġsad":10978,"reedom":10979,"ric":10980,"Ġà¦¨à¦¬à¦ķ":10981,"Ġà¦ķà¦¤à¦ľà¦¨à¦ķ":10982,"osed":10983,"wZ":10984,"à§Łà¦¨à¦ª":10985,"Ġà¦¬à¦ĩà¦ªà§ľ":10986,"à§§à§¬à§¦à§¦":10987,"Ġà§ªà§ªà§¬":10988,"Ġà§ªà§¯à§Ń":10989,"ident":10990,"à¦¿à¥¤\"\"":10991,"ĠWhich":10992,"ĠPreposition":10993,"Ġess":10994,"Ġà¦ıà¦¸à¦ķà¦²":10995,"à¦²à¦ªà¦¸":10996,"âĢĻà¥¤âĢĺ":10997,"à¦°à¦īà¦¡":10998,"à¦ķà¦ħ":10999,"Ġà¦¯à§İà¦¸":11000,"à¦°à¦£à¦¶":11001,"à¦°à¦£à¦ķà¦°":11002,"Ġà¦ıà¦¸à¦ĩ":11003,"Ġà§«à§ªà§«":11004,"à¦īà¦ľà¦Ĺ":11005,"à¦Ĩà¦ĩà¦ĩà¦¬":11006,"Ġexpl":11007,"Ġclim":11008,"oke":11009,"ai":11010,"à¦¥à¦¶":11011,"à¦¾à¦Ĥ:":11012,"à¦Łà¦¨à¦ĵ":11013,"à¦¨à¦Łà¦«":11014,"Ġà§¬à§©à§®":11015,"Ġà¦Ĩà¦Łà¦ĺ":11016,"Ġà§«à§¦à§¯":11017,"Ġsurpr":11018,"à¦¯à¦¬à¦¤":11019,"à¦²à¦®à¦£":11020,"à¦ıà¦²à¦Ĩà¦°":11021,"Ġà¦ľà¦²à¦ľà¦Ł":11022,"ĊÂłĊĊĊĊĊĠ":11023,"Ġhol":11024,"ÑĢÐ·ÐĿÑĢÐ¶Ð¯ÑĢÐ¶":11025,"ÂłĠÂłÂł":11026,"Ġcontain":11027,"Ġpray":11028,"Ġbelow":11029,"Ġpiec":11030,"à¦¨à¦Ĩà¦¹à¦®":11031,"à¦ľà¦īà¦ķà¦ķ":11032,"Ġà¦¤à¦Ľà¦²":11033,"Ġà¦Ĺà¦Ł":11034,"Ġà¦Ĺà§İà¦¬":11035,"à¦¬à¦°à¦«":11036,"à¦§à¦¨à¦ķà¦°":11037,"Ġà§®à§©à§¦":11038,"à¦¯à¦¦à¦¶":11039,"Ġà¦Ńà¦¬à¦¨à¦ĵ":11040,"à¦¹à¦ľà¦¯":11041,"ĠÑĢÐ¶Ð½":11042,"Ġà¦ĸà¦¸à¦ĸà¦¸":11043,"à¦ļà¦°à¦®à¦ªà¦¨":11044,"Ġà¦Ĩà¦ĩà¦ıà¦®à¦ĩà¦Ĩà¦ĩ":11045,"!:":11046,"Ġà¦¸à¦ĵà¦Ĺ":11047,"Ġà¦ıà¦¬à§ľ":11048,"Ġà§®à§©à§«":11049,"Ġà§ªà§«à§§":11050,"ĠMore":11051,"ĉĉĉĉ":11052,"Ġevening":11053,"à¦°à¦Ĩà¦¶":11054,"à¦ľà¦¤à¦¤":11055,"à¦«à¦£":11056,"à¦Ĩà¦«à¦¤":11057,"Ġà§«à§§à§«":11058,"Ġà§ªà§Ńà§¨":11059,"rop":11060,"à¦ªà¦¬à§Łà¦¸":11061,"Ġshall":11062,"Ġà¦ħà¦®à¦°à¦¨":11063,"Ġtakes":11064,"Ġcondition":11065,"à¦ķà¦¨à¦®":11066,"à¦°à¦ķà¦£":11067,"à¦¦à¦¨à¦ķà¦°":11068,"à¦°à¦¦à¦¹":11069,"Ġà§ªà§®à§®":11070,"ĠBa":11071,"ĠMan":11072,"%),":11073,"Part":11074,"eration":11075,"spaper":11076,"!âĢĺ":11077,"itter":11078,"âĢ¡`":11079,"ĠShah":11080,"ÑĢÐ¶ÐªÑĢÐ·ÐĿÑĢÐ¶Ð":11081,"Kv":11082,"Sh":11083,"à§ĩ\"":11084,"Ġà¦¬à¦¤à¦°":11085,"à¦¶à¦¨à¦ķà¦°":11086,"à¦Ĩà¦ĩà¦¸à¦²":11087,"Ġà§§à§¯à§©à§§":11088,"Ġà¦ĩà¦ľà¦¹":11089,"Ġplease":11090,"à¦¨à¦Ĩà¦²":11091,"Ġà¦īà¦ªà¦²":11092,"Ġà¦Ĺà¦£à¦¦":11093,"à¦ıà¦®à¦Ĩà¦ĩà¦Ł":11094,"à¦¬à§ľà¦ª":11095,"Ġà¦ĵà¦²à¦Łà¦ª":11096,"Ġà¦®à¦ľà¦®à¦ª":11097,"ĠÂłÂłÂłÂłÂłÂłÂłÂł":11098,"à¦¹à¦®à¦ĸà¦¦":11099,"Ġà¦ªà¦¦à¦Ń":11100,"het":11101,"Ġà¦Ĩà¦ĩà¦ĩà¦īà¦¸":11102,"à§§à§¨à§§":11103,"Ġmove":11104,"Ġà§«à§©à§¬":11105,"Ġwealth":11106,"Ġà¦Ĩà¦ĩà¦ıà¦®à¦ĩà¦¡":11107,"à§ĩà¥¤à¥¤":11108,"à¦¤à¦°à¦²":11109,"à¦ĩà¦¨à¦¹":11110,"Ġà§Ńà§¨à§«":11111,"Ġà§Ńà§ªà§«":11112,"Ġà§¯à§Ńà§«":11113,"umder":11114,"Ġà¦ıà¦¸à¦ıà¦®à¦ľ":11115,"Ġsongs":11116,"à¦Ńà¦ľ":11117,"à¦ģà¦ģ":11118,"à¦łà¦ĩ":11119,"à¦ľà¦¨à¦¸à¦¨":11120,"Ġà¦¶à¦°à§İà¦ķ":11121,"à¦Ĺà¦²à¦«":11122,"ĠSc":11123,"Ġà¦«à¦²à¦¨à¦¶":11124,"Ġnews":11125,"Ġcomplete":11126,"Ġloves":11127,"Ġà¦ķà¦°à¦®à¦ľ":11128,"à¦¡à¦¬à§Ł":11129,"Ġà§¬à§§à§§":11130,"Ġà§®à§§à§«":11131,"Ġà§§à§¯à§§à§ª":11132,"à¦ķà¦°à¦£à¦Ĺ":11133,"ĠUse":11134,"Ġoffic":11135,"was":11136,"à§Łà¦°à¦¨":11137,"Ġà¦ħà¦ĩà¦²":11138,"à¦°à¦ªà§Ł":11139,"Ġà§§à§¯à§§à§§":11140,"Ġà¦ľà§Łà¦§":11141,"à¦²à¦®à¦ŀ":11142,"ÑĢÐ¶ÐŁ":11143,"à§§à§¯à§©à§¯":11144,"ĊĊĊĊĠ":11145,"Ġà¦ķà¦·à¦Ľ":11146,"à¦Ĩà¦īà¦Łà¦¸":11147,"Ġclues":11148,"Ġ30":11149,"Th":11150,"rid":11151,"à¦¨à¦°à¦Ł":11152,"à¦ķà¦¦à¦°":11153,"Ġà¦ıà¦·":11154,"Ġà¦§à¦²à¦ª":11155,"à¦¶à¦¨à¦Ń":11156,"à§İà¦ķà¦°":11157,"à¦ĺà¦°à¦¸à¦¹":11158,"à§§à§¯à§¬à§§":11159,"ĊĊĊĊĊĊĊĊ":11160,"Ġsix":11161,"enty":11162,"ĠWor":11163,"Ġwhile":11164,"ajumder":11165,"Ġcarefully":11166,"men":11167,"à¦£à¦ľ":11168,"à¦«à¦¬":11169,"Ġà§«à§¨à§§":11170,"Ġà¦ĩà¦¨à¦Ĺ":11171,"Ġà§¬à§¨à§®":11172,"Ġà§¯à§§à§¦":11173,"Ġà¦¸à§ľà¦ķà¦ĵ":11174,"à¦¬à¦¹à¦¨à¦¸à¦¹":11175,"roc":11176,"Ġà¦ĸà§ľà¦Ĺ":11177,"Ġcomprehension":11178,"aught":11179,"à¦¿ÂŃ":11180,"à¦ķà¦ªà¦£":11181,"à¦°à¦¦à¦²à¦ķ":11182,"Ġà§«à§§à§¯":11183,"à§§à§¯à§¨à§«":11184,"Ġà¦īà§İà¦¸à¦¬à¦Ĺ":11185,"Ġpost":11186,"Ġdirect":11187,"Ġelect":11188,"ĠCon":11189,"Ġonce":11190,"ocabul":11191,"Ġproduct":11192,"ocabulary":11193,"Ġ........":11194,"à§ģà¥¤âĢĿ":11195,"Ġà¦ĵà¦Ĩà¦°à¦ľ":11196,"à¦Ĩà¦°à¦¨":11197,"Ġà§«à§§à§©":11198,"à¦¨à§Łà¦¨à¦®à¦¨":11199,"à¦ĩà¦īà§Ł":11200,"Ġpic":11201,"Ġdisc":11202,"Ġlooked":11203,"Ġdecl":11204,"à¦®à¦īà¦¤":11205,"à¦ļà¦°à¦£à¦ķ":11206,"Ġà¦Ľà¦²à¦ļ":11207,"Ġà§§à§¯à§¨à§¬":11208,"ended":11209,"Ġà¦¬à¦Ľà¦°à¦®":11210,"Ġà¦¡à¦ľà¦¨à¦ĸ":11211,"aves":11212,"ĠÑĢÐ¶Ð«ÑĢÐ¶":11213,"hip":11214,"Â´":11215,"Ġà¦¸à§Łà¦¦":11216,"à¥¤[":11217,"à¦«à¦Ĺ":11218,"à¦ªà¦°à¦¸":11219,"Ġà¦¸à§ľà¦ķà¦ľ":11220,"à¦ķà¦®à¦²à¦¨à¦Ĺà¦°":11221,"Ġà¦īà§ľà¦¬":11222,"...âĢĻà¥¤":11223,"Ġà§«à§«à§Ń":11224,"Ġà§«à§ªà§ª":11225,"Ġperiod":11226,"Ġà¦£":11227,"à¦¤à¦ķà¦¬":11228,"à§ģ/":11229,"à¥¤âĹı":11230,"Ġà¦Ľà¦°":11231,"à¦ıà¦ķà¦¤":11232,"Ġà¦ĭà¦·à¦Ń":11233,"Ġà¦ĸà¦°à¦ļà¦Ł":11234,"à§§à§¨à§®":11235,"Ġchart":11236,"ĠGr":11237,"Ġrole":11238,"Ġflo":11239,"à§Łà¦²à¦Ĺ":11240,"Ġà§§à§®à§«à§Ń":11241,"inking":11242,"à¦¡à¦²à¦Łà¦¨":11243,"Ġliter":11244,"Ġà¦¬à¦¦à¦°à¦ĸ":11245,"ĠCor":11246,"ĠVery":11247,"work":11248,"ole":11249,"Ġà¦ªà¦°à¦®à¦¤à¦¸à¦¹":11250,"Ġà¦ĵà¦ĩà¦¬":11251,"à¦Ĺà¦°à¦¨":11252,"Ġà§§à§¯à§¨à§®":11253,"Ġà¦ıà¦¨à¦Ńà§Ł":11254,"à¦«à¦²à¦ª":11255,"à¦²à¦ªà¦²":11256,"Ġà¦ıà¦ĩà¦ļà¦ıà¦®à¦¡":11257,"Ġà§ªà§©à§¯":11258,"Ġà¦ĩà¦ĩà¦īà§Ł":11259,"smusmangonee":11260,"Column":11261,"à¦°à¦ħà¦¬à¦¸":11262,"à¦¸à¦°à¦¬":11263,"Ġà¦Ĩà¦¨à§Łà¦¨":11264,"Ġà¦Ĩà¦īà¦Łà¦ª":11265,"à¦ĩà¦¶à¦¦":11266,"Ġ200":11267,"à§ĩ...âĢĻ":11268,"do":11269,"à¦²à§Łà¦ĩ":11270,"Ġà§¯à§¨à§«":11271,"Ġfac":11272,"Ġà¦Ĩà¦ĩà¦ªà¦¡":11273,"ecause":11274,"Ġà§«à§¬à§§":11275,"Ġà§¬à§ªà§¨":11276,"Ġà§Ńà§Ńà§«":11277,"Ġà¦¨à¦ķà¦²à¦¨à¦¬":11278,"à¦°Ã¦à¦Ł":11279,"à¦²à¦¥à¦ķ":11280,"à¦ªà¦ĵà§Ł":11281,"à¦¶à¦²à¦ķ":11282,"à¦§à¦¨à¦Ł":11283,"à¦ıà¦¨à¦ıà¦¸à¦¸":11284,"à¦ħà¦¬à¦¦":11285,"Ġà§¬à§¨à§¬":11286,"à¦ĩà¦Łà¦°":11287,"à¦ıà¦®à¦Ĩà¦°à¦ª":11288,"Ġà§«à§ªà§§":11289,"à§Ģ):":11290,"Ġdead":11291,"ĠMarch":11292,"à¦¬à¦¨à¦¦":11293,"à§§à§¯à§§à§¦":11294,"ĠÂłĠÂłĠÂłĠÂłĠÂłĠÂłĠÂłĠÂłĠÂłĠÂłĠÂłĠÂłĠÂłĠÂłĠÂłĠÂł":11295,"Ġjourney":11296,"Ġà¦Ľà¦²à¦Ľà¦²":11297,"Ġà¦Ĩà¦ľà¦°":11298,"à¦°à¦ªà¦Ļ":11299,"Ġà§Ńà§§à§«":11300,"Ġà¦ªà¦¥à¦ĺ":11301,"à¦ıà¦ķà¦ĩà¦¦":11302,"à¦Ĩà¦²à¦ľ":11303,"Ġà§®à§¦à§«":11304,"ached":11305,"Ġà§«à§¯à§ª":11306,"Ġà¦ķà¦®à¦¨à¦°":11307,"Ġsupport":11308,"ĠÑĢÐ¶Ð¥ÑĢÐ·ÐĽ":11309,"ĠĊĊĠ":11310,"Ġà¦ľà¦¨à¦¬à¦²à¦ķ":11311,"à¦®à¦¬à¦°":11312,"à¦Łà¦²à¦ķ":11313,"à¦ıà¦¹à¦¸":11314,"à¦ıà¦ĩà¦ī":11315,"Ġà¦ħà¦²à¦¸à¦ª":11316,"à¦¦à¦¶à¦ľà¦¨":11317,"ĠPass":11318,"Ġkinds":11319,"ike":11320,"Ġeveryday":11321,"Ġà¦§à¦¬à¦§à¦¬":11322,"Ġ>>":11323,"à¦¶à¦°à¦®":11324,"Ġà¦¦à¦Ĺà¦¦":11325,"à¦ļà¦ªà¦¦":11326,"Ġà¦¦à¦²à¦ª":11327,"Ġà§§à§¯à§©à§«":11328,"à§§à§¯à§§à§«":11329,"à§§à§¯à§©à§ª":11330,"ĠTheir":11331,"Ġà§¬à§¬à§®":11332,"ĠGood":11333,"mper":11334,"iant":11335,"à¦ķà¦ĵà¦¯":11336,"à¦®à¦°à¦¹":11337,"à¦¦à§ľ":11338,"à¦Łà¦®à¦¬":11339,"Ġà¦ħà¦¬à¦¸à¦°à¦ķ":11340,"Ġà§«à§«à§¨":11341,"Ġà§«à§®à§¬":11342,"ĠDirect":11343,".),":11344,"majumder":11345,"Ġà¦®à¦°à¦£à¦¬":11346,"Ġà¦Ĩà¦¸à¦«":11347,"à¦²à¦Łà¦Ł":11348,"Ġà§ªà§¬à§©":11349,"cept":11350,"à¦¾à¥¤.":11351,"Ġà¦Ĩà¦°à¦¨à¦²":11352,"à¦¬à¦¸à¦¬":11353,"à¦¼à¦¾âĢĶ":11354,"à¦ĩà¦ľà¦ķ":11355,"à§§à§¦à§Ń":11356,"Ġà¦¦à¦®à¦¨à¦¨":11357,"Ġà§ªà§ªà§§":11358,"Ġgreatest":11359,"à¦Ĺà¦«à¦°à¦Ĺ":11360,"Ġà¦°à¦¨à¦¬":11361,"à¦¡à¦¬à¦²à¦®":11362,"Ġà¦Ĩà¦²à¦¶":11363,"Ġà§¬à§§à§Ń":11364,"Ġà§«à§Ńà§¨":11365,"Ġà§¬à§©à§¯":11366,"Ġcricket":11367,"ium":11368,"à¦°à¦ħà¦¸":11369,"à§Ŀà¦ļ":11370,"acy":11371,"Â¤à§į":11372,"Ġà¦¦à¦Ĺà¦¦à¦Ĺ":11373,"tes":11374,"à¦ıà¦¤à¦Ł":11375,"Ġà§Ńà§¨à§Ń":11376,"Ġà¦ıà¦®à¦ĩà¦ıà¦¸":11377,"à§İà¦¸à¦ķà¦ĵ":11378,"Ġà§¬à§¦à§§":11379,"ently":11380,"Ġà¦¸à¦ľà¦²à¦ķ":11381,"Ġoffice":11382,"200":11383,"AN":11384,"ĠÂłÂłÂłÂłÂłÂł":11385,"à¦°à¦Ĩà¦¸":11386,"à¦¨à¦¶à¦°":11387,"à¦¤à¦¤à¦ķ":11388,"Ġà¦ķà¦°à¦¯":11389,"à¦īà¦Ĺà¦²":11390,"Ġà¦ĩà¦¨à¦¤":11391,"Ġà¦«à¦¸à¦«":11392,"à¦¸à¦¹à¦ª":11393,"Ġà§®à§§à§©":11394,"Ġà¦ķà¦¨à¦¡à¦®":11395,"ÑĢÐ·Ðĺ":11396,"Ġà§«à§¨à§¯":11397,"Ġbring":11398,"ogue":11399,"čĊ":11400,"à¦¿âĢ¦":11401,"à¦ħà§Ł":11402,"Ġà§Ńà§§à§¯":11403,"Ġà¦ªà¦¥à¦Ń":11404,"Ġà¦¨à¦Ĺà¦°à¦Ńà¦¬à¦¨":11405,"att":11406,"ĠBritish":11407,"à¦·Ã¿":11408,"Ġà¦ľà¦¸à¦ª":11409,"à¦ļà¦ľà§Ł":11410,"à¦Łà¦Ĺà¦®":11411,"à¦¶à¦²à¦ĩ":11412,"à§§à§¯à§«à§§":11413,"Ġsign":11414,"Ġwait":11415,"Ġà¦īà§İà¦¸à¦¬à¦¸":11416,"Ġà¦¨à¦°à¦¹à¦¤":11417,"ming":11418,"à¦°à§İ":11419,"Ġà¦ķà¦ļà¦²":11420,"à¦ªà¦«":11421,"ĠâĢĺ(":11422,"à¦¶à¦¨à¦°":11423,"Ġà§§à§¯à§§à§Ń":11424,"à¦°à¦Ĺà¦²":11425,"Ġà¦Ĭà¦¨à¦¬":11426,"Ġà¦¬à§Łà¦«":11427,"icks":11428,"ĠForm":11429,"Ġtrue":11430,"Ġà¦Ĺà¦¦à¦ĸ":11431,"Ġenough":11432,"Ġglass":11433,"Ġà¦ıà¦¨à¦ıà¦¸à¦ıà¦°":11434,"Your":11435,"ax":11436,"à§ĩà¥¤ïģ®":11437,"Ġà¦ĩà¦¶à¦«":11438,"à¦°à¦¸à¦¬à¦¬":11439,"à§§à§¯à§©à§«":11440,"Ġhope":11441,"elt":11442,"à¦ħà¦ªà¦ª":11443,"iger":11444,"Ġacqu":11445,"Ġà¦¸à¦¸à¦®":11446,"à¥¤âĢ¦":11447,"à¦°à¦¤à¦¦":11448,"Ġà¦Ĩà¦¨à¦ĵà§Ł":11449,"Ġà§«à§§à§Ń":11450,"Ġà¦Ĩà¦ĩà¦¨à¦ĩ":11451,"à¦ļà¦²à¦ľ":11452,"à¦ıà¦¨à¦ıà¦Ń":11453,"Ġà¦¨à§Łà¦¨à¦¤":11454,"Ġupon":11455,"Ġscience":11456,"Ġserious":11457,"Ġvegetables":11458,"Ġà¦ķà¦Łà¦°":11459,"à¦¯à¦ķà¦°à¦£":11460,"Ġà¦ĵà¦ĩà¦¸":11461,"Ġà§ªà§©à§©":11462,"Ġà§ªà§¦à§¦à§¦":11463,"Ġcross":11464,";&#":11465,"aim":11466,"zy":11467,"ĠÃ¿à¦ķ":11468,"Ġà¦²à¦¬à¦¨":11469,"à¦ĺà¦ĵ":11470,"Ġà¦ıà¦²à¦ļ":11471,"à§¨à§¦à§«à§¦":11472,"Ġself":11473,"Ġfoot":11474,"à§§à§©à§©":11475,"ically":11476,"Ġà§ªà§¬à§¯":11477,"Ġanything":11478,"tw":11479,"ĠÃĳ":11480,"à¦īà¦®à¦°":11481,"à¦īà¦Ĩà¦°":11482,"Ġà¦ĩà¦ĵà¦°":11483,"Ġà¦ĺà¦°à¦ķ":11484,"à¦®à¦¨à¦¨":11485,"à¦¨à¦¬à¦Ľà¦°":11486,"à¦Ĩà¦ĩà¦ĵà¦ıà¦¸":11487,"Ġà¦Ĺà§ľà¦Ĺà§ľ":11488,"ĠâĢĶ.(":11489,"ilities":11490,"Ġà§«à§©à§§":11491,"indows":11492,"Ġflowers":11493,"qv":11494,"Ġà¦¹à¦Ĺ":11495,"à¦Łà¦ķà¦ĩ":11496,"à¦ıà¦¨à¦«":11497,"à¦ıà¦¨à¦Ĩà¦ĩà¦ı":11498,"Ġà§«à§¨à§Ń":11499,"ÂłÂłĠÂł":11500,"à¦ľà¦²à¦ª":11501,"Ġharm":11502,"Ġà§¬à§¦à§®":11503,"Ġessential":11504,"Ġà¦¹à¦°à¦¦":11505,"à¦ĩà¦ıà¦Ł":11506,"Ġà¦¤à¦¸":11507,"Ġà¦ĩà¦ıà¦®à¦ķ":11508,"Ġà§Ńà§©à§«":11509,"à¦¨à¦Ĺà¦¨":11510,"Ġà§¦à§§à§«":11511,"Ġà§¬à§¬à§¨":11512,"ĠAllah":11513,"ĠOlympic":11514,"Passive":11515,"à¦¬à¦®à¦¹":11516,"Ġà¦¬à¦¦à¦®":11517,"Ġà¦¤à§İ":11518,"à¦ĵà¦ıà¦°":11519,"à¦¸à¦¦à¦ĩ":11520,"à¦¶à¦²à¦Ĺ":11521,"Ġsell":11522,"Ġà§¬à§¯à§«":11523,"Ġà§Ńà§©à§¬":11524,"ountain":11525,"à¦ıà¦ıà¦ĩà¦ļà¦ıà¦¸":11526,"Ġperform":11527,"Ġà¦Ĺà¦ľà¦²à¦¡":11528,"ped":11529,"à¦²à¦Łà¦Ĺ":11530,"à§Łà¦«à¦²":11531,"à¦·à¦ļà¦¨":11532,"à¦§à¦²à¦ķ":11533,"à¦£à¦ļà¦¨":11534,"à¦¯à¦®à¦ĩ":11535,"Ġà§ªà§«à§©":11536,"ior":11537,"Ġà¦¹à¦°à¦Ĺ":11538,"à¦ĩà¦«à¦²":11539,"Ġà¦¤à¦¸à¦¬":11540,"Ġà¦ľà¦¬à¦°":11541,"à¦ļà§Łà¦¨":11542,"à¦ªà¦¨à¦Ĺ":11543,"Ġà¦ľà¦ľà¦¦":11544,"Ġeconom":11545,"Ġà§¬à§«à§¨":11546,"Ġà§«à§©à§ª":11547,"Ġstudies":11548,"Ġtraditional":11549,"à¦¶à¦¬à¦ķ":11550,"Ġà¦ħà¦ķà¦°":11551,"Ġà¦®à¦¨à¦ĵ":11552,"Ġà§¬à§§à§ª":11553,"ĠÑĢÐ¶ÐµÑĢÐ¶":11554,"Ġà¦¬à¦ĸà¦¶":11555,"à§Łà¦ı":11556,"Ġà¦¹à¦īà¦ķ":11557,"Ġà¦¤à§Ł":11558,"Ġà¦īà¦ĩà¦¨à¦¸":11559,"Ġà¦īà¦ªà¦ĸ":11560,"à¦¤à¦°à¦ħà¦§":11561,"à¦ĺà¦°à¦ķ":11562,"à§§à§¯à§¨à§¬":11563,"à¦®à¦¹à§ľ":11564,"Ġline":11565,"Ġà¦¦à¦®à¦¬à¦¨":11566,"Ġmedic":11567,"ĠÑĢÐ¶ÐµÑĢÐ·ÐĹÑĢÐ¶Ð¥ÑĢÐ·ÐĹ":11568,"à¦²à¦ħ":11569,"Ġà¦®à¦¶à¦²":11570,"à¦°à¦®à¦¶à¦ĩ":11571,"Ġà§¬à§©à§«":11572,"Ġà§Ńà§§à§Ń":11573,"Ġà¦ıà¦®à¦ıà¦¸à¦¸":11574,"à¦®à¦Ĺà¦¡":11575,"Ġà§ªà§«à§¯":11576,"Ġà§ªà§©à§§":11577,"Ġà§¬à§®à§«":11578,"ialogue":11579,"à¦¾âĢĿà¥¤":11580,"Ġlisten":11581,"à¥¤.":11582,"à¦°à¦£à¦ľ":11583,"à¦ĺà¦°à¦ĵ":11584,"Ġnice":11585,"Ġà§¬à§¬à§¯":11586,"ĠÑĢÐ¶ÐķÑĢÐ¶":11587,"Ġà¦ıà¦®à¦ĵà¦ĩà¦ī":11588,"Bangladesh":11589,"St":11590,"Ġà§¬à§¨à§¯":11591,"à§§à§¨à§¨":11592,"Ġà§ªà§Ńà§®":11593,"Ġgives":11594,"fast":11595,"pro":11596,"Ġà¦ŀ":11597,"à¦ĩà¦ıà¦ĩà¦ļà¦¬":11598,"à¦īà¦¸à¦®":11599,"Ġà¦¸à¦®à§Łà¦¬":11600,"Ġà¦ħà¦§à¦®":11601,"Ġà¦Ĩà¦ķà¦®":11602,"Ġà¦¬à¦¸à¦°":11603,"Ġà¦Ĩà¦ĩà¦ĵà¦¸":11604,"ĠTw":11605,"Ġà§«à§«à§©":11606,"Ġà¦īà¦ĩà¦¨à¦«":11607,"Ġà§¬à§®à§ª":11608,"Ġà§¬à§¯à§¯":11609,"ander":11610,"ager":11611,"Ġtruth":11612,"Ġgrand":11613,"à¦¿à¥¤âĢĶ":11614,"à¦¦à¦¨à¦¸":11615,"Ġà§§à§¯à§§à§®":11616,"ÑĢÐ¶ÐµÑĢÐ¶":11617,"Ġà¦Ĩà¦«à¦¨":11618,"à§ĩ?âĢĶ":11619,"Ġbed":11620,"à¦ķà¦Ĺà¦®à¦¨":11621,"othes":11622,"ĠBecause":11623,"Ġtea":11624,"Ġà¦īà¦Ńà¦ļà¦°":11625,"SO":11626,"à¦¬à¦ľà¦²":11627,"Ġà¦Ĩà¦ĸà¦°":11628,"à¦Ľà¦¥":11629,"Ġà¦°à¦¸à¦®":11630,"à¦°à¦¹à¦¬":11631,"à§§à§ªà§¦à§¦":11632,"lease":11633,"Ġâķ":11634,"Ġà¦ıà¦ıà¦®à¦¡":11635,"à¦ĺà¦¨à¦¤":11636,"Ġà¦ıà¦¸à¦Ĩà¦°":11637,"à§¬à§«à§¦":11638,"Ġà§¬à§«à§«":11639,"Ġà§¯à§©à§©":11640,"Ġà¦ĸà¦°à¦ļà¦¸à¦¹":11641,"Ġà§«à§®à§¯":11642,"Ġà§«à§©à§Ń":11643,"Ġà§®à§¬à§«":11644,"How":11645,"à¦·à¦¡":11646,"à¦§à¦®à§Ł":11647,"à¦§à¦²à¦Ń":11648,"à¦¥à¦Ľ":11649,"Ġà¦ĩà¦ıà¦Ł":11650,"Ġà¦Ĩà¦¬à¦¹à¦¸":11651,"à¦¸à¦¦à¦ª":11652,"Ġà§«à§«à§ª":11653,"à¦¸à¦¦à¦¸à¦¦à¦¸":11654,"à¦ĵà¦Ĩà¦ĩ":11655,"Ġà¦¸à¦¨à§İ":11656,"Ġà§®à§«à§«":11657,"Ġà¦ıà¦®à¦ıà¦¨":11658,"Ġà§¯à§§à§¨":11659,"Ġà¦Ĺà§ľà¦®":11660,"à§§à§¯à§¨à§¨":11661,"à§§à§¯à§¨à§§":11662,"Ġà¦ĩà¦²à¦¹":11663,"Ġstre":11664,"Ġà§¬à§®à§¬":11665,"à¦¾...à¥¤":11666,"Ġarticle":11667,"Ġà¦ļà¦Łà¦ķà¦¦":11668,"à¦¨à¦¸à¦®à§Ł":11669,"Ġà¦ĵà¦ıà¦²à¦ĩà¦¡":11670,"Ġ(@":11671,"à§©à§¨à§¦":11672,"à¦Ĩà¦ĩà¦ĩà¦īà¦°":11673,"Ġà§Ńà§§à§¨":11674,"à¦«à¦¤à¦°à¦ķ":11675,"Ġà¦°à¦ķà¦®à¦Ł":11676,"alf":11677,"ison":11678,"Ġrespons":11679,"Ġer":11680,"à¦Łà§Łà¦²":11681,"à¦¶à¦¥":11682,"Ġà¦¶à¦°à¦¦":11683,"Ġà¦ĵà¦Łà¦¸":11684,"Ġà¦ļà¦°à¦¹":11685,"à¦«à¦īà¦²":11686,"à¦¿à¦Ĥ)à¥¤":11687,"à¦²à¦¨à¦ļ":11688,"Ġà§Ńà§§à§¬":11689,"Ġà¦ıà¦®à¦Ĩà¦ĩà¦ıà¦¸":11690,"ÂłĊĊĊĊĊ":11691,"ĠÂ¯à§ĩ":11692,"à¦¤à¦¸à¦ļ":11693,"Ġà¦®à¦ĩà¦°":11694,"à¦īà¦Łà¦ķ":11695,"Ġà¦¡à¦²à¦¬":11696,"à¦¥à¦²à¦Ł":11697,"Ġà§¯à§¦à§©":11698,"Ġà§«à§®à§Ń":11699,"Ġà§Ńà§¯à§¯":11700,"Ġneeded":11701,"Ġimportance":11702,"à¦¾ïģ¬":11703,"à¦°à¦¥à¦®à¦ľà¦¨":11704,"Ġà¦Ĩà¦Ľà¦¡":11705,"Ġà¦ıà¦¸à¦ıà¦®à¦ª":11706,"Ġà§¬à§§à§®":11707,"telet":11708,"ĠÑĢÐ¶Ð¶ÑĢÐ·ÐĹÑĢÐ¶Ð":11709,"She":11710,"à¦¨à¦Ĩà¦ª":11711,"à§Łà¦ħà¦¨":11712,"à¦°à¦®à¦¸à¦¹":11713,"à¦¬à¦²à¦Ĺ":11714,"Ġà§§à§¯à§¨à§ª":11715,"à¦°à¦¹à¦£à¦ķà¦°":11716,"à¦ĩà¦ľà¦Ĺ":11717,"Ġà¦Ĩà§ľà§İ":11718,"ĠYes":11719,"Ġmeeting":11720,"Ex":11721,"à¦ªà¦²à¦¬":11722,"à¦Ľà¦Ľ":11723,"à¦ĩà¦ľà¦ĺ":11724,"à¦ªà¦¸à¦Ł":11725,"Ġà§«à§Ńà§®":11726,"Ġhappiness":11727,"teletalk":11728,"à¦¨à¦ı":11729,"à¦¯à¦²à§Ł":11730,"à¦¸à¦¬à¦®":11731,"Ġà¦ıà¦¸à¦ľ":11732,"à¦ĩà¦īà¦ıà¦¸à¦ı":11733,"Ġmis":11734,"à¦¾à¥¤\"\"":11735,"à¦ıà¦ķà¦¦à¦®":11736,"Ġà¦¤à¦¹à¦¶":11737,"Ġrequest":11738,"ev":11739,"à¦¿à§į":11740,"à¦ĩà¦¬à¦°":11741,"à¦²à§Łà¦ªà§ľ":11742,"à¦¦à¦¸à¦¨":11743,"à§§à§¯à§§à§Ń":11744,"à§§à§Ńà§¦":11745,"ayum":11746,"Ġà§«à§Ńà§¯":11747,"Ġord":11748,"Ġà¥¤âĢĿ":11749,"à¦²à¦¸à¦²":11750,"à¦®à¦ľà¦¨":11751,"Ġà¦¬à¦ĩà¦¸":11752,"Ġà¦®à¦ĸ":11753,"Ġà¦Ĺà¦łà¦¨à¦¸à¦¹":11754,"à¦¾âĢĻ!":11755,"à¦¬à¦¤à¦¶":11756,"Ġà¦²à¦¬à¦£à¦ļ":11757,"Ġà¦ħà¦¦à¦²à¦¬à¦¦à¦²":11758,"ĠBr":11759,"Ġdidn":11760,"Ġà¦¨à¦Łà¦°à¦¡":11761,"à¦Łà¦°à¦¨":11762,"à§Ģ...":11763,"Ġà¦¤à¦ķà¦²":11764,"à¦īà¦Ĩà¦ĩ":11765,"Ġà¦ħà¦ªà¦°à¦ªà¦ķ":11766,"à¦ķà¦®à¦ªà¦ķ":11767,"esp":11768,"à¦¨à¦ĵà¦¶":11769,"à¦¬à¦Łà¦¤à¦²":11770,"Ġthird":11771,"Ġà¦®à¦°à¦£à¦«":11772,"Ġpasseng":11773,"ÑĢÐ¶Ð¬ÑĢÐ¶Ð¸":11774,"27":11775,"à¦°à¦īà¦ªà¦¸":11776,"à¦ķà¦¸à¦ª":11777,"Ġà¦īà¦Łà¦ª":11778,"Ġà¦Ĩà¦²à¦Ŀ":11779,"à¦ĩà¦ķà¦¸":11780,"Ġà¦¸à¦°à¦²à¦°":11781,"à¦īà¦ľà¦¬":11782,"à¦ªà¦¦à¦Ł":11783,"Ġà¦Īà¦¦à¦Ł":11784,"Ġtow":11785,"Ġà§«à§«à§§":11786,"imary":11787,"Ġà§«à§¬à§©":11788,"Ġà§«à§¯à§©":11789,"Ġclothes":11790,"You":11791,"âĺ":11792,"à¦¬à¦¤à¦ķ":11793,"à¦Łà¦²à¦®":11794,"Ġà¦¹à¦®":11795,"Ġà¦Ĩà¦°à¦ĩà¦¬":11796,"à¦ĩà¦ľà¦¬à¦¨":11797,"Ġfit":11798,"Ġà¦¯à¦¤à¦ĸ":11799,"Ġà§Ńà§¦à§Ń":11800,"irty":11801,"Ġà§¬à§¯à§¬":11802,"à¦ıà¦®à¦ıà¦²à¦¸":11803,"ÑĢÐ¶Ð¾ÑĢÐ·ÐĿÑĢÐ¶Ðº":11804,"à¦ķà¦ķà¦²":11805,"à¦Łà¦ªà¦¨":11806,"Ġà¦°à¦ī":11807,"à¦¼à¦¾à¥¤âĢĻ":11808,"âĢĮâĢĺ":11809,".....":11810,"Ġà¦¸à¦¹à¦ľà¦ª":11811,"Ġà§Ńà§¦à§§":11812,"Ġà¦¸à¦¨à¦¦à¦Ł":11813,"Ġà§ªà§Ńà§ª":11814,"Ġà§«à§®à§®":11815,"à¦¤à¦ķà¦°à¦£à¦¸à¦¹":11816,"Ġà§¬à§¬à§Ń":11817,"à§ĩà¦Ĥà¥¤":11818,"à¦¿'à¥¤":11819,"Ġaltern":11820,"à¦°à¦¬à¦£à¦¶à¦ķ":11821,"Ġà¦ıà¦®à¦ıà¦ıà¦ĩà¦ļ":11822,"?-":11823,"AC":11824,"à¦ªà¦¬à¦¦":11825,"Ġà¦ľà¦®à¦¶":11826,"à¦Ĺà¦łà¦¨à¦¸à¦®":11827,"à§¨à§¦à§¨à§«":11828,"augh":11829,"à§ĩÂ¬":11830,"à§Łà¦¥":11831,"à¦ĩà¦ıà¦®":11832,"à¦ĵà¦ıà¦®à¦ıà¦¸":11833,"à¦¬à¦²à¦ĵ":11834,"Ġà¦¨à§Łà¦¤à¦²":11835,"Ġà¦ıà¦¨à¦¹":11836,"à§§à§¯à§¨à§¯":11837,"Ġsense":11838,"Ġcost":11839,"Ġtoget":11840,"Ġà§«à§«à§¬":11841,"Ġà§«à§®à§§":11842,"ship":11843,"29":11844,"Ġïĥ":11845,"à¦¬à¦«":11846,"à¦¶à§Łà¦Ĺ":11847,"ĠâĢĺ#":11848,"à¦²à§Łà¦¬":11849,"à¦ıà¦¨à¦¡à¦¬":11850,"à¦ıà¦¨à¦Ĩà¦°à¦¬":11851,"à¦ĩà¦²à¦Łà¦¦":11852,"Ġà§ªà§®à§©":11853,"Ġà¦Īà¦¦à¦¸":11854,"Ġheavy":11855,"Ġà§«à§©à§©":11856,"Ġà§¬à§Ńà§¨":11857,"à¦Ĩà¦²à¦®à¦¡":11858,"Ġunderstand":11859,"Ġtogether":11860,"à¦ıà¦¤à¦ķ":11861,"Ġà¦Łà¦¡":11862,"Ġà¦ıà¦¸à¦ıà¦¸à¦ıà¦«":11863,"à§ĩà¦ģà§Ĺ":11864,"à¦¤à¦°à¦£à¦¸à¦¹":11865,"à¦īà¦¡à¦¸":11866,"Ġà¦¬à¦¦à¦¹à¦ľà¦®":11867,"Ġà§¯à§«à§¬":11868,"Ġà¦ľà¦Ĺà§İà¦ķ":11869,"ĠLanguage":11870,"Ġmarks":11871,"à¦¨à¦ıà¦ķ":11872,"à¦®à¦ľà§Ł":11873,"à¦Ĺà¦¥":11874,"Ġà¦ķà¦®à¦ķà¦°":11875,"Ġà¦¸à§ľà¦ķà¦ĩ":11876,"à§§à§¯à§©à§Ń":11877,"à§§à§¯à§¬à§©":11878,"Ġà§ªà§¬à§§":11879,"ĠÂ¯à§į":11880,"Ġcultiv":11881,"Ġminutes":11882,"Ġmusic":11883,"à¦¦à¦ĵà¦¯":11884,"âĢĻà¥¤âĢĿ":11885,"Ġà§§à§ªà§¨à§«":11886,"à¦ľà¦²à¦¢":11887,"Ġcent":11888,"Ġface":11889,"à¦ķà¦°à¦£à¦ĵ":11890,"Ġà¦īà¦ªà¦ªà¦°à¦°":11891,"à§§à§©à§§":11892,"ĠâĢĶ,":11893,"ĠMother":11894,"ba":11895,"à§ĭâĢĻ-":11896,"Ġà¦ªà¦°à¦Ĺ":11897,"à¦łà¦ľà¦¨à¦¦":11898,"à¦¼à¦¿âĢĻ":11899,"à¦°à¦ĸà¦¬à¦°":11900,"à¦ķà¦°à¦£à¦¸à¦¹":11901,"à¦°à¦£à§Łà¦¨à¦ķ":11902,"Ġà§Ńà§¬à§«":11903,"Ġrice":11904,"Ġdrink":11905,"à¦¸à¦ıà¦¸":11906,"Ġà¦¨à¦²à¦ļ":11907,"Ġà¦¬à¦²à¦§":11908,"Ġà¦Ĩà¦°à¦ıà¦®à¦ª":11909,"Ġfreedom":11910,"asing":11911,"lex":11912,"ott":11913,"Ġà§Ńà§«à§«":11914,"Ġà§¯à§¯à§Ń":11915,"Ġà¦ĩà¦īà¦ıà¦¸à¦ıà¦¸":11916,"Ġend":11917,"à¦°à¦£à¦¦":11918,"Ġà¦¡à¦¸à¦¨":11919,"à¦ħà¦ªà¦¸":11920,"Ġà§Ńà§©à§®":11921,"Ġà¦¬à§ľà¦ĸ":11922,"Ġà§§à§¯à§§à§¯":11923,"Ġà¦Ĺà¦°à¦ľ":11924,"Ġbro":11925,"Ġà¦¬à¦°à¦«à¦ķà¦²":11926,"à¦¤à¦¹à¦ĵà§Ł":11927,"Ġforeign":11928,"moh":11929,"à§įâĢĻ":11930,"à¦¿à¥¤...":11931,"à¦¸à¦¨à¦Ń":11932,"ÑĢÐ·Ð·":11933,"ora":11934,"à¦¿.)":11935,"Ġà§«à§ªà§Ń":11936,"unch":11937,"Ġà¦Łà¦ķà¦Łà¦ķ":11938,"Ġview":11939,"echnology":11940,"uge":11941,"à¦īà¦ı":11942,"Ġà¦¸à¦¨à¦¦à¦ª":11943,"Ġà¦Ĩà¦ªà¦¸à¦°à¦«":11944,"à§§à§¯à§©à§®":11945,"Ġsl":11946,"à¦¿?âĢĿ":11947,"Ġà¦ıà¦ķà¦°à¦Ļ":11948,"ĠSomet":11949,"à¦ıà¦®à¦ĩà¦ıà¦ķ":11950,"usb":11951,"uf":11952,"Â·":11953,"à¦¦à¦²à¦¬à¦¦à¦²":11954,"à¦Ĺà¦®à¦¤":11955,"Ġà§«à§¨à§¬":11956,"Ġà§¬à§§à§©":11957,"Ġà¦īà¦²à¦Ļ":11958,"à¦ĸà¦°à¦ŀ":11959,"Ġà¦ıà¦ķà¦¦à¦«":11960,"comp":11961,"ĠEverybody":11962,"à¦°à¦īà¦ĩà¦ķ":11963,"à¦¡à¦°à¦¹":11964,"à¦¼âĢĻà¥¤":11965,"à¦¼à¦¾;":11966,"à§İà¦®":11967,"à¦¥à¦²à¦®":11968,"Ġbal":11969,"à§§à§Ńà§¦à§¦":11970,"Ġà§®à§¦à§®":11971,"Ġà§«à§ªà§®":11972,"Ġà§¬à§¬à§«":11973,"âĢĭà§ĩ":11974,"à¦Ńà¦¸à¦¬à¦¨":11975,"à¦¦à¦ĸà¦²à¦¦":11976,"mat":11977,"à¦¨à¦īà¦¡":11978,"à¦®à§Łà¦¤":11979,"à¦ªà¦Łà¦Ĺ":11980,"à§§à§¯à§ªà§ª":11981,"à§§à§¨à§Ń":11982,"à§§à§©à§¦à§¦":11983,"Ġlight":11984,"Ġgames":11985,"ĠSumm":11986,"Ġable":11987,"Ġcold":11988,"ÑĢÐ¶Ð¸ÑĢÐ·ÐĿÑĢÐ¶Ð¶":11989,"Ġsystem":11990,"Ġà¦¯à¦¤à¦¨":11991,"à§ľà¦¨à¦®":11992,"Ġà¦Ńà¦ľ":11993,"à¦īà¦¸à¦Ł":11994,"à¦ıà¦¨à¦ĩà¦¸":11995,"Ġà§¦à§¦":11996,"arb":11997,"ĠSuppose":11998,"à¦°à¦Ĩà¦ĵà¦¤":11999,"ruary":12000,"Ġcarry":12001,"à¦°à¦¹à¦¤":12002,"Ġà¦¸à¦¦à¦²":12003,"à¦¦à¦¬à¦²":12004,"à§ĢâĢĮ":12005,"Ġà¦¦à¦¶à¦¬":12006,"ÂłĠÂłĠÂł":12007,"à¦®à¦ķà¦¬":12008,"Ġà§®à§ªà§®":12009,"Ġà¦ıà¦®à¦Ĩà¦°à¦Ł":12010,"Ġtreat":12011,"à§§à§¯à§¦":12012,"âĢĭà¦¿":12013,"à¦¾âĢĿ,":12014,"Ġà¦ľà¦²à¦°à¦Ļ":12015,"ÑĢÐ·ÐĹÑĢÐ¶Ð¸ÑĢÐµÐ´":12016,"uided":12017,"Ġà¦®à¦ĸà¦²":12018,"Ġà¦¨à¦¶":12019,"à¦ļà¦¬à¦°":12020,"à¦ıà¦®à¦¦":12021,"à¦°à¦®à¦¥":12022,"à¦²à¦ķà¦¬à¦¹à¦°":12023,"Ġà§¬à§ªà§«":12024,"à¦Ĺà¦łà¦¨à¦ĩ":12025,"à¦Ĺà¦£à¦¬":12026,"Ġfell":12027,"ÂłÂłÂłÂłÂłÂłÂłÂłÂłÂłÂłÂłÂłÂłÂłÂłÂłÂłÂłÂłÂł":12028,"ĠFeb":12029,"à¦¡à¦īà¦ĩà¦Łà¦¥":12030,"loy":12031,"à¦¯à¦¸à¦¨":12032,"à¦¬à¦¨à¦¦à¦°":12033,"Ġà§«à§¨à§ª":12034,"Ġsir":12035,"Ġà§¬à§¦à§Ń":12036,"Ġà§«à§Ńà§ª":12037,"à§įâĢĭ":12038,"à§Łà¦ħà¦Ń":12039,"Ġà¦ªà¦¶à¦²":12040,"Ġà¦¦à¦Ļ":12041,"Ġà¦¤à¦ĵà¦¹":12042,"Ġà¦ıà¦²à¦ĵà¦¸":12043,"Ġà§«à§§à§®":12044,"Ġà§§à§¯à§¨à§¨":12045,"à¦¸à¦Ńà¦Ļ":12046,"Ġsol":12047,"ush":12048,"à¦īà¦¶à¦¨à¦¸":12049,"ĠJerry":12050,"hank":12051,"Ġsweet":12052,"à¦°à§Łà¦¨":12053,"à§§à§¯à§ªà§©":12054,"à¦Łà¦¬à¦²à¦¬":12055,"à¦¤à¦¦à¦¬":12056,"Ġben":12057,"Ġà¦¸à§İà¦¬":12058,"ĠÑĢÐ¶Ð¿ÑĢÐ·ÐĹ":12059,"Fill":12060,"go":12061,"gest":12062,"Ġà¦¨à¦²à¦¬":12063,"à¦ļà¦īà¦ķ":12064,"Ġà¦īà¦ĩà§Ł":12065,"à§§à§¯à§§à§ª":12066,"Ġà¦ĭà¦£à¦ķ":12067,"Ġcy":12068,"Ġà§«à§¬à§Ń":12069,"ÂłÂłÂłÂłÂłÂłÂłÂłÂłÂłÂłÂłÂłÂłÂłÂłÂłÂł":12070,"Ġà§Ńà§¬à§Ń":12071,"Ġtry":12072,"à¦ıà¦®à¦ıà¦®à¦Ĩà¦°":12073,"ÑĢÐ¶ÐªÑĢÐ·ÐĿÑĢÐ¶Ð«":12074,"rat":12075,"à¦ĩà¦®à¦ķ":12076,"à¦ıà¦®à¦¤":12077,"Ġà¦¹à¦ķà¦ļà¦ķ":12078,"Ġà§ªà§Ńà§©":12079,"Ġà§«à§Ńà§§":12080,"à¦¬à¦²à¦¤à¦®":12081,"ude":12082,"Ġà¦¸à¦¹à¦ľà¦¬":12083,"Ġà§¬à§§à§¯":12084,"à¦ıà¦°à¦ĩà¦®à¦§":12085,"à¦ªà¦¦à¦ª":12086,"Ġmaking":12087,"à¦ĩà¦ªà¦ľ":12088,"unt":12089,"Ġà§«à§¯à§®":12090,"Ġà¦¬à¦°à¦®à¦ļ":12091,"à¦¿}":12092,"à¦ļà¦¶à¦®":12093,"à¦«à¦²à¦¤":12094,"à¦°à¦¬à¦£à¦ª":12095,"à¦ªà¦¨à¦ķà¦°":12096,"Ġà§®à§¦à§§":12097,"ilt":12098,"Ġà§ªà§®à§ª":12099,"Ġà§¬à§©à§ª":12100,"duce":12101,"Ġcontrib":12102,"ĠFebruary":12103,"Tr":12104,"cent":12105,"à¦·à¦£à¦°":12106,"Ġà§¯à§¨à§¬":12107,"à¦ıà¦®à¦ıà¦¬":12108,"ÑĢÐ¶ÐĻ":12109,"à§§à§¯à§¨à§®":12110,"à¦¬à¦®à¦¹à¦²":12111,"Ġchar":12112,"ÑĢÐ¶Ð«ÑĢÐ¶":12113,"uddenly":12114,"à¦ĩà¦¦à¦£":12115,"à¦°à¦ĩà¦¤":12116,"Ġà¦¦à¦¶à¦¦":12117,"ĠMe":12118,"à¦Ĩà¦ĩà¦ıà¦ıà¦¨à¦ıà¦¸":12119,"Ġcollege":12120,"elebr":12121,"à¦ļà¦®à¦¨":12122,"Ġà¦Łà¦ĩà¦Łà¦®":12123,"à§Łà¦¨à¦ªà¦¤":12124,"Ġà¦Ĺà¦¤à¦®":12125,"à¦¯à¦ķà¦ķ":12126,"à¦¤à¦¨à§Ł":12127,"à¦¤à¦ķà¦®":12128,"à¦ıà¦ķà¦¸à¦®à¦¯":12129,"Ġinfl":12130,"Ġdied":12131,"âķĽ,":12132,"Ġnamed":12133,"à¦Ĩà¦ĩà¦ıà¦¨à¦§":12134,"à¦¿âĢĿ,":12135,"Ġbreakfast":12136,"/)":12137,"Ġà¦¤à¦°à¦£":12138,"à¦§à¦°à¦®à¦ª":12139,"à¦¬à¦²à¦¦":12140,"Ġà¦ªà¦¥à¦¨à¦ķà¦¶":12141,"Ġà¦Ĩà¦¹à¦¤à¦ĵ":12142,"ÑĢÐ¶Ðµ":12143,"à¦Ĺà¦¦à¦¤":12144,"Ġà¦¹à¦ľà¦¸à¦¨":12145,"Ġà§¬à§«à§¬":12146,"Ġwriter":12147,"Ġbeauty":12148,"à¦ľà§Łà¦¸":12149,"Ġà§§à§Ńà§¦à§¦":12150,"aria":12151,"à¦¡à¦Ńà¦£":12152,"OH":12153,"à¦Łà¦°à¦¶":12154,"à¦ªà¦¸à¦ķ":12155,"à¦§à¦ĸ":12156,"à¦¤à¦°à¦¯":12157,"à¦¶à¦ķà§Ł":12158,"à¦Ĩà¦°à¦ıà¦®à¦ª":12159,"Ġà¦Ĩà¦ĩà¦ıà¦«à¦ı":12160,"à¦ıà¦²à¦ıà¦¸":12161,"à¦°à¦ľà¦¨à¦¸à¦¹":12162,"Ġmer":12163,"Ġà¦ĺà¦¨à¦ĺà¦¨":12164,"Ġ22":12165,"ÑĢÐ¶Ð¦ÑĢÐ¶Ð¸":12166,"Ġbegin":12167,"land":12168,"à¦¼à§ĩ!":12169,"Ġà¦ıà¦¨à¦ı":12170,"Ġà§¬à§¦à§©":12171,"Ġà§ªà§®à§¬":12172,"Ġà§¬à§«à§ª":12173,"ctive":12174,"Ġà§Ńà§¯à§¨":12175,"à¦¾...à¥¤âĢĻ":12176,"Ġinvent":12177,"Ġpractice":12178,"line":12179,"à¦ĺà¦²à¦¦":12180,"Ġà¦ħà¦¸à¦¤à¦¤":12181,"Ġà§¯à§©à§«":12182,"à§§à§¯à§©à§©":12183,"Ġfacebook":12184,"Ġhusb":12185,"Ġà§¬à§¦à§ª":12186,"à§§à§©à§¨":12187,"Ġever":12188,"à¦¤à¦ľà¦¨à¦ĩ":12189,"Ġà§Ńà§Ńà§¬":12190,"Ġfamilies":12191,"34":12192,"ned":12193,"à¦¨à¦Ĩ":12194,"à¦¨à¦ªà¦Ł":12195,"à¦ķà¦ĺ":12196,"à§Łà¦ħ":12197,"à¦ĩà¦¸à¦ª":12198,"Ġà¦ķà¦°à¦Ń":12199,"à§Īà¥¤":12200,"à¦¾à¥¤âĢĿâĢĺ":12201,"Ġà§«à§Ńà§Ń":12202,"Ġà§¬à§®à§®":12203,"Ġnegative":12204,"à¦ķà¦ĸà¦¨à¦ĵ":12205,"ÑĢÐ·ÐĹÑĢÐ¶Ð«ÑĢÐ¶":12206,"ĠBangla":12207,"vq":12208,"à¦Ńà¦ļ":12209,"à¦£à¦²à¦¤":12210,"Ġà§§à§¯à§§à§©":12211,"à¦łà¦ķà¦Ĺ":12212,"à¦°à¦®à¦£à¦ĩ":12213,"Ġdem":12214,"amid":12215,"à¦Łà¦ĸà¦Ł":12216,"agong":12217,"Ġart":12218,"ÑĢÐ¶Ð¸ÑĢÐ·ÐĿÑĢÐ¶Ð¸":12219,"ittagong":12220,
[...]
